#version: 0.2 - Trained by `huggingface/tokenizers`
Ä ±
a k
Å Ł
m Ä±
Ã ¼
l a
m e
m ak
me k
c ak
y a
m a
Ä± n
Ġ o
mÄ± ÅŁ
m i
l e
Ä± r
Ġ mÄ±
o r
Ã §
i n
la r
a n
Ä± z
i r
y or
ĠmÄ± y
Ã ¶
Ä Ł
Ã¼ r
ma ya
Ġo l
d e
maya cak
k a
la cak
m u
e k
le r
Ġo lacak
s Ä±n
Ġol mayacak
e r
mi ÅŁ
a t
d i
a l
a r
i z
e c
d Ä±
ÅŁ t
ĠmÄ±y mÄ±ÅŁ
u n
Ġ mi
e n
Ä± l
i l
ec ek
d Ä±r
a y
Ä± m
i k
Ġmi y
u r
ya p
d a
e l
sÄ±n Ä±z
e t
in iz
Ä± yor
Ã¼ n
lar Ä±n
t mak
Ġ mu
la n
Ã¼ ÅŁ
t mek
Ã¼ k
d Ã¼r
ÅŁt Ä±r
Ã¼ z
mu ÅŁ
k o
u z
a cak
i ÅŁ
d ir
s t
a ÄŁ
d an
ĠmÄ±y dÄ±
Ġmu y
a ÅŁ
s un
o n
t an
de n
u l
Ä± k
Ä± ÅŁ
Ä±l mak
t Ã¼r
le n
i yor
s e
o l
s in
ler in
d u
Ã¶ l
la mak
c an
g e
ir mek
me z
lar Ä±
ma z
Ä±n Ä±z
mÄ± z
i m
ma mÄ±ÅŁ
g Ã¼
k Ä±r
mi z
ka r
dÄ±r mak
t Ä±r
Ã¼ yor
Ã¶ p
me y
v er
o ÅŁ
v ar
u m
o t
i miz
mÄ± yor
me miÅŁ
ka y
s at
Ã¶ k
le ÅŁt
Ġ yap
can lan
Ġmiy miÅŁ
Ã¼ m
i y
Ġolacak mÄ±ÅŁ
de ÄŁ
Ġolmayacak mÄ±ÅŁ
mey ecek
e ÄŁ
i t
c aÄŁ
Ġolacak lar
n a
Ġolmayacak lar
g Ã¶
s Ã¼r
Ġmiy di
a p
Ã¼ l
b ir
m Ã¼ÅŁ
Ä± t
o k
Ã¶ ÄŁ
di l
ma n
ĠmÄ±y d
a s
h a
u t
t Ã¼k
ka p
g ec
d ur
Ã§ ek
s ay
y Ä±
c e
larÄ± mÄ±z
g el
larÄ±n Ä±z
ma dÄ±
Ã¶k er
k ur
Ġmuy muÅŁ
le ÅŁ
al mak
Ġ Ã§ek
Ã§ Ã¶ker
n e
u tan
mi yor
Ã¶l Ã§
il mek
b Ã¼k
gec ik
b oÅŁ
kay na
kayna ÅŁtÄ±r
s u
s iniz
Ä± ÅŁtÄ±r
p iÅŁ
l i
ler imiz
o p
ler iniz
d Ã¼z
Ã¶l dÃ¼r
ka t
la ÅŁtÄ±r
e v
t e
y u
ar t
Ã¼ s
d un
d in
ĠmÄ± sÄ±n
ĠmÄ±y Ä±m
a h
ĠmÄ±ymÄ±ÅŁ Ä±z
ĠmÄ± sÄ±nÄ±z
ĠmÄ±ymÄ±ÅŁ Ä±m
ĠmÄ±y Ä±z
ĠmÄ±ymÄ±ÅŁ sÄ±nÄ±z
di k
g i
ĠmÄ±ymÄ±ÅŁ sÄ±n
sun uz
ya r
k an
b it
Ġ s
b ay
y et
a v
k e
a Ã§
s Ä±z
u yor
d Ã¶
e mek
t ak
al dÄ±rmak
canlan dÄ±r
Ä±r mak
me di
dÃ¼r mek
Ġol mak
al dÄ±r
Ã¼r mek
len mek
Ġyap mak
Ã§ e
at mak
leÅŁt irmek
Ä±ÅŁ mak
k mak
an mak
leÅŁt ir
en mek
i Ã§
t ar
u tmak
s ak
l Ä±
k ul
tan Ä±
c i
y en
se Ã§
r et
s Ã¶
Ã¶ldÃ¼r t
d Ã¼ÅŁ
f e
le t
ya l
k Ä±
k ir
Ã¼ y
da ÄŁ
t Ä±
Ä± s
u Ã§
caÄŁ Ä±m
k Ã¶p
caÄŁ Ä±z
ge Ã§
Ġmuy du
ya z
ya ÄŁ
st e
gÃ¶ Ã§
b ol
u s
s Ã¼n
b er
g er
a lan
ha st
c oÅŁ
k or
Ġ t
t ir
ay Ä±
s Ä±
ka l
i p
d iniz
s ul
lar dÄ±
ge z
u ÄŁ
s Ã¼z
ĠmÄ±ydÄ± m
t a
ĠmÄ±yd Ä±n
ĠmÄ±ydÄ± k
Ã¶ÄŁ ret
n g
i ÅŁt
se v
de r
p at
ĠmÄ±yd Ä±nÄ±z
d on
dÃ¼ÅŁ Ã¼n
mak ya
makya j
s ik
de l
s Ã¼s
kul lan
Ġol maya
sin den
b en
s ap
gÃ¼ l
Ã¶ÄŁ Ã¼
r ak
Ã¼r k
de m
Ġo la
ben z
don dur
ko p
u yar
ul u
ir mez
u y
e m
b a
deÄŁ iÅŁ
p ay
ÅŁ Ä±
pay la
s er
se s
lar mÄ±ÅŁ
iy i
c Ä±
fe s
ya cak
il iz
payla ÅŁ
kur tar
ne fes
l ik
sÃ¼r Ã¼n
yu var
b Ã¼r
il k
k Ä±ÅŁ
Ġ ver
kÄ±ÅŁ kÄ±r
yap tÄ±r
dir tmek
gÃ¶ tÃ¼r
c art
t aÅŁ
le mek
tÄ±r aÅŁ
cart ayÄ±
h or
al d
on ar
piÅŁ man
° ng
Ä °ng
ge ber
Ä°ng iliz
gÃ¼l Ã¼n
Ã¼ ste
ĠÃ§ek mek
t Ä±lmak
sat Ä±n
len dir
hast alan
ilk lendir
Ã¼ste sinden
da dan
kan Ä±t
Ġs Ä±k
te p
t irmek
ot ur
dil mek
gel mek
la mÄ±
Ã¶lÃ§ tÃ¼r
t Ä±n
Ã¼ mek
c Ä±z
v dur
ÅŁ aÅŁ
ko vdur
yal var
ger ek
Ä°ngiliz ce
gÃ¼lÃ¼n Ã§
cÄ±z lamÄ±
ÅŁaÅŁ Ä±r
de di
yÄ± ÄŁ
at Ä±ÅŁtÄ±r
sat tÄ±r
su geÃ§
sugeÃ§ irmez
c u
leÅŁ mek
T Ã¼rk
s Ã¼m
ka Ã§
TÃ¼rk Ã§e
v Ä±
an la
kar Ä±ÅŁtÄ±r
dÃ¶ n
al larÄ±
uÄŁ r
Ġ av
op rak
Ġt oprak
Ġav uÃ§
e y
ko du
sÄ± vÄ±
dedi kodu
deÄŁ iÅŁt
yet iÅŁ
n allarÄ±
Ġ dik
i tmek
bÃ¼k tÃ¼r
Ã§ al
y ok
sul laÅŁtÄ±r
yok sullaÅŁtÄ±r
Ã¶p Ã¼ÅŁ
s ol
s i
gÃ¼ c
sÄ±vÄ± laÅŁtÄ±r
Ã¶ldÃ¼rt Ã¼l
dÃ¼z el
t Ä±k
s Ã¶k
y um
Ġ m
Ã¶lÃ§ Ã¼l
c ek
sÃ¶ v
r a
m Ã¼yor
p us
ka ÅŁÄ±
dir t
kay bol
ler i
o z
kar a
Ġmuy dun
mu yor
t Ä±l
r e
yÄ± ka
t Ä±nÄ±z
Ä± mÄ±z
k u
s a
il ik
kÄ± y
t Ä±m
sol u
kap a
l Ä±k
d al
larÄ±n da
la ma
larÄ±n Ä±n
d Ä±n
larÄ±n dan
Ã§ Ä±
b e
a m
larÄ±n Ä±
Ġ deÄŁ
le cek
larÄ±n a
t ut
d Ä±nÄ±z
i s
b at
lerin den
ĠdeÄŁ il
Ã§ a
lerin i
lerin e
s an
iy et
lerin de
mÄ±ÅŁ sÄ±nÄ±z
t r
lerin in
canlan ma
u mu
ler di
a z
t er
mÄ±ÅŁ sÄ±n
mÄ±ÅŁ Ä±z
le y
Ã¶ r
o g
b il
mÄ±ÅŁ Ä±m
Ġm Ã¼y
Ã¶ldÃ¼rtÃ¼l me
Ġmiy din
Ġmiydi k
Ġmiydi m
Ġmiy diniz
la mÄ±ÅŁ
ot o
g en
t Ã¼
y dÄ±
Ä±l Ä±yor
eÄŁ it
r u
Ã§ i
yap Ä±ÅŁ
Ä± lacak
ĠolmayacakmÄ±ÅŁ Ä±z
t i
Ġolmayacaklar mÄ±ÅŁ
ĠolacakmÄ±ÅŁ sÄ±n
Ġolmaya caÄŁÄ±m
ĠolacakmÄ±ÅŁ Ä±m
daÄŁ Ä±
Ġolmaya caÄŁÄ±z
ĠolmayacakmÄ±ÅŁ Ä±m
Ġolacaklar mÄ±ÅŁ
Ġolacak sÄ±n
ĠolacakmÄ±ÅŁ sÄ±nÄ±z
ĠolacakmÄ±ÅŁ Ä±z
ĠolmayacakmÄ±ÅŁ sÄ±nÄ±z
daÄŁ Ä±t
Ġola caÄŁÄ±m
Ä±l mÄ±ÅŁ
le k
Ġolmayacak sÄ±nÄ±z
Ġola caÄŁÄ±z
ĠolmayacakmÄ±ÅŁ sÄ±n
miÅŁ siniz
Ã¼n Ã¼z
in c
miÅŁ sin
un uz
Ġolmayacak sÄ±n
Ġolacak sÄ±nÄ±z
l u
y on
Ã¶ÄŁÃ¼ t
y e
miÅŁ im
Ä±s Ä±r
ya n
kÄ±r Ä±lmak
miÅŁ iz
r en
Ã ¢
ma y
t in
k Ã¼
Ä±l Ä±r
dir ilmek
gÃ¼ tmek
Ġ aldÄ±rmak
yap Ä±lmak
bay Ä±lmak
kurtar mak
kaÅŁÄ± mak
ser mek
paylaÅŁ mak
Ġ aldÄ±r
de mek
sap mak
uyar mak
ulu mak
yuvar lamak
Ã§ almak
yap mak
kat Ä±lmak
Ä±s Ä±rmak
sÃ¼rÃ¼n dÃ¼r
sÃ¼rÃ¼n dÃ¼rmek
r i
Ġ f
aÃ§ mak
ses len
ses lenmek
Ġver mek
kÄ±ÅŁkÄ±r tmak
d almak
ya lamak
ka tmak
say dÄ±rmak
yen dirtmek
seÃ§ ilmek
yaz mak
sÃ¼s mek
gÃ¶tÃ¼r mek
taÅŁ mak
el lemek
kÄ±r dÄ±rmak
Ã§Ã¶ker tmek
yaptÄ±r tmak
le tmek
sun mak
ver dirtmek
say dÄ±r
kir letmek
kÃ¶p Ã¼rmek
hor lamak
kÄ±r dÄ±r
tanÄ± tmak
sÃ¼z mek
dem lemek
canlan dÄ±rmak
utan mak
gecik tirmek
canlandÄ±r tÄ±lmak
kir let
kÃ¶p Ã¼r
geber mek
ay Ä±rmak
tÃ¼r emek
bÃ¼k mek
ev len
ev lenmek
tak mak
gÃ¶Ã§ mek
Ã¶ÄŁret mek
kullan Ä±lmak
Ġ gelmek
gecik tir
gi dilmek
hastalan mak
b aÄŁ
Ġ almak
ler miÅŁ
ay Ä±r
tÃ¼k Ã¼rmek
Ã¶ÄŁÃ¼ tmek
ilklendir mek
kanÄ±t lamak
ĠsÄ±k Ä±ÅŁmak
Ã¶lÃ§Ã¼l mek
s aldÄ±rmak
Ã¼ÅŁ enmek
say mak
boÅŁ anmak
bÃ¼r Ã¼mek
ald atmak
sÃ¶k mek
pus mak
ar tmak
tÃ¼k Ã¼r
kap atmak
kaynaÅŁtÄ±r tÄ±lmak
yaÄŁ lamak
pat lamak
dadan mak
tep mek
otur mak
b itmek
s aldÄ±r
at Ä±lmak
at Ä±ÅŁmak
Ġmiy iz
Ã¼ÅŁ en
Ã¶p mek
boÅŁ an
sÄ±z mak
kal kmak
ald at
onar mak
Ã¶lÃ§tÃ¼r tmek
yetiÅŁ mek
i ÄŁ
dir emek
as mak
kap at
utan dÄ±rmak
gez mek
iyi leÅŁtirmek
kovdur mak
yalvar mak
gerek mek
Ä°ngilizce leÅŁtirmek
gÃ¼lÃ¼nÃ§ leÅŁmek
ÅŁaÅŁÄ±r tmak
t Ä±yor
Ã¼z mek
Ã§Ã¶ker mek
iÃ§ mek
benz emek
atÄ±ÅŁtÄ±r mak
sattÄ±r tmak
l Ä±yor
in mek
ko kmak
aÅŁ mak
utan dÄ±r
dÃ¼ÅŁÃ¼n mek
iyi leÅŁtir
Ä°ngilizce leÅŁtir
TÃ¼rkÃ§e leÅŁtirmek
Ã¶pÃ¼ÅŁ mek
tÃ¼k enmek
bit irmek
dondur mak
kaÃ§ Ä±r
kaÃ§ Ä±rmak
daÄŁÄ± tmak
a ba
un utmak
et tirmek
sÃ¼r Ã¼mek
dÃ¼z mek
kop mak
sÃ¼m Ã¼rmek
TÃ¼rkÃ§e leÅŁtir
anla tmak
karÄ±ÅŁtÄ±r tmak
dÃ¶n dÃ¼rmek
bir leÅŁmek
tÃ¼k en
kaynaÅŁtÄ±r Ä±lmak
coÅŁ mak
sik ilmek
del irmek
uÄŁr atmak
yÄ±ka mak
un ut
et tir
aÄŁ lamak
ol mak
var mak
boÅŁ almak
tanÄ± mak
sÃ¼m Ã¼r
dÃ¶n dÃ¼r
yum mak
Ã¶ldÃ¼r tmek
kor kmak
uÄŁr at
kur utmak
gecik mek
sak lamak
deÄŁiÅŁ mek
s al
yap Ä±ÅŁmak
piÅŁ mek
uy mak
Ġdik mek
dÃ¼r tmek
kur ut
sÃ¼n mek
sev mek
bÃ¼ktÃ¼r mek
sÃ¶v mek
s anmak
t acak
yoksullaÅŁtÄ±r mak
kaybol mak
kÄ±y mak
ĠmiymiÅŁ siniz
eÄŁ len
eÄŁ lenmek
yÄ±ÄŁ mak
t mÄ±ÅŁ
s iz
gÃ¼c enmek
sÄ±vÄ±laÅŁtÄ±r mak
canlanma mak
Ġmiy im
ĠsÄ±k Ä±ÅŁ
deÄŁiÅŁt irmek
gÃ¼c en
Ġ h
ĠmiymiÅŁ sin
solu mak
Ã¶ldÃ¼rtÃ¼lme mek
ver ilmek
dÃ¼zel tmek
t utmak
ĠmiymiÅŁ im
gÃ¼lÃ¼nÃ§ leÅŁ
k Ã¶
Ã¶ z
Ġmi siniz
ĠmiymiÅŁ iz
at Ä±ÅŁ
Ġmi sin
sat mak
eÄŁ itmek
kapa mak
bit ir
mu r
bir leÅŁ
del ir
lar dan
me n
lar da
t ot
v i
lar a
la yacak
deÄŁiÅŁt ir
t ik
tan Ä±t
ver dirt
Ã§Ã¶ker t
yen dirt
c a
s o
du k
p ap
muÅŁ sun
Ġmuydu m
Ã¶lÃ§tÃ¼r t
b aÅŁ
e ÅŁ
dun uz
o f
ler e
muÅŁ sunuz
dir il
gÃ¼ d
me t
dÃ¼r t
muÅŁ uz
medi y
in in
muÅŁ um
gi dil
seÃ§ il
Ġmuydu k
Ġmuydun uz
canlandÄ±r tÄ±l
ĠmuymuÅŁ uz
i f
ler de
dÃ¼zel t
kaynaÅŁtÄ±r tÄ±l
Ġ gel
mamÄ±ÅŁ lar
Ġ al
k r
maz lar
b an
ler den
Ġmuy um
ĠmuymuÅŁ sun
sik il
boÅŁ al
Ġmuy uz
o la
ĠmuymuÅŁ um
du m
c ik
l Ã¼
ĠmuymuÅŁ sunuz
sÃ¶ z
Ġmu sun
mayacak lar
ver il
Ã§Ä± ÄŁ
v e
Ġmu sunuz
umu z
g Ã¼r
in i
al Ä±
ley i
g Ä±
Ã¼ c
b l
y er
ak ir
a d
a f
k et
s il
di m
d o
f il
sÃ¼r Ã¼m
ko k
larÄ±mÄ±z a
larÄ±mÄ±z Ä±
p an
Ä±n Ä±n
kal k
st r
b i
m Ã¼
in de
t iniz
larÄ±nÄ±z Ä±
m o
r an
larÄ±mÄ±z da
larÄ±mÄ±z Ä±n
d ar
d ok
Ä±r t
larÄ±nÄ±z a
larÄ±nÄ±z Ä±n
ĠmÃ¼y d
memiÅŁ ler
siz lik
g Ã¼n
p u
larÄ±mÄ±z dan
l ilik
Ã¶ n
kor k
t im
larÄ±nÄ±z da
in e
lerimiz e
Ã§al gÄ±
b ar
b et
u cu
ik i
larÄ±nÄ±z dan
meyecek ler
leriniz den
o ÄŁ
in den
madÄ± ydÄ±
lerimiz den
el le
mÄ±yor lar
yaÄŁ la
leriniz in
i lecek
v a
lerimiz in
leyi ci
Ä±n Ä±
bay Ä±l
Ä±n dan
lerimiz de
mi n
ma t
leriniz de
d ak
mu m
p ar
leriniz i
mez ler
leriniz e
Ä±n a
maz dÄ±
b u
i st
lerimiz i
ec eÄŁ
madÄ± lar
di z
el ik
dem le
s en
Ä±n da
iz e
benz e
k en
tÃ¼r e
dir e
t o
ne m
s ek
kÃ¼ Ã§
kÃ¼Ã§ Ã¼k
li ÄŁ
p r
b Ã¼y
Ã¼m Ã¼z
ecek ler
st an
ko n
k us
gÃ¼ t
lu k
di s
ad sÄ±z
b el
Ġ ÅŁ
di ÅŁ
e f
h ar
o m
ku ÅŁ
k Ä±l
r at
ak Ä±ÅŁ
ra f
b Ä±
t en
ola y
g un
m ot
p e
s Ä±r
s uz
mu z
sÄ±n Ä±r
i de
s iy
ay n
seÃ§ me
b ah
p or
s ar
bl og
s Ã¼
le b
an as
b akir
p ir
ik li
g at
ce v
miÅŁ ler
Ä±l Ä±k
Ġol uyor
e z
le v
de v
di y
oto mo
ez iyet
mÄ±ÅŁ lar
otomo bil
y Ä±l
le z
Ä±yor lar
medi ler
inc il
d Ã¼
ke di
a g
Ġ say
Ġ yaz
sÃ¶z c
Ġyaz Ä±l
ek li
il iÄŁ
h ip
r o
ka v
acak lar
kar ak
kar de
hip er
v en
sÄ±n Ä±
k er
v et
ya v
ec e
sin e
d Ã¼l
ka cak
d ul
in ter
ko ÅŁ
ke f
tot em
l Ã¼k
av u
g ar
p op
la mÄ±yor
Ã§ ok
miyor lar
kÃ¶ y
e h
ÅŁ er
ce z
mÃ¼ ÅŁt
siy on
ÅŁer bet
kara ya
e fe
g a
h at
k Ä±z
k Ã¢
y Ã¼k
Ġ karaya
gÃ¼ ven
Ġyap mÄ±ÅŁ
Ġyap Ä±yor
mÃ¼ÅŁ sÃ¼n
Ġf Ã¼z
Ġol muÅŁ
ay na
da ÅŁ
Ġyap acak
man dal
dis ko
p tot
Ġ as
Ã§ ar
mÄ±z Ä±
im ptot
ba z
Ġas imptot
v iÅŁ
le m
er i
ur t
Ġh al
la mamÄ±ÅŁ
Ã§ Ä±k
kÃ¶p Ã¼k
Ã§Ä±ÄŁ Ä±rt
Ã§Ä±ÄŁÄ±rt kan
e be
ma ma
mi yet
mi t
ev cik
bol cu
ker p
a let
madÄ± k
la st
iy o
or um
il i
iyor lar
ÅŁ ak
Ã§ ap
as a
gÃ¼d Ã¼m
pu su
f az
l ak
c en
l im
la mayacak
kÄ±r Ä±l
bir lik
c ilik
k ut
Ġ sin
al t
in a
kullan Ä±l
kaynaÅŁtÄ±r Ä±l
kat Ä±l
kÄ±ÅŁkÄ±r t
ÅŁ Ä±r
Ġolacak tÄ±m
yap Ä±l
u yu
ÅŁ Ä±k
la maz
madÄ± y
Ġol maz
imiz e
imiz de
Ġolacaklar dÄ±
madÄ± m
re p
Ġsay Ä±
iniz den
ma dÄ±n
Ã¶ nem
at Ä±l
y ol
Ġolacak tÄ±n
anla t
y n
lÄ± ÄŁ
ÅŁaÅŁÄ±r t
ĠfÃ¼z e
e gen
ka s
Ġolmayacak tÄ±k
at Ä±
imiz den
gez egen
Ġm Ã¼
imiz in
ma dÄ±nÄ±z
Ġolmayacak tÄ±n
sattÄ±r t
Ġolmayacak tÄ±m
dÄ± m
du y
kÄ±r Ä±k
imiz i
Ä± ÄŁ
de k
Ġolmayacaklar dÄ±
inc ir
g u
Ä±n cak
Ġolacak tÄ±k
Ġolacak tÄ±nÄ±z
iniz i
sÃ¼r Ã¼
karÄ±ÅŁtÄ±r t
der leyici
y Ä±k
Ġolmayacak tÄ±
Ġolmayacak tÄ±nÄ±z
di ler
dÄ± k
un un
kut u
r t
an a
iniz e
dÃ¶ rt
yaptÄ±r t
dÃ¶rt gen
s aÄŁ
ĠyazÄ±l Ä±m
le me
Ġolacak tÄ±
bÃ¼r Ã¼
Ã§ ilik
c el
iniz de
iniz in
Ã§a lar
a c
o j
ol oj
la m
an s
aÄŁ aÃ§
medi m
Ġ gezegen
un da
benz er
la acak
Ġyap ar
mu t
Ä±nÄ±z Ä±n
me dik
dÄ± lar
ĠÃ§ek iyor
bil i
i ste
Ġol ur
un a
Ä±nÄ±z da
oÄŁ ul
Ã¼ Ã§
dÄ± ÅŁ
iy e
un u
Ä±nÄ±z Ä±
mey eceÄŁ
me din
Ġ an
in er
ge lecek
ah tar
Ġan ahtar
a lacak
n ek
s on
t suz
di lecek
dÄ± ydÄ±
un dan
as an
umu tsuz
bÃ¼y Ã¼
me diniz
ik iz
tÄ± lacak
ey ecek
l iyor
o lacak
ÅŁ ap
Ä±nÄ±z a
tÃ¼ t
Ä±nÄ±z dan
ÅŁap ka
ÅŁ ar
dÃ¼ÅŁÃ¼n cel
yn atÄ±
b ec
ĠÃ§ek ecek
r ek
r tak
t sÄ±z
Ġ kat
Ġ kÃ¼Ã§Ã¼k
Ġo rtak
kul u
si s
bah tsÄ±z
n u
n en
Ã¼y ecek
j ur
y akÄ±ÅŁ
me r
Ä±k lÄ±
aba jur
bec er
yakÄ±ÅŁ Ä±klÄ±
me l
sun u
it e
daÄŁ Ä±n
par Ã§
oloj i
o ley
v oley
Ġ is
ya lan
or din
ko ordin
Ġs on
r al
Ġ sÃ¼rÃ¼m
ma sal
Ä±r lar
al tÄ±n
Ã¶l Ã¼m
Ä±mÄ±z dan
b al
f er
ol maz
if t
daÄŁÄ±n Ä±k
koordin at
ĠÃ§ek miÅŁ
Ä±mÄ±z Ä±n
bÃ¼yÃ¼ leyici
e lek
t iz
Ġ ek
Ä± mÄ±
ka m
ar ka
ay ip
kar ma
coÅŁ kus
ayÄ± f
Ä±mÄ±z a
so s
ac ayip
dÃ¼ÅŁÃ¼ncel i
elek tr
coÅŁkus uz
i b
yor gun
ci ÄŁ
f ren
s Ã¼l
ya ng
ya ban
de y
iÅŁ let
st o
ev la
ulu k
l Ä±ÅŁ
Ã¼r en
ka stan
Ã¼yor lar
yu ma
yan lÄ±ÅŁ
d Ä±z
h Ä±z
man tÄ±k
let i
uy gu
por tak
yÄ±l dÄ±z
cen az
kastan yet
hÄ±z lÄ±
mantÄ±k lÄ±
sun ucu
geÃ§ miÅŁ
coÅŁ kulu
Ä±mÄ±z da
mot el
becer ikli
c Ä±k
f ah
g iz
h un
h uz
h aÅŁ
o bi
v vet
Ã¼ mit
ma sa
ma lam
ir ler
Ã¼r e
ha va
gi der
yet en
uÃ§ urt
ku vvet
tr ol
sek si
anas on
fah iÅŁ
giz em
huz ur
malam oz
Ġ dil
cev iz
portak al
b as
h ur
h ey
k el
p em
r on
t Ã¼m
z Ä±rt
Ġ baÄŁ
Ġ diz
mi kr
Ã§ Ä±t
Ã¶p Ã¼c
ha m
yal Ä±n
pat ron
Ã§al Ä±ÅŁ
oz of
Ä±mÄ±z Ä±
tut ul
bat tan
san sar
fil ozof
dok tr
lez yon
saÄŁ r
parÃ§ alan
hey kel
pem be
i ve
ip e
tr en
ban da
zÄ±rt gel
M u
T ir
a iki
g l
h Ã¼r
i ya
o ynatÄ±
s yon
v ir
v am
Ġ sÄ±nÄ±
ÅŁ u
ÅŁ ah
ma at
ma ra
yor da
Ã¼r Ã¼n
mu s
at eÅŁ
iz ola
ik ipe
ko la
st ah
tan dÄ±r
sÃ¼r tÃ¼k
man ive
ce maat
te or
ĠmÃ¼y mÃ¼ÅŁ
eÅŁ of
mÃ¼ stah
mot or
nu mara
arka daÅŁ
bas ket
banda j
Mu sev
Tir an
vam pir
ĠsÄ±nÄ± f
izola syon
Ġ ha
al yan
en er
iy en
ke le
ke man
dal ye
ikipe di
eÅŁof man
B el
g ir
g rat
k ak
k Ã¼rk
p sik
v ap
v az
Ġ in
Ġ seÃ§me
ÅŁ iÅŁ
ÅŁ af
mÄ± sÄ±r
ma lÄ±
an af
ka si
el ma
iÅŁ ken
iÅŁ lem
dir tir
st er
on gun
bir incil
ha mÄ±z
ne gat
te g
Ã¼s Ã¼n
Ġs or
kÄ± ya
so sis
lÃ¼ gat
gÃ¼r z
om let
sÄ±nÄ±r lÄ±
Ã§ok tan
ga malÄ±
aÄŁaÃ§ kak
ÅŁu ur
kele p
Bel grat
gir da
vap ur
vaz iyet
Ġin teg
ĠseÃ§me li
anaf az
negat if
Ġ kedi
Ä±n lÄ±k
ir im
seÃ§ men
kef ir
aÄŁaÃ§kak an
Ġinteg ral
K op
L ef
a at
b ur
f ret
f akir
h Ã¼k
k l
p Ä±r
p aÅŁ
p ren
r ah
Ã »
Ġ dÄ±
Ġ pr
Ġ gÃ¼dÃ¼m
ÅŁ eh
mi st
Ã§ or
Ã§ avu
an ket
Ã¶ m
ka lÄ±
ek et
ÅŁt ayn
en ha
se mer
kar ÅŁ
ot e
dil ber
kap lan
ne fret
su var
din oz
kan tin
Ġs aat
sak Ä±z
uÃ§ an
gÃ¶Ã§ Ã¼ren
ber mu
sÃ¼s pan
ra m
sa la
Ã§a dÄ±r
og ram
ru j
baÅŁ rah
gÃ¼n eÅŁ
pr ote
har eket
ayn ÅŁtayn
por su
karak ol
kÃ¶y gÃ¶Ã§Ã¼ren
cez er
mut lu
iste m
Kop enha
Lef koÅŁ
hÃ¼k Ã»
ĠdÄ± ÅŁÄ±
Ġpr ogram
ĠgÃ¼dÃ¼m lÃ¼
dinoz or
sÃ¼span suvar
a la
d Ã¼n
f i
sin in
ke y
dÃ¼ÅŁ man
kara dan
kÃ¶ m
pe d
Ġha Ã§
A bu
D a
b ey
f r
f t
f ar
f oto
g ri
h Ä±
h inter
i la
i dar
j ok
m on
p ila
t ekli
z mon
Ġ Da
ak ro
ÅŁ if
ir ah
ÄŁ raf
mu c
ko zmon
dan oz
on yer
kar ide
ha z
Ã§ek me
ĠÃ§ek er
ev ren
art Ã§Ä±
bay tar
ci haz
kor uyu
bÃ¼r Ã¼m
og raf
Ã§i ft
may danoz
Ġf ik
baÄŁ Ä±r
Ã¼c ret
str Ã¼k
mat ograf
ist irah
ef sun
sÃ¶zc Ã¼l
karde ÅŁ
sine matograf
ayna sÄ±z
evcik kÄ±r
Ã¼Ã§ Ã¼z
Ã¼mit li
fr iz
foto ÄŁraf
hÄ± Ã§
hinter lan
jok ey
ÅŁif onyer
kozmon ot
b r
k ist
ma s
ir key
kat il
kir men
yaÄŁ mur
sa mur
gen e
ri mel
ĠÅŁ ok
Ġis ke
uygu lama
yeten ekli
gizem li
Ã§avu ÅŁ
akro bat
strÃ¼k tÃ¼r
istirah at
evcikkÄ±r an
irkey el
b ok
f ra
g on
g oz
m sil
o len
p lan
p olen
s ah
s kr
v al
y ut
z ur
z aÄŁ
Ġ kÃ¶
ak t
ak ka
ma ran
Ã§ ak
Ã§ ev
an j
ek st
al b
al bat
un iyet
en iÅŁt
ay akka
ik incil
se y
se be
sin de
du bl
mez uniyet
kar ne
gÃ¶ m
sÃ¼r gÃ¼n
Ã¶ÄŁ ren
ha v
te msil
dik dÃ¶rtgen
Ġs an
iÃ§ li
ci b
em br
ra dar
kara dul
re akt
am bu
Ã¶r Ã¼m
sal Ã§al
vi de
pap ir
pap yon
kr av
gar son
ÅŁar k
olmaz sa
ift it
elektr ikli
cenaz e
haÅŁ efe
uÃ§urt ma
Ã§alÄ±ÅŁ ma
fra g
gon d
plan et
skr ot
ĠkÃ¶ f
maran goz
ekst re
albat ro
ayakka bÄ±
ambu lan
h is
Ġ de
ko y
Ã§a mur
do ma
Ã§algÄ± cÄ±
blog cu
dÃ¼l dÃ¼l
hat Ä±r
yang Ä±n
parÃ§alan ma
tekli f
Ġiske let
val iz
alb Ã¼m
dubl Ã¶r
reakt Ã¶r
iftit ah
frag man
gond ol
a cÄ±
b or
b Ã¼z
f iÅŁ
f oz
h ap
h Ã¼l
j ek
j on
j ener
l on
l ok
p ip
t ah
t yen
y oÄŁ
z ir
Ä± st
ak oz
ÅŁ ru
la ter
me ÅŁru
mi li
or foz
de stan
mu st
en jek
ko lon
dir im
st Ä±r
st art
on at
sin i
kÄ±r mÄ±zÄ±
as yon
bit iÅŁ
dÃ¶ v
Ä±s pan
ger z
Ġt ah
Ã¶ÄŁret men
ba stÄ±r
bat ar
oto b
ve zir
gÃ¼r an
sil in
str ip
ĠÅŁ ar
sÃ¼ tyen
karak ter
karde len
disko t
lim onat
Ġsin ek
ÅŁÄ±r Ä±n
karma ÅŁÄ±k
ib li
tutul ma
iÅŁken ce
fi gÃ¼ran
zaÄŁ ar
krav at
doma te
jon gl
jener asyon
lok an
pip et
tah di
Ä±st akoz
must at
enjek siyon
b Ã¶lÃ¼m
f ok
i leri
Ã¼ st
mak ta
mi miz
al ya
gi den
madÄ±ydÄ± k
kon sey
bel de
pusu la
ÅŁapka cÄ±
oynatÄ± cÄ±
manive la
Ã§ak al
meÅŁru bat
dÃ¶v Ã¼ÅŁ
silin dir
strip tiz
jongl Ã¶r
b iyen
g iy
i yar
k Ã¼r
p ur
p alya
s ec
s kÃ¼
t ay
t op
z iyar
Ġ bir
Ġ deÄŁiÅŁ
ya tay
ma su
ma lu
ma ri
ma tik
mi d
mi mari
iz len
un matik
en iz
ko lek
iÅŁ lev
den ey
sin ag
maz ot
ot uz
yu mur
kan l
bay kuÅŁ
Ã§e dar
iÃ§ gÃ¼d
ta b
ra d
re fer
Ã¶z ne
Ã¶z gÃ¼r
ban k
yer el
dok unmatik
to h
pe skÃ¼
ide al
lez biyen
inter faz
ebe dil
Ġek ran
yaban cÄ±
battan iye
doktr in
aiki do
numara lama
pila v
gene lev
Ġde sen
palya Ã§
sec ca
ziyar et
ĠdeÄŁiÅŁ ken
masu miyet
kolek siyon
sinag og
b Ã¼st
g ol
sÄ±n a
ko ku
ley ecek
bil gi
pu an
diÅŁ li
dev ir
viÅŁ ne
basket bolcu
Tiran lÄ±
kasi de
kelep Ã§e
hÃ¼kÃ» met
mustat il
kÃ¼r ke
a j
g Ä±t
g lÄ±
h ri
k la
k ru
p is
s baÄŁ
t at
v ur
z ayÄ±f
Ġ istem
Ġ giden
mi l
Ã§ Ä±r
Ã§ im
Ã§ Ã¶z
dÄ± y
ay gÄ±t
tÃ¼r ev
ge len
ver n
ok iya
av ize
ke leb
ke hri
dÃ¼ÅŁ ey
hast a
sev g
der leme
kop o
si mil
sal on
baÅŁ kan
baÅŁ vur
bar aj
yaÄŁla yÄ±
to sbaÄŁ
sar Ä±m
pop o
evla t
saÄŁr Ä±
lÃ¼gat Ã§e
Belgrat lÄ±
prote sto
Kopenha glÄ±
anj iyo
kla tr
kru v
pis kopo
Ã§Ã¶z el
kehri bar
p a
r Ã¼
t avu
ÄŁ Ã¼n
Ġol muyor
kÄ± Ã§
be de
mÃ¼ÅŁsÃ¼n Ã¼z
vir gÃ¼l
ÅŁah Ä±s
motor in
Ġprogram lama
kruv asan
tavu k
c ar
c on
e w
f orum
h an
h ir
l ol
l iliÄŁ
n o
n er
t or
z am
Ġ li
me sul
Ã§ ip
sÄ±n Ä±n
er ap
mÄ±z Ä±n
kar na
mey han
ot erap
aÃ§ Ä±lÄ±r
yal Ä±t
kal dÄ±r
ip op
si hir
tut ku
tÃ¼ tÃ¼
aba di
siz liÄŁ
vi ew
pap aÄŁ
pan car
mo del
dok tor
madÄ±ydÄ± m
bah ar
anas Ä±z
yÄ±l dÄ±r
kef alet
birlik t
yol cu
psik oterap
kÄ±ya met
sala ta
Ã§ekme ce
ĠkÃ¶f te
klatr at
bede vi
con trol
lol ipop
no h
ner gi
mesul iyet
karna bahar
sihir baz
le ÄŁ
ge mi
gec e
der ece
ca mi
va de
bayÄ±l ma
mum ya
mazdÄ± m
otomobil ci
hiper bol
kÄ±z an
duy mama
hun i
hur i
muc ize
koruyu cu
sah i
hÃ¼l ya
peskÃ¼ tan
papaÄŁ an
Y ah
e sen
i min
r op
v ey
v ikipedi
y Ã¼z
Ġ yÃ¼k
ak var
ÅŁ am
Ã§ er
Ã¶ re
ka lama
di yet
ik et
et iket
du t
sat ran
ah kÃ¢
dÃ¶ ÅŁam
iÃ§ yÃ¼z
kir iÅŁ
kullan ma
em miyet
Ġf rek
gÃ¼n ahkÃ¢
par Ã§a
eh emmiyet
ebe diyet
hava dan
pÄ±r asa
paÅŁ a
Ã§or ba
bermu da
cezer ye
far e
vide o
papir Ã¼s
ayakkabÄ± cÄ±
batar ya
sahi fe
Yah u
rop dÃ¶ÅŁam
ĠyÃ¼k sek
ropdÃ¶ÅŁam b
ÅŁ al
me me
mak ina
da dÄ±
ok ul
din leti
sak so
may o
aba cÄ±
mazdÄ± k
voley bolcu
sÃ¼l Ã¼s
Ġdiz i
idar e
zur na
later na
kolon ya
lokan ta
noh ut
vikipedi st
kalama r
gÃ¼nahkÃ¢ r
ropdÃ¶ÅŁamb Ä±r
Z ag
g Ä±nlÄ±k
h u
p Ä±
s orum
v is
Ã¼ man
Ã¼ vey
ya sa
Ġo ÄŁ
sÄ±n dan
en str
et en
mamÄ±ÅŁ sÄ±nÄ±z
mamÄ±ÅŁ tÄ±n
Ã§e Ã§
am ca
Ġh alÄ±
vi da
bÃ¼y Ã¼c
vet er
kerp eten
madÄ±y dÄ±n
bal ta
ham ster
Ġsan dalye
embr iyo
Ġtah ta
bastÄ±r ma
Zag rep
sorum suz
vis k
enstr Ã¼man
t al
y Ã¶re
yor um
iÅŁ Ã§i
maz mÄ±ÅŁÄ±z
mÄ±z dan
mamÄ±ÅŁ mÄ±ÅŁsÄ±nÄ±z
mamÄ±ÅŁ mÄ±ÅŁsÄ±n
man Ä±z
yar asa
Ã¼y e
der gi
yan kÄ±
yav ru
ÅŁak a
Musev i
iÅŁlem ci
Ġsor u
sosis li
LefkoÅŁ alÄ±
eniÅŁt e
palyaÃ§ o
secca de
enstrÃ¼man tal
a lama
n et
sÄ±n da
mamÄ±ÅŁ tÄ±k
mÃ¼ÅŁ ler
su cu
yapÄ±ÅŁ ma
daÄŁÄ±t Ä±m
may Ä±z
may Ä±nÄ±z
met re
mat la
kus ma
sÄ±r alama
pir in
eziyet Ã§i
koÅŁ ucu
mandal ina
teor em
semer ci
ĠDa bili
friz bi
cib in
mili metre
limonat a
ÅŁÄ±rÄ±n ga
veter iner
sucu k
mu ÅŁt
mamÄ±ÅŁ tÄ±
mamÄ±ÅŁ larmÄ±ÅŁ
Ã¶r dek
may Ä±n
bÄ± yÄ±k
ÅŁerbet Ã§i
Ã§ap a
kas Ä±k
kam Ã§Ä±
iÅŁlet me
yorda m
karide s
otob Ã¼s
pur o
mid ye
izlen ce
yumur ta
y o
Ġ bel
or op
an Ã¼s
mayacak mÄ±ÅŁ
aÅŁ Ã§Ä±
mamÄ±ÅŁ Ä±m
kar Ä±
memiÅŁ im
Ġyap mÄ±yor
din a
ke se
tak Ä±
ger i
dondur ma
em lak
sil gi
Ã§algÄ± Ã§
har Ã§
kav im
madÄ±y dÄ±nÄ±z
tÃ¼m ce
Ã¶pÃ¼c Ã¼k
heykel cik
mus luk
mÃ¼stah dem
ÅŁiÅŁ lik
kl orop
pren s
Ġbir ci
rad yo
tat lÄ±
simil ya
yaÄŁlayÄ± cÄ±
Ġbel lek
klorop last
ak rep
me ta
le bi
maya caÄŁÄ±m
mayacak mÄ±ÅŁsÄ±nÄ±z
ÅŁt Ä±
maz dÄ±nÄ±z
mamÄ±ÅŁ Ä±z
kap Ä±
madÄ± lardÄ±
su pap
ip ek
uy ru
ket Ã§ap
iki lem
leb lebi
kav un
nen e
dey im
ÅŁaf ak
girda p
kalÄ± p
baÅŁrah ip
Ã¶ÄŁren ci
hav uÃ§
Ã§im ke
tosbaÄŁ a
forum daÅŁ
Ġli ste
pirin Ã§
uyru k
f a
g af
mayacak sÄ±n
mayacak larmÄ±ÅŁ
mÄ±z a
mamÄ±ÅŁ tÄ±m
dÃ¶ nem
rak Ä±
of obi
dak i
diÅŁ lek
fahiÅŁ e
mist ik
karÅŁ Ä±lÄ±k
porsu k
mas kara
temsil cilik
tab iyet
meta faz
c elik
e Ã§
s Ã¼k
t u
t ul
mayacak tÄ±
mayacak mÄ±ÅŁÄ±z
al Ä±n
yap Ä±ncak
maz mÄ±ÅŁ
mÄ±z da
mamÄ±ÅŁ mÄ±ÅŁ
kay ak
gel inc
yar ak
kir eÃ§
sul uluk
der viÅŁ
baÄŁ cÄ±k
Ã¶z Ã¼r
Ã¶n celik
yÃ¼k sÃ¼k
tÃ¼t sÃ¼
sÃ¼rtÃ¼k lÃ¼k
Ã¶m Ã¼r
aynÅŁtayn yum
sebe p
domate s
meyhan e
daki ka
tul um
gelinc ik
p lak
w iki
ma rat
mayacak tÄ±k
st eri
tÃ¼r Ã¼
maz mÄ±ÅŁsÄ±nÄ±z
dil do
kor se
bat Ä±
sal Ä±ncak
bar dak
bakir e
eziyet Ã§ilik
sÃ¶zc Ã¼
totem ci
totem cilik
ÅŁeh ir
hareket lilik
Ã§ift lik
hinterlan t
bok s
skrot um
giy si
top oloji
baÅŁvur u
marat on
Ġ derleyici
an Ä±z
mayacak sÄ±nÄ±z
mayacak lardÄ±
mayacak tÄ±n
mayacak tÄ±nÄ±z
ka sap
aÅŁ Ä±k
mamÄ±ÅŁ lardÄ±
mamÄ±ÅŁ tÄ±nÄ±z
kar t
yuvar lÄ±yor
ku yu
ter lik
Ã¢ lim
alÄ± Ã§
kÄ±l lÄ±k
yav ÅŁak
cez ve
Ġfik ir
baÄŁÄ±r sak
sÃ¶zcÃ¼l Ã¼k
hÄ±Ã§ kÄ±rÄ±k
Ã§ev irim
gÃ¶m lek
salÃ§al Ä±k
bor Ã§
ibli s
Ġistem ci
gaf let
b us
o dak
Ã¼ tÃ¼
mek ik
Ã¶ Ã§
al Ä±k
ko kar
st op
aÄŁ Ä±t
maz mÄ±ÅŁsÄ±n
mamÄ±ÅŁ sÄ±n
memiÅŁ lerdi
memiÅŁ miÅŁsiniz
memiÅŁ lermiÅŁ
memiÅŁ tim
gÃ¶ steri
hast alÄ±k
oto stop
kÃ¼ tÃ¼k
sÃ¶z lÃ¼k
fil m
ucu be
cev ap
hat a
kÃ¢ bus
gÃ¼ven sizlik
Ã§ar pÄ±
Ġsin eÄŁ
bur un
bey it
albatro s
diskot ek
rÃ¼ ya
d Ã¼y
g ut
k ili
s Ã¶ÄŁÃ¼t
s ite
an gut
maya caÄŁÄ±z
mayacak mÄ±ÅŁsÄ±n
mayacak mÄ±ÅŁÄ±m
maz mÄ±ÅŁÄ±m
memiÅŁ tin
meyecek tim
tar aba
yen geÃ§
yen ilik
ser iyor
mÃ¼yor lar
eÄŁit im
ye dek
kerp iÃ§
last ik
yut ak
ekstre mum
yoÄŁ urt
vern ik
sevg ili
Yahu di
t aÃ§
yap Ä±lacak
sun uyor
sin dirim
maz sÄ±n
maz sÄ±nÄ±z
gÃ¼ de
kÄ±r Ä±lÄ±yor
meyecek miÅŁsin
dil im
yu muyor
dÃ¼ÅŁÃ¼n Ã¼yor
kullan Ä±lÄ±yor
otur uyor
unuz un
mediy di
mediy dik
kedi cik
kÄ±z lÄ±k
gÃ¼ven lilik
baz alt
kuvvet sizlik
ala met
Ã¼cret sizlik
hap is
Ä±span ak
gerz ek
kanl Ä±lÄ±k
ebedil ik
Ã§Ä±r ak
Ã§Ã¶zel ti
kili se
er nek
memiÅŁ miÅŁsin
meyecek tin
kÄ±ÅŁkÄ±r tÄ±yor
yaptÄ±r tÄ±yor
yaptÄ±r tmÄ±ÅŁ
ÅŁaÅŁÄ±r tmÄ±ÅŁ
bet ik
dev in
kÃ¶y lÃ¼
Ã¶rÃ¼m cek
fiÅŁ ek
tahdi t
malu mat
deney im
refer ans
toh um
keleb ek
psikoterap i
nergi s
Ã§er Ã§i
W e
ma m
Ã§ elik
mayacak tÄ±m
yap Ä±lÄ±yor
da lacak
sin c
maz larmÄ±ÅŁ
mamÄ±ÅŁ mÄ±ÅŁÄ±m
mey in
memiÅŁ sin
meyecek sin
meyecek miÅŁsiniz
meyecek miÅŁiz
bay Ä±lacak
kÄ± yacak
gÃ¶Ã§ Ã¼yor
kal tak
sÃ¼z ecek
der i
unuz u
unuz da
Ã¢ ÅŁÄ±k
boÅŁan Ä±yor
mediy dim
seÃ§il iyor
kork uyor
gar p
ÅŁerbet Ã§ilik
arkadaÅŁ lÄ±k
ambulan s
ĠÅŁar ap
iÃ§gÃ¼d Ã¼
sarÄ±m sak
piskopo s
Zagrep li
gÃ¼de cek
devin im
We b
l uÄŁ
u yacak
ya lamÄ±ÅŁ
di yor
dir ilecek
tÃ¼r Ã¼yor
mamÄ±ÅŁ mÄ±ÅŁÄ±z
memiÅŁ ti
gecik ecek
sak lÄ±yor
uyar acak
kÄ±ÅŁkÄ±r tacak
yaptÄ±r tacak
kanÄ±t lÄ±yor
tep iyor
kovdur uyor
anla tÄ±yor
karÄ±ÅŁtÄ±r tacak
Ã¶pÃ¼ÅŁ Ã¼yor
bil im
kÃ¶pÃ¼r Ã¼yor
saldÄ±r Ä±yor
dÃ¶ndÃ¼r ecek
verdirt iyor
mediy diniz
Ã§Ä±ÄŁÄ±rtkan lÄ±k
mikr op
aygÄ±t Ã§Ä±k
yalÄ±t Ä±m
kaldÄ±r aÃ§
control ler
sinc ap
d Ã¼nÃ¼z
an Ä±yor
at Ä±lacak
ul uyor
mez siniz
mez din
mez miÅŁsin
maz lardÄ±
memiÅŁ siniz
memiÅŁ tiniz
Ã¶lÃ§ Ã¼
ev lilik
bay Ä±lÄ±yor
sÃ¼z geÃ§
sap Ä±yor
kurtar Ä±yor
taÅŁ Ä±yor
geber iyor
ilklendir ecek
gerek ecek
gerek iyor
atÄ±ÅŁtÄ±r acak
sattÄ±r tÄ±yor
Ġdik iyor
dal Ä±yor
kirlet iyor
evlen miÅŁ
aldat mÄ±ÅŁ
bitir ecek
tanÄ±t acak
Ã§Ã¶kert iyor
yendirt iyor
meyeceÄŁ iz
anasÄ±z lÄ±k
yÄ±ldÄ±r Ä±m
birlikt elik
dina mit
l uyor
Ġ gelecek
me m
ka ÅŁ
at Ä±lÄ±yor
yap Ä±yor
Ã¼z ecek
aÅŁ acak
mez miÅŁsiniz
mÄ±yor sunuz
memiÅŁ miÅŁ
meyecek tik
Ã§Ã¶ker miÅŁ
Ã§Ã¶ker iyor
kat Ä±lmÄ±ÅŁ
art acak
sÄ±z Ä±yor
seÃ§ ilecek
coÅŁ muÅŁ
pat lÄ±yor
Ġver iyor
hor luyor
karÄ±ÅŁtÄ±r tmÄ±ÅŁ
sÃ¶k ecek
sa yacak
Ä±sÄ±r acak
sÃ¼rÃ¼ndÃ¼r Ã¼yor
seslen iyor
kÄ±rdÄ±r mÄ±ÅŁ
ayÄ±r acak
kapat Ä±yor
tÃ¼ken iyor
unut uyor
sÃ¼mÃ¼r Ã¼yor
kurut acak
gÃ¼lÃ¼nÃ§leÅŁ iyor
atÄ±ÅŁ Ä±yor
yendirt ecek
mediy din
dÃ¼zelt iyor
sikil iyor
mum luk
diz em
yÄ±k Ä±yor
akvar yum
satran Ã§
Ã¶lÃ§Ã¼ lecek
p am
s pam
Ġ alacak
Ã§ oÄŁul
ar lar
dÃ¼r Ã¼yor
ol uyor
mez miÅŁ
mez di
mez sin
mez dik
mez lerdi
mez lermiÅŁ
maz dÄ±n
memiÅŁ tik
meyecek lerdi
meyecek tiniz
as it
say mÄ±ÅŁ
utan mÄ±ÅŁ
utan Ä±yor
dÃ¼z Ã¼yor
kat Ä±yor
bit iyor
medi lerdi
kor kacak
Ã¶ÄŁret iyor
sev ecek
sik ilecek
sÃ¼s Ã¼yor
kullan Ä±lmÄ±ÅŁ
sap acak
ser ecek
hastalan acak
kanÄ±t lamÄ±ÅŁ
yalvar Ä±yor
atÄ±ÅŁtÄ±r Ä±yor
sattÄ±r tacak
Ã§a lacak
Ä±sÄ±r Ä±yor
aldat Ä±yor
ettir iyor
tanÄ±t mÄ±ÅŁ
Ã¶lÃ§tÃ¼rt Ã¼yor
diril iyor
gÃ¼d Ã¼yor
mÃ¼ÅŁt eri
Ã¶nem sizlik
Ä±mÄ± n
bÃ¼rÃ¼m Ã¼ÅŁ
ehemmiyet lilik
bÃ¼yÃ¼c Ã¼
visk i
er ler
at Ä±lmÄ±ÅŁ
dir iyor
sun acak
kÄ±r Ä±lacak
kÄ±r Ä±lmÄ±ÅŁ
ver ilecek
mÄ±yor muÅŁ
mÄ±yor du
mÄ±yor larmÄ±ÅŁ
memiÅŁ miÅŁim
memiÅŁ miÅŁiz
sÃ¼r Ã¼yor
dil iyor
as mÄ±ÅŁ
say Ä±yor
kaynaÅŁtÄ±r Ä±lÄ±yor
kaynaÅŁtÄ±r Ä±lacak
kaynaÅŁtÄ±r Ä±lmÄ±ÅŁ
kat Ä±lacak
canlandÄ±r acak
yaz Ä±yor
Ã¶ÄŁret miÅŁ
kop uyor
uyar Ä±yor
paylaÅŁ Ä±yor
paylaÅŁ acak
bÃ¼r Ã¼yor
Ġver ecek
taÅŁ acak
onar mÄ±ÅŁ
hastalan Ä±yor
tep ecek
ÅŁaÅŁÄ±r tÄ±yor
pus acak
kaÅŁÄ± mÄ±ÅŁ
kaybol uyor
tut uyor
ĠaldÄ±r acak
seslen ecek
kÄ±rdÄ±r Ä±yor
geciktir miÅŁ
geciktir iyor
kapat acak
tÃ¼ken miÅŁ
atÄ±ÅŁ acak
boÅŁal Ä±yor
meyeceÄŁ im
esen lik
hu dut
sorumsuz luk
d Ã¼m
Ġ kutu
in miÅŁ
yap mÄ±ÅŁ
Ã¼n Ã¼n
dÃ¼r ecek
aÄŁ lamÄ±ÅŁ
mÄ±yor dun
mÄ±yor muÅŁsun
memiÅŁ iz
meyecek ti
bÃ¼k ecek
piÅŁ iyor
dÃ¼z mÃ¼ÅŁ
kat mÄ±ÅŁ
kat acak
kat Ä±lÄ±yor
bay gÄ±nlÄ±k
aÃ§ Ä±yor
tak Ä±yor
canlandÄ±r tÄ±lacak
aldÄ±r acak
yal Ä±yor
gÃ¶Ã§ ecek
coÅŁ uyor
Ġt am
Ã¶ÄŁret ecek
pat la
pat lamÄ±ÅŁ
kullan Ä±lacak
benz iyor
dondur uyor
uyar mÄ±ÅŁ
yalvar mÄ±ÅŁ
Ã§al mÄ±ÅŁ
yoksullaÅŁtÄ±r Ä±yor
sol uyor
sÃ¶k Ã¼yor
kaybol muÅŁ
sa yar
daÄŁÄ±t Ä±yor
saldÄ±r mÄ±ÅŁ
utandÄ±r Ä±yor
unut acak
ettir miÅŁ
uÄŁrat Ä±yor
eÄŁlen iyor
ĠsÄ±kÄ±ÅŁ acak
birleÅŁ ecek
verdirt ecek
seÃ§il miÅŁ
kalk mÄ±ÅŁ
elle miÅŁ
pusu yor
Ġfrek ans
ĠoÄŁ ul
Ġtam lama
in ecek
at om
yap Ä±lmÄ±ÅŁ
el liyor
ko kacak
aÄŁ lÄ±yor
tan Ä±yor
Ã¶p mÃ¼ÅŁ
mey iz
mÄ±yor um
mÄ±yor muÅŁuz
kay b
meyecek miÅŁ
meyecek miÅŁim
meyecek lermiÅŁ
bÃ¼k Ã¼yor
boÅŁ alacak
kaynaÅŁtÄ±r tÄ±lacak
art mÄ±ÅŁ
bay Ä±lmÄ±ÅŁ
aÃ§ acak
canlandÄ±r mÄ±ÅŁ
canlandÄ±r Ä±yor
aldÄ±r mÄ±ÅŁ
yaz mÄ±ÅŁ
yaÄŁ lÄ±yor
sÃ¼z Ã¼yor
sÃ¼s ecek
sÃ¼s mÃ¼ÅŁ
dem liyor
ser miÅŁ
kurtar acak
Ġver miÅŁ
taÅŁ mÄ±ÅŁ
geber ecek
tep miÅŁ
yÄ±ÄŁ mÄ±ÅŁ
anla tmÄ±ÅŁ
karÄ±ÅŁtÄ±r tÄ±yor
yetiÅŁ miÅŁ
bÃ¼ktÃ¼r Ã¼yor
sÄ±vÄ±laÅŁtÄ±r Ä±yor
sÃ¶v Ã¼yor
pus muÅŁ
yÄ±ka mÄ±ÅŁ
eÄŁit iyor
yapÄ±ÅŁ Ä±yor
yapÄ±ÅŁ acak
unuz a
Ã¶ÄŁÃ¼t ecek
ĠaldÄ±r mÄ±ÅŁ
ĠaldÄ±r Ä±yor
saydÄ±r mÄ±ÅŁ
saydÄ±r Ä±yor
kÃ¶pÃ¼r ecek
geciktir ecek
Ä°ngilizceleÅŁtir miÅŁ
TÃ¼rkÃ§eleÅŁtir iyor
uÄŁrat acak
ĠsÄ±kÄ±ÅŁ Ä±yor
Ã§Ã¶kert ecek
gidil miÅŁ
gidil iyor
kok uyor
uyu yor
kaÅŁ Ä±yor
an acak
yap acak
ol muÅŁ
mez diniz
mez miÅŁim
Ã¶p ecek
mey iniz
meyecek siniz
bÃ¼k mÃ¼ÅŁ
art Ä±yor
iÃ§ miÅŁ
iÃ§ iyor
sak la
Ã¶ldÃ¼rt Ã¼yor
yaz acak
yaÄŁ lamÄ±ÅŁ
gÃ¶Ã§ mÃ¼ÅŁ
kal kacak
gez ecek
sap mÄ±ÅŁ
paylaÅŁ mÄ±ÅŁ
gÃ¶tÃ¼r Ã¼yor
hor lamÄ±ÅŁ
dadan acak
ÅŁaÅŁÄ±r tacak
sattÄ±r tmÄ±ÅŁ
anla tacak
yetiÅŁ iyor
bÃ¼ktÃ¼r ecek
sÄ±vÄ±laÅŁtÄ±r mÄ±ÅŁ
Ã¶lÃ§Ã¼l mÃ¼ÅŁ
muyor lar
san mÄ±ÅŁ
unuz dan
Ã¶ÄŁÃ¼t mÃ¼ÅŁ
Ä±sÄ±r mÄ±ÅŁ
sÃ¼rÃ¼ndÃ¼r ecek
seslen miÅŁ
kÄ±rdÄ±r acak
kÃ¶pÃ¼r mÃ¼ÅŁ
evlen iyor
ayÄ±r mÄ±ÅŁ
tÃ¼kÃ¼r ecek
Ã¼ÅŁen miÅŁ
boÅŁan mÄ±ÅŁ
utandÄ±r acak
Ä°ngilizceleÅŁtir ecek
kaÃ§Ä±r Ä±yor
kurut uyor
eÄŁlen miÅŁ
atÄ±ÅŁ mÄ±ÅŁ
verdirt miÅŁ
dÃ¼rt ecek
Ġgel iyor
veril miÅŁ
veril iyor
ĠmÃ¼yd Ã¼nÃ¼z
benze miÅŁ
yuma cak
kayb olacak
in iyor
de miÅŁ
aÄŁ la
aÅŁ Ä±yor
mez miÅŁiz
Ã¶p Ã¼yor
mÄ±yor sun
mÄ±yor dunuz
Ã§Ã¶ker ecek
gecik iyor
gi dilecek
bit miÅŁ
bit ecek
sÄ±z acak
tak acak
iÃ§ ecek
sÃ¼z mÃ¼ÅŁ
dondur acak
deÄŁiÅŁ iyor
yuvar lamÄ±ÅŁ
kÄ±ÅŁkÄ±r tmÄ±ÅŁ
gÃ¶tÃ¼r ecek
kovdur muÅŁ
kovdur acak
yÄ±ÄŁ acak
Ã§al Ä±yor
dal mÄ±ÅŁ
san acak
yapÄ±ÅŁ mÄ±ÅŁ
saydÄ±r acak
ayÄ±r Ä±yor
aldat acak
iyileÅŁtir miÅŁ
iyileÅŁtir iyor
Ä°ngilizceleÅŁtir iyor
kaÃ§Ä±r mÄ±ÅŁ
TÃ¼rkÃ§eleÅŁtir miÅŁ
TÃ¼rkÃ§eleÅŁtir ecek
gÃ¼lÃ¼nÃ§leÅŁ miÅŁ
delir ecek
deÄŁiÅŁtir miÅŁ
diril miÅŁ
dÃ¼rt Ã¼yor
dÃ¼zelt ecek
kaynaÅŁtÄ±rtÄ±l Ä±yor
Ġal Ä±yor
sÃ¼rÃ¼m Ã¼ÅŁ
eceÄŁ im
dire miÅŁ
gÃ¼t mÃ¼ÅŁ
t iy
y Ã¶n
en in
dÃ¼r mÃ¼ÅŁ
mez dim
var mÄ±ÅŁ
mÄ±yor duk
mÄ±yor dum
as acak
gel iyor
aÃ§ mÄ±ÅŁ
sÃ¼n ecek
sÃ¼n Ã¼yor
gez miÅŁ
sev iyor
dÃ¼ÅŁÃ¼n ecek
dondur muÅŁ
kop muÅŁ
ulu muÅŁ
onar Ä±yor
hastalan mÄ±ÅŁ
ilklendir iyor
otur acak
yalvar acak
atÄ±ÅŁtÄ±r mÄ±ÅŁ
Ġdik miÅŁ
Ġdik ecek
Ã¶pÃ¼ÅŁ ecek
sÃ¶v ecek
kÄ±y Ä±yor
solu muÅŁ
tut muÅŁ
Ã¶ÄŁÃ¼t Ã¼yor
evlen ecek
tÃ¼kÃ¼r Ã¼yor
ettir ecek
sÃ¼mÃ¼r ecek
dÃ¶ndÃ¼r Ã¼yor
delir miÅŁ
deÄŁiÅŁtir ecek
tanÄ±t Ä±yor
Ã§Ã¶kert miÅŁ
baÅŁ Ã§Ä±k
canlandÄ±rtÄ±l Ä±yor
kok muÅŁ
demle miÅŁ
yÃ¶n el
d Ã¼k
mu n
aÅŁ mÄ±ÅŁ
sun muÅŁ
mÄ±yor uz
mÄ±yor muÅŁsunuz
utan acak
sÄ±z mÄ±ÅŁ
gÃ¶tÃ¼r mÃ¼ÅŁ
dadan Ä±yor
otur muÅŁ
yÄ±ÄŁ Ä±yor
yetiÅŁ ecek
kapa mÄ±ÅŁ
san Ä±yor
eÄŁit ecek
kirlet ecek
tÃ¼kÃ¼r mÃ¼ÅŁ
Ã¼ÅŁen ecek
Ã¼ÅŁen iyor
iyileÅŁtir ecek
kaÃ§Ä±r acak
dÃ¶ndÃ¼r mÃ¼ÅŁ
eÄŁlen ecek
gÃ¼cen iyor
bitir miÅŁ
birleÅŁ iyor
deÄŁiÅŁtir iyor
Ã¶lÃ§tÃ¼rt ecek
canlandÄ±rtÄ±l mÄ±ÅŁ
Ġgel miÅŁ
Ġal mÄ±ÅŁ
boÅŁal mÄ±ÅŁ
kork muÅŁ
Ġ Ã§i
ya la
var Ä±yor
sat mÄ±ÅŁ
as Ä±yor
piÅŁ miÅŁ
piÅŁ ecek
aldÄ±r Ä±yor
der nek
kop acak
uy muÅŁ
deÄŁiÅŁ ecek
kurtar mÄ±ÅŁ
yuvar la
ilklendir miÅŁ
Ã¶pÃ¼ÅŁ mÃ¼ÅŁ
sÄ±vÄ±laÅŁtÄ±r acak
daÄŁÄ±t acak
sÃ¼rÃ¼ndÃ¼r mÃ¼ÅŁ
saldÄ±r acak
kapat mÄ±ÅŁ
kurut muÅŁ
gÃ¼cen miÅŁ
gÃ¼cen ecek
bitir iyor
delir iyor
Ã¶lÃ§tÃ¼rt mÃ¼ÅŁ
dÃ¼zelt miÅŁ
kaynaÅŁtÄ±rtÄ±l mÄ±ÅŁ
sikil miÅŁ
ĠmÃ¼yd Ã¼
ĠmÃ¼yd Ã¼m
Ã¼z Ã¼yor
var acak
mÄ±yor muÅŁum
gel miÅŁ
tak mÄ±ÅŁ
tanÄ± mÄ±ÅŁ
Ã¶ldÃ¼rt ecek
coÅŁ acak
gez iyor
hor la
geber miÅŁ
dadan mÄ±ÅŁ
gerek miÅŁ
Ã¶lÃ§Ã¼l Ã¼yor
sÃ¶v mÃ¼ÅŁ
tut acak
kirlet miÅŁ
utandÄ±r mÄ±ÅŁ
tÃ¼ken ecek
unut muÅŁ
sÃ¼mÃ¼r mÃ¼ÅŁ
uÄŁrat mÄ±ÅŁ
ĠsÄ±kÄ±ÅŁ mÄ±ÅŁ
birleÅŁ miÅŁ
yendirt miÅŁ
kalk Ä±yor
r Ä±l
z incir
an mÄ±ÅŁ
ay rÄ±l
sat acak
ta m
sev miÅŁ
deÄŁiÅŁ miÅŁ
onar acak
sÃ¶k mÃ¼ÅŁ
kÄ±y mÄ±ÅŁ
eÄŁit miÅŁ
daÄŁÄ±t mÄ±ÅŁ
boÅŁan acak
dÃ¼rt mÃ¼ÅŁ
ĠmÃ¼yd Ã¼n
eceÄŁ iz
den iz
kÄ±r Ä±lÄ±r
dÃ¼z ecek
kat Ä±lÄ±r
sak lamÄ±ÅŁ
tÄ± lar
sÃ¼n mÃ¼ÅŁ
dÃ¼ÅŁÃ¼n mÃ¼ÅŁ
bÃ¼ktÃ¼r mÃ¼ÅŁ
yoksullaÅŁtÄ±r mÄ±ÅŁ
yum muÅŁ
tÃ¼re miÅŁ
Ġ dÃ¶rtgen
Ã¼n e
Ã¼z mÃ¼ÅŁ
gÃ¼ der
mÄ±yor lardÄ±
sat Ä±yor
gecik miÅŁ
Ã¶ldÃ¼rt mÃ¼ÅŁ
yaptÄ±r tÄ±r
kanÄ±t la
Ã¶ldÃ¼rtÃ¼l Ã¼yor
gÃ¼lÃ¼nÃ§leÅŁ ecek
umuz a
ayrÄ±l ma
dil miÅŁ
yoksullaÅŁtÄ±r acak
daÄŁÄ± tÄ±r
sÃ¼rÃ¼ndÃ¼r Ã¼r
umuz un
yap Ä±lÄ±r
Ã¼n Ã¼
miz e
yen dirtir
kÄ± yar
tÄ± ydÄ±
Ġver ir
Ã¶ldÃ¼rtÃ¼l Ã¼r
umuz u
umuz da
umuz dan
Ã¼n de
ul ur
kap Ä±yor
ĠÃ§ek miyor
bay Ä±lÄ±r
Ä±s Ä±
ĠmÃ¼yd Ã¼k
s Ã¶ker
la ÄŁ
Ä±l Ä±ÄŁ
miz in
ver dirtir
Ã§Ã¶ker tir
sattÄ±r tÄ±r
canlandÄ±rtÄ±l Ä±r
min iz
Ġ bili
ya layacak
ka ÅŁÄ±r
Ã¼z er
aÄŁ layacak
tÃ¼r er
miz den
canlan mamÄ±ÅŁ
dÃ¼z er
aÃ§ ar
canlandÄ±r Ä±r
iÃ§ er
tanÄ± tÄ±r
yaÄŁ layacak
kor kar
dem ler
uyar Ä±r
tep er
Ã¶lÃ§tÃ¼r tÃ¼r
kaÅŁÄ± yacak
kapa yacak
saydÄ±r Ä±r
tÃ¼kÃ¼r Ã¼r
kaÃ§Ä±r Ä±r
sÃ¼mÃ¼r Ã¼r
Ġal Ä±r
diy ecek
a caÄŁÄ±m
Ġ dur
yap ar
el ler
aÅŁ ar
se ver
miz de
as Ä±
miyor larmÄ±ÅŁ
miyor muÅŁsunuz
Ã¶ldÃ¼r tÃ¼r
kop ar
paylaÅŁ Ä±r
bÃ¼r Ã¼r
kÄ±ÅŁkÄ±r tÄ±r
gÃ¶tÃ¼r Ã¼r
yoksullaÅŁtÄ±r Ä±r
Ã¶ldÃ¼rtÃ¼l memiÅŁ
Ã¶lÃ§Ã¼l Ã¼r
kirlet ir
kapat Ä±r
eÄŁlen ir
gidil ir
kaynaÅŁtÄ±rtÄ±l Ä±r
Ġgel ir
boÅŁal Ä±r
i mi
an ar
miyor lardÄ±
piÅŁ er
tak ar
sap ar
ulu yacak
kurtar Ä±r
geber ir
dadan Ä±r
kovdur ur
karÄ±ÅŁtÄ±r tÄ±r
yetiÅŁ ir
seslen ir
kÃ¶pÃ¼r Ã¼r
TÃ¼rkÃ§eleÅŁtir ir
delir ir
diril ir
a caÄŁÄ±z
Ã§ iliÄŁ
el leyecek
Ã¼n den
dÃ¼r ter
tan Ä±r
miz i
Ã¶p er
sÃ¼r Ã¼r
yÄ± kar
gel ir
miyor sunuz
Ġs ite
sak layacak
yaz ar
gÃ¶Ã§ er
sÃ¼n er
kal kar
sÃ¼z er
sÃ¼s er
yuvar layacak
hor lar
ÅŁaÅŁÄ±r tÄ±r
solu yacak
yapÄ±ÅŁ Ä±r
ĠaldÄ±r Ä±r
evlen ir
unut ur
sikil ir
yuma r
mÄ± n
at Ä±lÄ±r
el iÄŁ
aÄŁ Ä±
ol ur
kÄ±r Ä±ÄŁ
gel in
miyor muÅŁ
miyor sun
miyor muÅŁum
art ar
aldÄ±r Ä±r
gez er
dem leyecek
deÄŁiÅŁ ir
hor layacak
ilklendir ir
otur ur
atÄ±ÅŁtÄ±r Ä±r
anla tÄ±r
san Ä±r
Ä±sÄ±r Ä±r
kÄ±rdÄ±r Ä±r
Ã¼ÅŁen ir
boÅŁan Ä±r
iyileÅŁtir ir
dÃ¶ndÃ¼r Ã¼r
uÄŁrat Ä±r
atÄ±ÅŁ Ä±r
seÃ§il ir
leyi c
dÄ±ydÄ± m
dÄ±y dÄ±n
dÄ±y dÄ±nÄ±z
Ġ ad
Ġ kon
de mi
dÃ¼r er
dir eyecek
kar an
ver i
var Ä±r
canlan mÄ±yor
kap ar
yÄ± lan
bÃ¼k er
bit er
coÅŁ ar
Ã¶ÄŁret ir
Ã¶ÄŁÃ¼ tÃ¼r
yuvar lar
dÃ¼zel tir
pus ar
yÄ±ka yacak
tut ar
geciktir ir
saldÄ±r Ä±r
kurut ur
ĠsÄ±kÄ±ÅŁ Ä±r
birleÅŁ ir
ĠÃ§i leÄŁ
l iy
Ä±z a
da lar
sun ar
sat ar
utan Ä±r
sÄ±z ar
dÃ¼ÅŁÃ¼n Ã¼r
ser er
kanÄ±t lar
kaybol ur
umu n
ayÄ±r Ä±r
utandÄ±r Ä±r
tÃ¼ken ir
gÃ¼lÃ¼nÃ§leÅŁ ir
bitir ir
dÄ±ydÄ± k
c iliÄŁ
h i
k ek
ÅŁt ay
dir er
tÃ¼r eyecek
Ã§Ã¶ker ir
miyor uz
miyor muÅŁsun
sÃ¶ ver
dondur ur
bÃ¼r Ã¼yecek
onar Ä±r
hastalan Ä±r
kanÄ±t layacak
yalvar Ä±r
bÃ¼ktÃ¼r Ã¼r
Ã¶pÃ¼ÅŁ Ã¼r
sol ur
Ã¶ldÃ¼rtÃ¼l Ã¼yecek
eÄŁit ir
ettir ir
Ġh ar
zincir leme
Ġbili mi
n eÄŁ
Ã¼ ÄŁ
dÄ± lardÄ±
miyor um
miyor dun
gecik ir
yaÄŁ lar
pat lar
pat layacak
kullan Ä±lÄ±r
benz eyecek
taÅŁ ar
Ã¢ li
veril ir
c eÄŁ
ya lar
Ġyap mayacak
as ar
miyor du
miyor duk
kat ar
gerek ir
yÄ±ÄŁ ar
sÄ±vÄ±laÅŁtÄ±r Ä±r
alÄ± ÄŁ
Ã¼mÃ¼z Ã¼
ĠsineÄŁ i
a b
Ä±n caÄŁ
Ġol mamÄ±ÅŁ
miyor muÅŁuz
tanÄ± yacak
Ġdik er
Ã¼nÃ¼z Ã¼
Ã¼nÃ¼z den
Ä°ngilizceleÅŁtir ir
gÃ¼cen ir
Ã¼mÃ¼z Ã¼n
f on
v ek
Ġ b
Ġ Ä±ÅŁ
Ġ kur
Ġ su
ir t
al fa
ar mut
Ġyap mamÄ±ÅŁ
kaynaÅŁtÄ±r Ä±lÄ±r
Ã¼nÃ¼z Ã¼n
ken ar
Ã¼mÃ¼z e
Ã¼mÃ¼z den
kon vek
bel irt
muz un
Ġhar f
konvek s
t Ã¼y
iz i
aÄŁ lar
sun dan
Ġyap maz
sÃ¼r Ã¼yecek
miyor dum
Ã¼s Ã¼nÃ¼z
sak lar
Ġm Ã¼sÃ¼nÃ¼z
ĠmÃ¼y mÃ¼ÅŁsÃ¼nÃ¼z
Ã¼nÃ¼z e
aldat Ä±r
deÄŁiÅŁtir ir
Ã¼mÃ¼z de
muz dan
yÃ¶nel me
b Ã¶
g al
Ġ uz
Ġ ku
Ġ Ã¼Ã§
la yan
mu k
sun a
ha f
sÃ¶z diz
dÃ¼ ler
ĠmÃ¼ymÃ¼ÅŁ Ã¼z
tam layan
karan lÄ±k
c Ä±lÄ±k
c uluk
mÃ¼ÅŁ Ã¼z
mÃ¼ÅŁ Ã¼m
tÄ± y
ĠdeÄŁil ler
ĠmÃ¼y mÃ¼ÅŁsÃ¼n
muz da
ĠmÃ¼ymÃ¼ÅŁ Ã¼m
Ġkutu su
Ġtamlama sÄ±
a man
z aman
Ġ te
sun da
Ġm Ã¼sÃ¼n
ĠÃ¼Ã§ gen
Ã¼ ÄŁÃ¼n
sun un
ĠmÃ¼y Ã¼m
ti ler
liÄŁ i
muz a
Ġhal i
voley bol
muÅŁt u
b ek
an Ä±n
ka sÄ±
di lerdi
on uz
canlan mayacak
miyor dunuz
Ġs iste
der leyic
ĠmÃ¼y Ã¼z
Ã¼nÃ¼z de
lÃ¼ ÄŁ
Ã§Ä±k ma
m oloji
Ä±z da
ek er
muz u
ĠÃ§ileÄŁ i
i mimiz
o b
Ġ gÃ¼r
du lar
canlan maz
diy di
diy dik
Ä±z Ä±
Ä±z Ä±n
man Ä±n
ĠÃ§ek mez
bÃ¼k mÃ¼yor
sak lamÄ±yor
ulu muyor
Ã¶ÄŁÃ¼t mÃ¼yor
kok muyor
diy diniz
Ġdur umu
Ã¼ ÅŁt
ul uÄŁ
Ã¶ldÃ¼rt mÃ¼yor
kop muyor
yuvar lamÄ±yor
gÃ¶tÃ¼r mÃ¼yor
hor lamÄ±yor
hor lamamÄ±ÅŁ
solu muyor
sÃ¼mÃ¼r mÃ¼yor
kurut muyor
gÃ¼t mÃ¼yor
diy dim
ĠyazÄ±l Ä±mÄ±n
ÅŁar kÄ±
ĠgÃ¼r eÅŁ
c Ä±sÄ±
ya lamamÄ±ÅŁ
ya lamayacak
an sÄ±
dÃ¼r mÃ¼yor
sun muyor
man da
ĠÃ§ek meyecek
sÃ¼z mÃ¼yor
uy muyor
yuvar lamamÄ±ÅŁ
kanÄ±t lamÄ±yor
kovdur muyor
kaybol muyor
tÃ¼kÃ¼r mÃ¼yor
p laÄŁ
ÅŁ i
me tin
de de
iz in
iz den
Ã¼z mÃ¼yor
aÄŁ lamÄ±yor
aÄŁ lamamÄ±ÅŁ
Ã¶p mÃ¼yor
ĠmiymiÅŁ ler
Ġmiydi ler
Ã¼s Ã¼
dondur muyor
cÄ± ÄŁ
kanÄ±t lamamÄ±ÅŁ
ey e
sÃ¶k mÃ¼yor
Ã¶lÃ§Ã¼l mÃ¼yor
sÃ¼rÃ¼ndÃ¼r mÃ¼yor
Ã¶lÃ§tÃ¼rt mÃ¼yor
kork muyor
Ã§algÄ± c
min den
diy din
eziyet Ã§iliÄŁ
heykel ciÄŁ
Ã¼cret sizliÄŁ
a da
i le
Ä± ÅŁtÄ±
ya lamÄ±yor
Ä±z dan
ka yaÄŁ
iz de
ol muyor
gÃ¶Ã§ mÃ¼yor
pat lamÄ±yor
pat lamamÄ±ÅŁ
yuvar lamaz
hor lamayacak
kanÄ±t lamaz
otur muyor
bÃ¼ktÃ¼r mÃ¼yor
yum muyor
sÃ¼rÃ¼m Ã¼yor
bÃ¼rÃ¼m Ã¼yor
Ã¶rÃ¼m ceÄŁ
mun uz
Ġsite si
kasÄ± ÄŁ
c uÄŁ
d ayÄ±f
t art
Ġ paylaÅŁ
Ġ kuÅŁ
Ġ sunucu
Ġ Web
ya lamaz
ka sa
ka dÄ±n
ka dayÄ±f
ar aÃ§
sin ek
mey ve
ĠÃ§ek memiÅŁ
su cuÄŁ
ev liliÄŁ
sak lamaz
sÃ¼n mÃ¼yor
hast alÄ±ÄŁ
kal t
pat lamayacak
del irmez
sÃ¼s mÃ¼yor
ba sÄ±n
kanÄ±t lamayacak
pus muyor
kÃ¶pÃ¼r mÃ¼yor
unut muyor
dÃ¶ndÃ¼r mÃ¼yor
inde k
min de
kedi ciÄŁ
kÄ±z lÄ±ÄŁ
kÃ¢ bu
alt diz
Ã¶lÃ¼m sÃ¼z
sos yal
mus luÄŁ
arkadaÅŁ lÄ±ÄŁ
hareket liliÄŁ
Ġkon fer
Ġsiste mi
tart Ä±
ĠpaylaÅŁ Ä±m
t av
Ã¶ c
en den
aÄŁ lamayacak
aÅŁ Ä±ÄŁ
dÃ¼z mÃ¼yor
yar aÄŁ
bit irmez
sak lamayacak
sul uluÄŁ
yuvar lamayacak
hor lamaz
deÄŁiÅŁt irmez
re Ã§
tÃ¼ ler
dÃ¼rt mÃ¼yor
lÃ¼ ÄŁÃ¼n
min i
mum luÄŁ
kon u
kÄ±l lÄ±ÄŁ
bÄ± yÄ±ÄŁ
mÃ¼ÅŁt Ã¼k
aynÅŁtayn yu
baÄŁÄ±r saÄŁ
hÄ±Ã§ kÄ±rÄ±ÄŁ
ekstre mu
fiÅŁ eÄŁ
gelin ciÄŁ
tav uÄŁ
K Ã¼r
b om
f Ã¼z
g ru
i gu
j an
p la
p eri
s pa
t et
u c
u f
v af
Ġ ka
Ġ dal
Ġ Ã§a
Ġ par
Ġ kÄ±l
Ġ yol
Ġ voleybol
Ġ ada
Ġ gru
Ġ uf
ÅŁ iz
la tÄ±
mek iÄŁ
ma ÅŁÄ±r
Ã§ Ä±l
in di
ÄŁ Ã¼s
de ecek
at ist
en ize
ik Ã¢
Ã¼n sÃ¼z
dan s
tan jan
sin dir
du dak
kar dan
gÃ¶ ÄŁÃ¼s
kap ak
ev ciÄŁ
tar Ã§
coÅŁ muyor
Ġt ip
Ã¶ÄŁret im
pat lama
pat lamaz
em laÄŁ
ey i
tut muyor
oto sto
kÃ¼ tÃ¼
Ġh Ã¢li
Ġh ikÃ¢
of ren
kr al
elle ÄŁ
min in
ist atist
demle ecek
sen tak
diÅŁ leÄŁ
har em
totem ciliÄŁ
mÃ¼ÅŁt Ã¼n
Ã¶nem sizliÄŁ
sÃ¼rÃ¼ ecek
mel o
bal Ä±k
Ġek sen
Ã¼re me
kuvvet sizliÄŁ
teor e
mÃ¼stah de
mist iÄŁ
karÅŁ Ä±lÄ±ÄŁ
porsu ÄŁ
dÃ¼n ya
gerz eÄŁ
ĠÅŁar ab
demi r
hi kay
Ġb elleÄŁ
belirt ili
sÃ¶zdiz im
kalt aÄŁ
tartÄ± ÅŁtay
reÃ§ el
bom ba
pla j
tet raf
Ġdal Ä±ÅŁ
ĠÃ§a maÅŁÄ±r
Ġpar latÄ±
ÅŁiz ofren
ĠhikÃ¢ ye
i Ã§e
n Ä±z
p iÅŁt
r uÄŁ
s Ã¶ÄŁÃ¼
t ulu
y un
Ġ masal
ak re
Ã¼ t
Ã¼ me
an gu
er neÄŁ
at o
at Ä±k
en i
en de
aÄŁ lamaz
bir leÅŁt
yar atÄ±k
kan to
sak lamamÄ±ÅŁ
ip eÄŁ
sÃ¼z gec
dÃ¼ÅŁÃ¼n mÃ¼yor
uy ruÄŁ
yuvar laacak
hor laacak
Ã¶pÃ¼ÅŁ mÃ¼yor
sÃ¶v mÃ¼yor
kaÅŁÄ± acak
canlanma acak
Ã¶r deÄŁ
baÄŁ cÄ±ÄŁ
gÃ¼d Ã¼
ket Ã§a
Ã¶n cel
bet iÄŁ
dev ini
yav ÅŁ
gar b
mÃ¼ÅŁt Ã¼
mÃ¼ÅŁt Ã¼m
yÃ¼k sÃ¼
last iÄŁ
ÅŁiÅŁ liÄŁ
ÅŁaf aÄŁ
girda b
bur n
ÅŁeh r
Ã¶m r
Ã§ift liÄŁ
yut aÄŁ
Ã§ev ir
gÃ¶m leÄŁ
salÃ§al Ä±ÄŁ
yoÄŁ ur
malu ma
aygÄ±t Ã§Ä±ÄŁ
kokar ca
kadÄ±n lÄ±k
Ã¶lÃ¼msÃ¼z lÃ¼k
vaf tiz
kral iÃ§e
bomba cÄ±
Ã¶ncel iÄŁ
V D
D VD
a st
a demi
b ri
b ift
d rat
f ak
g az
j ag
k im
k Ã¶r
o str
o yun
p ol
r me
t uy
u v
v rek
v uv
y ak
y Ã¼r
y emek
Ġ ak
Ġ ya
Ġ tar
Ġ ba
Ġ Ã¶r
Ġ kr
ya cÄ±
ma rme
Ġo ynatÄ±
or ta
Ã§ eliÄŁ
in san
ÄŁ um
Ġol du
ka ve
mu kave
ek kek
di gen
ar et
en e
da yan
et e
uz e
uz ay
iÅŁ aret
on ay
Ä±k l
sin ir
sin ca
ge dan
ge vrek
sÃ¼r pr
bir ey
ok rat
ha Ã§a
su pa
bay g
yet iÅŁt
ke mer
dÃ¶ ne
dÃ¶ ten
sak laacak
yal nÄ±z
kir ec
ger gedan
Ġt uz
der neÄŁ
pat laacak
del to
ses siz
bÃ¼r okrat
kanÄ±t laacak
ku ma
ter c
ye digen
sal Ä±ncaÄŁ
Ġh Ã¼c
Ã¶z r
so y
eÅŁ kenar
of on
do ÄŁum
bu bi
tÃ¼re ecek
bÃ¼y Ã¼k
pir inc
cev h
ÅŁerbet Ã§iliÄŁ
gÃ¼ven liliÄŁ
Ġis im
iÅŁlet im
mikr ofon
kl ostr
ped ofobi
Ġfik r
Ä±span aÄŁ
diskot eÄŁ
eniz in
kanl Ä±lÄ±ÄŁ
ebedil iÄŁ
sarÄ±m saÄŁ
anasÄ±z lÄ±ÄŁ
birlikt eliÄŁ
ehemmiyet liliÄŁ
fa bri
tam lan
Ġkon trol
hi drat
fon dÃ¶ten
Ġsu yu
bÃ¶ cek
Ġuz ayÄ±
Ġku p
kasa b
konu ÅŁtay
KÃ¼r t
igu ana
Ġka fa
Ã§Ä±l gÄ±nlÄ±k
istatist ik
melo di
bift ekkek
gaz ete
jag u
kim yacÄ±
pol is
vuv uze
yak ut
Ġak ademi
Ġya ÅŁ
Ġtar if
marme la
dayan Ä±kl
ĠhÃ¼c re
a ile
b o
g an
i leti
o daÄŁ
ya laacak
Ã¶ ne
al n
yap Ä±ncaÄŁ
kar Ä±n
Ã¶p Ã¼ÅŁt
bir liÄŁ
as i
ce va
din let
tanÄ± acak
yen iliÄŁ
ulu acak
gÃ¼lÃ¼nÃ§ leÅŁt
si dik
kapa acak
san dalye
ye deÄŁ
iÄŁ de
pu st
bar daÄŁ
iki le
kon do
kus muk
diÅŁ l
leb leb
otomobil c
mÃ¼ÅŁt Ã¼nÃ¼z
Ã§Ä±ÄŁÄ±rtkan lÄ±ÄŁ
kerp i
bÃ¼rÃ¼ ecek
son ra
ham ol
kola Ã§
iÅŁlem c
sosis l
baÅŁrah ib
keleb eÄŁ
esen liÄŁ
hu du
ĠoÄŁ l
sorumsuz luÄŁ
gelin lik
ÅŁarkÄ± cÄ±lÄ±k
indek s
altdiz in
fÃ¼z e
Ġada m
tanjan t
kapak Ã§Ä±k
otosto b
harem lik
hikay e
tetraf obi
yavÅŁ aÄŁ
delto i
soy lu
cevh er
fabri ka
jagu ar
vuvuze la
N u
B en
a cen
b aÃ§
h en
h indi
n lÄ±ÄŁ
o ÅŁt
o da
p az
p om
r Ã
s el
s kan
t il
t eÄŁ
y i
z ak
z or
z dir
Ġ ma
Ġ yu
Ġ bit
Ġ aÃ§
Ġ kÃ¶p
Ġ kam
Ġ ceviz
Ġ kaplan
le fon
Ã§ ay
ka zak
at lam
Ä±m sÄ±z
aÄŁ laacak
kÄ±r Ä±n
Ġyap tÄ±
na z
gÃ¶ ster
say rÃ
ce p
te ÅŁ
yar gÄ±
sak a
yen gec
kÄ± skan
yaz Ä±
gÃ¶Ã§ men
kor ku
Ġt ur
sÄ± cak
ÅŁÄ± ÄŁ
kara ciÄŁ
be zdir
is im
ĠdeÄŁil miÅŁ
ĠdeÄŁil miÅŁsiniz
ĠdeÄŁil miÅŁler
Ã¢ l
Ã¢ ÅŁÄ±ÄŁ
Ġf il
baÄŁ Ä±msÄ±z
Ġh Ã¢l
men teÅŁ
so m
Ã¶n ce
Ã¶n yargÄ±
oÄŁ l
elle ecek
yaÄŁla acak
benze ecek
dire ecek
sek iz
sÄ±r at
gÃ¼ven sizliÄŁ
yn uz
ĠmÃ¼ hen
asan sÃ¶
ikiz kenar
abajur culuk
sos yol
elektr ik
sÃ¼l Ã¼k
kalÄ± b
semer c
temsil ciliÄŁ
eniz de
akvar yu
tu va
yÃ¶nel im
tÄ±ydÄ± m
Ġkur a
gal ak
haf ta
haf Ä±za
tÄ±y dÄ±n
Ġte lefon
dans Ã§Ä±
tarÃ§ Ä±n
sÃ¶zdizim sel
ÅŁizofren i
akre b
ketÃ§a b
Ġba ba
insan lÄ±k
mukave met
sinca b
supa b
bayg nlÄ±ÄŁ
terc Ã¼me
tamlan an
bo ynuz
karÄ±n ca
deltoi d
Nu sayrÃ
Ben gal
acen t
hindi stan
teÄŁ et
Ġma d
Ã§ay dan
atlam baÃ§
kÄ±skan Ã§
ĠmÃ¼hen dis
NusayrÃ ®
V ikipedi
c oÅŁt
k ip
t Ã¼n
Ġ del
la manÄ±z
me taÅŁ
ya muk
de yn
er ke
da ÅŁÄ±
dÃ¼r Ã¼m
Ġyap madÄ±
dil bilim
kan at
aÃ§ lÄ±k
kÃ¶p ek
sÃ¼n Ã¼z
ser Ã§e
sa c
ĠdeÄŁ iliz
ĠdeÄŁil siniz
ĠdeÄŁil dik
ĠdeÄŁil diniz
ĠdeÄŁil miÅŁsin
ĠdeÄŁil miÅŁim
ĠdeÄŁil dim
az Ä±nlÄ±k
ter liÄŁ
sil metaÅŁ
ĠÅŁ eker
sÃ¼ st
bakir lik
ĠyazÄ±l Ä±mÄ±
kÃ¶y l
Ġanahtar Ä±
sis moloji
yÄ±ldÄ±z Ä±l
fahiÅŁ elik
Ã¶ÄŁren c
eniz den
Ã§Ä±r aÄŁ
vern iÄŁ
sevg il
muÅŁt un
tÄ±ydÄ± k
ab ece
tÄ±y dÄ±nÄ±z
muÅŁtu k
Ġtip i
sentak s
kÃ¶r lÃ¼k
oyun culuk
yÃ¼r ek
gevrek lik
yalnÄ±z lÄ±k
kuma ÅŁ
klostr ofobi
bÃ¶cek bilim
marmela t
dayanÄ±kl Ä±lÄ±k
ceva b
kondo m
paz Ä±
pom pa
ĠaÃ§ Ä±
kÄ±rÄ±n tÄ±
sekiz gen
asansÃ¶ r
Ġdel ik
a mi
a ce
b rek
f et
g Ã¶k
h ec
h iy
m onar
n Ã¼k
Ã ĩ
Ġ Ã§
Ġ yet
Ġ ci
Ġ sÄ±nÄ±r
Ġ elma
Ġ pa
ak n
Ã¼ ecek
mi ne
le ot
Ã§ at
Ġol madÄ±
er og
ar akn
iz yon
en to
aÅŁ Ã§
eÄŁ ri
sÃ¼r e
man dan
as mayacak
as ker
ha cÄ±lÄ±k
gel miyor
ĠÃ§ek ti
te lev
ke men
ta c
der g
rak et
ba balÄ±k
kurtar mamÄ±ÅŁ
ilk Ã¶ÄŁretim
onar maz
dadan mayacak
Ã¶ldÃ¼rtÃ¼l Ã¼ecek
lama y
be dev
ĠdeÄŁil im
ĠdeÄŁil din
bil g
daÄŁÄ±t mayacak
ĠaldÄ±r mÄ±yor
saydÄ±r maz
evlen mez
evlen meyecek
saldÄ±r mayacak
bitir meyecek
yendirt memiÅŁ
baÅŁ Ã§Ä±ÄŁ
Ġgel miyor
sikil mez
ad ok
par adok
demle mez
gÃ¼t memiÅŁ
eziyet Ã§
dÃ¼ ÄŁÃ¼n
totem c
Ġson u
LefkoÅŁ al
ĠDa bil
friz b
sebe b
top oloj
muÅŁt unuz
dÃ¼y dÃ¼n
dÃ¼y dÃ¼m
umun uz
Ġb alÄ±ÄŁ
belirt me
bÃ¶ brek
Ġuz ay
Ġku manda
Ġte st
bek leme
fak s
Ġkup Ã¼r
kerpi c
oda cÄ±k
sÄ±cak lÄ±k
karaciÄŁ er
menteÅŁ e
sosyol og
tuva let
galak si
acent elik
Ġmad de
Ã§aydan lÄ±k
ami ral
ace le
hiy erog
nÃ¼k leot
Ãĩ in
ĠÃ§ Ã¶l
Ġyet mez
Ġci s
ĠsÄ±nÄ±r lama
Ġpa st
telev izyon
hiyerog li
b ra
t Ã¼nÃ¼z
de mez
ar ÅŁi
yap mamÄ±ÅŁ
dÃ¼r memiÅŁ
ko bra
iÅŁ Ã§
se lam
du a
kar tÄ±
var mamÄ±ÅŁ
man Ä±
gel memiÅŁ
kat mÄ±yor
sÄ±z mayacak
tak mamÄ±ÅŁ
tak mÄ±yor
aldÄ±r mayacak
iÃ§ memiÅŁ
Ã¶ldÃ¼rt mez
Ã¶ldÃ¼rt memiÅŁ
tÄ± lardÄ±
yaz mayacak
sÃ¼n mez
sÃ¼n gÃ¼
Ã¶ÄŁret miyor
sev mez
sev miyor
uyar mamÄ±ÅŁ
ulu mayacak
ulu maz
deÄŁiÅŁ mez
ser memiÅŁ
kurtar mayacak
onar mÄ±yor
geber meyecek
hastalan mayacak
dadan maz
otur mamÄ±ÅŁ
Ã§al maz
yoksullaÅŁtÄ±r mayacak
Ã¶lÃ§Ã¼l mez
kara lama
solu acak
dal mayacak
ĠdeÄŁil di
ĠdeÄŁil sin
ĠdeÄŁil miÅŁiz
Ã¶ldÃ¼rtÃ¼lme memiÅŁ
Ã¶ÄŁÃ¼t memiÅŁ
Ä±sÄ±r gan
yan Ä±n
sÃ¼rÃ¼ndÃ¼r memiÅŁ
seslen mez
seslen miyor
Ã¼ÅŁen memiÅŁ
aldat maz
kapat maz
Ä°ngilizceleÅŁtir meyecek
Ä°ngilizceleÅŁtir miyor
TÃ¼rkÃ§eleÅŁtir mez
tÃ¼ken mez
ettir mez
eÄŁlen miyor
atÄ±ÅŁ mÄ±yor
bitir miyor
birleÅŁ memiÅŁ
verdirt miyor
yendirt mez
yendirt miyor
ca cÄ±k
diril mez
canlandÄ±rtÄ±l maz
kaynaÅŁtÄ±rtÄ±l mayacak
kaynaÅŁtÄ±rtÄ±l mÄ±yor
Ġal mayacak
boÅŁal mayacak
boÅŁal mÄ±yor
veril mez
alÄ± c
sil g
kalk mayacak
bayÄ±l mayacak
bayÄ±l mÄ±yor
diz e
tÃ¼re memiÅŁ
har c
ÅŁerbet Ã§
kullanÄ±l mayacak
kaynaÅŁtÄ±rÄ±l maz
kaynaÅŁtÄ±rÄ±l mamÄ±ÅŁ
kÄ±ÅŁkÄ±rt mÄ±yor
anlat mÄ±yor
sattÄ±rt maz
karÄ±ÅŁtÄ±rt mamÄ±ÅŁ
yaptÄ±rt maz
kam Ã§
ÅŁah Ä±
sÃ¼rtÃ¼k lÃ¼ÄŁ
Ã¼sÃ¼n Ã¼
eniz i
Ġistem c
Ã§er Ã§
Ġfrek an
muÅŁt um
ĠÄ±ÅŁ Ä±ÄŁ
sÃ¼rpr iz
til de
zor luk
Ġtur a
bezdir i
baÄŁÄ±msÄ±z lÄ±k
kÄ±skanÃ§ lÄ±k
kemen Ã§e
amiral lik
b oz
b oÄŁ
n om
o an
s et
w ik
Ġ aÄŁ
Ġ kÄ±r
Ġ don
Ġ kuvvet
ÅŁ eker
ma dal
le oan
in mez
in meyecek
an dan
an mamÄ±ÅŁ
an mÄ±yor
ay ran
yap maz
lan gÄ±
aÅŁ mÄ±yor
sun mayacak
sun maz
sun mamÄ±ÅŁ
im boz
var maz
var mÄ±yor
sat mayacak
it er
gÃ¶ bek
as mÄ±yor
ha dis
say mamÄ±ÅŁ
ce set
gel mez
Ã§Ã¶ker memiÅŁ
utan maz
bÃ¼k mez
bÃ¼k memiÅŁ
bÃ¼k ey
gecik miyor
kat mamÄ±ÅŁ
te ist
art mamÄ±ÅŁ
art mÄ±yor
sÄ±z mamÄ±ÅŁ
canlandÄ±r maz
canlandÄ±r mÄ±yor
iÃ§ mez
tanÄ± mÄ±yor
yaz maz
yaÄŁ lÄ±
gÃ¶Ã§ meyecek
sÃ¼n memiÅŁ
coÅŁ mayacak
kor imboz
gez meyecek
sÃ¼z mez
ta be
Ã¶ÄŁret mez
dÃ¼ÅŁÃ¼n mez
dÃ¼ÅŁÃ¼n meyecek
sÃ¼s memiÅŁ
sÃ¼s meyecek
dondur mamÄ±ÅŁ
em siy
deÄŁiÅŁ miyor
ser miyor
paylaÅŁ mayacak
kurtar mÄ±yor
Ġver miyor
gÃ¶tÃ¼r meyecek
taÅŁ mayacak
geber mez
geber memiÅŁ
ilklendir memiÅŁ
dadan mamÄ±ÅŁ
dadan mÄ±yor
ĠsÄ±k Ä±ÅŁtÄ±
tep memiÅŁ
yalvar maz
yalvar mamÄ±ÅŁ
yalvar mÄ±yor
gerek miyor
atÄ±ÅŁtÄ±r mamÄ±ÅŁ
yetiÅŁ meyecek
bÃ¼ktÃ¼r memiÅŁ
Ã§al mamÄ±ÅŁ
yoksullaÅŁtÄ±r mamÄ±ÅŁ
sÃ¶k mez
Ã¶lÃ§Ã¼l memiÅŁ
kaÅŁÄ± mayacak
kÄ±y mayacak
kapa mayacak
kapa mÄ±yor
dal mÄ±yor
tr op
canlanma mayacak
oto f
gen ofobi
eÄŁit meyecek
yapÄ±ÅŁ mayacak
yapÄ±ÅŁ mÄ±yor
daÄŁÄ±t mÄ±yor
Ä±sÄ±r maz
Ä±sÄ±r mamÄ±ÅŁ
ĠaldÄ±r mayacak
sÃ¼rÃ¼ndÃ¼r mez
sÃ¼rÃ¼ndÃ¼r meyecek
Ġf Ä±r
saydÄ±r mayacak
kÄ±rdÄ±r mamÄ±ÅŁ
kirlet mez
kÃ¶pÃ¼r mez
evlen miyor
geciktir memiÅŁ
ayÄ±r mayacak
ayÄ±r mÄ±yor
tÃ¼kÃ¼r memiÅŁ
Ã¼ÅŁen mez
Ã¼ÅŁen miyor
aldat mayacak
kapat mamÄ±ÅŁ
utandÄ±r maz
utandÄ±r mamÄ±ÅŁ
unut mamÄ±ÅŁ
dÃ¶ndÃ¼r meyecek
kurut mamÄ±ÅŁ
ĠsÄ±kÄ±ÅŁ mamÄ±ÅŁ
atÄ±ÅŁ mayacak
birleÅŁ mez
birleÅŁ meyecek
deÄŁiÅŁtir miyor
of iter
diril memiÅŁ
dÃ¼rt meyecek
canlandÄ±rtÄ±l mÄ±yor
dÃ¼zelt miyor
Ġgel mez
Ġgel meyecek
Ġal maz
Ġal mamÄ±ÅŁ
boÅŁal mamÄ±ÅŁ
veril meyecek
kok mayacak
pan teist
kalk maz
kork maz
yaÄŁla maz
demle meyecek
benze meyecek
tÃ¼re miyor
pr ofiter
ĠÅŁ emsiy
sar h
mÃ¼ÅŁt er
kÄ±rÄ±l maz
kÄ±rÄ±l mamÄ±ÅŁ
kullanÄ±l maz
katÄ±l mÄ±yor
kÄ±ÅŁkÄ±rt mayacak
kÄ±ÅŁkÄ±rt maz
kÄ±ÅŁkÄ±rt mamÄ±ÅŁ
yapÄ±l maz
anlat mamÄ±ÅŁ
atÄ± ÅŁtÄ±
dÄ±ÅŁ bÃ¼key
yalan cÄ±
dey imin
mikr ob
Ã¶pÃ¼c Ã¼ÄŁ
iya tr
vir gÃ¼lÃ¼n
yorda mÄ±n
psik iyatr
hav uc
deney imin
tab ak
refer an
bilgi sayar
pa leoan
Zagrep l
anÄ±z Ä±
anÄ±z dan
dÃ¼y dÃ¼nÃ¼z
dÃ¼y dÃ¼k
tiy di
ĠÃ§i lek
alfa be
ĠÃ¶r t
ĠkÃ¶p r
naz enin
Ġkura mÄ±
fet va
hec in
Ã§at lak
arakn ofobi
ento moloji
acele cilik
nÃ¼kleot it
hiyerogli f
arÅŁi v
ĠkÄ±r langÄ±
Ġdon an
ÅŁeker par
tabe la
paleoan trop
a ÅŁtÄ±
y Ã¶r
Ġ ke
Ġ derleyic
Ä± la
Ä± ÅŁt
mak in
ma san
de miyor
al tÄ±
yap mayacak
dÃ¼r meyecek
Ã¼z mez
Ã¼z memiÅŁ
Ã¼z meyecek
aÅŁ mamÄ±ÅŁ
ol mayacak
ol mamÄ±ÅŁ
sat maz
dil meyecek
say mayacak
utan mayacak
bÃ¼k meyecek
gecik mez
piÅŁ mez
piÅŁ miyor
kat maz
art mayacak
art maz
aÃ§ mayacak
aÃ§ maz
aÃ§ mÄ±yor
aldÄ±r mÄ±yor
iÃ§ meyecek
tar a
sak son
tanÄ± maz
yaz mÄ±yor
bol c
sÃ¼n meyecek
coÅŁ maz
sÃ¼z meyecek
ta ÅŁtÄ±
dÃ¼ÅŁÃ¼n memiÅŁ
sÃ¼s mez
sap maz
sap mÄ±yor
dondur mayacak
uyar maz
ulu mamÄ±ÅŁ
uy maz
uy mamÄ±ÅŁ
payla ÅŁtÄ±
paylaÅŁ mÄ±yor
gÃ¶tÃ¼r mez
taÅŁ maz
taÅŁ mÄ±yor
ilklendir meyecek
tep miyor
kovdur maz
gerek meyecek
yÄ±ÄŁ mayacak
atÄ±ÅŁtÄ±r mÄ±yor
yetiÅŁ mez
yetiÅŁ memiÅŁ
yetiÅŁ miyor
Ġdik meyecek
bÃ¼ktÃ¼r meyecek
Ã§al g
Ã§al mayacak
sÄ±vÄ±laÅŁtÄ±r mayacak
sÄ±vÄ±laÅŁtÄ±r maz
sÃ¶k memiÅŁ
sÃ¶k meyecek
yum maz
sÃ¶v mez
kaÅŁÄ± maz
kaÅŁÄ± mÄ±yor
kaybol mamÄ±ÅŁ
yÄ±ka mayacak
yÄ±ka maz
kÄ±y mÄ±yor
solu maz
lama dÄ±n
lama dÄ±nÄ±z
ĠdeÄŁil diler
san maz
san mamÄ±ÅŁ
canlanma maz
canlanma mamÄ±ÅŁ
canlanma mÄ±yor
Ã¶ldÃ¼rtÃ¼lme mez
Ã¶ldÃ¼rtÃ¼lme meyecek
eÄŁit miyor
daÄŁÄ±t maz
daÄŁÄ±t Ä±mÄ±n
Ä±sÄ±r mÄ±yor
ĠaldÄ±r maz
ĠaldÄ±r mamÄ±ÅŁ
saydÄ±r mamÄ±ÅŁ
kÄ±rdÄ±r mÄ±yor
kirlet memiÅŁ
kÃ¶pÃ¼r meyecek
ayÄ±r maz
ayÄ±r mamÄ±ÅŁ
tÃ¼kÃ¼r mez
boÅŁan mayacak
aldat mamÄ±ÅŁ
utandÄ±r mayacak
utandÄ±r mÄ±yor
iyileÅŁtir memiÅŁ
Ä°ngilizceleÅŁtir memiÅŁ
kaÃ§Ä±r mayacak
kaÃ§Ä±r mamÄ±ÅŁ
TÃ¼rkÃ§eleÅŁtir memiÅŁ
tÃ¼ken memiÅŁ
tÃ¼ken meyecek
tÃ¼ken miyor
unut mayacak
ettir memiÅŁ
ettir meyecek
ettir miyor
sÃ¼mÃ¼r mez
sÃ¼mÃ¼r memiÅŁ
sÃ¼mÃ¼r meyecek
uÄŁrat mayacak
uÄŁrat maz
kurut mayacak
ĠsÄ±kÄ±ÅŁ mayacak
ĠsÄ±kÄ±ÅŁ maz
ĠsÄ±kÄ±ÅŁ mÄ±yor
gÃ¼cen mez
gÃ¼cen memiÅŁ
gÃ¼cen miyor
gÃ¼lÃ¼nÃ§leÅŁ memiÅŁ
gÃ¼lÃ¼nÃ§leÅŁ miyor
delir memiÅŁ
delir meyecek
delir miyor
deÄŁiÅŁtir meyecek
tanÄ±t mÄ±yor
verdirt mez
verdirt memiÅŁ
verdirt meyecek
Ã§Ã¶kert mez
Ã§Ã¶kert miyor
Ã¶lÃ§tÃ¼rt mez
Ã¶lÃ§tÃ¼rt memiÅŁ
diril meyecek
dÃ¼rt memiÅŁ
gidil memiÅŁ
gidil miyor
seÃ§il mez
seÃ§il meyecek
seÃ§il miyor
canlandÄ±rtÄ±l mayacak
kaynaÅŁtÄ±rtÄ±l maz
Ġal mÄ±yor
sÃ¶z lÃ¼ÄŁ
veril miyor
kok maz
kalk mamÄ±ÅŁ
kalk mÄ±yor
kork mayacak
elle mez
yaÄŁla mayacak
bayÄ±l maz
demle miyor
benze miyor
tÃ¼re meyecek
dire memiÅŁ
dire miyor
sek s
gÃ¼t mez
yav r
pusu lan
kÄ±rÄ±l mÄ±yor
kullanÄ±l mamÄ±ÅŁ
kullanÄ±l mÄ±yor
katÄ±l mayacak
yapÄ±l mamÄ±ÅŁ
yapÄ±l mÄ±yor
atÄ±l mayacak
anlat mayacak
ÅŁaÅŁÄ±rt mayacak
ÅŁaÅŁÄ±rt maz
ÅŁaÅŁÄ±rt mÄ±yor
sattÄ±rt mÄ±yor
bÃ¼rÃ¼ meyecek
bÃ¼yÃ¼ leyic
ĠsÃ¼rÃ¼m Ã¼
basket bolc
Tiran l
Ġkedi si
sÃ¶zcÃ¼l Ã¼ÄŁ
bor c
evlat lÄ±k
zam mÄ±n
kaldÄ±r ac
anÄ±z a
dÃ¼y dÃ¼
imi ne
ĠkuÅŁ u
Ġsunucu su
Ġkonfer ansÄ±
spa mÄ±n
kÃ¼tÃ¼ ÄŁ
yÃ¼ksÃ¼ ÄŁ
Ã§evir imin
ast Ä±
paradok s
nom ofobi
profiter ol
sarh oÅŁ
bÃ¼yÃ¼leyic iy
f uz
n Ã¼
ya caÄŁÄ±m
ya caÄŁÄ±z
Ġo kulu
Ã§ Ä±sÄ±
in miyor
an Ä±
an mayacak
an maz
ir ge
Ġol duy
de meyecek
yap mÄ±yor
dÃ¼r mez
aÅŁ mayacak
on un
kar tÄ±n
Ã¶p mez
Ã¶p memiÅŁ
var mayacak
sat mamÄ±ÅŁ
dil mez
dil miyor
dil imin
as maz
as mamÄ±ÅŁ
Ã§ek irge
say maz
say mÄ±yor
gel meyecek
Ã§Ã¶ker mez
Ã§Ã¶ker meyecek
utan mamÄ±ÅŁ
utan mÄ±yor
gecik memiÅŁ
gecik meyecek
piÅŁ memiÅŁ
din in
bit memiÅŁ
av iz
ke sen
aÃ§ mamÄ±ÅŁ
tak mayacak
aldÄ±r mamÄ±ÅŁ
iÃ§ miyor
sak sÄ±
kÃ¶p Ã¼ÄŁ
yaz mamÄ±ÅŁ
gÃ¶Ã§ mez
gÃ¶Ã§ memiÅŁ
kor sen
gez mez
gez memiÅŁ
gez miyor
Ã¶ÄŁret memiÅŁ
der le
dondur maz
kop maz
kop mamÄ±ÅŁ
uyar mayacak
deÄŁiÅŁ meyecek
Ġver memiÅŁ
Ġver meyecek
taÅŁ mamÄ±ÅŁ
geber miyor
hastalan maz
hastalan mÄ±yor
ilklendir mez
ilklendir miyor
tep meyecek
kovdur mayacak
kovdur mamÄ±ÅŁ
gerek memiÅŁ
yÄ±ÄŁ mamÄ±ÅŁ
atÄ±ÅŁtÄ±r maz
Ġdik mez
Ġdik memiÅŁ
Ã§al mÄ±yor
Ã¶pÃ¼ÅŁ mez
Ã¶pÃ¼ÅŁ memiÅŁ
Ã¶pÃ¼ÅŁ meyecek
sÄ±vÄ±laÅŁtÄ±r mamÄ±ÅŁ
yum mamÄ±ÅŁ
Ã¶lÃ§Ã¼l meyecek
pus mayacak
pus maz
kaÅŁÄ± mamÄ±ÅŁ
kaybol maz
yÄ±ka acak
kÄ±y maz
kÄ±y mamÄ±ÅŁ
solu mayacak
kapa mamÄ±ÅŁ
dal maz
am can
tut mayacak
san mayacak
san mÄ±yor
Ã¶ldÃ¼rtÃ¼lme miyor
eÄŁit mez
yapÄ±ÅŁ mamÄ±ÅŁ
Ã¶ÄŁÃ¼t mez
yan k
saydÄ±r mÄ±yor
kÄ±rdÄ±r mayacak
kÄ±rdÄ±r maz
kirlet meyecek
kirlet miyor
kÃ¶pÃ¼r memiÅŁ
geciktir miyor
tÃ¼kÃ¼r meyecek
saldÄ±r maz
saldÄ±r mamÄ±ÅŁ
Ã¼ÅŁen meyecek
boÅŁan mÄ±yor
aldat mÄ±yor
kapat mÄ±yor
iyileÅŁtir meyecek
iyileÅŁtir miyor
Ä°ngilizceleÅŁtir mez
kaÃ§Ä±r maz
TÃ¼rkÃ§eleÅŁtir miyor
uÄŁrat mamÄ±ÅŁ
uÄŁrat mÄ±yor
eÄŁlen mez
gÃ¼cen meyecek
gÃ¼lÃ¼nÃ§leÅŁ meyecek
Ã¶z nen
bitir memiÅŁ
tanÄ±t mayacak
Ã§Ã¶kert meyecek
Ã¶lÃ§tÃ¼rt meyecek
diril miyor
dÃ¼rt mez
gidil mez
gidil meyecek
seÃ§il memiÅŁ
canlandÄ±rtÄ±l mamÄ±ÅŁ
dÃ¼zelt mez
dÃ¼zelt meyecek
Ġgel memiÅŁ
sikil memiÅŁ
sikil miyor
kok mamÄ±ÅŁ
elle memiÅŁ
elle meyecek
elle miyor
yaÄŁla mamÄ±ÅŁ
yaÄŁla mÄ±yor
min ize
benze mez
dire mez
dire meyecek
gÃ¼t meyecek
viÅŁ nen
kÄ±rÄ±l mayacak
kaynaÅŁtÄ±rÄ±l mayacak
kaynaÅŁtÄ±rÄ±l mÄ±yor
katÄ±l mamÄ±ÅŁ
yapÄ±l mayacak
atÄ±l maz
yol c
ÅŁaÅŁÄ±rt mamÄ±ÅŁ
sattÄ±rt mayacak
sÃ¼rÃ¼ memiÅŁ
karÄ±ÅŁtÄ±rt mÄ±yor
yaptÄ±rt mamÄ±ÅŁ
yaptÄ±rt mÄ±yor
ÅŁapka c
yang Ä±nÄ±n
tÃ¼m cen
Ã¶pÃ¼c Ã¼ÄŁÃ¼n
aiki don
sÃ¼rtÃ¼k lÃ¼ÄŁÃ¼n
Ã¼sÃ¼n e
Ã¼sÃ¼n de
Ã¼sÃ¼n Ã¼n
lÃ¼gat Ã§
Belgrat l
Ã§or ban
bermu dan
cezer yen
Ġsan dal
embr iy
mili me
mimiz e
mimiz de
Ġbir c
rad yon
yalÄ±t Ä±mÄ±n
satran c
manÄ±z Ä±
manÄ±z Ä±n
dina mi
anÄ±z Ä±n
tiy dik
tiy diniz
miniz de
ĠkÄ±l Ä±
Ġyol u
Ġvoleybol u
Ġgru bu
sindir imin
Ġeksen i
ĠdalÄ±ÅŁ Ã§Ä±sÄ±
ĠÃ§amaÅŁÄ±r Ä±
ĠparlatÄ± cÄ±sÄ±
ĠhikÃ¢ye si
Ġmasal Ä±
ĠbalÄ±ÄŁ Ä±
madal ya
ĠÅŁemsiy e
ÅŁekerpar e
paleoantrop oloji
nÃ¼ fuz
d ulu
i ler
k il
k uy
s it
Ġ bilim
ma yon
an da
de memiÅŁ
ek liy
en eri
ik liy
yap Ä±ÅŁtÄ±
aÅŁ maz
den in
Ã¶p meyecek
Ġyap Ä±yorlar
Ã§Ã¶ker miyor
dÃ¼z mez
dÃ¼z memiÅŁ
kat mayacak
yar Ä±ÅŁ
bit mez
bit miyor
sÄ±z maz
sÄ±z mÄ±yor
canlandÄ±r mayacak
canlandÄ±r mamÄ±ÅŁ
tanÄ± mayacak
tanÄ± mamÄ±ÅŁ
Ã¶ldÃ¼rt meyecek
coÅŁ mamÄ±ÅŁ
coÅŁ kul
Ã¶ÄŁret meyecek
der ec
sap mamÄ±ÅŁ
kop mayacak
ser mez
paylaÅŁ maz
Ġver mez
gÃ¶tÃ¼r memiÅŁ
onar mayacak
onar mamÄ±ÅŁ
hastalan mamÄ±ÅŁ
otur mayacak
yalvar mayacak
yÄ±ÄŁ maz
bÃ¼ktÃ¼r mez
yoksullaÅŁtÄ±r maz
sÄ±vÄ±laÅŁtÄ±r mÄ±yor
yum mayacak
yÄ±ka mamÄ±ÅŁ
yÄ±ka mÄ±yor
solu mamÄ±ÅŁ
dal mamÄ±ÅŁ
tut maz
tut mamÄ±ÅŁ
eÄŁit imin
yapÄ±ÅŁ maz
Ġf eneri
seslen memiÅŁ
seslen meyecek
geciktir mez
geciktir meyecek
boÅŁan maz
boÅŁan mamÄ±ÅŁ
kapat mayacak
unut maz
unut tu
dÃ¶ndÃ¼r mez
dÃ¶ndÃ¼r memiÅŁ
gÃ¼lÃ¼nÃ§leÅŁ mez
atÄ±ÅŁ maz
vi dan
tanÄ±t mamÄ±ÅŁ
kaynaÅŁtÄ±rtÄ±l mamÄ±ÅŁ
boÅŁal maz
bayÄ±l mamÄ±ÅŁ
demle memiÅŁ
benze memiÅŁ
tÃ¼re mez
blog c
anas Ä±
Ġoluyor lar
dÃ¼ lerdi
katÄ±l maz
atÄ±l mÄ±yor
anlat maz
lÄ±ÄŁ a
duy ma
karÄ±ÅŁtÄ±rt mayacak
bÃ¼rÃ¼ mez
bÃ¼rÃ¼ memiÅŁ
becer ikliy
sunu c
haÅŁ ef
yeten ekliy
gizem liy
battan iyen
manive lan
motor inin
Ã¼sÃ¼n den
kelep Ã§
pÄ±r asan
muc iz
koruyu c
zur n
mimiz i
izlen cen
tavuk gÃ¶
yÄ±ldÄ±r Ä±mÄ±n
manÄ±z a
manÄ±z dan
anÄ±z da
tiy din
tiy dim
deniz anasÄ±
Ġdur um
voleybol c
Ġuf ku
sÃ¶ÄŁÃ¼ dÃ¼n
maluma tÄ±n
Ġkr izi
Ġtuz aÄŁÄ±
Ġkontrol Ã¼
Ġakademi si
Ġtarif i
ĠhÃ¼cre si
monar ÅŁi
ĠkupÃ¼r Ã¼
ĠÄ±ÅŁÄ±ÄŁ Ä±
boÄŁ a
otof obi
milime tren
kil is
t unuz
v asÄ±
Ġ dan
Ġ arka
Ġ arkadaÅŁ
Ġ kartÄ±
Ġo kul
in memiÅŁ
Ġol mamÄ±ÅŁlar
Ġol mazlar
ko lan
kar nen
sat mÄ±yor
Ġyap mamÄ±ÅŁlar
Ġyap mÄ±yorlar
Ġyap acaklar
ok i
dil memiÅŁ
dil don
piÅŁ meyecek
dÃ¼z meyecek
yar asan
bit meyecek
Ġs istem
Ã¼y ecekler
kÃ¶p Ã¼ÄŁÃ¼n
sap mayacak
kop tu
deÄŁiÅŁ memiÅŁ
ser meyecek
paylaÅŁ mamÄ±ÅŁ
tep mez
otur maz
yÄ±ÄŁ mÄ±yor
atÄ±ÅŁtÄ±r mayacak
ey ecekler
Ġdik miyor
sÃ¶v memiÅŁ
sÃ¶v meyecek
pus mamÄ±ÅŁ
tut k
eÄŁit memiÅŁ
daÄŁÄ±t mamÄ±ÅŁ
iyileÅŁtir mez
eÄŁlen memiÅŁ
eÄŁlen meyecek
atÄ±ÅŁ mamÄ±ÅŁ
birleÅŁ miyor
deÄŁiÅŁtir memiÅŁ
tanÄ±t maz
Ã§Ã¶kert memiÅŁ
yendirt meyecek
of ob
sikil meyecek
kok tu
kork tu
mat lan
dak ik
sek siy
dis kon
sÄ±r ala
kav unun
ĠolmuÅŁ lar
mandal in
Ã§ar p
baz altÄ±n
atÄ±l mamÄ±ÅŁ
lÄ±ÄŁ Ä±
lÄ±ÄŁ Ä±n
duy duk
duy dunuz
sÃ¼rÃ¼ mez
sÃ¼rÃ¼ meyecek
karÄ±ÅŁtÄ±rt maz
yaptÄ±rt mayacak
Ġolur lar
dÃ¼ÅŁÃ¼ncel iy
yakÄ±ÅŁÄ±klÄ± y
bal tan
Ã¼mit liy
oynatÄ± c
sala tan
prote st
Kopenha gl
bey tin
Ã§ekme cen
sÃ¶zcÃ¼l Ã¼ÄŁÃ¼n
cib inin
ayakkabÄ± c
tahdi din
tat l
Ã§im ken
manÄ±z da
mun un
miniz i
miniz in
ĠÄ±ÅŁ Ä±nÄ±
sÃ¶zdiz imi
aynÅŁtaynyu mu
ekstremu mu
ĠdalÄ±ÅŁ Ã§Ä±
ĠparlatÄ± cÄ±
tulu mu
ato mu
yoÄŁur dun
ĠoynatÄ± cÄ±
ĠoynatÄ± cÄ±sÄ±
Ġyu vasÄ±
Ġbit imi
Ġkam pÄ±
Ġkaplan Ä±
Ġtelefon u
ĠmÃ¼hendis liÄŁi
sÃ¼st Ã¼
ĠÃ¶rt Ã¼sÃ¼
tara ban
derle men
Ġsandal yen
coÅŁkul uy
Ġarka daÅŁÄ±
t um
u k
y Ä±n
y Ä±nÄ±z
me men
le ceÄŁ
al tÄ±nÄ±z
ÅŁt Ä±nÄ±z
Ġyap mazlar
Ġyap madÄ±lar
Ġyap mÄ±ÅŁlar
ĠÃ§ek medi
tak maz
sÃ¼z memiÅŁ
sev memiÅŁ
sev meyecek
uyar mÄ±yor
uy mayacak
larmÄ±ÅŁ Ä±z
larmÄ±ÅŁ Ä±m
larmÄ±ÅŁ sÄ±nÄ±z
kurtar maz
gerek mez
yoksullaÅŁtÄ±r mÄ±yor
kapa maz
tut tu
tÃ¼ lerdi
ti lerdi
daÄŁÄ±t Ä±mÄ±
Ã¶ÄŁÃ¼t meyecek
Ä±sÄ±r mayacak
Ġf ener
evlen memiÅŁ
saldÄ±r mÄ±yor
kaÃ§Ä±r mÄ±yor
TÃ¼rkÃ§eleÅŁtir meyecek
kurut tu
dÃ¼zelt memiÅŁ
sÃ¶z lÃ¼ÄŁÃ¼n
veril memiÅŁ
cez ven
sattÄ±rt mamÄ±ÅŁ
duy dun
duy dum
Ġyapar lar
iÅŁlet men
doktr inin
kÄ±ya metin
ala metin
hinterlan dÄ±n
sah if
skrot umu
later n
mimiz in
mid yen
toh umu
yaÄŁlayÄ± c
Ġolmuyor lar
Ġli st
diyor lar
mun da
deniz ana
miniz den
Ġsu y
ĠgÃ¼reÅŁ i
kÃ¼tÃ¼ ÄŁÃ¼n
angu dun
Ġkr iz
Ã¶pÃ¼ÅŁt Ã¼
asi din
Ġceviz i
Ġfil mi
Ġelma sÄ±
Ġyetmez liÄŁi
ĠsÄ±nÄ±rlama sÄ±
Ġpast asÄ±
ĠaÄŁ acÄ±
ĠkÃ¶pr Ã¼sÃ¼
t un
Ã¼ yen
mak tan
ya san
Ã§ oÄŁ
Ã§ asÄ±
yor umu
yor umun
maya n
ÅŁt a
ÅŁt Ä±n
ÅŁt Ä±m
ÅŁt Ä±k
Ġyap mayacaklar
ĠÃ§ek memiÅŁler
siniz e
siniz den
aldÄ±r maz
uy du
larmÄ±ÅŁ sÄ±n
otur du
kovdur du
kaybol mayacak
ydÄ± k
ydÄ± m
kurut maz
ucu ben
pe din
koÅŁ uc
dey i
evla dÄ±
evla dÄ±n
Ġdil imi
yorda mÄ±
iÅŁken cen
hÃ¼kÃ» metin
mas kar
ĠkÃ¶f ten
ambulan sÄ±
ÅŁÄ±rÄ±n g
mimiz den
yumur tan
simil yan
zam mÄ±
yÄ±ldÄ±r Ä±mÄ±
mun dan
Ġdur umun
aÄŁÄ± dÄ±n
Ġkur alÄ±
tÃ¼y dÃ¼m
spa mÄ±
yÃ¼ksÃ¼ ÄŁÃ¼n
pust u
Ġyu va
Ġkam p
akvaryu mu
Ġkumanda sÄ±
Ġtest i
Ġcis mi
ĠfÄ±r Ã§asÄ±
ĠkÄ±rlangÄ± cÄ±
Ġdonan Ä±mÄ±
Ġdan sÄ±
oki yan
Ã§oÄŁ ulu
y dÄ±n
y dÄ±nÄ±z
de medi
ko yu
st a
on u
ol madÄ±
Ã¶p medi
mey e
var madÄ±
canlan madÄ±
ĠÃ§ek miÅŁler
ĠÃ§ek miyorlar
gecik medi
siniz i
piÅŁ medi
dÃ¼z medi
kat madÄ±
bit ti
aldÄ±r dÄ±
Ã¶ldÃ¼rt medi
lardÄ± m
gez di
ta cÄ±
dÃ¼ÅŁÃ¼n dÃ¼
sap madÄ±
dem ley
ulu du
ulu madÄ±
paylaÅŁ madÄ±
gÃ¶tÃ¼r dÃ¼
ald Ä±n
onar madÄ±
geber di
geber medi
ilklendir medi
yalvar madÄ±
yÄ±ÄŁ madÄ±
deÄŁiÅŁt i
Ġdik ti
yoksullaÅŁtÄ±r madÄ±
Ã¶pÃ¼ÅŁ medi
yum du
yum madÄ±
Ã¶lÃ§Ã¼l medi
sÃ¶v medi
kaybol du
kaybol madÄ±
yÄ±ka dÄ±
dal dÄ±
daÄŁÄ±t tÄ±
Ä±sÄ±r madÄ±
ĠaldÄ±r dÄ±
seslen medi
kÄ±rdÄ±r madÄ±
saldÄ±r madÄ±
Ã¼ÅŁen di
boÅŁan dÄ±
boÅŁan madÄ±
aldat tÄ±
kapat madÄ±
iyileÅŁtir di
Ä°ngilizceleÅŁtir medi
TÃ¼rkÃ§eleÅŁtir di
eÄŁlen di
gÃ¼lÃ¼nÃ§leÅŁ medi
bitir medi
delir medi
deÄŁiÅŁtir di
deÄŁiÅŁtir medi
tanÄ±t madÄ±
tanÄ±t tÄ±
verdirt ti
Ã§Ã¶kert ti
canlandÄ±rtÄ±l dÄ±
canlandÄ±rtÄ±l madÄ±
boÅŁal madÄ±
veril di
alÄ± cÄ±
kalk madÄ±
kork mamÄ±ÅŁ
yaÄŁla dÄ±
mum yan
demle medi
tÃ¼re di
dire di
dire medi
gÃ¼t medi
pe di
baz altÄ±
kÄ±rÄ±l dÄ±
kaynaÅŁtÄ±rÄ±l dÄ±
katÄ±l madÄ±
kÄ±ÅŁkÄ±rt tÄ±
yapÄ±l dÄ±
atÄ±l dÄ±
ÅŁaÅŁÄ±rt madÄ±
duy du
sÃ¼rÃ¼ medi
yaptÄ±rt madÄ±
bÃ¼rÃ¼ medi
uygu la
ĠÃ§eker ler
hinterlan dÄ±
bok su
kolon yan
Ġtah tan
lokan tan
refer ansÄ±
Ã§Ã¶zel tin
rÃ¼ yan
forum daÅŁÄ±
Ġfrek ansÄ±
patla dÄ±
aÄŁÄ± dÄ±
tÃ¼y dÃ¼
tÃ¼y dÃ¼n
tÃ¼y dÃ¼nÃ¼z
tÃ¼y dÃ¼k
onuz a
piÅŁt i
angu du
birleÅŁt i
yetiÅŁt i
hudu du
hudu dun
Ġpast a
Ġkuvvet i
dinami tin
tavukgÃ¶ tÃ¼
i me
k Ã¶ÄŁretim
l iyorlar
l kÃ¶ÄŁretim
Ġ balÄ±k
me ti
an dÄ±
Ġol duk
Ġol madÄ±lar
Ġol madÄ±m
Ġol madÄ±nÄ±z
Ġol dular
ka sÄ±nÄ±z
mu ru
yap Ä±ÅŁt
el ley
dÃ¼r medi
dÃ¼r dÃ¼
uz a
uz u
uz dan
st en
sun du
sun madÄ±
on da
Ã¶p tÃ¼
mey i
sat madÄ±
sat tÄ±
Ġyap tÄ±n
Ġyap tÄ±nÄ±z
Ġyap madÄ±n
Ġyap madÄ±nÄ±z
Ġyap tÄ±lar
ok ulu
dil medi
say dÄ±
gel di
gel medi
ĠÃ§ek meyecekler
ĠÃ§ek mezler
utan dÄ±
bÃ¼k tÃ¼
gecik ti
siniz in
siniz de
dÃ¼z dÃ¼
art madÄ±
art tÄ±
bit medi
aÃ§ madÄ±
aÃ§ tÄ±
tak madÄ±
iÃ§ ti
tanÄ± dÄ±
yaz dÄ±
yaz madÄ±
gÃ¶Ã§ medi
gÃ¶Ã§ tÃ¼
sÃ¼n dÃ¼
diniz den
lardÄ± k
gez medi
sÃ¼z dÃ¼
sev medi
dondur du
kop madÄ±
uyar dÄ±
deÄŁiÅŁ medi
ser medi
kurtar dÄ±
kurtar madÄ±
Ġver medi
gÃ¶tÃ¼r medi
taÅŁ madÄ±
hastalan madÄ±
ilklendir di
dadan madÄ±
ĠsÄ±k Ä±ÅŁt
tep ti
otur madÄ±
gerek ti
yÄ±ÄŁ dÄ±
atÄ±ÅŁtÄ±r dÄ±
bÃ¼ktÃ¼r medi
bÃ¼ktÃ¼r dÃ¼
Ã§al dÄ±
Ã§al madÄ±
yoksullaÅŁtÄ±r dÄ±
sÃ¶k medi
Ã¶lÃ§Ã¼l dÃ¼
sÃ¶v dÃ¼
kaÅŁÄ± dÄ±
kÄ±y madÄ±
solu madÄ±
canlanma madÄ±
eÄŁit ti
Ä±sÄ±r dÄ±
sÃ¼rÃ¼ndÃ¼r medi
saydÄ±r dÄ±
kÄ±rdÄ±r dÄ±
kirlet ti
kÃ¶pÃ¼r medi
kÃ¶pÃ¼r dÃ¼
geciktir di
geciktir medi
ayÄ±r dÄ±
ayÄ±r madÄ±
tÃ¼kÃ¼r dÃ¼
Ã¼ÅŁen medi
kapat tÄ±
utandÄ±r dÄ±
utandÄ±r madÄ±
iyileÅŁtir medi
kaÃ§Ä±r dÄ±
kaÃ§Ä±r madÄ±
aba c
tÃ¼ken di
dÃ¶ndÃ¼r medi
uÄŁrat madÄ±
eÄŁlen medi
ĠsÄ±kÄ±ÅŁ madÄ±
gÃ¼cen di
verdirt medi
yendirt medi
yendirt ti
so su
Ã¶lÃ§tÃ¼rt medi
dÃ¼rt tÃ¼
gidil di
kaynaÅŁtÄ±rtÄ±l dÄ±
sikil di
sikil medi
kok madÄ±
kork madÄ±
elle di
yaÄŁla madÄ±
bayÄ±l madÄ±
demle di
benze di
benze medi
tÃ¼re medi
bel den
kullanÄ±l dÄ±
katÄ±l dÄ±
atÄ±l madÄ±
sattÄ±rt tÄ±
sÃ¼rÃ¼ dÃ¼
karÄ±ÅŁtÄ±rt madÄ±
yaptÄ±rt tÄ±
bÃ¼rÃ¼ dÃ¼
tÃ¼t sÃ¼n
tÃ¼t sÃ¼s
dey imimiz
uygu lamanÄ±z
numara la
numara lamanÄ±z
kasi den
Ġprogram la
pila vÄ±
mas karan
anj iy
ambulan sÄ±nÄ±z
batar yan
Ġsinek lerinden
Ġsinek lerinde
Ġsinek lerinin
tahdi di
giy s
toh umun
toh umunuz
piskopo su
Ã§Ã¶zel tiniz
yalÄ±t Ä±mÄ±
satran cÄ±
patla madÄ±
sakla dÄ±
sakla madÄ±
aÄŁla madÄ±
yuvarla dÄ±
yuvarla madÄ±
horla dÄ±
Ġkur al
Ġkur am
onuz dan
kÃ¢bu su
kÃ¢bu sunuz
Ġkonfer ans
aynÅŁtaynyu munuz
Ġuf uk
sindir imimiz
ĠÃ¶r tÃ¼
gÃ¼lÃ¼nÃ§leÅŁt i
Ġfil m
coÅŁt u
lamay Ä±n
lamay Ä±z
ĠfÄ±r Ã§a
Ä±la caÄŁÄ±m
Ä±la caÄŁÄ±z
c Ä±lÄ±ÄŁ
c uluÄŁ
m oloj
la caÄŁÄ±m
in medi
an madÄ±
yor umunuz
ĠmÄ±ymÄ±ÅŁ lar
yap tÄ±
da dÄ±nÄ±z
Ã¼z medi
uz un
ĠmÄ±ydÄ± lar
ol du
var dÄ±
Ġyap tÄ±k
Ġyap tÄ±m
Ġyap madÄ±m
iy dim
dil di
dil imimiz
as madÄ±
say madÄ±
ĠÃ§ek ecekler
ĠÃ§ek iyorlar
utan madÄ±
bÃ¼k medi
kat tÄ±
bay Ä±
sÄ±z dÄ±
sÄ±z madÄ±
tak tÄ±
canlandÄ±r madÄ±
tanÄ± madÄ±
Ã¶ldÃ¼rt tÃ¼
Ã¼y Ã¼
coÅŁ madÄ±
diniz i
sÃ¼z medi
ta caÄŁÄ±z
Ã¶ÄŁret medi
Ã¶ÄŁret ti
sev di
dÃ¼ÅŁÃ¼n medi
dondur madÄ±
uyar madÄ±
uy madÄ±
ser di
ald Ä±nÄ±z
onar dÄ±
tep medi
kovdur madÄ±
gerek medi
atÄ±ÅŁtÄ±r madÄ±
yetiÅŁ medi
Ġdik medi
sÄ±vÄ±laÅŁtÄ±r dÄ±
pus madÄ±
kaÅŁÄ± madÄ±
kara dulu
yÄ±ka madÄ±
solu du
kapa madÄ±
dal madÄ±
lama m
tut madÄ±
san dÄ±
san madÄ±
eÄŁit medi
yapÄ±ÅŁ madÄ±
yan lÄ±
sÃ¼rÃ¼ndÃ¼r dÃ¼
saydÄ±r madÄ±
evlen di
tÃ¼kÃ¼r medi
Ä°ngilizceleÅŁtir di
aba din
TÃ¼rkÃ§eleÅŁtir medi
tÃ¼ken medi
unut madÄ±
ettir di
sÃ¼mÃ¼r medi
dÃ¶ndÃ¼r dÃ¼
uÄŁrat tÄ±
kurut madÄ±
gÃ¼cen medi
atÄ±ÅŁ madÄ±
birleÅŁ medi
delir di
Ã§Ã¶kert medi
Ã¶lÃ§tÃ¼rt tÃ¼
diril di
dÃ¼rt medi
gidil medi
seÃ§il di
dÃ¼zelt medi
kaynaÅŁtÄ±rtÄ±l madÄ±
Ġal dÄ±
Ġal madÄ±
ban kÄ±
ola yÄ±
elle medi
va den
va deniz
bayÄ±l dÄ±
liÄŁ e
liÄŁ in
Ġhal lerini
Ġhal lerinde
Ġhal lerinin
Ġhal ini
Ġhal ine
Ġhal inden
kullanÄ±l madÄ±
kaynaÅŁtÄ±rÄ±l madÄ±
kÄ±ÅŁkÄ±rt madÄ±
yapÄ±l madÄ±
ÅŁaÅŁÄ±rt tÄ±
sattÄ±rt madÄ±
karÄ±ÅŁtÄ±rt tÄ±
benzer ler
tÃ¼t sÃ¼nÃ¼z
evla dÄ±nÄ±z
Ġprogram lamanÄ±z
bey t
bey tiniz
hinterlan dÄ±nÄ±z
bok sunuz
skrot umun
skrot umunuz
albatro su
his s
bor cu
hÃ¼l yan
Ġsinek leri
Ġsinek lerini
peskÃ¼ tanÄ±
Ã§Ã¶zel t
kaldÄ±r acÄ±
Yahu din
ĠsineÄŁ inin
ĠsineÄŁ inde
aÄŁla dÄ±
yala madÄ±
horla madÄ±
kanÄ±tla dÄ±
kanÄ±tla madÄ±
ĠÄ±ÅŁ Ä±k
ĠÄ±ÅŁ Ä±nÄ±n
onuz u
onuz un
onuz da
Ġkonfer an
ekstremu munuz
Ġgru b
Ġgru p
Ġuf k
angu dunuz
ato munuz
Ã§evir imimiz
yoÄŁur du
yoÄŁur dunuz
maluma tÄ±nÄ±z
tuy du
tuy duk
Ġtuz ak
Ã¶pÃ¼ÅŁt Ã¼y
asi di
Ġbit im
monar ÅŁ
Ġfrekan sÄ±nÄ±z
ĠaÄŁ ac
virgÃ¼lÃ¼n Ã¼z
leceÄŁ iz
e ÅŁt
t ayÄ±
t asÄ±
y eye
y eyi
Ġ aÄŁaÃ§
Ġ kart
Ġ dans
Ġ kartÄ±n
Ä± ma
ma na
le te
in meyecekler
in miyorlar
an mayacaklar
an mÄ±yorlar
an Ä±yorlar
an arlar
Ġol dun
Ġol dunuz
Ġol madÄ±k
Ġol madÄ±n
de meyecekler
de miyorlar
mu ÄŁ
ar mu
ÅŁt an
yap madÄ±
yap mazlar
yap mÄ±ÅŁlar
yap acaklar
yap arlar
dÃ¼r memiÅŁler
dÃ¼r Ã¼yorlar
dÃ¼r mÃ¼ÅŁler
dÃ¼r erler
Ã¼z meyecekler
Ã¼z mezler
Ã¼z mÃ¼yorlar
Ã¼z erler
uz da
dir ey
dir iyorlar
dir erler
dir eyecekler
aÅŁ madÄ±
aÅŁ mamÄ±ÅŁlar
aÅŁ mazlar
aÅŁ mayacaklar
aÅŁ arlar
sun mayacaklar
sun muyorlar
on dan
tan Ä±rlar
ol mamÄ±ÅŁlar
ol mayacaklar
Ã¶p meyecekler
Ã¶p mezler
var mÄ±ÅŁlar
var Ä±yorlar
var Ä±rlar
sat mamÄ±ÅŁlar
sat Ä±yorlar
canlan mazlar
canlan mayacaklar
iy din
iy dik
iy diniz
sÃ¼r Ã¼y
sÃ¼r Ã¼yecekler
dil memiÅŁler
dil iyorlar
as mazlar
as mayacaklar
as mÄ±yorlar
as mÄ±ÅŁlar
as acaklar
as arlar
ha di
kap Ä±yorlar
say mazlar
say mayacaklar
say mÄ±ÅŁlar
say Ä±yorlar
gel memiÅŁler
gel mezler
gel irler
ĠmuymuÅŁ lar
ĠÃ§ek tin
ĠÃ§ek tik
ĠÃ§ek mediler
ĠÃ§ek medim
ĠÃ§ek medik
ĠÃ§ek mediniz
Ã§Ã¶ker medi
Ã§Ã¶ker memiÅŁler
Ã§Ã¶ker meyecekler
Ã§Ã¶ker mezler
Ã§Ã¶ker miyorlar
utan mamÄ±ÅŁlar
utan mazlar
utan Ä±yorlar
utan acaklar
bÃ¼k memiÅŁler
bÃ¼k meyecekler
bÃ¼k mezler
bÃ¼k mÃ¼ÅŁler
bÃ¼k erler
gecik memiÅŁler
gecik meyecekler
gecik miÅŁler
gecik miyorlar
piÅŁ memiÅŁler
piÅŁ mezler
piÅŁ ecekler
dÃ¼z mezler
dÃ¼z Ã¼yorlar
dÃ¼z mÃ¼ÅŁler
dÃ¼z erler
kat mamÄ±ÅŁlar
kat mayacaklar
art mamÄ±ÅŁlar
art mayacaklar
art mÄ±yorlar
art acaklar
bit memiÅŁler
bit meyecekler
bit mezler
bit ecekler
bit miyorlar
bit iyorlar
bit erler
aÃ§ mayacaklar
aÃ§ Ä±yorlar
sÄ±z mÄ±yorlar
sÄ±z Ä±yorlar
sÄ±z acaklar
tak mamÄ±ÅŁlar
tak mÄ±yorlar
tak mÄ±ÅŁlar
canlandÄ±r dÄ±
canlandÄ±r mayacaklar
canlandÄ±r Ä±yorlar
canlandÄ±r acaklar
canlandÄ±r Ä±rlar
aldÄ±r madÄ±
aldÄ±r mayacaklar
aldÄ±r mÄ±yorlar
aldÄ±r mÄ±ÅŁlar
aldÄ±r acaklar
iÃ§ medi
iÃ§ ecekler
iÃ§ miÅŁler
iÃ§ erler
tanÄ± mayacaklar
Ã¶ldÃ¼rt memiÅŁler
Ã¶ldÃ¼rt mezler
Ã¶ldÃ¼rt mÃ¼ÅŁler
Ġmuydu lar
yaz mamÄ±ÅŁlar
yaz mayacaklar
yaz mÄ±yorlar
yaz acaklar
gÃ¶Ã§ ecekler
gÃ¶Ã§ Ã¼yorlar
gÃ¶Ã§ erler
sÃ¼n medi
sÃ¼n meyecekler
sÃ¼n erler
coÅŁ mamÄ±ÅŁlar
coÅŁ mazlar
coÅŁ mayacaklar
coÅŁ arlar
coÅŁ muyorlar
diniz e
diniz in
diniz de
gez ecekler
gez miyorlar
gez iyorlar
sÃ¼z memiÅŁler
sÃ¼z meyecekler
sÃ¼z ecekler
Ã¶ÄŁret memiÅŁler
Ã¶ÄŁret meyecekler
Ã¶ÄŁret mezler
Ã¶ÄŁret miyorlar
sev ecekler
der ler
sÃ¼s medi
sÃ¼s meyecekler
sÃ¼s ecekler
sÃ¼s Ã¼yorlar
sÃ¼s erler
sap tÄ±
sap mamÄ±ÅŁlar
sap mazlar
sap mÄ±yorlar
sap Ä±yorlar
sap arlar
dem liyorlar
benz ey
dondur mayacaklar
dondur acaklar
dondur muyorlar
kop mamÄ±ÅŁlar
kop mazlar
kop mayacaklar
kop arlar
uyar mamÄ±ÅŁlar
uyar mazlar
uyar Ä±yorlar
uyar acaklar
ulu mamÄ±ÅŁlar
ulu mazlar
uy duk
uy dunuz
deÄŁiÅŁ meyecekler
deÄŁiÅŁ mezler
ser memiÅŁler
ser meyecekler
ser miÅŁler
paylaÅŁ mamÄ±ÅŁlar
paylaÅŁ mayacaklar
paylaÅŁ mÄ±yorlar
paylaÅŁ mÄ±ÅŁlar
paylaÅŁ acaklar
kurtar mamÄ±ÅŁlar
kurtar Ä±yorlar
kurtar acaklar
bÃ¼r Ã¼yorlar
Ġver di
Ġver memiÅŁler
Ġver meyecekler
Ġver mezler
Ġver miÅŁler
Ġver iyorlar
Ġver irler
gÃ¶tÃ¼r memiÅŁler
gÃ¶tÃ¼r ecekler
gÃ¶tÃ¼r Ã¼yorlar
gÃ¶tÃ¼r mÃ¼yorlar
taÅŁ mamÄ±ÅŁlar
taÅŁ mayacaklar
taÅŁ acaklar
onar mazlar
onar mÄ±yorlar
geber miÅŁler
geber miyorlar
geber iyorlar
geber irler
hastalan dÄ±
hastalan mamÄ±ÅŁlar
hastalan Ä±yorlar
hastalan acaklar
ilklendir ecekler
ilklendir miyorlar
ilklendir irler
dadan dÄ±
dadan mÄ±yorlar
dadan mÄ±ÅŁlar
dadan Ä±yorlar
dadan acaklar
tep mezler
tep miÅŁler
otur muyorlar
kovdur mamÄ±ÅŁlar
kovdur mayacaklar
kovdur muyorlar
yalvar dÄ±
yalvar Ä±rlar
gerek memiÅŁler
gerek mezler
gerek ecekler
gerek miyorlar
yÄ±ÄŁ mayacaklar
yÄ±ÄŁ mÄ±ÅŁlar
yÄ±ÄŁ Ä±yorlar
yÄ±ÄŁ acaklar
atÄ±ÅŁtÄ±r mayacaklar
atÄ±ÅŁtÄ±r Ä±rlar
sÃ¼m Ã¼z
yetiÅŁ miÅŁler
Ġdik memiÅŁler
Ġdik mezler
Ġdik ecekler
Ġdik miÅŁler
bÃ¼ktÃ¼r memiÅŁler
bÃ¼ktÃ¼r Ã¼yorlar
Ã§al mamÄ±ÅŁlar
Ã§al mazlar
Ã§al mÄ±yorlar
yoksullaÅŁtÄ±r Ä±rlar
Ã¶pÃ¼ÅŁ memiÅŁler
Ã¶pÃ¼ÅŁ mezler
Ã¶pÃ¼ÅŁ Ã¼yorlar
Ã¶pÃ¼ÅŁ mÃ¼ÅŁler
sÄ±vÄ±laÅŁtÄ±r madÄ±
sÄ±vÄ±laÅŁtÄ±r mÄ±ÅŁlar
sÄ±vÄ±laÅŁtÄ±r Ä±rlar
Ã¶ldÃ¼rtÃ¼l medi
Ã¶ldÃ¼rtÃ¼l Ã¼y
Ã¶ldÃ¼rtÃ¼l Ã¼yorlar
sÃ¶k meyecekler
sÃ¶k mÃ¼ÅŁler
Ã¶lÃ§Ã¼l memiÅŁler
Ã¶lÃ§Ã¼l meyecekler
Ã¶lÃ§Ã¼l mÃ¼ÅŁler
sÃ¶v memiÅŁler
sÃ¶v Ã¼yorlar
sÃ¶v mÃ¼ÅŁler
pus mazlar
pus acaklar
pus arlar
pus muyorlar
kaÅŁÄ± mamÄ±ÅŁlar
kaÅŁÄ± mayacaklar
kaÅŁÄ± mÄ±ÅŁlar
kaybol muyorlar
yÄ±ka mamÄ±ÅŁlar
yÄ±ka mazlar
yÄ±ka mÄ±yorlar
yÄ±ka mÄ±ÅŁlar
kÄ±y dÄ±
solu muyorlar
kapa dÄ±
kapa mamÄ±ÅŁlar
kapa mÄ±yorlar
kapa mÄ±ÅŁlar
dal mazlar
tut mamÄ±ÅŁlar
tut arlar
san mÄ±yorlar
canlanma mamÄ±ÅŁlar
canlanma mÄ±yorlar
Ã¶ldÃ¼rtÃ¼lme mezler
Ã¶ldÃ¼rtÃ¼lme miyorlar
eÄŁit mezler
eÄŁit ecekler
eÄŁit imimiz
yapÄ±ÅŁ mamÄ±ÅŁlar
yapÄ±ÅŁ Ä±rlar
daÄŁÄ±t mamÄ±ÅŁlar
daÄŁÄ±t mazlar
daÄŁÄ±t mÄ±yorlar
daÄŁÄ±t Ä±yorlar
daÄŁÄ±t acaklar
Ã¶ÄŁÃ¼t medi
Ã¶ÄŁÃ¼t tÃ¼
Ã¶ÄŁÃ¼t mezler
Ã¶ÄŁÃ¼t Ã¼yorlar
Ã¶ÄŁÃ¼t mÃ¼ÅŁler
Ã¶ÄŁÃ¼t mÃ¼yorlar
Ä±sÄ±r mazlar
Ä±sÄ±r mayacaklar
Ä±sÄ±r Ä±yorlar
Ä±sÄ±r Ä±rlar
ĠaldÄ±r madÄ±
ĠaldÄ±r mamÄ±ÅŁlar
ĠaldÄ±r mazlar
sÃ¼rÃ¼ndÃ¼r ecekler
sÃ¼rÃ¼ndÃ¼r Ã¼yorlar
seslen di
seslen ecekler
seslen iyorlar
saydÄ±r mazlar
saydÄ±r mÄ±yorlar
saydÄ±r Ä±yorlar
kÄ±rdÄ±r mÄ±yorlar
kÄ±rdÄ±r Ä±yorlar
kÄ±rdÄ±r acaklar
kirlet medi
kirlet memiÅŁler
kirlet meyecekler
kirlet mezler
kirlet ecekler
kirlet iyorlar
kÃ¶pÃ¼r memiÅŁler
kÃ¶pÃ¼r mezler
kÃ¶pÃ¼r mÃ¼ÅŁler
evlen medi
evlen memiÅŁler
evlen ecekler
evlen miyorlar
geciktir meyecekler
geciktir miyorlar
geciktir iyorlar
ayÄ±r mÄ±yorlar
ayÄ±r mÄ±ÅŁlar
ayÄ±r Ä±rlar
tÃ¼kÃ¼r mÃ¼ÅŁler
tÃ¼kÃ¼r mÃ¼yorlar
saldÄ±r dÄ±
saldÄ±r mamÄ±ÅŁlar
saldÄ±r Ä±yorlar
saldÄ±r acaklar
saldÄ±r Ä±rlar
Ã¼ÅŁen ecekler
Ã¼ÅŁen iyorlar
boÅŁan mayacaklar
boÅŁan mÄ±ÅŁlar
aldat mÄ±yorlar
aldat Ä±rlar
kapat mamÄ±ÅŁlar
kapat mÄ±yorlar
utandÄ±r mamÄ±ÅŁlar
utandÄ±r mayacaklar
utandÄ±r mÄ±yorlar
utandÄ±r mÄ±ÅŁlar
utandÄ±r Ä±rlar
iyileÅŁtir memiÅŁler
iyileÅŁtir meyecekler
iyileÅŁtir mezler
iyileÅŁtir miÅŁler
iyileÅŁtir iyorlar
Ä°ngilizceleÅŁtir meyecekler
Ä°ngilizceleÅŁtir mezler
Ä°ngilizceleÅŁtir ecekler
Ä°ngilizceleÅŁtir miÅŁler
kaÃ§Ä±r mamÄ±ÅŁlar
kaÃ§Ä±r mazlar
kaÃ§Ä±r mayacaklar
kaÃ§Ä±r mÄ±yorlar
TÃ¼rkÃ§eleÅŁtir meyecekler
TÃ¼rkÃ§eleÅŁtir mezler
TÃ¼rkÃ§eleÅŁtir miyorlar
TÃ¼rkÃ§eleÅŁtir iyorlar
tÃ¼ken meyecekler
tÃ¼ken miÅŁler
unut mamÄ±ÅŁlar
unut muyorlar
ettir iyorlar
ettir irler
sÃ¼mÃ¼r dÃ¼
sÃ¼mÃ¼r Ã¼yorlar
uÄŁrat mayacaklar
uÄŁrat acaklar
kurut mayacaklar
kurut acaklar
eÄŁlen miyorlar
eÄŁlen irler
ĠsÄ±kÄ±ÅŁ mazlar
ĠsÄ±kÄ±ÅŁ mÄ±yorlar
ĠsÄ±kÄ±ÅŁ mÄ±ÅŁlar
ĠsÄ±kÄ±ÅŁ Ä±yorlar
ĠsÄ±kÄ±ÅŁ Ä±rlar
gÃ¼cen meyecekler
gÃ¼cen mezler
gÃ¼cen irler
gÃ¼lÃ¼nÃ§leÅŁ memiÅŁler
gÃ¼lÃ¼nÃ§leÅŁ meyecekler
gÃ¼lÃ¼nÃ§leÅŁ ecekler
gÃ¼lÃ¼nÃ§leÅŁ miÅŁler
gÃ¼lÃ¼nÃ§leÅŁ iyorlar
gÃ¼lÃ¼nÃ§leÅŁ irler
atÄ±ÅŁ mazlar
atÄ±ÅŁ mÄ±ÅŁlar
atÄ±ÅŁ acaklar
bitir di
bitir ecekler
bitir miÅŁler
bitir iyorlar
birleÅŁ ecekler
birleÅŁ miÅŁler
delir memiÅŁler
delir meyecekler
delir ecekler
delir miyorlar
deÄŁiÅŁtir meyecekler
deÄŁiÅŁtir miyorlar
tanÄ±t mÄ±ÅŁlar
verdirt memiÅŁler
verdirt miyorlar
verdirt iyorlar
Ã§Ã¶kert mezler
Ã§Ã¶kert miÅŁler
yendirt memiÅŁler
yendirt meyecekler
yendirt mezler
yendirt iyorlar
so sunuz
Ã¶lÃ§tÃ¼rt Ã¼yorlar
diril medi
diril memiÅŁler
diril meyecekler
diril mezler
diril iyorlar
diril irler
dÃ¼rt mezler
dÃ¼rt Ã¼yorlar
dÃ¼rt mÃ¼yorlar
gidil memiÅŁler
gidil meyecekler
gidil miÅŁler
gidil miyorlar
gidil iyorlar
gidil irler
seÃ§il medi
seÃ§il memiÅŁler
seÃ§il meyecekler
seÃ§il miÅŁler
seÃ§il iyorlar
canlandÄ±rtÄ±l mamÄ±ÅŁlar
canlandÄ±rtÄ±l mÄ±ÅŁlar
canlandÄ±rtÄ±l Ä±rlar
dÃ¼zelt ti
dÃ¼zelt memiÅŁler
dÃ¼zelt meyecekler
dÃ¼zelt miyorlar
kaynaÅŁtÄ±rtÄ±l mamÄ±ÅŁlar
kaynaÅŁtÄ±rtÄ±l mazlar
kaynaÅŁtÄ±rtÄ±l mÄ±yorlar
kaynaÅŁtÄ±rtÄ±l Ä±yorlar
Ġgel di
Ġgel medi
Ġgel memiÅŁler
Ġgel mezler
Ġal mamÄ±ÅŁlar
Ġal mazlar
boÅŁal mamÄ±ÅŁlar
boÅŁal mazlar
boÅŁal Ä±rlar
veril medi
sÃ¼rÃ¼m Ã¼yorlar
sÃ¼rÃ¼m Ã¼ÅŁt
kok mayacaklar
kok muyorlar
kalk tÄ±
kalk mazlar
kalk mayacaklar
kalk mÄ±yorlar
kalk Ä±yorlar
kork muyorlar
elle memiÅŁler
elle meyecekler
elle miyorlar
yaÄŁla mazlar
yaÄŁla mayacaklar
bayÄ±l mamÄ±ÅŁlar
bayÄ±l mazlar
bayÄ±l mÄ±yorlar
demle meyecekler
demle miyorlar
benze memiÅŁler
benze mezler
gÃ¼t mÃ¼yorlar
bel deniz
har cÄ±
Ġsay Ä±nÄ±n
ĠfÃ¼z enin
baz altÄ±nÄ±z
Ġasimptot u
Ġasimptot larÄ±ndan
Ġasimptot larÄ±nÄ±
Ġasimptot unu
Ġasimptot undan
Ġhal leri
Ġhal lerine
Ġhal inin
Ġhal inde
kÄ±rÄ±l madÄ±
kÄ±rÄ±l mamÄ±ÅŁlar
kÄ±rÄ±l mazlar
kÄ±rÄ±l mayacaklar
kÄ±rÄ±l mÄ±yorlar
kullanÄ±l mazlar
kullanÄ±l mayacaklar
katÄ±l mamÄ±ÅŁlar
katÄ±l mÄ±yorlar
kÄ±ÅŁkÄ±rt mayacaklar
yapÄ±l mamÄ±ÅŁlar
yapÄ±l mÄ±yorlar
ĠsayÄ± larÄ±nda
ĠsayÄ± larÄ±nÄ±n
atÄ±l mamÄ±ÅŁlar
atÄ±l mazlar
anlat madÄ±
anlat tÄ±
anlat mazlar
ÅŁaÅŁÄ±rt mazlar
ÅŁaÅŁÄ±rt mayacaklar
ĠfÃ¼ze lerin
ĠfÃ¼ze lerinden
ĠfÃ¼ze lerine
sattÄ±rt mamÄ±ÅŁlar
sattÄ±rt mayacaklar
sÃ¼rÃ¼ memiÅŁler
karÄ±ÅŁtÄ±rt mÄ±yorlar
diler ler
yaptÄ±rt mazlar
ĠyazÄ±lÄ±m larÄ±nda
bÃ¼rÃ¼ meyecekler
bÃ¼rÃ¼ mezler
Ġgezegen leri
Ġanahtar Ä±nÄ±n
Ġanahtar Ä±nÄ±
Ġanahtar Ä±na
olacak lar
tÃ¼t sÃ¼mÃ¼z
mantÄ±klÄ± y
Ġdil imin
bÃ¼rÃ¼m Ã¼ÅŁt
albatro sunuz
Ġsinek lerine
ÅŁÄ±rÄ±n gan
deney imimiz
piskopo sunuz
kokar lar
ĠsineÄŁ ini
ĠsineÄŁ ine
yapÄ±lacak lar
kullanÄ±lÄ±yor lar
oturuyor lar
yaptÄ±rtÄ±yor lar
ÅŁaÅŁÄ±rtmÄ±ÅŁ lar
yapÄ±lÄ±yor lar
uyacak lar
yalamÄ±ÅŁ lar
kÄ±ÅŁkÄ±rtacak lar
kanÄ±tlÄ±yor lar
kovduruyor lar
sattÄ±rtÄ±yor lar
kaÅŁ Ä±yorlar
atÄ±lÄ±yor lar
coÅŁmuÅŁ lar
karÄ±ÅŁtÄ±rtmÄ±ÅŁ lar
sayacak lar
unutuyor lar
oluyor lar
korkacak lar
sikilecek ler
kullanÄ±lmÄ±ÅŁ lar
sattÄ±rtacak lar
Ã§alacak lar
bÃ¼rÃ¼mÃ¼ÅŁ ler
atÄ±lmÄ±ÅŁ lar
kaynaÅŁtÄ±rÄ±lÄ±yor lar
kaynaÅŁtÄ±rÄ±lmÄ±ÅŁ lar
kopuyor lar
kayboluyor lar
tutuyor lar
aÄŁlamÄ±ÅŁ lar
patla mamÄ±ÅŁlar
patla mayacaklar
patla mÄ±yorlar
kullanÄ±lacak lar
donduruyor lar
kaybolmuÅŁ lar
boÅŁalacak lar
pusmuÅŁ lar
olmuÅŁ lar
sakla mamÄ±ÅŁlar
sakla mayacaklar
sakla mÄ±yorlar
yumacak lar
dondurmuÅŁ lar
sunmuÅŁ lar
korkmuÅŁ lar
yala dÄ±
yala mamÄ±ÅŁlar
yala mazlar
yala mayacaklar
uymuÅŁ lar
horla mazlar
kÄ±rÄ±lÄ±r lar
katÄ±lÄ±r lar
yummuÅŁ lar
gÃ¼der ler
kanÄ±tla mamÄ±ÅŁlar
daÄŁÄ±tÄ±r lar
yendirtir ler
kÄ±yar lar
Ã¶ldÃ¼rtÃ¼lÃ¼r ler
ulur lar
bayÄ±lÄ±r lar
sÃ¶ker ler
Ã§Ã¶kertir ler
sattÄ±rtÄ±r lar
aÄŁlayacak lar
tanÄ±tÄ±r lar
demler ler
Ã¶lÃ§tÃ¼rtÃ¼r ler
tÃ¼kÃ¼rÃ¼r ler
eller ler
bÃ¼rÃ¼r ler
Ã¶lÃ§Ã¼lÃ¼r ler
uluyacak lar
kÃ¶pÃ¼rÃ¼r ler
dÃ¼rter ler
saklayacak lar
ÅŁaÅŁÄ±rtÄ±r lar
soluyacak lar
atÄ±lÄ±r lar
aÄŁÄ± dÄ±nÄ±z
horlayacak lar
dalar lar
kanÄ±tlar lar
bÃ¼ktÃ¼rÃ¼r ler
yaÄŁlar lar
patlar lar
patlayacak lar
aÄŁlar lar
saklar lar
ĠyazÄ±lÄ±mÄ±n da
ĠyazÄ±lÄ±mÄ±n dan
ile ceÄŁ
deÄŁiÅŁtirmez ler
sÃ¶ÄŁÃ¼ d
sÃ¶ÄŁÃ¼ dÃ¼nÃ¼z
tulu munuz
maluma tÄ±
tuy dun
tuy dum
Ġtuz aÄŁ
Ġkup Ã¼rÃ¼n
hudu dunuz
ĠkÃ¶p rÃ¼
naz en
akvaryu munuz
Ġkura mÄ±n
ĠmÃ¼hendis lik
ĠmÃ¼hendis liÄŁ
lamay Ä±nÄ±z
Ġyetmez liÄŁ
Ġcis m
ÅŁahÄ± sÄ±nÄ±z
Ġdonan Ä±m
Ġke din
dinami tiniz
tavukgÃ¶ t
ofob iyi
leceÄŁ im
a bec
i let
Ġ gÃ¶
Ã¼ se
la caÄŁÄ±z
me te
Ä±n lÄ±ÄŁÄ±n
le vi
in mezler
in ecekler
in miÅŁler
in iyorlar
an mamÄ±ÅŁlar
an madÄ±lar
an mÄ±ÅŁlar
an acaklar
Ġol un
Ġol unuz
Ġol muÅŁsun
Ġol muÅŁum
Ġol dum
Ġol madÄ±ydÄ±
Ġol mazdÄ±
Ġol madÄ±ydÄ±k
Ġol mazdÄ±k
Ġol mamÄ±ÅŁsÄ±nÄ±z
Ġol mamÄ±ÅŁtÄ±n
Ġol mamÄ±ÅŁmÄ±ÅŁsÄ±nÄ±z
Ġol mamÄ±ÅŁmÄ±ÅŁsÄ±n
Ġol mayÄ±z
Ġol mamÄ±ÅŁtÄ±
Ġol mamÄ±ÅŁlarmÄ±ÅŁ
Ġol mayÄ±n
Ġol mamÄ±ÅŁÄ±m
Ġol madÄ±ydÄ±nÄ±z
Ġol mamÄ±ÅŁÄ±z
Ġol mamÄ±ÅŁtÄ±m
Ġol mamÄ±ÅŁtÄ±nÄ±z
Ġol mam
Ġol mamÄ±ÅŁmÄ±ÅŁÄ±m
Ġol muÅŁtu
Ġol muÅŁtun
de mezler
de miÅŁler
ka caÄŁÄ±m
mu ra
di ÄŁ
yap mayacaklar
yap mÄ±yorlar
yap madÄ±lar
yap Ä±yorlar
da dÄ±n
dÃ¼r meyecekler
dÃ¼r mezler
dÃ¼r ecekler
Ã¼z mediler
Ã¼z dÃ¼
Ã¼z Ã¼yorlar
Ã¼z dÃ¼ler
aÅŁ mÄ±ÅŁlar
aÅŁ Ä±yorlar
aÅŁ acaklar
sun mamÄ±ÅŁlar
sun mazlar
sun madÄ±lar
sun acaklar
sun arlar
on a
tÃ¼r Ã¼yorlar
tÃ¼r eyecekler
ol muyorlar
ol dular
kar tÄ±nÄ±z
Ã¶p memiÅŁler
Ã¶p ecekler
Ã¶p Ã¼yorlar
Ã¶p mÃ¼ÅŁler
Ã¶p mÃ¼yorlar
Ã¶p erler
var mamÄ±ÅŁlar
var mazlar
var mÄ±yorlar
sat mazlar
sat mayacaklar
sat mÄ±yorlar
Ġyap ma
Ġyap Ä±nÄ±z
Ġyap mÄ±ÅŁsÄ±nÄ±z
Ġyap mÄ±ÅŁsÄ±n
Ġyap mÄ±ÅŁÄ±z
Ġyap mÄ±ÅŁÄ±m
Ġyap madÄ±k
Ġyap madÄ±ydÄ±m
Ġyap mamÄ±ÅŁsÄ±nÄ±z
Ġyap mamÄ±ÅŁtÄ±n
Ġyap madÄ±ydÄ±n
Ġyap mazmÄ±ÅŁÄ±z
Ġyap mamÄ±ÅŁmÄ±ÅŁsÄ±nÄ±z
Ġyap mamÄ±ÅŁmÄ±ÅŁsÄ±n
Ġyap mamÄ±ÅŁtÄ±k
Ġyap mamÄ±ÅŁtÄ±
Ġyap mamÄ±ÅŁlarmÄ±ÅŁ
Ġyap mayÄ±n
Ġyap mayacakmÄ±ÅŁ
Ġyap mamÄ±ÅŁÄ±m
Ġyap madÄ±ydÄ±nÄ±z
Ġyap mayacaÄŁÄ±m
Ġyap mayacakmÄ±ÅŁsÄ±nÄ±z
Ġyap madÄ±lardÄ±
Ġyap mayacaksÄ±n
Ġyap mayacaklarmÄ±ÅŁ
Ġyap mamÄ±ÅŁtÄ±m
Ġyap mayacaktÄ±
Ġyap mazmÄ±ÅŁ
Ġyap mamÄ±ÅŁmÄ±ÅŁ
Ġyap mayacaksÄ±nÄ±z
Ġyap mayacaklardÄ±
Ġyap mayacaktÄ±nÄ±z
Ġyap mamÄ±ÅŁlardÄ±
Ġyap mazmÄ±ÅŁsÄ±n
Ġyap mamÄ±ÅŁsÄ±n
Ġyap mayacaÄŁÄ±z
Ġyap mayacakmÄ±ÅŁÄ±m
Ġyap mazsÄ±n
Ġyap mam
Ġyap mazlarmÄ±ÅŁ
Ġyap acaÄŁÄ±m
canlan mÄ±yorlar
sÃ¼r Ã¼yorlar
dil meyecekler
dil miyorlar
dil diler
dil bili
as mamÄ±ÅŁlar
as madÄ±lar
as Ä±yorlar
as ana
kap arlar
say mamÄ±ÅŁlar
say mÄ±yorlar
say dÄ±lar
gel meyecekler
gel miÅŁler
gel mediler
gel miyorlar
ĠÃ§ek tiler
Ã§Ã¶ker di
Ã§Ã¶ker ecekler
Ã§Ã¶ker miÅŁler
Ã§Ã¶ker mediler
Ã§Ã¶ker iyorlar
Ã§Ã¶ker diler
Ã§Ã¶ker irler
utan mayacaklar
utan mÄ±yorlar
utan madÄ±lar
utan mÄ±ÅŁlar
utan dÄ±lar
utan Ä±rlar
bÃ¼k Ã¼yorlar
bÃ¼k mÃ¼yorlar
gecik mediler
gecik iyorlar
gecik irler
gecik tiler
piÅŁ meyecekler
piÅŁ miyorlar
piÅŁ iyorlar
piÅŁ erler
dÃ¼z memiÅŁler
dÃ¼z meyecekler
dÃ¼z ecekler
dÃ¼z dÃ¼ler
kat mazlar
kat madÄ±lar
kat mÄ±ÅŁlar
kat acaklar
kat arlar
art mÄ±ÅŁlar
art Ä±yorlar
art arlar
art tÄ±lar
yar atÄ±
bit tiler
aÃ§ mazlar
aÃ§ madÄ±lar
aÃ§ mÄ±ÅŁlar
aÃ§ arlar
sÄ±z mazlar
sÄ±z mayacaklar
sÄ±z madÄ±lar
sÄ±z mÄ±ÅŁlar
tak mazlar
tak mayacaklar
tak madÄ±lar
tak Ä±yorlar
tak acaklar
tak arlar
tak tÄ±lar
canlandÄ±r mazlar
canlandÄ±r mÄ±yorlar
canlandÄ±r madÄ±lar
canlandÄ±r dÄ±lar
aldÄ±r mazlar
aldÄ±r madÄ±lar
iÃ§ memiÅŁler
iÃ§ mezler
iÃ§ mediler
iÃ§ iyorlar
tanÄ± mamÄ±ÅŁlar
tanÄ± mazlar
tanÄ± mÄ±yorlar
tanÄ± mÄ±ÅŁlar
Ã¶ldÃ¼rt meyecekler
Ã¶ldÃ¼rt Ã¼yorlar
Ã¶ldÃ¼rt mÃ¼yorlar
yal Ä±yorlar
kÃ¶p eÄŁ
yaz mazlar
yaz madÄ±lar
yaz mÄ±ÅŁlar
yaz Ä±yorlar
yaz dÄ±lar
gÃ¶Ã§ memiÅŁler
gÃ¶Ã§ mezler
gÃ¶Ã§ tÃ¼ler
sÃ¼n memiÅŁler
sÃ¼n mezler
sÃ¼n mediler
sÃ¼n Ã¼yorlar
sÃ¼n mÃ¼ÅŁler
sÃ¼n mÃ¼yorlar
sÃ¼n dÃ¼ler
coÅŁ madÄ±lar
coÅŁ acaklar
gez memiÅŁler
gez meyecekler
gez mezler
gez erler
sÃ¼z mezler
sÃ¼z mediler
sÃ¼z Ã¼yorlar
sÃ¼z mÃ¼yorlar
sÃ¼z erler
sÃ¼z dÃ¼ler
Ã¶ÄŁret ecekler
Ã¶ÄŁret miÅŁler
Ã¶ÄŁret iyorlar
Ã¶ÄŁret irler
Ã¶ÄŁret tiler
iÅŁt e
sev memiÅŁler
sev meyecekler
sev mezler
sev miÅŁler
sev mediler
sev miyorlar
sev iyorlar
dÃ¼ÅŁÃ¼n memiÅŁler
dÃ¼ÅŁÃ¼n meyecekler
dÃ¼ÅŁÃ¼n mezler
dÃ¼ÅŁÃ¼n ecekler
dÃ¼ÅŁÃ¼n mediler
dÃ¼ÅŁÃ¼n Ã¼yorlar
dÃ¼ÅŁÃ¼n mÃ¼yorlar
sÃ¼s memiÅŁler
sÃ¼s mediler
sÃ¼s mÃ¼ÅŁler
sÃ¼s mÃ¼yorlar
sap mayacaklar
sap madÄ±lar
sap mÄ±ÅŁlar
sap acaklar
sap tÄ±lar
benz iyorlar
benz eyecekler
dondur mamÄ±ÅŁlar
dondur mazlar
kop acaklar
kop muyorlar
uyar mayacaklar
uyar mÄ±yorlar
uyar madÄ±lar
uyar mÄ±ÅŁlar
uyar dÄ±m
uyar Ä±rlar
ulu mayacaklar
ulu madÄ±lar
uy dun
uy mamÄ±ÅŁlar
uy mazlar
uy mayacaklar
uy muyorlar
uy dular
deÄŁiÅŁ memiÅŁler
deÄŁiÅŁ miÅŁler
deÄŁiÅŁ mediler
deÄŁiÅŁ miyorlar
ser mezler
ser ecekler
ser miyorlar
ser erler
fes i
paylaÅŁ mazlar
paylaÅŁ Ä±yorlar
kurtar mazlar
kurtar mayacaklar
kurtar mÄ±yorlar
kurtar mÄ±ÅŁlar
kurtar dÄ±lar
kurtar Ä±rlar
bÃ¼r Ã¼yecekler
Ġver ecekler
gÃ¶tÃ¼r meyecekler
gÃ¶tÃ¼r mediler
gÃ¶tÃ¼r mÃ¼ÅŁler
taÅŁ mazlar
taÅŁ madÄ±lar
taÅŁ Ä±yorlar
taÅŁ arlar
onar mamÄ±ÅŁlar
onar mayacaklar
onar mÄ±ÅŁlar
onar acaklar
onar dÄ±lar
onar Ä±rlar
geber memiÅŁler
geber ecekler
geber mediler
geber diler
hastalan mazlar
hastalan mayacaklar
hastalan madÄ±lar
hastalan mÄ±ÅŁlar
hastalan dÄ±lar
hastalan Ä±rlar
ilklendir memiÅŁler
ilklendir meyecekler
ilklendir mezler
ilklendir miÅŁler
ilklendir mediler
ilklendir iyorlar
ilklendir diler
dadan mazlar
dadan madÄ±lar
dadan dÄ±lar
dadan Ä±rlar
tep memiÅŁler
tep ecekler
tep mediler
tep miyorlar
tep iyorlar
tep erler
otur mazlar
otur madÄ±lar
otur acaklar
kovdur mazlar
kovdur acaklar
yalvar mamÄ±ÅŁlar
yalvar mazlar
yalvar mÄ±yorlar
yalvar mÄ±ÅŁlar
yalvar acaklar
gerek meyecekler
gerek miÅŁler
gerek mediler
gerek iyorlar
gerek irler
dedi y
yÄ±ÄŁ mazlar
yÄ±ÄŁ madÄ±lar
yÄ±ÄŁ arlar
atÄ±ÅŁtÄ±r mazlar
atÄ±ÅŁtÄ±r mÄ±yorlar
atÄ±ÅŁtÄ±r madÄ±lar
atÄ±ÅŁtÄ±r mÄ±ÅŁlar
yetiÅŁ memiÅŁler
yetiÅŁ meyecekler
yetiÅŁ mezler
yetiÅŁ mediler
yetiÅŁ miyorlar
yetiÅŁ iyorlar
yetiÅŁ irler
Ġdik meyecekler
Ġdik mediler
Ġdik miyorlar
Ġdik iyorlar
Ġdik erler
bÃ¼ktÃ¼r meyecekler
bÃ¼ktÃ¼r ecekler
bÃ¼ktÃ¼r mÃ¼ÅŁler
bÃ¼ktÃ¼r mÃ¼yorlar
Ã§al mayacaklar
Ã§al dÄ±lar
yoksullaÅŁtÄ±r mamÄ±ÅŁlar
yoksullaÅŁtÄ±r mazlar
yoksullaÅŁtÄ±r mÄ±yorlar
yoksullaÅŁtÄ±r madÄ±lar
yoksullaÅŁtÄ±r mÄ±ÅŁlar
yoksullaÅŁtÄ±r Ä±yorlar
Ã¶pÃ¼ÅŁ meyecekler
si diÄŁ
sÄ±vÄ±laÅŁtÄ±r mamÄ±ÅŁlar
sÄ±vÄ±laÅŁtÄ±r mÄ±yorlar
sÄ±vÄ±laÅŁtÄ±r Ä±yorlar
sÄ±vÄ±laÅŁtÄ±r acaklar
sÄ±vÄ±laÅŁtÄ±r dÄ±lar
Ã¶ldÃ¼rtÃ¼l mediler
Ã¶ldÃ¼rtÃ¼l Ã¼yecekler
sÃ¶k memiÅŁler
sÃ¶k mezler
sÃ¶k ecekler
sÃ¶k Ã¼yorlar
yum mamÄ±ÅŁlar
yum mazlar
yum mayacaklar
Ã¶lÃ§Ã¼l Ã¼yorlar
Ã¶lÃ§Ã¼l mÃ¼yorlar
sÃ¶v meyecekler
sÃ¶v mezler
pus mamÄ±ÅŁlar
pus mayacaklar
kaÅŁÄ± mazlar
kaÅŁÄ± mÄ±yorlar
kaÅŁÄ± madÄ±lar
kaÅŁÄ± dÄ±lar
kaybol mamÄ±ÅŁlar
kaybol madÄ±lar
yÄ±ka mayacaklar
kÄ±y mamÄ±ÅŁlar
kÄ±y mazlar
kÄ±y mayacaklar
kÄ±y mÄ±yorlar
kÄ±y madÄ±lar
kÄ±y mÄ±ÅŁlar
solu mazlar
solu mayacaklar
kapa mazlar
kapa mayacaklar
kapa dÄ±lar
dal mamÄ±ÅŁlar
dal mayacaklar
dal mÄ±ÅŁlar
tut mazlar
san dal
san mamÄ±ÅŁlar
san mazlar
san mayacaklar
san madÄ±lar
san mÄ±ÅŁlar
san acaklar
canlanma madÄ±lar
Ã¶ldÃ¼rtÃ¼lme medi
Ã¶ldÃ¼rtÃ¼lme memiÅŁler
eÄŁit memiÅŁler
eÄŁit meyecekler
eÄŁit miyorlar
eÄŁit tiler
yapÄ±ÅŁ mazlar
yapÄ±ÅŁ mayacaklar
yapÄ±ÅŁ mÄ±yorlar
yapÄ±ÅŁ mÄ±ÅŁlar
yapÄ±ÅŁ acaklar
daÄŁÄ±t madÄ±
daÄŁÄ±t madÄ±lar
daÄŁÄ±t tÄ±lar
Ã¶ÄŁÃ¼t memiÅŁler
Ã¶ÄŁÃ¼t meyecekler
Ã¶ÄŁÃ¼t ecekler
Ã¶ÄŁÃ¼t mediler
Ã¶ÄŁÃ¼t tÃ¼ler
Ä±sÄ±r mÄ±yorlar
Ä±sÄ±r madÄ±lar
Ä±sÄ±r acaklar
Ä±sÄ±r dÄ±lar
ĠaldÄ±r mayacaklar
ĠaldÄ±r mÄ±ÅŁlar
ĠaldÄ±r Ä±yorlar
ĠaldÄ±r acaklar
ĠaldÄ±r dÄ±lar
ĠaldÄ±r Ä±rlar
sÃ¼rÃ¼ndÃ¼r memiÅŁler
sÃ¼rÃ¼ndÃ¼r meyecekler
sÃ¼rÃ¼ndÃ¼r mÃ¼ÅŁler
sÃ¼rÃ¼ndÃ¼r dÃ¼ler
ri me
seslen meyecekler
seslen mezler
seslen miÅŁler
seslen diler
seslen irler
saydÄ±r mamÄ±ÅŁlar
saydÄ±r madÄ±lar
saydÄ±r mÄ±ÅŁlar
saydÄ±r acaklar
saydÄ±r Ä±rlar
kÄ±rdÄ±r mamÄ±ÅŁlar
kÄ±rdÄ±r madÄ±lar
kÄ±rdÄ±r mÄ±ÅŁlar
kÄ±rdÄ±r Ä±rlar
kirlet mediler
kirlet miyorlar
kÃ¶pÃ¼r meyecekler
kÃ¶pÃ¼r Ã¼yorlar
evlen mezler
evlen miÅŁler
evlen iyorlar
evlen diler
evlen irler
geciktir memiÅŁler
geciktir mezler
geciktir ecekler
geciktir miÅŁler
geciktir diler
ayÄ±r mazlar
ayÄ±r mayacaklar
ayÄ±r madÄ±lar
ayÄ±r Ä±yorlar
ayÄ±r acaklar
ayÄ±r dÄ±lar
tÃ¼kÃ¼r memiÅŁler
tÃ¼kÃ¼r meyecekler
tÃ¼kÃ¼r mezler
tÃ¼kÃ¼r ecekler
tÃ¼kÃ¼r Ã¼yorlar
tÃ¼kÃ¼r dÃ¼ler
saldÄ±r mazlar
saldÄ±r mayacaklar
saldÄ±r madÄ±lar
saldÄ±r dÄ±lar
Ã¼ÅŁen memiÅŁler
Ã¼ÅŁen mezler
Ã¼ÅŁen miÅŁler
Ã¼ÅŁen mediler
Ã¼ÅŁen miyorlar
Ã¼ÅŁen diler
boÅŁan mazlar
boÅŁan mÄ±yorlar
boÅŁan Ä±yorlar
boÅŁan acaklar
boÅŁan dÄ±lar
boÅŁan Ä±rlar
aldat madÄ±
aldat mazlar
aldat mayacaklar
aldat mÄ±ÅŁlar
aldat Ä±yorlar
aldat acaklar
aldat tÄ±lar
kapat mÄ±ÅŁlar
kapat Ä±yorlar
kapat acaklar
utandÄ±r mazlar
iyileÅŁtir ecekler
iyileÅŁtir mediler
iyileÅŁtir miyorlar
Ä°ngilizceleÅŁtir memiÅŁler
Ä°ngilizceleÅŁtir miyorlar
Ä°ngilizceleÅŁtir iyorlar
Ä°ngilizceleÅŁtir irler
kaÃ§Ä±r Ä±yorlar
kaÃ§Ä±r acaklar
kaÃ§Ä±r Ä±rlar
TÃ¼rkÃ§eleÅŁtir ecekler
TÃ¼rkÃ§eleÅŁtir miÅŁler
TÃ¼rkÃ§eleÅŁtir irler
tÃ¼ken memiÅŁler
tÃ¼ken mezler
tÃ¼ken irler
unut mazlar
unut mayacaklar
unut madÄ±lar
unut acaklar
ettir medi
ettir memiÅŁler
ettir miyorlar
ettir diler
sÃ¼mÃ¼r memiÅŁler
sÃ¼mÃ¼r meyecekler
sÃ¼mÃ¼r mezler
sÃ¼mÃ¼r ecekler
sÃ¼mÃ¼r mÃ¼ÅŁler
dÃ¶ndÃ¼r memiÅŁler
dÃ¶ndÃ¼r meyecekler
dÃ¶ndÃ¼r ecekler
dÃ¶ndÃ¼r dÃ¼ler
uÄŁrat mazlar
uÄŁrat mÄ±yorlar
uÄŁrat madÄ±lar
uÄŁrat Ä±yorlar
uÄŁrat Ä±rlar
uÄŁrat tÄ±lar
kurut mamÄ±ÅŁlar
kurut muyorlar
eÄŁlen miÅŁler
eÄŁlen mediler
eÄŁlen iyorlar
ĠsÄ±kÄ±ÅŁ mamÄ±ÅŁlar
ĠsÄ±kÄ±ÅŁ mayacaklar
ĠsÄ±kÄ±ÅŁ madÄ±lar
ĠsÄ±kÄ±ÅŁ acaklar
gÃ¼cen memiÅŁler
gÃ¼cen miÅŁler
gÃ¼cen miyorlar
gÃ¼cen iyorlar
gÃ¼lÃ¼nÃ§leÅŁ mezler
gÃ¼lÃ¼nÃ§leÅŁ mediler
atÄ±ÅŁ madÄ±lar
atÄ±ÅŁ Ä±rlar
bitir memiÅŁler
bitir meyecekler
bitir miyorlar
bitir diler
bitir irler
birleÅŁ memiÅŁler
birleÅŁ meyecekler
birleÅŁ mezler
birleÅŁ miyorlar
birleÅŁ iyorlar
birleÅŁ irler
delir miÅŁler
delir irler
deÄŁiÅŁtir memiÅŁler
deÄŁiÅŁtir ecekler
deÄŁiÅŁtir miÅŁler
deÄŁiÅŁtir mediler
deÄŁiÅŁtir iyorlar
deÄŁiÅŁtir diler
deÄŁiÅŁtir irler
tanÄ±t mamÄ±ÅŁlar
tanÄ±t mazlar
tanÄ±t Ä±yorlar
tanÄ±t acaklar
verdirt meyecekler
verdirt ecekler
verdirt miÅŁler
verdirt mediler
verdirt tiler
Ã§Ã¶kert memiÅŁler
Ã§Ã¶kert meyecekler
Ã§Ã¶kert ecekler
Ã§Ã¶kert miyorlar
Ã§Ã¶kert iyorlar
Ã§Ã¶kert tiler
yendirt miÅŁler
yendirt mediler
yendirt miyorlar
yendirt tiler
ca cÄ±ÄŁ
Ã¶lÃ§tÃ¼rt memiÅŁler
Ã¶lÃ§tÃ¼rt meyecekler
Ã¶lÃ§tÃ¼rt mezler
Ã¶lÃ§tÃ¼rt mÃ¼yorlar
Ã¶lÃ§tÃ¼rt tÃ¼ler
diril miyorlar
gÃ¼d Ã¼yorlar
dÃ¼rt memiÅŁler
dÃ¼rt meyecekler
dÃ¼rt mediler
dÃ¼rt mÃ¼ÅŁler
seÃ§il mezler
seÃ§il miyorlar
seÃ§il diler
seÃ§il irler
canlandÄ±rtÄ±l mayacaklar
canlandÄ±rtÄ±l mÄ±yorlar
canlandÄ±rtÄ±l Ä±yorlar
dÃ¼zelt ecekler
dÃ¼zelt miÅŁler
dÃ¼zelt mediler
dÃ¼zelt tiler
kaynaÅŁtÄ±rtÄ±l mayacaklar
kaynaÅŁtÄ±rtÄ±l madÄ±lar
kaynaÅŁtÄ±rtÄ±l mÄ±ÅŁlar
kaynaÅŁtÄ±rtÄ±l Ä±rlar
Ġgel meyecekler
Ġgel mediler
Ġgel miyorlar
Ġgel diler
Ġgel irler
Ġal mayacaklar
Ġal mÄ±yorlar
Ġal Ä±yorlar
Ġal dÄ±lar
sikil memiÅŁler
sikil meyecekler
sikil mezler
sikil miÅŁler
sikil miyorlar
sikil iyorlar
sikil diler
sikil irler
boÅŁal dÄ±
boÅŁal mayacaklar
boÅŁal madÄ±lar
boÅŁal mÄ±ÅŁlar
boÅŁal Ä±yorlar
veril meyecekler
veril iyorlar
veril irler
Ã§Ä±ÄŁ Ä±
Ã§Ä±ÄŁ Ä±n
kok mamÄ±ÅŁlar
kalk tÄ±lar
kork mazlar
elle mezler
elle miÅŁler
yaÄŁla mamÄ±ÅŁlar
yaÄŁla mÄ±yorlar
yaÄŁla madÄ±lar
yaÄŁla dÄ±lar
demle miÅŁler
demle diler
benze meyecekler
benze miÅŁler
benze mediler
benze miyorlar
benze diler
tÃ¼re meyecekler
tÃ¼re mezler
tÃ¼re miÅŁler
tÃ¼re miyorlar
dire memiÅŁler
dire mezler
dire miÅŁler
dire mediler
dire miyorlar
kus muÄŁ
gÃ¼t tÃ¼
gÃ¼t meyecekler
gÃ¼t mezler
gÃ¼t tÃ¼ler
Ġoluyor um
Ġoluyor larmÄ±ÅŁ
Ġoluyor duk
Ġoluyor muÅŁsunuz
Ġoluyor muÅŁum
Ġoluyor dum
diy i
ĠyapmÄ±ÅŁ mÄ±ÅŁ
ĠyapmÄ±ÅŁ larmÄ±ÅŁ
ĠyapmÄ±ÅŁ tÄ±k
ĠyapmÄ±ÅŁ mÄ±ÅŁsÄ±n
ĠyapmÄ±ÅŁ mÄ±ÅŁÄ±z
ĠyapÄ±yor sun
ĠyapÄ±yor du
ĠyapÄ±yor sunuz
ĠyapÄ±yor lardÄ±
ĠyapÄ±yor larmÄ±ÅŁ
ĠyapÄ±yor dunuz
ĠyapÄ±yor muÅŁsunuz
ĠyapÄ±yor muÅŁuz
ĠolmuÅŁ muÅŁ
ĠolmuÅŁ larmÄ±ÅŁ
ĠolmuÅŁ muÅŁsun
ĠolmuÅŁ muÅŁsunuz
ĠolmuÅŁ muÅŁuz
Ġyapacak mÄ±ÅŁ
Ġyapacak tÄ±
Ġyapacak tÄ±m
Ġyapacak mÄ±ÅŁsÄ±nÄ±z
Ġyapacak mÄ±ÅŁÄ±m
Ġasimptot un
Ġasimptot larÄ±
Ġasimptot larÄ±nda
Ġasimptot larÄ±na
Ġasimptot unun
Ġasimptot una
Ġhal lerinden
kullanÄ±l mamÄ±ÅŁlar
kullanÄ±l dÄ±lar
kaynaÅŁtÄ±rÄ±l mamÄ±ÅŁlar
kaynaÅŁtÄ±rÄ±l mazlar
kaynaÅŁtÄ±rÄ±l mÄ±yorlar
kaynaÅŁtÄ±rÄ±l dÄ±lar
katÄ±l mazlar
katÄ±l mayacaklar
katÄ±l dÄ±lar
kÄ±ÅŁkÄ±rt mamÄ±ÅŁlar
kÄ±ÅŁkÄ±rt mazlar
kÄ±ÅŁkÄ±rt mÄ±yorlar
kÄ±ÅŁkÄ±rt tÄ±lar
yapÄ±l mazlar
yapÄ±l mayacaklar
yapÄ±l dÄ±lar
Ġolmaz mÄ±ÅŁ
Ġolmaz sÄ±n
Ġolmaz sÄ±nÄ±z
Ġolmaz mÄ±ÅŁsÄ±nÄ±z
Ġolmaz mÄ±ÅŁsÄ±n
Ġolmaz mÄ±ÅŁÄ±z
Ġolmaz mÄ±ÅŁÄ±m
ĠsayÄ± larÄ±n
ĠsayÄ± larÄ±
ĠsayÄ± larÄ±na
atÄ±l mayacaklar
atÄ±l madÄ±lar
atÄ±l dÄ±lar
anlat mamÄ±ÅŁlar
anlat mayacaklar
anlat tÄ±lar
ÅŁaÅŁÄ±rt mamÄ±ÅŁlar
ÅŁaÅŁÄ±rt mÄ±yorlar
ÅŁaÅŁÄ±rt madÄ±lar
ĠfÃ¼ze lerini
ĠfÃ¼ze lerinde
ĠfÃ¼ze lerinin
sattÄ±rt mazlar
sattÄ±rt mÄ±yorlar
sÃ¼rÃ¼ me
sÃ¼rÃ¼ mediler
sÃ¼rÃ¼ dÃ¼ler
karÄ±ÅŁtÄ±rt mamÄ±ÅŁlar
karÄ±ÅŁtÄ±rt mayacaklar
karÄ±ÅŁtÄ±rt madÄ±lar
karÄ±ÅŁtÄ±rt tÄ±lar
yÄ±k Ä±yorlar
ĠyazÄ±lÄ±m larÄ±n
ĠyazÄ±lÄ±m larÄ±nÄ±n
ĠyazÄ±lÄ±m larÄ±nÄ±
ĠyazÄ±lÄ±m larÄ±na
bÃ¼rÃ¼ memiÅŁler
bÃ¼rÃ¼ mediler
Ã§alar lar
Ġgezegen i
Ġgezegen in
Ġgezegen de
Ġgezegen ler
Ġgezegen den
Ġgezegen lerde
Ġgezegen lerden
Ġyapar mÄ±ÅŁ
Ġyapar sÄ±n
Ġyapar larmÄ±ÅŁ
Ġyapar mÄ±ÅŁÄ±z
Ġolur sun
Ġolur dun
Ġolur sunuz
Ġolur larmÄ±ÅŁ
Ġolur duk
Ġolur dunuz
Ġolur muÅŁsunuz
Ġolur muÅŁuz
iner ler
Ġanahtar larÄ±
Ġanahtar larÄ±nda
Ġanahtar larÄ±nÄ±n
Ġanahtar larÄ±ndan
Ġanahtar larÄ±nÄ±
Ġanahtar Ä±nda
dilecek ler
sis moloj
Ġson una
Ġson undan
ĠsÃ¼rÃ¼m Ã¼n
ĠsÃ¼rÃ¼m leri
ĠsÃ¼rÃ¼m lerini
ĠsÃ¼rÃ¼m lerine
ĠsÃ¼rÃ¼m Ã¼nÃ¼n
ĠsÃ¼rÃ¼m Ã¼nden
altÄ±n a
altÄ±n Ä±n
altÄ±n da
fahiÅŁ eliÄŁ
Ġdil im
mikr o
kasi deniz
seÃ§men in
bÃ¼rÃ¼m Ã¼yorlar
sey i
hav ucu
hap s
secca den
secca deniz
Ġolmuyor uz
Ġolmuyor sun
Ġolmuyor sunuz
Ġolmuyor lardÄ±
Ġolmuyor larmÄ±ÅŁ
Ġolmuyor duk
Ġolmuyor muÅŁsun
Ġolmuyor muÅŁsunuz
Ġolmuyor dum
noh u
ĠyapmÄ±yor muÅŁ
ĠyapmÄ±yor um
ĠyapmÄ±yor lardÄ±
ĠyapmÄ±yor duk
ĠyapmÄ±yor dunuz
ĠyapmÄ±yor muÅŁuz
ĠyapmÄ±yor dum
yuvarlÄ±yor lar
ĠsineÄŁ inden
sunuyor lar
kÄ±rÄ±lÄ±yor lar
yaptÄ±rtmÄ±ÅŁ lar
dalacak lar
bayÄ±lacak lar
kÄ±yacak lar
korkuyor lar
diyor uz
diyor sun
diyor sunuz
diyor larmÄ±ÅŁ
diyor muÅŁuz
anlatÄ±yor lar
karÄ±ÅŁtÄ±rtacak lar
atÄ±lacak lar
uluyor lar
bayÄ±lÄ±yor lar
Ġgelecek ler
katÄ±lmÄ±ÅŁ lar
patlÄ±yor lar
horluyor lar
kÄ±rÄ±lacak lar
kÄ±rÄ±lmÄ±ÅŁ lar
verilecek ler
ÅŁaÅŁÄ±rtÄ±yor lar
Ġkutu larÄ±nda
Ġkutu larÄ±ndan
Ġkutu larÄ±nÄ±
Ġkutu sunu
Ġkutu sundan
Ġkutu suna
Ġkutu sunda
Ġkutu sunun
canlandÄ±rtÄ±lacak lar
coÅŁuyor lar
patla madÄ±lar
soluyor lar
sayar lar
pusuyor lar
Ġtamlama larÄ±
Ġtamlama larÄ±nda
Ġtamlama larÄ±nÄ±
Ġtamlama sÄ±nÄ±
Ġtamlama sÄ±na
Ġtamlama sÄ±nÄ±n
Ġtamlama sÄ±ndan
Ġtamlama sÄ±nda
yapÄ±lmÄ±ÅŁ lar
kokacak lar
aÄŁlÄ±yor lar
kaynaÅŁtÄ±rtÄ±lacak lar
bayÄ±lmÄ±ÅŁ lar
yaÄŁlÄ±yor lar
karÄ±ÅŁtÄ±rtÄ±yor lar
kokuyor lar
sakla mazlar
yaÄŁlamÄ±ÅŁ lar
kalkacak lar
anlatacak lar
kaybolacak lar
aÄŁla mamÄ±ÅŁlar
aÄŁla mazlar
aÄŁla mayacaklar
aÄŁla mÄ±yorlar
aÄŁla madÄ±lar
kÄ±ÅŁkÄ±rtmÄ±ÅŁ lar
ulumuÅŁ lar
solumuÅŁ lar
tutmuÅŁ lar
kokmuÅŁ lar
oturmuÅŁ lar
yala dÄ±lar
yuvarla mazlar
yuvarla mÄ±yorlar
yuvarla madÄ±lar
yuvarla dÄ±lar
horla mayacaklar
horla mÄ±yorlar
horla madÄ±lar
horla dÄ±lar
unutmuÅŁ lar
ĠdÃ¶rtgen e
ĠdÃ¶rtgen ler
ĠdÃ¶rtgen lerin
ĠdÃ¶rtgen lerde
yaptÄ±rtÄ±r lar
kanÄ±tla mazlar
kanÄ±tla mayacaklar
kanÄ±tla mÄ±yorlar
kanÄ±tla dÄ±lar
yapÄ±lÄ±r lar
verdirtir ler
yalayacak lar
kaÅŁÄ±r lar
yaÄŁlayacak lar
kapayacak lar
sÃ¼mÃ¼rÃ¼r ler
sever ler
Ã¶ldÃ¼rtÃ¼r ler
kÄ±ÅŁkÄ±rtÄ±r lar
yÄ±kar lar
kalkar lar
yuvarlayacak lar
horlar lar
unutur lar
yumar lar
olur lar
dÃ¶ndÃ¼rÃ¼r ler
Ã¶ÄŁÃ¼tÃ¼r ler
dÃ¼zeltir ler
kurutur lar
ĠÃ§ileÄŁ ini
ĠÃ§ileÄŁ ine
ĠÃ§ileÄŁ inden
sÃ¶ver ler
dondurur lar
Ã¶pÃ¼ÅŁÃ¼r ler
solur lar
kullanÄ±lÄ±r lar
yalar lar
tanÄ±yacak lar
ĠÄ±ÅŁ Ä±n
sÃ¶zdiz imin
ĠyazÄ±lÄ±mÄ±n Ä±n
ÅŁarkÄ± cÄ±lÄ±ÄŁ
Ã§algÄ±c Ä±nÄ±n
Ã§algÄ±c Ä±nÄ±
Ã§algÄ±c Ä±nda
delirmez ler
bitirmez ler
tetraf ob
oyun culuÄŁ
yÃ¼r eÄŁ
Ġoldu lardÄ±
bÃ¶cek bili
dayanÄ±kl Ä±lÄ±ÄŁ
gÃ¼lÃ¼nÃ§leÅŁt iler
zor luÄŁ
ĠyazÄ±lÄ±mÄ± na
Ġyetmez lik
ĠsÄ±kÄ±ÅŁtÄ± lar
otof ob
atÄ±ÅŁtÄ± lar
referan sÄ±nÄ±z
ĠÃ§ilek leri
ĠÃ§ilek lerinden
ĠÃ§ilek lerini
ĠkÄ±rlangÄ± c
ĠkÄ±rlangÄ± Ã§
taÅŁtÄ± lar
Ġolduy dun
Ġolduy dum
Ġdurum larÄ±
koptu lar
ofob inin
ofob iye
sÃ¼stÃ¼ ler
Ġdurumun da
Ġdurumun dan
pustu lar
demley ecekler
elley ecekler
coÅŁtu lar
ĠgÃ¶ t
yaratÄ± ÄŁ
' d
a ca
a bÄ±
a ÅŁtÄ±nÄ±z
a ÅŁtÄ±n
a ÅŁtÄ±k
b alt
c ayÄ±
d allarÄ±
d aldÄ±n
d aldÄ±nÄ±z
e fesi
i sin
i sinden
i sinin
i sinde
i sini
o le
o ka
o daÄŁÄ±n
t ize
Ġ ge
Ġ ala
Ġ aldÄ±n
ÅŁ allarÄ±
ÅŁ alÄ±
ya lamadÄ±n
ya lamadÄ±nÄ±z
ma manÄ±n
Ä±n lÄ±ÄŁa
Ä±n lÄ±ÄŁÄ±
Ã§ enin
Ã§ aldÄ±n
in dik
in memiÅŁler
in mediler
in eri
in diler
in medik
in medin
in mediniz
an mazlar
an madÄ±n
an Ã¼sÃ¼n
an Ã¼sÃ¼nÃ¼
maya larÄ±nda
maya larÄ±ndan
maya larÄ±nÄ±
Ġol ma
Ġol muÅŁsunuz
Ġol madÄ±ydÄ±m
Ġol mazdÄ±m
Ġol madÄ±ydÄ±n
Ġol mamÄ±ÅŁtÄ±k
Ġol madÄ±lardÄ±
Ġol mamÄ±ÅŁlardÄ±
Ġol mamÄ±ÅŁsÄ±n
Ġol mamÄ±ÅŁmÄ±ÅŁÄ±z
Ġol muÅŁtuk
Ġol muÅŁtunuz
Ġol muÅŁtum
de din
de dik
de diniz
de memiÅŁler
de mediler
de medim
de medik
de mediniz
ka caÄŁÄ±z
ka sÄ±nÄ±
ka zaÄŁ
ka sÄ±na
ka sÄ±nÄ±n
ka sÄ±ndan
at eÅŁt
di yorum
di leceÄŁiz
di leceÄŁim
ec enin
ÅŁt ayÄ±
yap tÄ±k
yap tÄ±nÄ±z
yap mamÄ±ÅŁlar
yap madÄ±k
yap madÄ±n
yap madÄ±nÄ±z
yap tÄ±lar
el lerdi
el liyorlar
et lerin
et lerine
et inin
et ine
Ã¼n lerin
Ã¼n leri
Ã¼n lerinden
Ã¼n lerini
Ã¼n lerinde
Ã¼n lerinin
dÃ¼r mediler
dÃ¼r mÃ¼yorlar
dÃ¼r dÃ¼m
dÃ¼r dÃ¼k
Ã¼z memiÅŁler
Ã¼z ecekler
Ã¼z medim
Ã¼z medik
Ã¼z medin
Ã¼z dÃ¼n
Ã¼z mÃ¼ÅŁler
Ã¼z dÃ¼nÃ¼z
Ã¼z dÃ¼m
iÅŁ levi
aÄŁ Ä±n
aÄŁ larÄ±nÄ±n
aÄŁ larÄ±nÄ±
aÄŁ larÄ±na
aÄŁ Ä±nÄ±n
aÄŁ Ä±nÄ±
aÄŁ Ä±ndan
aÄŁ Ä±nda
aÄŁ lamadÄ±n
aÄŁ lamadÄ±nÄ±z
aÅŁ mÄ±yorlar
aÅŁ madÄ±lar
aÅŁ madÄ±k
aÅŁ madÄ±m
aÅŁ madÄ±nÄ±z
sun duk
sun dunuz
sun madÄ±m
sun madÄ±n
sun madÄ±nÄ±z
sun unun
tan Ä±yorlar
tÃ¼r ey
tÃ¼r erler
se lamÄ±
ol dun
ol dunuz
ol mazlar
ol madÄ±lar
ol madÄ±m
ge minin
Ã¶p tÃ¼k
Ã¶p mediler
Ã¶p medim
Ã¶p medin
Ã¶p tÃ¼ler
Ã¶p tÃ¼n
var dÄ±nÄ±z
var mayacaklar
var madÄ±lar
var acaklar
var madÄ±k
var madÄ±m
var madÄ±n
var madÄ±nÄ±z
var dÄ±lar
ot un
ot larÄ±
ot larÄ±ndan
ot larÄ±nÄ±
ot larÄ±na
ot una
ot undan
kay Ä±
sat tÄ±k
sat tÄ±nÄ±z
sat tÄ±m
sat madÄ±lar
sat acaklar
sat madÄ±k
sat madÄ±m
sat madÄ±n
sat arlar
sat tÄ±lar
Ġyap Ä±n
Ġyap madÄ±ydÄ±
Ġyap mazdÄ±
Ġyap madÄ±ydÄ±k
Ġyap mazdÄ±m
Ġyap mayÄ±z
Ġyap mayÄ±nÄ±z
Ġyap mamÄ±ÅŁÄ±z
Ġyap mayacaktÄ±k
Ġyap mazmÄ±ÅŁsÄ±nÄ±z
Ġyap mayacaktÄ±n
Ġyap mayacakmÄ±ÅŁsÄ±n
Ġyap mazmÄ±ÅŁÄ±m
Ġyap mazsÄ±nÄ±z
Ġyap mamÄ±ÅŁmÄ±ÅŁÄ±m
Ġyap mamÄ±ÅŁmÄ±ÅŁÄ±z
Ġyap mazlardÄ±
Ġyap mazdÄ±n
Ġyap acaÄŁÄ±z
Ġyap tÄ±ydÄ±m
Ġyap tÄ±ydÄ±n
Ġyap tÄ±ydÄ±k
Ġyap tÄ±ydÄ±nÄ±z
canlan mamÄ±ÅŁlar
canlan madÄ±lar
canlan madÄ±m
iy di
eÄŁ r
bir liÄŁi
dil din
dil dik
dil diniz
dil mezler
dil miÅŁler
dil mediler
dil medim
dil mediniz
dil imine
man dallarÄ±
as ayÄ±
as madÄ±k
as madÄ±m
as madÄ±n
as madÄ±nÄ±z
as asÄ±
ha mÄ±zÄ±
ha cÄ±lÄ±ÄŁ
kap Ä±nÄ±n
say Ä±
say madÄ±lar
say madÄ±k
say madÄ±m
say madÄ±nÄ±z
say dÄ±m
yÄ± kay
ce se
gel din
gel dik
gel diniz
gel dim
gel iyorlar
gel medik
gel medin
gel mediniz
leÅŁ i
leÅŁ in
leÅŁ leri
leÅŁ lerinden
leÅŁ lerine
leÅŁ lerinde
leÅŁ inin
leÅŁ ini
leÅŁ inde
leÅŁ ine
leÅŁ inden
ĠÃ§ek me
ĠÃ§ek miÅŁsiniz
ĠÃ§ek miÅŁiz
ĠÃ§ek tiniz
ĠÃ§ek tim
ĠÃ§ek medin
ĠÃ§ek memiÅŁim
ĠÃ§ek memiÅŁmiÅŁsiniz
ĠÃ§ek memiÅŁtim
ĠÃ§ek memiÅŁtin
ĠÃ§ek meyecektim
ĠÃ§ek meyecekmiÅŁsin
ĠÃ§ek mediydi
ĠÃ§ek mediydik
ĠÃ§ek memiÅŁmiÅŁsin
ĠÃ§ek meyin
ĠÃ§ek memiÅŁsin
ĠÃ§ek mediydim
ĠÃ§ek mezsiniz
ĠÃ§ek mezdin
ĠÃ§ek mezmiÅŁsin
ĠÃ§ek memiÅŁsiniz
ĠÃ§ek memiÅŁtiniz
ĠÃ§ek meyeceÄŁiz
ĠÃ§ek mem
ĠÃ§ek mezmiÅŁsiniz
ĠÃ§ek meyecektik
ĠÃ§ek mezdi
ĠÃ§ek mezdik
ĠÃ§ek mezlermiÅŁ
ĠÃ§ek meyeceklerdi
ĠÃ§ek meyecektiniz
ĠÃ§ek medilerdi
ĠÃ§ek memiÅŁmiÅŁim
ĠÃ§ek meyeceÄŁim
ĠÃ§ek memiÅŁiz
ĠÃ§ek meyecekti
ĠÃ§ek meyecekmiÅŁ
ĠÃ§ek meyecekmiÅŁim
ĠÃ§ek meyeceklermiÅŁ
ĠÃ§ek mezdiniz
ĠÃ§ek mezmiÅŁim
ĠÃ§ek meyiniz
ĠÃ§ek meyeceksiniz
ĠÃ§ek mezmiÅŁiz
ĠÃ§ek eceÄŁim
ĠÃ§ek tiydi
ĠÃ§ek tiydik
ĠÃ§ek tiydiniz
ĠÃ§ek tiydin
Ã§Ã¶ker diniz
Ã§Ã¶ker dim
Ã§Ã¶ker medik
Ã§Ã¶ker medin
Ã§Ã¶ker mediniz
utan dÄ±n
utan dÄ±nÄ±z
utan madÄ±m
utan dÄ±m
bÃ¼k tÃ¼k
bÃ¼k ecekler
bÃ¼k mediler
bÃ¼k medik
bÃ¼k tÃ¼ler
bÃ¼k tÃ¼n
bÃ¼k tÃ¼nÃ¼z
gecik tin
gecik tik
gecik mezler
gecik ecekler
gecik medim
gecik medik
kaynaÅŁtÄ±r tÄ±
piÅŁ miÅŁler
piÅŁ mediler
piÅŁ medin
dÃ¼z mediler
dÃ¼z medim
dÃ¼z medik
dÃ¼z medin
dÃ¼z dÃ¼n
dÃ¼z mÃ¼yorlar
dÃ¼z dÃ¼nÃ¼z
dÃ¼z dÃ¼m
kat Ä±n
kat larÄ±n
kat larÄ±
kat tÄ±n
kat tÄ±k
kat tÄ±nÄ±z
kat larÄ±nÄ±
kat larÄ±na
kat Ä±nÄ±n
kat mÄ±yorlar
kat Ä±nÄ±
kat Ä±ndan
kat Ä±nda
kat Ä±yorlar
kat madÄ±k
kat ili
kat madÄ±m
kat madÄ±n
kat tÄ±lar
art tÄ±m
art madÄ±lar
art madÄ±k
art madÄ±m
art madÄ±n
art madÄ±nÄ±z
yar aÄŁÄ±
bit tin
bit tik
bit tiniz
bit miÅŁler
bit mediler
bit medim
bit medik
bit mediniz
bay Ä±n
bay larÄ±n
bay larÄ±
bay ku
bay larÄ±nda
bay larÄ±nÄ±n
bay larÄ±na
bay Ä±ndan
bay Ä±na
av Ä±
av Ä±n
av larÄ±n
av larÄ±nda
av larÄ±nÄ±
av larÄ±na
av Ä±nÄ±n
av Ä±ndan
av Ä±na
av Ä±nda
ke me
aÃ§ tÄ±n
aÃ§ tÄ±k
aÃ§ tÄ±m
aÃ§ mamÄ±ÅŁlar
aÃ§ mÄ±yorlar
aÃ§ acaklar
aÃ§ madÄ±k
aÃ§ madÄ±m
aÃ§ tÄ±lar
sÄ±z dÄ±n
sÄ±z dÄ±nÄ±z
sÄ±z mamÄ±ÅŁlar
sÄ±z madÄ±k
sÄ±z madÄ±n
sÄ±z madÄ±nÄ±z
sÄ±z dÄ±k
sÄ±z dÄ±lar
sÄ±z arlar
tak Ä±n
tak tÄ±nÄ±z
tak tÄ±m
tak Ä±nÄ±n
tak madÄ±k
tak madÄ±m
tak madÄ±nÄ±z
canlandÄ±r tÄ±
canlandÄ±r dÄ±nÄ±z
canlandÄ±r mÄ±ÅŁlar
canlandÄ±r madÄ±k
canlandÄ±r madÄ±nÄ±z
canlandÄ±r dÄ±m
canlandÄ±r dÄ±k
aldÄ±r dÄ±n
aldÄ±r dÄ±nÄ±z
aldÄ±r mamÄ±ÅŁlar
aldÄ±r Ä±yorlar
aldÄ±r madÄ±k
aldÄ±r madÄ±n
aldÄ±r dÄ±m
aldÄ±r dÄ±lar
iÃ§ tin
iÃ§ tim
iÃ§ meyecekler
iÃ§ miyorlar
iÃ§ mediniz
sak lamadÄ±n
sak lamadÄ±nÄ±z
kul larÄ±n
kul larÄ±
kul larÄ±nda
kul larÄ±nÄ±n
kul larÄ±ndan
kul larÄ±na
kul unda
kul una
kul unu
kul undan
tanÄ± dÄ±nÄ±z
tanÄ± madÄ±lar
tanÄ± madÄ±n
tanÄ± dÄ±m
tanÄ± dÄ±k
tanÄ± dÄ±lar
seÃ§ ileceÄŁ
Ã¶ldÃ¼rt tÃ¼k
Ã¶ldÃ¼rt ecekler
Ã¶ldÃ¼rt mediler
Ã¶ldÃ¼rt medim
Ã¶ldÃ¼rt medik
Ã¶ldÃ¼rt mediniz
Ã¶ldÃ¼rt tÃ¼ler
Ã¶ldÃ¼rt tÃ¼n
Ã¶ldÃ¼rt tÃ¼nÃ¼z
daÄŁ Ä±nÄ±
yaz dÄ±n
yaz dÄ±nÄ±z
yaz madÄ±k
yaz madÄ±n
yaÄŁ lamadÄ±nÄ±z
yaÄŁ muru
gÃ¶Ã§ Ã¼
gÃ¶Ã§ Ã¼n
gÃ¶Ã§ lerin
gÃ¶Ã§ leri
gÃ¶Ã§ lerini
gÃ¶Ã§ lerine
gÃ¶Ã§ lerinde
gÃ¶Ã§ lerinin
gÃ¶Ã§ Ã¼nÃ¼z
gÃ¶Ã§ meyecekler
gÃ¶Ã§ medim
gÃ¶Ã§ medin
gÃ¶Ã§ tÃ¼m
gÃ¶Ã§ mÃ¼ÅŁler
gÃ¶Ã§ mÃ¼yorlar
gÃ¶Ã§ Ã¼ne
gÃ¶Ã§ Ã¼nÃ¼
gÃ¶Ã§ tÃ¼n
sÃ¼n ecekler
sÃ¼n medim
sÃ¼n medik
sÃ¼n medin
sÃ¼n dÃ¼n
sÃ¼n dÃ¼m
ger inin
ger ileri
alan Ä±n
alan larÄ±n
alan larÄ±nÄ±n
alan larÄ±ndan
alan larÄ±nÄ±
alan larÄ±na
alan Ä±nda
coÅŁ madÄ±k
coÅŁ madÄ±m
coÅŁ madÄ±n
coÅŁ madÄ±nÄ±z
gez dik
gez diniz
gez dim
gez miÅŁler
gez mediler
gez diler
gez medim
sÃ¼z medin
sÃ¼z mediniz
sÃ¼z dÃ¼n
sÃ¼z mÃ¼ÅŁler
sÃ¼z dÃ¼k
ta caÄŁÄ±m
ta baÄŁ
ta ÅŁtÄ±nÄ±z
ta ÅŁtÄ±m
Ã¶ÄŁret tin
Ã¶ÄŁret tik
Ã¶ÄŁret tiniz
Ã¶ÄŁret mediler
Ã¶ÄŁret medim
Ã¶ÄŁret medin
iÅŁt en
sev din
sev diniz
sev dim
sev diler
sev medim
sev medik
der ileri
dÃ¼ÅŁÃ¼n medin
dÃ¼ÅŁÃ¼n mediniz
dÃ¼ÅŁÃ¼n dÃ¼n
dÃ¼ÅŁÃ¼n dÃ¼nÃ¼z
dÃ¼ÅŁÃ¼n dÃ¼k
dÃ¼ÅŁÃ¼n dÃ¼ler
makyaj Ä±n
makyaj larÄ±n
makyaj larÄ±
makyaj larÄ±nda
makyaj larÄ±nÄ±n
makyaj larÄ±ndan
makyaj larÄ±nÄ±
makyaj larÄ±na
sik ileceÄŁ
sÃ¼s mezler
sÃ¼s medim
sÃ¼s medik
sÃ¼s medin
sap tÄ±n
sap tÄ±k
sap tÄ±nÄ±z
sap tÄ±m
sap madÄ±k
sap madÄ±nÄ±z
rak Ä±nÄ±n
benz eri
dondur dun
dondur dunuz
dondur dum
dondur madÄ±lar
dondur madÄ±k
dondur madÄ±n
dondur madÄ±nÄ±z
dondur dular
dondur manÄ±n
kop madÄ±k
kop madÄ±m
kop madÄ±n
kop madÄ±nÄ±z
uyar lar
uyar dÄ±n
uyar dÄ±nÄ±z
uyar mÄ±ÅŁsÄ±nÄ±z
uyar mÄ±ÅŁÄ±m
uyar madÄ±k
uyar madÄ±n
uyar dÄ±k
ulu dun
ulu duk
ulu dum
ulu madÄ±k
ulu madÄ±m
ulu madÄ±n
ulu muyorlar
uy unuz
uy dum
uy madÄ±lar
uy madÄ±k
uy madÄ±m
uy madÄ±nÄ±z
deÄŁiÅŁ ecekler
deÄŁiÅŁ iyorlar
deÄŁiÅŁ medim
deÄŁiÅŁ medik
deÄŁiÅŁ medin
deÄŁiÅŁ mediniz
deÄŁiÅŁ irler
payla ÅŁtÄ±nÄ±z
payla ÅŁtÄ±n
payla ÅŁtÄ±m
payla ÅŁtÄ±k
ser din
ser diniz
ser dim
ser mediler
ser iyorlar
ser diler
ser medim
ser medik
ser medin
ser mediniz
ses i
paylaÅŁ madÄ±lar
paylaÅŁ madÄ±k
paylaÅŁ madÄ±m
paylaÅŁ madÄ±n
paylaÅŁ madÄ±nÄ±z
paylaÅŁ Ä±rlar
kurtar dÄ±n
kurtar madÄ±lar
kurtar madÄ±k
kurtar madÄ±m
kurtar dÄ±m
yuvar lamadÄ±n
bÃ¼r Ã¼y
Ġver dik
Ġver diniz
Ġver miyorlar
Ġver diler
Ġver medim
Ġver medin
gÃ¶tÃ¼r mezler
gÃ¶tÃ¼r medim
gÃ¶tÃ¼r medik
gÃ¶tÃ¼r medin
gÃ¶tÃ¼r dÃ¼n
gÃ¶tÃ¼r dÃ¼m
gÃ¶tÃ¼r dÃ¼ler
taÅŁ mÄ±yorlar
taÅŁ mÄ±ÅŁlar
taÅŁ madÄ±m
taÅŁ madÄ±n
hor lamadÄ±n
hor lamadÄ±nÄ±z
onar dÄ±n
onar dÄ±nÄ±z
onar madÄ±lar
onar madÄ±k
onar madÄ±m
onar madÄ±nÄ±z
onar dÄ±m
geber diniz
geber meyecekler
geber mezler
geber medim
geber medik
geber medin
geber mediniz
hastalan dÄ±n
hastalan mÄ±yorlar
hastalan madÄ±k
hastalan madÄ±m
hastalan madÄ±n
hastalan madÄ±nÄ±z
hastalan dÄ±m
hastalan dÄ±k
ilklendir dik
ilklendir diniz
ilklendir dim
ilklendir medin
dadan dÄ±nÄ±z
dadan mamÄ±ÅŁlar
dadan mayacaklar
dadan madÄ±m
dadan madÄ±nÄ±z
dadan dÄ±m
dadan dÄ±k
kanÄ±t lamadÄ±n
kanÄ±t lamadÄ±nÄ±z
tep tim
tep meyecekler
tep medik
tep tiler
otur dun
otur duk
otur mamÄ±ÅŁlar
otur dum
otur mayacaklar
otur madÄ±k
otur madÄ±m
otur dular
kovdur dun
kovdur dunuz
kovdur madÄ±lar
kovdur madÄ±m
kovdur madÄ±nÄ±z
kovdur dular
yalvar dÄ±n
yalvar dÄ±nÄ±z
yalvar mayacaklar
yalvar madÄ±lar
yalvar madÄ±nÄ±z
yalvar dÄ±m
yalvar dÄ±k
yalvar dÄ±lar
gerek tin
gerek tik
gerek tim
gerek medim
gerek medik
gerek medin
dedi m
dedi ler
yÄ±ÄŁ dÄ±n
yÄ±ÄŁ mamÄ±ÅŁlar
yÄ±ÄŁ mÄ±yorlar
yÄ±ÄŁ madÄ±k
yÄ±ÄŁ madÄ±n
yÄ±ÄŁ dÄ±m
yÄ±ÄŁ dÄ±k
yÄ±ÄŁ dÄ±lar
atÄ±ÅŁtÄ±r dÄ±nÄ±z
atÄ±ÅŁtÄ±r mamÄ±ÅŁlar
atÄ±ÅŁtÄ±r Ä±yorlar
atÄ±ÅŁtÄ±r acaklar
atÄ±ÅŁtÄ±r madÄ±n
atÄ±ÅŁtÄ±r dÄ±m
atÄ±ÅŁtÄ±r dÄ±k
atÄ±ÅŁtÄ±r dÄ±lar
deÄŁiÅŁt in
deÄŁiÅŁt ik
deÄŁiÅŁt im
deÄŁiÅŁt iler
yetiÅŁ ecekler
yetiÅŁ medim
yetiÅŁ medin
Ġdik tik
Ġdik tiniz
Ġdik tim
Ġdik medik
Ġdik medin
Ġdik mediniz
bÃ¼ktÃ¼r mediler
bÃ¼ktÃ¼r medim
bÃ¼ktÃ¼r medik
bÃ¼ktÃ¼r mediniz
bÃ¼ktÃ¼r dÃ¼nÃ¼z
bÃ¼ktÃ¼r dÃ¼m
bÃ¼ktÃ¼r dÃ¼k
bÃ¼ktÃ¼r dÃ¼ler
Ã§al mÄ±ÅŁlar
Ã§al Ä±yorlar
Ã§al madÄ±nÄ±z
Ã§al dÄ±m
Ã§al dÄ±k
yoksullaÅŁtÄ±r mayacaklar
yoksullaÅŁtÄ±r acaklar
yoksullaÅŁtÄ±r madÄ±m
yoksullaÅŁtÄ±r madÄ±n
yoksullaÅŁtÄ±r dÄ±m
yoksullaÅŁtÄ±r dÄ±k
yoksullaÅŁtÄ±r dÄ±lar
Ã¶pÃ¼ÅŁ ecekler
Ã¶pÃ¼ÅŁ medik
Ã¶pÃ¼ÅŁ medin
Ã¶pÃ¼ÅŁ mÃ¼yorlar
sÄ±vÄ±laÅŁtÄ±r dÄ±n
sÄ±vÄ±laÅŁtÄ±r mayacaklar
sÄ±vÄ±laÅŁtÄ±r madÄ±lar
sÄ±vÄ±laÅŁtÄ±r madÄ±k
sÄ±vÄ±laÅŁtÄ±r madÄ±n
sÄ±vÄ±laÅŁtÄ±r madÄ±nÄ±z
sÄ±vÄ±laÅŁtÄ±r dÄ±m
sÄ±vÄ±laÅŁtÄ±r dÄ±k
Ã¶ldÃ¼rtÃ¼l memiÅŁler
sÃ¶k tÃ¼k
sÃ¶k tÃ¼
sÃ¶k mediler
sÃ¶k medim
sÃ¶k medin
sÃ¶k mÃ¼yorlar
sÃ¶k tÃ¼ler
sÃ¶k tÃ¼n
yum duk
yum dunuz
yum madÄ±lar
yum madÄ±k
yum madÄ±n
yum madÄ±nÄ±z
yum muyorlar
yum dular
Ã¶lÃ§Ã¼l medim
Ã¶lÃ§Ã¼l medik
Ã¶lÃ§Ã¼l dÃ¼n
Ã¶lÃ§Ã¼l dÃ¼nÃ¼z
Ã¶lÃ§Ã¼l dÃ¼m
Ã¶lÃ§Ã¼l dÃ¼k
Ã¶lÃ§Ã¼l dÃ¼ler
sÃ¶v ecekler
sÃ¶v mediler
sÃ¶v medim
sÃ¶v medik
sÃ¶v mediniz
sÃ¶v dÃ¼n
sÃ¶v dÃ¼nÃ¼z
sÃ¶v dÃ¼m
sÃ¶v dÃ¼k
pus madÄ±lar
pus madÄ±k
pus madÄ±m
pus madÄ±n
pus madÄ±nÄ±z
kaÅŁÄ± dÄ±n
kaÅŁÄ± madÄ±m
kaÅŁÄ± madÄ±n
kaÅŁÄ± dÄ±m
kaÅŁÄ± dÄ±k
kaybol duk
kaybol mazlar
kaybol dum
kaybol mayacaklar
kaybol madÄ±k
kaybol madÄ±n
kaybol dular
yÄ±ka dÄ±n
yÄ±ka madÄ±k
yÄ±ka dÄ±m
yÄ±ka dÄ±k
yÄ±ka dÄ±lar
sa muru
kÄ±y dÄ±nÄ±z
kÄ±y Ä±yorlar
kÄ±y madÄ±k
kÄ±y madÄ±n
kÄ±y dÄ±k
kÄ±y dÄ±lar
solu dun
solu duk
solu dunuz
solu mamÄ±ÅŁlar
solu dum
solu madÄ±k
solu madÄ±n
solu madÄ±nÄ±z
solu dular
kapa dÄ±n
kapa madÄ±k
kapa madÄ±m
kapa madÄ±n
kapa madÄ±nÄ±z
kapa dÄ±m
kapa dÄ±k
dal mÄ±yorlar
dal madÄ±lar
dal Ä±yorlar
dal madÄ±k
dal madÄ±m
dal madÄ±n
dal madÄ±nÄ±z
dal dÄ±m
dal dÄ±k
dal dÄ±lar
tut mayacaklar
tut madÄ±lar
tut acaklar
tut madÄ±k
tut madÄ±m
tut madÄ±n
tut muyorlar
tut tunuz
tut tum
is lerin
is lerinden
is lerini
is lerine
is lerinde
bat Ä±nÄ±n
Ã§a muru
san dÄ±n
san Ä±yorlar
san madÄ±k
san madÄ±n
san dÄ±m
san dÄ±lar
san Ä±rlar
canlanma dÄ±n
canlanma dÄ±nÄ±z
canlanma mazlar
canlanma mayacaklar
canlanma madÄ±nÄ±z
ter liÄŁi
Ã¶ldÃ¼rtÃ¼lme din
Ã¶ldÃ¼rtÃ¼lme dik
Ã¶ldÃ¼rtÃ¼lme mediler
Ã¶ldÃ¼rtÃ¼lme medik
Ã¶ldÃ¼rtÃ¼lme medin
ydÄ± lar
eÄŁit tik
eÄŁit tiniz
eÄŁit tim
eÄŁit miÅŁler
eÄŁit mediler
eÄŁit iyorlar
eÄŁit mediniz
eÄŁit irler
eÄŁit imi
yapÄ±ÅŁ madÄ±lar
yapÄ±ÅŁ madÄ±nÄ±z
daÄŁÄ±t tÄ±n
daÄŁÄ±t tÄ±k
daÄŁÄ±t mayacaklar
daÄŁÄ±t mÄ±ÅŁlar
daÄŁÄ±t madÄ±k
daÄŁÄ±t madÄ±n
daÄŁÄ±t madÄ±nÄ±z
Ã¶ÄŁÃ¼t medin
Ã¶ÄŁÃ¼t mediniz
Ã¶ÄŁÃ¼t tÃ¼m
Ã¶ÄŁÃ¼t tÃ¼nÃ¼z
Ä±sÄ±r dÄ±n
Ä±sÄ±r dÄ±nÄ±z
Ä±sÄ±r mamÄ±ÅŁlar
Ä±sÄ±r mÄ±ÅŁlar
Ä±sÄ±r madÄ±k
Ä±sÄ±r madÄ±n
Ä±sÄ±r madÄ±nÄ±z
Ä±sÄ±r dÄ±m
Ä±sÄ±r dÄ±k
ĠaldÄ±r dÄ±nÄ±z
ĠaldÄ±r mÄ±yorlar
ĠaldÄ±r madÄ±lar
ĠaldÄ±r madÄ±k
ĠaldÄ±r madÄ±m
ĠaldÄ±r madÄ±nÄ±z
ĠaldÄ±r dÄ±m
ĠaldÄ±r dÄ±k
sÃ¼rÃ¼ndÃ¼r mezler
sÃ¼rÃ¼ndÃ¼r mediler
sÃ¼rÃ¼ndÃ¼r medim
sÃ¼rÃ¼ndÃ¼r medik
sÃ¼rÃ¼ndÃ¼r medin
sÃ¼rÃ¼ndÃ¼r mediniz
sÃ¼rÃ¼ndÃ¼r dÃ¼n
sÃ¼rÃ¼ndÃ¼r mÃ¼yorlar
sÃ¼rÃ¼ndÃ¼r dÃ¼m
sÃ¼rÃ¼ndÃ¼r dÃ¼k
seslen dik
seslen diniz
seslen dim
seslen memiÅŁler
seslen mediler
seslen miyorlar
seslen medim
seslen medik
seslen mediniz
saydÄ±r dÄ±n
saydÄ±r dÄ±nÄ±z
saydÄ±r madÄ±k
saydÄ±r madÄ±m
saydÄ±r madÄ±n
saydÄ±r madÄ±nÄ±z
saydÄ±r dÄ±k
saydÄ±r dÄ±lar
kÄ±rdÄ±r dÄ±nÄ±z
kÄ±rdÄ±r mazlar
kÄ±rdÄ±r mayacaklar
kÄ±rdÄ±r madÄ±k
kÄ±rdÄ±r madÄ±n
kÄ±rdÄ±r dÄ±m
kÄ±rdÄ±r dÄ±k
kÄ±rdÄ±r dÄ±lar
kirlet tin
kirlet tik
kirlet tiniz
kirlet miÅŁler
kirlet medim
kirlet medik
kirlet medin
kirlet mediniz
kirlet irler
kirlet tiler
kÃ¶pÃ¼r ecekler
kÃ¶pÃ¼r mediler
kÃ¶pÃ¼r medim
kÃ¶pÃ¼r medik
kÃ¶pÃ¼r medin
kÃ¶pÃ¼r mediniz
kÃ¶pÃ¼r dÃ¼n
kÃ¶pÃ¼r mÃ¼yorlar
kÃ¶pÃ¼r dÃ¼k
evlen din
evlen dim
evlen meyecekler
evlen mediler
evlen medim
evlen medik
evlen mediniz
geciktir din
geciktir dik
geciktir mediler
geciktir medim
geciktir medin
geciktir mediniz
ayÄ±r dÄ±nÄ±z
ayÄ±r mamÄ±ÅŁlar
ayÄ±r madÄ±k
ayÄ±r madÄ±n
ayÄ±r dÄ±m
ayÄ±r dÄ±k
tÃ¼kÃ¼r medim
tÃ¼kÃ¼r medik
tÃ¼kÃ¼r dÃ¼n
tÃ¼kÃ¼r dÃ¼nÃ¼z
tÃ¼kÃ¼r dÃ¼m
saldÄ±r dÄ±n
saldÄ±r mÄ±yorlar
saldÄ±r mÄ±ÅŁlar
saldÄ±r madÄ±k
saldÄ±r madÄ±m
saldÄ±r madÄ±n
saldÄ±r madÄ±nÄ±z
saldÄ±r dÄ±k
Ã¼ÅŁen din
Ã¼ÅŁen dik
Ã¼ÅŁen diniz
Ã¼ÅŁen dim
Ã¼ÅŁen meyecekler
Ã¼ÅŁen medim
Ã¼ÅŁen irler
boÅŁan dÄ±n
boÅŁan madÄ±lar
boÅŁan madÄ±k
boÅŁan madÄ±n
boÅŁan madÄ±nÄ±z
boÅŁan dÄ±m
boÅŁan dÄ±k
aldat tÄ±n
aldat tÄ±nÄ±z
aldat mamÄ±ÅŁlar
aldat madÄ±lar
aldat madÄ±k
aldat madÄ±nÄ±z
kapat tÄ±k
kapat tÄ±nÄ±z
kapat mazlar
kapat mayacaklar
kapat madÄ±lar
kapat madÄ±m
kapat Ä±rlar
kapat tÄ±lar
utandÄ±r dÄ±n
utandÄ±r dÄ±nÄ±z
utandÄ±r madÄ±lar
utandÄ±r Ä±yorlar
utandÄ±r acaklar
utandÄ±r madÄ±k
utandÄ±r madÄ±n
utandÄ±r dÄ±m
utandÄ±r dÄ±k
utandÄ±r dÄ±lar
iyileÅŁtir din
iyileÅŁtir diniz
iyileÅŁtir diler
iyileÅŁtir medim
iyileÅŁtir medik
iyileÅŁtir medin
iyileÅŁtir mediniz
iyileÅŁtir irler
Ä°ngilizceleÅŁtir din
Ä°ngilizceleÅŁtir dik
Ä°ngilizceleÅŁtir diniz
Ä°ngilizceleÅŁtir mediler
Ä°ngilizceleÅŁtir diler
Ä°ngilizceleÅŁtir medik
Ä°ngilizceleÅŁtir mediniz
kaÃ§Ä±r dÄ±nÄ±z
kaÃ§Ä±r madÄ±lar
kaÃ§Ä±r mÄ±ÅŁlar
kaÃ§Ä±r madÄ±k
kaÃ§Ä±r dÄ±m
kaÃ§Ä±r dÄ±k
kaÃ§Ä±r dÄ±lar
TÃ¼rkÃ§eleÅŁtir dik
TÃ¼rkÃ§eleÅŁtir diniz
TÃ¼rkÃ§eleÅŁtir dim
TÃ¼rkÃ§eleÅŁtir memiÅŁler
TÃ¼rkÃ§eleÅŁtir mediler
TÃ¼rkÃ§eleÅŁtir medik
TÃ¼rkÃ§eleÅŁtir medin
tÃ¼ken dim
tÃ¼ken ecekler
tÃ¼ken mediler
tÃ¼ken miyorlar
tÃ¼ken diler
tÃ¼ken medik
unut madÄ±m
unut madÄ±n
unut madÄ±nÄ±z
unut tunuz
unut tun
ettir din
ettir dik
ettir diniz
ettir dim
ettir mezler
ettir ecekler
ettir medim
ettir medik
sÃ¼mÃ¼r medin
sÃ¼mÃ¼r mediniz
sÃ¼mÃ¼r dÃ¼n
sÃ¼mÃ¼r mÃ¼yorlar
sÃ¼mÃ¼r dÃ¼nÃ¼z
sÃ¼mÃ¼r dÃ¼m
sÃ¼mÃ¼r dÃ¼ler
dÃ¶ndÃ¼r mezler
dÃ¶ndÃ¼r mediler
dÃ¶ndÃ¼r medim
dÃ¶ndÃ¼r Ã¼yorlar
dÃ¶ndÃ¼r mÃ¼ÅŁler
dÃ¶ndÃ¼r mÃ¼yorlar
dÃ¶ndÃ¼r dÃ¼nÃ¼z
uÄŁrat tÄ±n
uÄŁrat tÄ±nÄ±z
uÄŁrat tÄ±m
uÄŁrat mamÄ±ÅŁlar
uÄŁrat mÄ±ÅŁlar
uÄŁrat madÄ±k
uÄŁrat madÄ±n
kurut mazlar
kurut madÄ±k
kurut madÄ±m
kurut tunuz
kurut tum
kurut tun
eÄŁlen din
eÄŁlen dik
eÄŁlen diniz
eÄŁlen meyecekler
eÄŁlen ecekler
eÄŁlen diler
eÄŁlen medik
eÄŁlen medin
eÄŁlen mediniz
ĠsÄ±kÄ±ÅŁ madÄ±k
ĠsÄ±kÄ±ÅŁ madÄ±m
ĠsÄ±kÄ±ÅŁ madÄ±n
ĠsÄ±kÄ±ÅŁ madÄ±nÄ±z
gÃ¼cen din
gÃ¼cen dik
gÃ¼cen diniz
gÃ¼cen ecekler
gÃ¼cen mediler
gÃ¼cen diler
gÃ¼cen medik
gÃ¼cen medin
gÃ¼cen mediniz
gÃ¼lÃ¼nÃ§leÅŁ miyorlar
gÃ¼lÃ¼nÃ§leÅŁ medim
gÃ¼lÃ¼nÃ§leÅŁ mediniz
kÃ¶ mÃ¼
Ã¶z rÃ¼
atÄ±ÅŁ mamÄ±ÅŁlar
atÄ±ÅŁ mayacaklar
atÄ±ÅŁ madÄ±m
atÄ±ÅŁ madÄ±n
bitir din
bitir diniz
bitir dim
bitir mediler
bitir medik
bitir mediniz
birleÅŁ mediler
birleÅŁ medim
birleÅŁ medik
birleÅŁ mediniz
delir dik
delir mediler
delir iyorlar
delir diler
delir medik
delir medin
delir mediniz
men in
deÄŁiÅŁtir dim
deÄŁiÅŁtir medim
deÄŁiÅŁtir medik
deÄŁiÅŁtir medin
deÄŁiÅŁtir mediniz
tanÄ±t tÄ±n
tanÄ±t tÄ±m
tanÄ±t mayacaklar
tanÄ±t mÄ±yorlar
tanÄ±t madÄ±lar
tanÄ±t madÄ±m
tanÄ±t madÄ±nÄ±z
tanÄ±t tÄ±lar
verdirt tin
verdirt tim
verdirt mezler
verdirt medin
verdirt mediniz
Ã§Ã¶kert tin
Ã§Ã¶kert tiniz
Ã§Ã¶kert tim
Ã§Ã¶kert mediler
Ã§Ã¶kert medim
yendirt tiniz
yendirt tim
yendirt ecekler
yendirt medim
yendirt medik
yendirt medin
yendirt mediniz
ca minin
so sunu
so sundan
so suna
so sunun
Ã¶lÃ§tÃ¼rt tÃ¼k
Ã¶lÃ§tÃ¼rt ecekler
Ã¶lÃ§tÃ¼rt mediler
Ã¶lÃ§tÃ¼rt medik
Ã¶lÃ§tÃ¼rt medin
Ã¶lÃ§tÃ¼rt tÃ¼m
Ã¶lÃ§tÃ¼rt mÃ¼ÅŁler
Ã¶lÃ§tÃ¼rt tÃ¼n
Ã¶lÃ§tÃ¼rt tÃ¼nÃ¼z
diril din
diril dik
diril diniz
diril dim
diril miÅŁler
diril mediler
diril diler
diril medim
diril medik
dÃ¼rt tÃ¼k
dÃ¼rt medim
dÃ¼rt mediniz
dÃ¼rt tÃ¼m
dÃ¼rt tÃ¼ler
gidil dik
gidil diniz
gidil dim
gidil mezler
gidil diler
gidil medim
gidil medin
seÃ§il diniz
seÃ§il mediler
seÃ§il medim
seÃ§il medik
seÃ§il mediniz
canlandÄ±rtÄ±l dÄ±nÄ±z
canlandÄ±rtÄ±l mazlar
canlandÄ±rtÄ±l madÄ±m
canlandÄ±rtÄ±l madÄ±n
canlandÄ±rtÄ±l madÄ±nÄ±z
canlandÄ±rtÄ±l dÄ±m
canlandÄ±rtÄ±l dÄ±k
dÃ¼zelt tin
dÃ¼zelt tiniz
dÃ¼zelt tim
dÃ¼zelt mezler
dÃ¼zelt iyorlar
dÃ¼zelt mediniz
kaynaÅŁtÄ±rtÄ±l dÄ±n
kaynaÅŁtÄ±rtÄ±l dÄ±nÄ±z
kaynaÅŁtÄ±rtÄ±l madÄ±k
kaynaÅŁtÄ±rtÄ±l dÄ±m
kaynaÅŁtÄ±rtÄ±l dÄ±lar
Ġgel din
Ġgel diniz
Ġgel dim
Ġgel miÅŁler
Ġgel iyorlar
Ġgel medim
Ġgel medik
Ġgel medin
Ġgel mediniz
Ġal madÄ±lar
Ġal mÄ±ÅŁlar
Ġal madÄ±m
Ġal madÄ±n
Ġal madÄ±nÄ±z
Ġal Ä±rlar
sikil din
sikil dim
sikil mediler
sikil medim
sikil medik
boÅŁal madÄ±m
boÅŁal madÄ±nÄ±z
boÅŁal dÄ±m
boÅŁal dÄ±lar
ola caÄŁÄ±z
veril din
veril diniz
veril dim
veril memiÅŁler
veril mezler
veril miÅŁler
veril mediler
veril miyorlar
veril diler
veril medim
veril medin
Ã§Ä±ÄŁ larÄ±n
Ã§Ä±ÄŁ larÄ±
Ã§Ä±ÄŁ larÄ±nda
Ã§Ä±ÄŁ larÄ±nÄ±n
Ã§Ä±ÄŁ larÄ±ndan
Ã§Ä±ÄŁ larÄ±nÄ±
Ã§Ä±ÄŁ larÄ±na
Ã§Ä±ÄŁ Ä±ndan
Ã§Ä±ÄŁ Ä±na
Ã§Ä±ÄŁ Ä±nda
yer leri
yer lerinden
yer lerini
yer lerine
yer lerinde
yer lerinin
yer inde
yer inden
fil i
fil mi
fil in
fil lerin
fil lerinden
fil lerini
fil lerinde
fil inin
fil ini
fil inde
fil ine
fil inden
fil min
fil minden
fil mini
fil minin
fil mine
sÃ¼rÃ¼m Ã¼
sÃ¼rÃ¼m leri
sÃ¼rÃ¼m lerini
sÃ¼rÃ¼m lerine
sÃ¼rÃ¼m lerinin
sÃ¼rÃ¼m Ã¼nÃ¼n
sÃ¼rÃ¼m Ã¼ne
sÃ¼rÃ¼m Ã¼nden
kok un
kok unuz
kok mazlar
kok madÄ±lar
kok madÄ±n
kok unun
kok tunuz
kok tum
kok tun
kalk tÄ±k
kalk tÄ±m
kalk mamÄ±ÅŁlar
kalk madÄ±lar
kalk mÄ±ÅŁlar
kalk madÄ±m
kalk madÄ±n
kork mamÄ±ÅŁlar
kork madÄ±lar
kork madÄ±k
kork madÄ±nÄ±z
Ã§algÄ± larÄ±
Ã§algÄ± larÄ±nÄ±n
Ã§algÄ± larÄ±ndan
Ã§algÄ± larÄ±nÄ±
bar daÄŁÄ±
elle din
elle dik
elle diniz
elle mediler
elle diler
elle medim
elle medik
elle mediniz
yaÄŁla dÄ±n
yaÄŁla dÄ±nÄ±z
yaÄŁla madÄ±k
yaÄŁla madÄ±m
yaÄŁla dÄ±m
va denin
bayÄ±l dÄ±n
bayÄ±l dÄ±nÄ±z
bayÄ±l mayacaklar
bayÄ±l madÄ±lar
bayÄ±l madÄ±k
bayÄ±l madÄ±m
bayÄ±l madÄ±n
bayÄ±l madÄ±nÄ±z
bayÄ±l dÄ±k
bayÄ±l dÄ±lar
mum yanÄ±n
demle din
demle diniz
demle dim
demle memiÅŁler
demle medik
demle medin
demle mediniz
benze din
benze dik
benze diniz
benze medim
benze medin
tÃ¼re dik
tÃ¼re diniz
tÃ¼re dim
tÃ¼re memiÅŁler
tÃ¼re mediler
tÃ¼re medim
tÃ¼re medik
tÃ¼re medin
tÃ¼re mediniz
dire din
dire dim
dire medim
dire medik
dire medin
kÃ¼Ã§Ã¼k ler
kus manÄ±n
gÃ¼t memiÅŁler
gÃ¼t mediler
gÃ¼t medik
gÃ¼t tÃ¼m
gÃ¼t mÃ¼ÅŁler
gÃ¼t tÃ¼n
gÃ¼t tÃ¼nÃ¼z
adsÄ±z lar
bel denin
ef sunu
ef enin
kuÅŁ un
kuÅŁ larÄ±n
kuÅŁ larÄ±nda
kuÅŁ larÄ±nÄ±n
kuÅŁ larÄ±ndan
kuÅŁ larÄ±na
kuÅŁ unun
kuÅŁ unda
kuÅŁ una
kuÅŁ undan
kÄ±l Ä±
kÄ±l larÄ±n
kÄ±l larÄ±
kÄ±l larÄ±ndan
kÄ±l larÄ±nÄ±
kÄ±l larÄ±na
kÄ±l Ä±nÄ±n
kÄ±l Ä±ndan
kÄ±l Ä±na
akÄ±ÅŁ Ä±
akÄ±ÅŁ Ä±n
akÄ±ÅŁ larÄ±
akÄ±ÅŁ larÄ±nda
akÄ±ÅŁ larÄ±nÄ±
akÄ±ÅŁ larÄ±na
akÄ±ÅŁ Ä±nÄ±n
akÄ±ÅŁ Ä±ndan
akÄ±ÅŁ Ä±na
akÄ±ÅŁ Ä±nda
ten in
ten lerin
ten leri
ten lerini
ten lerine
ten lerinin
ten inin
ten inde
ten ine
olay Ä±n
olay larÄ±
olay larÄ±nda
olay larÄ±ndan
olay larÄ±nÄ±
olay larÄ±na
olay Ä±nÄ±n
olay Ä±nÄ±
olay Ä±nda
pe dinin
sÄ±nÄ±r Ä±
sÄ±nÄ±r Ä±n
sÄ±nÄ±r larÄ±
sÄ±nÄ±r larÄ±ndan
sÄ±nÄ±r larÄ±nÄ±
sÄ±nÄ±r larÄ±na
sÄ±nÄ±r Ä±nÄ±n
sÄ±nÄ±r Ä±nÄ±
sÄ±nÄ±r Ä±na
sÄ±nÄ±r Ä±nda
ayn anÄ±n
seÃ§me lerinden
seÃ§me lerini
seÃ§me lerinde
seÃ§me lerinin
blog u
blog un
blog larÄ±
blog larÄ±nda
blog larÄ±nÄ±n
blog larÄ±nÄ±
blog larÄ±na
blog unun
blog unda
blog una
blog unu
blog undan
bakir i
bakir in
bakir lerin
bakir leri
bakir lerinden
bakir lerini
bakir lerine
bakir inin
bakir ini
bakir inden
Ġoluyor uz
Ġoluyor sun
Ġoluyor du
Ġoluyor dun
Ġoluyor sunuz
Ġoluyor lardÄ±
Ġoluyor muÅŁsun
Ġoluyor dunuz
Ġoluyor muÅŁuz
diy ecekler
otomobil i
otomobil in
otomobil leri
otomobil lerinden
otomobil lerini
otomobil lerine
otomobil lerinin
otomobil inde
otomobil inden
Ġsay Ä±nÄ±z
Ġsay Ä±mÄ±z
Ġsay Ä±nÄ±
Ġsay Ä±ndan
Ġsay Ä±na
Ġsay Ä±nda
Ġsay Ä±nÄ±zda
Ġsay Ä±nÄ±zÄ±
Ġsay Ä±nÄ±za
Ġsay Ä±nÄ±zdan
Ġsay Ä±mÄ±zdan
Ġsay Ä±mÄ±za
sÃ¶zc Ã¼nÃ¼n
ĠyazÄ±l Ä±ma
kav mi
kav min
kav unu
kav minde
kav mini
karde ÅŁt
ece lerin
ece leri
ece lerinden
ece lerini
ece lerinin
dul un
dul larÄ±n
dul larÄ±ndan
dul larÄ±nÄ±
dul unun
dul unda
dul una
pop larÄ±n
pop larÄ±
pop larÄ±nda
pop larÄ±ndan
pop larÄ±na
pop unun
pop unda
pop una
pop onun
cez vey
efe lerin
efe leri
efe lerini
efe lerine
efe lerinde
efe lerinin
hat anÄ±n
ĠyapmÄ±ÅŁ tÄ±
ĠyapmÄ±ÅŁ lardÄ±
ĠyapmÄ±ÅŁ tÄ±n
ĠyapmÄ±ÅŁ tÄ±nÄ±z
ĠyapmÄ±ÅŁ tÄ±m
ĠyapmÄ±ÅŁ mÄ±ÅŁsÄ±nÄ±z
ĠyapmÄ±ÅŁ mÄ±ÅŁÄ±m
ĠyapÄ±yor muÅŁ
ĠyapÄ±yor uz
ĠyapÄ±yor duk
ĠyapÄ±yor muÅŁsun
ĠyapÄ±yor muÅŁum
ĠyapÄ±yor dum
ĠfÃ¼z eniz
ĠfÃ¼z eye
ĠfÃ¼z enize
ĠfÃ¼z eyi
ĠfÃ¼z ende
ĠfÃ¼z ene
ĠfÃ¼z enizin
ĠfÃ¼z enizi
ĠolmuÅŁ lardÄ±
ĠolmuÅŁ muÅŁum
ayna larÄ±n
ayna larÄ±
ayna larÄ±nda
ayna larÄ±ndan
ayna larÄ±nÄ±
Ġyapacak sÄ±n
Ġyapacak sÄ±nÄ±z
Ġyapacak lardÄ±
Ġyapacak larmÄ±ÅŁ
Ġyapacak tÄ±n
Ġyapacak tÄ±k
Ġyapacak tÄ±nÄ±z
Ġyapacak mÄ±ÅŁsÄ±n
Ġyapacak mÄ±ÅŁÄ±z
mandal Ä±
mandal larÄ±nda
mandal larÄ±nÄ±n
mandal larÄ±nÄ±
mandal larÄ±na
mandal Ä±nÄ±
mandal Ä±ndan
mandal Ä±na
mandal Ä±nda
disko larÄ±n
disko larÄ±
disko larÄ±nda
disko larÄ±nÄ±n
disko larÄ±ndan
Ã§ar Ä±
Ã§ar Ä±n
Ã§ar larÄ±n
Ã§ar larÄ±nÄ±n
Ã§ar larÄ±ndan
Ã§ar larÄ±nÄ±
Ã§ar Ä±nÄ±
Ã§ar Ä±ndan
Ã§ar Ä±na
Ã§ar Ä±nda
Ġasimptot larÄ±nÄ±n
Ġasimptot unuz
Ġasimptot larda
Ġasimptot umuz
Ġasimptot larÄ±mÄ±zÄ±
Ġasimptot larÄ±nÄ±zÄ±
Ġasimptot larÄ±mÄ±zda
Ġasimptot larÄ±mÄ±zÄ±n
Ġasimptot larÄ±nÄ±zÄ±n
Ġasimptot larÄ±mÄ±zdan
Ġasimptot larÄ±nÄ±zda
Ġasimptot unda
Ġasimptot unuzun
Ġasimptot unuzu
Ġasimptot unuzda
Ġasimptot umuza
Ġasimptot umuzun
Ġasimptot umuzu
Ġasimptot umuzda
Ġhal in
Ġhal lerin
Ġhal Ä±nÄ±n
kÃ¶pÃ¼k lerinden
kÃ¶pÃ¼k lerini
kÃ¶pÃ¼k lerine
kÃ¶pÃ¼k lerinde
Ã§Ä±ÄŁÄ±rtkan Ä±n
Ã§Ä±ÄŁÄ±rtkan larÄ±n
Ã§Ä±ÄŁÄ±rtkan larÄ±nda
Ã§Ä±ÄŁÄ±rtkan larÄ±ndan
Ã§Ä±ÄŁÄ±rtkan Ä±nÄ±n
Ã§Ä±ÄŁÄ±rtkan Ä±na
mama larÄ±n
mama larÄ±nda
mama larÄ±nÄ±n
mama larÄ±na
evcik leri
evcik lerinden
evcik lerini
evcik lerine
evcik lerinde
evcik lerinin
alet i
alet in
alet lerin
alet leri
alet lerinden
alet lerine
alet inde
alet ine
Ã§ap anÄ±n
gÃ¼dÃ¼m lerin
gÃ¼dÃ¼m leri
gÃ¼dÃ¼m lerinde
gÃ¼dÃ¼m lerinin
kÄ±rÄ±l dÄ±n
kÄ±rÄ±l madÄ±lar
kÄ±rÄ±l madÄ±k
kÄ±rÄ±l madÄ±m
kÄ±rÄ±l madÄ±n
kÄ±rÄ±l madÄ±nÄ±z
kÄ±rÄ±l dÄ±m
kÄ±rÄ±l dÄ±k
kÄ±rÄ±l dÄ±lar
birlik lerin
birlik leri
birlik lerini
birlik lerine
birlik lerinde
birlik lerinin
kut unun
alt larÄ±nda
alt larÄ±nÄ±n
alt larÄ±ndan
kullanÄ±l mÄ±yorlar
kullanÄ±l madÄ±lar
kullanÄ±l madÄ±m
kullanÄ±l madÄ±n
kullanÄ±l madÄ±nÄ±z
kullanÄ±l dÄ±k
kaynaÅŁtÄ±rÄ±l dÄ±n
kaynaÅŁtÄ±rÄ±l dÄ±nÄ±z
kaynaÅŁtÄ±rÄ±l mayacaklar
kaynaÅŁtÄ±rÄ±l madÄ±k
kaynaÅŁtÄ±rÄ±l madÄ±m
kaynaÅŁtÄ±rÄ±l madÄ±n
kaynaÅŁtÄ±rÄ±l madÄ±nÄ±z
katÄ±l dÄ±nÄ±z
katÄ±l madÄ±k
katÄ±l madÄ±nÄ±z
katÄ±l dÄ±m
kÄ±ÅŁkÄ±rt tÄ±n
kÄ±ÅŁkÄ±rt tÄ±nÄ±z
kÄ±ÅŁkÄ±rt madÄ±k
kÄ±ÅŁkÄ±rt madÄ±n
kÄ±ÅŁkÄ±rt madÄ±nÄ±z
yapÄ±l madÄ±lar
yapÄ±l madÄ±k
yapÄ±l madÄ±n
yapÄ±l dÄ±k
Ġolmaz Ä±
Ġolmaz larÄ±
Ġolmaz larmÄ±ÅŁ
Ġolmaz dÄ±n
Ġolmaz larÄ±ndan
Ġolmaz larÄ±nÄ±
Ġolmaz dÄ±nÄ±z
Ġolmaz Ä±nÄ±n
Ġolmaz Ä±nÄ±
Ġolmaz Ä±ndan
Ġolmaz Ä±na
Ġolmaz Ä±nda
ĠsayÄ± ya
ĠsayÄ± da
ĠsayÄ± dan
ĠsayÄ± yÄ±
ĠsayÄ± larÄ±ndan
ĠsayÄ± larÄ±nÄ±
ĠsayÄ± lardan
ĠsayÄ± lara
ĠsayÄ± larÄ±mÄ±za
ĠsayÄ± larÄ±mÄ±zÄ±
ĠsayÄ± larÄ±mÄ±zda
ĠsayÄ± larÄ±mÄ±zÄ±n
ĠsayÄ± larÄ±nÄ±za
ĠsayÄ± larÄ±nÄ±zÄ±n
ĠsayÄ± larÄ±mÄ±zdan
ĠsayÄ± larÄ±nÄ±zda
ĠsayÄ± larÄ±nÄ±zdan
ĠsayÄ± sÄ±na
ĠsayÄ± sÄ±nÄ±n
Ã¶nem lerin
Ã¶nem leri
Ã¶nem lerinden
Ã¶nem lerini
Ã¶nem lerinin
atÄ±l dÄ±n
atÄ±l dÄ±nÄ±z
atÄ±l mÄ±yorlar
atÄ±l madÄ±k
atÄ±l madÄ±m
atÄ±l madÄ±n
atÄ±l madÄ±nÄ±z
atÄ±l dÄ±m
anlat tÄ±n
anlat tÄ±k
anlat tÄ±nÄ±z
anlat tÄ±m
anlat mÄ±yorlar
anlat madÄ±k
anlat madÄ±m
anlat madÄ±n
anlat madÄ±nÄ±z
ÅŁaÅŁÄ±rt tÄ±k
ÅŁaÅŁÄ±rt tÄ±nÄ±z
ÅŁaÅŁÄ±rt tÄ±m
ÅŁaÅŁÄ±rt madÄ±k
ÅŁaÅŁÄ±rt madÄ±nÄ±z
ÅŁaÅŁÄ±rt tÄ±lar
ĠfÃ¼ze de
ĠfÃ¼ze ler
ĠfÃ¼ze leriniz
ĠfÃ¼ze si
ĠfÃ¼ze leri
ĠfÃ¼ze lere
ĠfÃ¼ze lerde
ĠfÃ¼ze lerinizden
ĠfÃ¼ze lerinizin
ĠfÃ¼ze lerimizin
ĠfÃ¼ze lerinizde
ĠfÃ¼ze lerinize
ĠfÃ¼ze lerimizi
ĠfÃ¼ze sine
ĠfÃ¼ze mize
ĠfÃ¼ze mizin
ĠfÃ¼ze mizde
kas larÄ±
kas larÄ±nda
kas larÄ±nÄ±n
kas larÄ±ndan
kas larÄ±na
atÄ± ÅŁtÄ±nÄ±z
atÄ± ÅŁtÄ±n
atÄ± ÅŁtÄ±m
atÄ± ÅŁtÄ±k
sattÄ±rt tÄ±n
sattÄ±rt tÄ±k
sattÄ±rt tÄ±nÄ±z
sattÄ±rt tÄ±m
sattÄ±rt madÄ±lar
sattÄ±rt madÄ±k
sattÄ±rt madÄ±n
sattÄ±rt madÄ±nÄ±z
kÄ±rÄ±k larÄ±n
kÄ±rÄ±k larÄ±
kÄ±rÄ±k larÄ±nÄ±n
kÄ±rÄ±k larÄ±ndan
kÄ±rÄ±k larÄ±nÄ±
kÄ±rÄ±k larÄ±na
incir i
incir in
incir lerin
incir leri
incir lerinden
incir lerinde
incir lerinin
incir inin
incir ini
incir inde
sÃ¼rÃ¼ meyecekler
sÃ¼rÃ¼ mezler
sÃ¼rÃ¼ medim
sÃ¼rÃ¼ medik
sÃ¼rÃ¼ medin
sÃ¼rÃ¼ mediniz
sÃ¼rÃ¼ dÃ¼nÃ¼z
sÃ¼rÃ¼ dÃ¼m
karÄ±ÅŁtÄ±rt tÄ±k
karÄ±ÅŁtÄ±rt tÄ±nÄ±z
karÄ±ÅŁtÄ±rt tÄ±m
karÄ±ÅŁtÄ±rt mazlar
derleyici lerin
derleyici lerinden
derleyici lerini
kutu larÄ±n
kutu larÄ±
kutu larÄ±nÄ±n
kutu larÄ±ndan
kutu larÄ±nÄ±
yaptÄ±rt tÄ±nÄ±z
yaptÄ±rt tÄ±m
yaptÄ±rt mamÄ±ÅŁlar
yaptÄ±rt mayacaklar
yaptÄ±rt mÄ±yorlar
yaptÄ±rt madÄ±lar
yaptÄ±rt madÄ±m
yaptÄ±rt madÄ±n
yaptÄ±rt madÄ±nÄ±z
yaptÄ±rt tÄ±lar
ĠyazÄ±lÄ±m lar
ĠyazÄ±lÄ±m da
ĠyazÄ±lÄ±m dan
ĠyazÄ±lÄ±m larÄ±
ĠyazÄ±lÄ±m larÄ±mÄ±z
ĠyazÄ±lÄ±m larÄ±nÄ±z
ĠyazÄ±lÄ±m larÄ±ndan
ĠyazÄ±lÄ±m lardan
ĠyazÄ±lÄ±m larÄ±mÄ±zÄ±
ĠyazÄ±lÄ±m larÄ±nÄ±zÄ±
ĠyazÄ±lÄ±m larÄ±nÄ±za
ĠyazÄ±lÄ±m larÄ±nÄ±zÄ±n
ĠyazÄ±lÄ±m larÄ±mÄ±zdan
ĠyazÄ±lÄ±m larÄ±nÄ±zdan
bÃ¼rÃ¼ medim
bÃ¼rÃ¼ medik
bÃ¼rÃ¼ medin
bÃ¼rÃ¼ mediniz
bÃ¼rÃ¼ dÃ¼n
bÃ¼rÃ¼ dÃ¼m
ac Ä±n
ac Ä±nÄ±n
Ġgezegen e
Ġgezegen lerin
Ġgezegen lerinden
Ġgezegen lerini
Ġgezegen lerine
Ġgezegen lerinde
Ġgezegen lerinin
Ġgezegen inin
Ġgezegen ini
Ġgezegen inde
Ġgezegen inden
benzer in
benzer lerin
benzer lerinden
benzer lerini
benzer lerine
benzer inin
benzer ini
benzer inde
benzer ine
Ġyapar Ä±z
Ġyapar sÄ±nÄ±z
Ġyapar lardÄ±
Ġyapar dÄ±n
Ġyapar dÄ±nÄ±z
Ġyapar mÄ±ÅŁsÄ±nÄ±z
Ġyapar mÄ±ÅŁsÄ±n
Ġyapar mÄ±ÅŁÄ±m
Ġyapar dÄ±k
ĠÃ§ekiyor muÅŁ
ĠÃ§ekiyor uz
ĠÃ§ekiyor du
ĠÃ§ekiyor um
ĠÃ§ekiyor dun
ĠÃ§ekiyor larmÄ±ÅŁ
ĠÃ§ekiyor muÅŁsun
ĠÃ§ekiyor muÅŁuz
ĠÃ§ekiyor muÅŁum
Ġolur muÅŁ
Ġolur uz
Ġolur um
Ġolur muÅŁsun
Ġolur dum
oÄŁul larÄ±
oÄŁul larÄ±nda
oÄŁul larÄ±nÄ±n
oÄŁul larÄ±ndan
oÄŁul larÄ±na
gelecek ler
Ġanahtar larÄ±n
Ġanahtar Ä±ndan
umutsuz lar
ikiz i
ikiz in
ikiz lerin
ikiz leri
ikiz lerinden
ikiz lerine
ikiz lerinin
ikiz ini
ikiz inde
ikiz ine
ikiz inden
tÃ¼t s
tÃ¼t Ã¼nÃ¼n
ĠÃ§ekecek siniz
ĠÃ§ekecek ti
ĠÃ§ekecek miÅŁsiniz
ĠÃ§ekecek miÅŁim
ĠÃ§ekecek tin
ĠÃ§ekecek lermiÅŁ
ĠÃ§ekecek tik
ĠÃ§ekecek tim
bahtsÄ±z lar
abajur larÄ±n
abajur larÄ±nÄ±n
abajur larÄ±ndan
abajur larÄ±nÄ±
abajur larÄ±na
abajur unda
abajur una
abajur unu
abajur culuÄŁ
sunu larÄ±na
yalan Ä±
yalan larÄ±
yalan larÄ±nda
yalan larÄ±nÄ±n
yalan larÄ±ndan
yalan larÄ±na
yalan Ä±nÄ±n
yalan Ä±nÄ±
yalan Ä±na
yalan Ä±nda
koordin atÄ±
Ġson un
Ġson larÄ±n
Ġson larÄ±nÄ±n
Ġson larÄ±nÄ±
Ġson larÄ±na
Ġson unun
Ġson unda
Ġson unu
ĠsÃ¼rÃ¼m lerin
ĠsÃ¼rÃ¼m lerinden
ĠsÃ¼rÃ¼m lerinde
ĠsÃ¼rÃ¼m lerinin
ĠsÃ¼rÃ¼m Ã¼ne
ĠsÃ¼rÃ¼m Ã¼nde
masal Ä±
masal larÄ±n
masal larÄ±nda
masal larÄ±nÄ±n
masal larÄ±na
masal Ä±nÄ±n
masal Ä±nÄ±
masal Ä±na
masal Ä±nda
altÄ±n Ä±
altÄ±n larÄ±n
altÄ±n dan
altÄ±n larÄ±
altÄ±n larÄ±nda
altÄ±n larÄ±nÄ±
altÄ±n larÄ±na
altÄ±n Ä±nÄ±n
altÄ±n Ä±nÄ±
altÄ±n Ä±ndan
altÄ±n Ä±nda
koordinat larÄ±
koordinat larÄ±nda
koordinat larÄ±nÄ±n
koordinat larÄ±na
koordinat Ä±nÄ±n
koordinat Ä±nÄ±
koordinat Ä±na
koordinat Ä±nda
ĠÃ§ekmiÅŁ lerdi
ĠÃ§ekmiÅŁ ti
ĠÃ§ekmiÅŁ miÅŁim
ĠÃ§ekmiÅŁ tik
ĠÃ§ekmiÅŁ tiniz
ĠÃ§ekmiÅŁ tim
sos larÄ±n
sos larÄ±
sos larÄ±nÄ±n
sos larÄ±nÄ±
sos larÄ±na
dÃ¼ÅŁÃ¼nceli ler
coÅŁkusuz lar
yorgun lar
yorgun muÅŁ
fren i
fren in
fren lerin
fren leri
fren lerinden
fren lerini
fren lerine
fren lerinde
fren inin
fren inde
fren ine
fren inden
sÃ¼l Ã¼sÃ¼nÃ¼
yang Ä±nÄ±
dey imi
dey imine
Ã¼ren in
yÄ±ldÄ±z Ä±
yÄ±ldÄ±z Ä±n
yÄ±ldÄ±z larÄ±n
yÄ±ldÄ±z larÄ±nda
yÄ±ldÄ±z larÄ±ndan
yÄ±ldÄ±z Ä±nÄ±
yÄ±ldÄ±z Ä±na
cenaz enin
kastanyet i
kastanyet in
kastanyet lerin
kastanyet lerinden
kastanyet lerini
kastanyet lerine
kastanyet lerinde
kastanyet lerinin
kastanyet inin
kastanyet ini
kastanyet ine
kastanyet inden
hÄ±zlÄ± y
hÄ±zlÄ± lar
sunucu larÄ±ndan
sunucu larÄ±nÄ±
geÃ§miÅŁ in
geÃ§miÅŁ lerin
geÃ§miÅŁ leri
geÃ§miÅŁ lerinden
geÃ§miÅŁ lerini
geÃ§miÅŁ lerine
geÃ§miÅŁ lerinde
geÃ§miÅŁ lerinin
geÃ§miÅŁ inin
geÃ§miÅŁ ini
geÃ§miÅŁ ine
coÅŁkulu lar
motel i
motel in
motel leri
motel lerinden
motel lerini
motel lerine
motel lerinde
motel lerinin
motel inin
motel ini
motel inde
motel ine
hun inin
hun ileri
masa larÄ±n
masa larÄ±
masa larÄ±nda
masa larÄ±nÄ±n
masa larÄ±ndan
masa larÄ±na
Ã¼re lerinden
Ã¼re lerini
Ã¼re lerine
Ã¼re lerinde
Ã¼re lerinin
gider i
gider lerinden
gider lerini
gider lerine
gider lerinde
gider inin
gider ini
gider inde
gider ine
gider inden
seksi ler
anason un
anason larÄ±n
anason larÄ±
anason larÄ±nda
anason larÄ±nÄ±n
anason larÄ±ndan
anason larÄ±nÄ±
anason larÄ±na
anason unun
anason unda
anason una
anason undan
huzur u
huzur un
huzur larÄ±n
huzur larÄ±
huzur larÄ±nda
huzur larÄ±nÄ±n
huzur larÄ±nÄ±
huzur larÄ±na
huzur unun
huzur unda
huzur una
huzur undan
malamoz u
malamoz un
malamoz larÄ±n
malamoz larÄ±
malamoz larÄ±nÄ±n
malamoz larÄ±nÄ±
malamoz unun
malamoz unda
malamoz una
malamoz unu
Ġdil i
Ġdil leri
Ġdil lerinden
Ġdil lerini
Ġdil lerine
Ġdil lerinde
Ġdil lerinin
Ġdil ini
Ġdil inde
Ġdil ine
ceviz i
ceviz lerin
ceviz leri
ceviz lerini
ceviz lerine
ceviz lerinin
ceviz ine
ceviz inden
portakal Ä±n
portakal larÄ±n
portakal larÄ±nÄ±n
portakal Ä±nÄ±n
portakal Ä±nÄ±
portakal Ä±ndan
portakal Ä±na
portakal Ä±nda
bas Ä±
hur inin
hur ileri
ĠbaÄŁ Ä±
ĠbaÄŁ larÄ±n
ĠbaÄŁ larÄ±
ĠbaÄŁ larÄ±nda
ĠbaÄŁ larÄ±nÄ±n
ĠbaÄŁ larÄ±ndan
ĠbaÄŁ larÄ±nÄ±
ĠbaÄŁ Ä±nÄ±
ĠbaÄŁ Ä±ndan
ĠbaÄŁ Ä±na
ĠbaÄŁ Ä±nda
Ġdiz ileri
Ã§Ä±t Ä±
Ã§Ä±t Ä±n
Ã§Ä±t larÄ±n
Ã§Ä±t larÄ±
Ã§Ä±t larÄ±nda
Ã§Ä±t larÄ±ndan
Ã§Ä±t larÄ±nÄ±
Ã§Ä±t larÄ±na
Ã§Ä±t Ä±nÄ±n
Ã§Ä±t Ä±ndan
Ã§Ä±t Ä±na
ham steri
patron u
patron un
patron larÄ±n
patron larÄ±
patron larÄ±nda
patron larÄ±nÄ±n
patron larÄ±nÄ±
patron larÄ±na
patron unun
patron una
tutul manÄ±n
sansar Ä±
sansar Ä±n
sansar larÄ±n
sansar larÄ±nda
sansar larÄ±nÄ±n
sansar larÄ±ndan
sansar larÄ±nÄ±
sansar larÄ±na
sansar Ä±nÄ±n
sansar Ä±nÄ±
sansar Ä±ndan
sansar Ä±na
sansar Ä±nda
filozof un
filozof larÄ±n
filozof larÄ±
filozof larÄ±nda
filozof larÄ±nÄ±n
filozof larÄ±nÄ±
filozof unun
filozof una
filozof unu
filozof undan
doktr ini
lezyon un
lezyon larÄ±
lezyon larÄ±nda
lezyon larÄ±nÄ±n
lezyon larÄ±ndan
lezyon larÄ±nÄ±
lezyon unda
lezyon una
lezyon unu
lezyon undan
saÄŁr Ä±nÄ±n
parÃ§alan manÄ±n
tren i
tren leri
tren lerinden
tren lerini
tren lerinin
tren inin
tren ini
tren ine
zÄ±rtgel i
zÄ±rtgel in
zÄ±rtgel lerin
zÄ±rtgel leri
zÄ±rtgel lerinden
zÄ±rtgel lerini
zÄ±rtgel lerine
zÄ±rtgel lerinde
zÄ±rtgel lerinin
zÄ±rtgel inin
zÄ±rtgel ini
zÄ±rtgel inde
zÄ±rtgel inden
Ã¼rÃ¼n Ã¼
Ã¼rÃ¼n lerin
Ã¼rÃ¼n leri
Ã¼rÃ¼n lerinden
Ã¼rÃ¼n lerine
Ã¼rÃ¼n lerinde
Ã¼rÃ¼n lerinin
Ã¼rÃ¼n Ã¼nÃ¼
Ã¼rÃ¼n Ã¼nde
ateÅŁ i
ateÅŁ lerin
ateÅŁ leri
ateÅŁ lerinden
ateÅŁ lerini
ateÅŁ lerine
ateÅŁ lerinde
ateÅŁ lerinin
ateÅŁ inin
ateÅŁ ini
ateÅŁ inde
ateÅŁ ine
kola larÄ±
kola larÄ±nda
kola larÄ±nÄ±n
kola larÄ±nÄ±
kola larÄ±na
tandÄ±r Ä±
tandÄ±r larÄ±n
tandÄ±r larÄ±
tandÄ±r larÄ±nda
tandÄ±r larÄ±nÄ±n
tandÄ±r larÄ±ndan
tandÄ±r larÄ±nÄ±
tandÄ±r Ä±nÄ±n
tandÄ±r Ä±nÄ±
tandÄ±r Ä±ndan
cemaat i
cemaat leri
cemaat lerinden
cemaat lerini
cemaat lerine
cemaat lerinde
cemaat lerinin
cemaat ini
cemaat inde
cemaat ine
cemaat inden
mÃ¼stah demi
motor ini
bandaj Ä±
bandaj Ä±n
bandaj larÄ±
bandaj larÄ±nda
bandaj larÄ±nÄ±n
bandaj larÄ±ndan
bandaj larÄ±nÄ±
bandaj larÄ±na
bandaj Ä±nÄ±
bandaj Ä±na
bandaj Ä±nda
Musev inin
Musev ileri
vampir i
vampir in
vampir lerin
vampir leri
vampir lerinden
vampir lerine
vampir lerinde
vampir lerinin
vampir inde
ĠsÄ±nÄ±f Ä±
ĠsÄ±nÄ±f larÄ±n
ĠsÄ±nÄ±f larÄ±
ĠsÄ±nÄ±f larÄ±nÄ±n
ĠsÄ±nÄ±f larÄ±ndan
ĠsÄ±nÄ±f larÄ±nÄ±
ĠsÄ±nÄ±f larÄ±na
ĠsÄ±nÄ±f Ä±nÄ±
ĠsÄ±nÄ±f Ä±ndan
ĠsÄ±nÄ±f Ä±na
izolasyon u
izolasyon un
izolasyon larÄ±n
izolasyon larÄ±
izolasyon larÄ±nÄ±n
izolasyon larÄ±ndan
izolasyon larÄ±nÄ±
izolasyon unun
izolasyon unda
izolasyon una
izolasyon unu
Ġha Ã§Ä±
alyan Ä±
alyan larÄ±n
alyan larÄ±
alyan larÄ±nÄ±n
alyan larÄ±ndan
alyan larÄ±nÄ±
alyan Ä±nÄ±n
alyan Ä±nÄ±
alyan Ä±ndan
alyan Ä±na
alyan Ä±nda
keman Ä±
keman larÄ±n
keman larÄ±
keman larÄ±ndan
keman larÄ±nÄ±
keman larÄ±na
keman Ä±nÄ±n
keman Ä±nÄ±
keman Ä±ndan
keman Ä±na
keman Ä±nda
eÅŁofman Ä±
eÅŁofman Ä±n
eÅŁofman larÄ±n
eÅŁofman larÄ±ndan
eÅŁofman larÄ±na
eÅŁofman Ä±nÄ±
eÅŁofman Ä±ndan
eÅŁofman Ä±na
kÃ¼rk leri
kÃ¼rk lerinden
kÃ¼rk lerini
kÃ¼rk Ã¼nÃ¼n
kÃ¼rk enin
kÃ¼rk Ã¼ne
ÅŁaf aÄŁÄ±
mÄ±sÄ±r Ä±
mÄ±sÄ±r Ä±n
mÄ±sÄ±r larÄ±n
mÄ±sÄ±r larÄ±nda
mÄ±sÄ±r larÄ±nÄ±n
mÄ±sÄ±r larÄ±nÄ±
mÄ±sÄ±r larÄ±na
mÄ±sÄ±r Ä±nÄ±n
mÄ±sÄ±r Ä±ndan
mÄ±sÄ±r Ä±na
kasi denin
elma larÄ±n
elma larÄ±
elma larÄ±nda
elma larÄ±nÄ±
ongun u
ongun larÄ±n
ongun larÄ±
ongun larÄ±nda
ongun larÄ±nÄ±n
ongun larÄ±ndan
ongun larÄ±na
ongun unda
ongun una
ongun unu
ongun undan
hamÄ±z larÄ±n
hamÄ±z larÄ±
hamÄ±z larÄ±nda
hamÄ±z larÄ±ndan
hamÄ±z Ä±nÄ±n
hamÄ±z Ä±nÄ±
hamÄ±z Ä±ndan
hamÄ±z Ä±na
hamÄ±z Ä±nda
Ġsor unun
kÄ±ya meti
gÃ¼rz Ã¼n
gÃ¼rz leri
gÃ¼rz lerinden
gÃ¼rz lerini
gÃ¼rz lerine
gÃ¼rz lerinde
gÃ¼rz Ã¼nÃ¼n
gÃ¼rz Ã¼ne
gÃ¼rz Ã¼nÃ¼
gÃ¼rz Ã¼nde
gÃ¼rz Ã¼nden
omlet in
omlet lerin
omlet leri
omlet lerini
omlet lerine
omlet lerinde
omlet lerinin
omlet ini
omlet inde
omlet ine
omlet inden
ÅŁuur u
ÅŁuur un
ÅŁuur larÄ±nda
ÅŁuur larÄ±ndan
ÅŁuur larÄ±nÄ±
ÅŁuur unda
ÅŁuur una
ÅŁuur undan
girda bÄ±
vapur un
vapur larÄ±n
vapur larÄ±nda
vapur larÄ±nÄ±n
vapur larÄ±ndan
vapur larÄ±nÄ±
vapur larÄ±na
vapur unun
vapur unda
vapur una
vapur undan
vaziyet i
vaziyet in
vaziyet lerin
vaziyet lerini
vaziyet lerine
vaziyet lerinde
vaziyet lerinin
vaziyet ini
vaziyet ine
vaziyet inden
anafaz Ä±
anafaz larÄ±n
anafaz larÄ±
anafaz larÄ±ndan
anafaz larÄ±nÄ±
anafaz larÄ±na
anafaz Ä±nÄ±
anafaz Ä±ndan
anafaz Ä±na
anafaz Ä±nda
Ġkedi lerinden
Ġkedi lerini
Ġkedi lerine
Ġkedi lerinin
seÃ§men i
seÃ§men leri
seÃ§men lerinde
seÃ§men lerinin
seÃ§men inin
seÃ§men ini
seÃ§men inden
kefir i
kefir leri
kefir lerinden
kefir lerine
kefir lerinde
kefir lerinin
kefir inin
kefir ini
kefir inde
kefir ine
kefir inden
aÄŁaÃ§kakan Ä±
aÄŁaÃ§kakan Ä±n
aÄŁaÃ§kakan larÄ±n
aÄŁaÃ§kakan larÄ±
aÄŁaÃ§kakan larÄ±nda
aÄŁaÃ§kakan larÄ±nÄ±n
aÄŁaÃ§kakan larÄ±ndan
aÄŁaÃ§kakan larÄ±nÄ±
aÄŁaÃ§kakan larÄ±na
aÄŁaÃ§kakan Ä±nÄ±n
aÄŁaÃ§kakan Ä±ndan
aÄŁaÃ§kakan Ä±na
aÄŁaÃ§kakan Ä±nda
Ġintegral leri
Ġintegral lerinden
Ġintegral lerini
Ġintegral lerinde
Ġintegral inin
Ġintegral ini
Ġintegral inde
Ġintegral inden
bur nu
fakir in
fakir lerin
fakir leri
fakir lerinden
fakir lerini
fakir lerine
fakir lerinde
fakir lerinin
fakir ini
fakir inde
fakir ine
paÅŁ anÄ±n
pren sin
pren sinden
pren si
pren sine
pren sinin
pren sinde
Ã§avu ÅŁu
anket i
anket lerin
anket leri
anket lerine
anket lerinde
anket lerinin
anket inin
anket ini
anket inde
anket ine
anket inden
kalÄ± bÄ±
dilber i
dilber in
dilber lerin
dilber leri
dilber lerini
dilber lerinin
dilber inin
dilber ini
dilber inde
dilber ine
dilber inden
kaplan larÄ±nÄ±n
kaplan larÄ±na
kaplan Ä±nÄ±n
kaplan Ä±ndan
nefret in
nefret lerin
nefret leri
nefret lerini
nefret lerine
nefret lerinde
nefret lerinin
nefret inin
nefret ini
nefret inde
nefret inden
kantin i
kantin in
kantin leri
kantin lerinden
kantin lerini
kantin lerine
kantin lerinde
kantin lerinin
kantin ini
kantin inde
Ġsaat i
Ġsaat lerin
Ġsaat leri
Ġsaat lerine
Ġsaat lerinde
Ġsaat lerinin
Ġsaat inin
Ġsaat inde
Ġsaat ine
Ġsaat inden
sakÄ±z Ä±
sakÄ±z Ä±n
sakÄ±z larÄ±n
sakÄ±z larÄ±nda
sakÄ±z larÄ±nÄ±n
sakÄ±z larÄ±ndan
sakÄ±z larÄ±na
sakÄ±z Ä±nÄ±
sakÄ±z Ä±ndan
sakÄ±z Ä±nda
Ã§adÄ±r Ä±n
Ã§adÄ±r larÄ±n
Ã§adÄ±r larÄ±
Ã§adÄ±r larÄ±nda
Ã§adÄ±r larÄ±nÄ±n
Ã§adÄ±r larÄ±nÄ±
Ã§adÄ±r larÄ±na
Ã§adÄ±r Ä±nÄ±n
Ã§adÄ±r Ä±na
ruj u
ruj un
ruj larÄ±n
ruj larÄ±
ruj larÄ±nda
ruj larÄ±nÄ±n
ruj larÄ±ndan
ruj unda
ruj una
baÅŁrah i
karakol u
karakol un
karakol larÄ±n
karakol larÄ±
karakol larÄ±nÄ±n
karakol larÄ±ndan
karakol larÄ±nÄ±
karakol unun
karakol unda
karakol una
karakol undan
kÃ¶ygÃ¶Ã§Ã¼ren lerin
kÃ¶ygÃ¶Ã§Ã¼ren lerini
kÃ¶ygÃ¶Ã§Ã¼ren lerinde
kÃ¶ygÃ¶Ã§Ã¼ren lerinin
kÃ¶ygÃ¶Ã§Ã¼ren inin
kÃ¶ygÃ¶Ã§Ã¼ren ini
kÃ¶ygÃ¶Ã§Ã¼ren inde
kÃ¶ygÃ¶Ã§Ã¼ren ine
dinozor larÄ±n
dinozor larÄ±nda
dinozor larÄ±nÄ±n
dinozor larÄ±na
dinozor unda
dinozor una
dinozor undan
sÃ¼spansuvar Ä±
sÃ¼spansuvar larÄ±
sÃ¼spansuvar larÄ±nda
sÃ¼spansuvar larÄ±nÄ±n
sÃ¼spansuvar larÄ±nÄ±
sÃ¼spansuvar larÄ±na
sÃ¼spansuvar Ä±nÄ±n
sÃ¼spansuvar Ä±nÄ±
sÃ¼spansuvar Ä±na
sÃ¼spansuvar Ä±nda
ala meti
key i
dÃ¼ÅŁman Ä±
dÃ¼ÅŁman Ä±n
dÃ¼ÅŁman larÄ±n
dÃ¼ÅŁman larÄ±
dÃ¼ÅŁman larÄ±nda
dÃ¼ÅŁman larÄ±nÄ±n
dÃ¼ÅŁman larÄ±nÄ±
dÃ¼ÅŁman Ä±nÄ±n
dÃ¼ÅŁman Ä±nÄ±
dÃ¼ÅŁman Ä±ndan
dÃ¼ÅŁman Ä±nda
kÃ¶m Ã¼n
kÃ¶m leri
kÃ¶m lerine
kÃ¶m lerinde
kÃ¶m lerinin
kÃ¶m Ã¼nÃ¼n
kÃ¶m Ã¼ne
kÃ¶m Ã¼nÃ¼
kÃ¶m Ã¼nde
ped leri
ped lerini
ped lerine
ped lerinde
ped lerinin
ĠhaÃ§ Ä±n
ĠhaÃ§ larÄ±nda
ĠhaÃ§ larÄ±na
ĠhaÃ§ Ä±nÄ±n
ĠhaÃ§ Ä±nÄ±
ĠhaÃ§ Ä±ndan
ĠhaÃ§ Ä±na
ĠhaÃ§ Ä±nda
bey ti
idar enin
tekli fi
karide sinden
karide si
karide sinde
karide sini
ĠÃ§eker miÅŁ
ĠÃ§eker di
ĠÃ§eker iz
ĠÃ§eker sin
ĠÃ§eker siniz
ĠÃ§eker din
ĠÃ§eker diniz
ĠÃ§eker lerdi
ĠÃ§eker miÅŁsiniz
ĠÃ§eker miÅŁim
ĠÃ§eker miÅŁiz
ĠÃ§eker lermiÅŁ
ĠÃ§eker dim
evren i
evren lerin
evren lerinden
evren lerini
evren lerine
evren lerinde
evren inin
evren ini
evren inde
evren ine
baytar Ä±
baytar Ä±n
baytar larÄ±n
baytar larÄ±nÄ±n
baytar larÄ±ndan
baytar Ä±nÄ±n
baytar Ä±ndan
baytar Ä±nda
cihaz Ä±
cihaz Ä±n
cihaz larÄ±n
cihaz larÄ±nda
cihaz larÄ±nÄ±n
cihaz larÄ±nÄ±
cihaz Ä±nÄ±n
cihaz Ä±na
maydanoz u
maydanoz larÄ±n
maydanoz larÄ±
maydanoz larÄ±nda
maydanoz larÄ±nÄ±n
maydanoz larÄ±na
maydanoz unun
maydanoz unu
maydanoz undan
Ġfik ri
efsun larÄ±n
efsun larÄ±
efsun larÄ±nda
efsun larÄ±nÄ±n
efsun larÄ±na
efsun unun
efsun unda
efsun unu
efsun undan
kardeÅŁ i
kardeÅŁ lerin
kardeÅŁ leri
kardeÅŁ lerinden
kardeÅŁ lerini
kardeÅŁ lerine
kardeÅŁ lerinin
kardeÅŁ inin
kardeÅŁ ini
kardeÅŁ inde
kardeÅŁ ine
sinematograf Ä±
sinematograf larÄ±
sinematograf larÄ±nÄ±n
sinematograf larÄ±ndan
sinematograf Ä±nÄ±n
sinematograf Ä±ndan
sinematograf Ä±na
sinematograf Ä±nda
aynasÄ±z Ä±
aynasÄ±z larÄ±n
aynasÄ±z larÄ±nda
aynasÄ±z larÄ±nÄ±n
aynasÄ±z larÄ±nÄ±
aynasÄ±z larÄ±na
aynasÄ±z Ä±nÄ±n
aynasÄ±z Ä±nÄ±
aynasÄ±z Ä±ndan
aynasÄ±z Ä±na
aynasÄ±z Ä±nda
Ã¼Ã§Ã¼z Ã¼
Ã¼Ã§Ã¼z lerin
Ã¼Ã§Ã¼z leri
Ã¼Ã§Ã¼z lerinden
Ã¼Ã§Ã¼z lerini
Ã¼Ã§Ã¼z lerine
Ã¼Ã§Ã¼z lerinde
Ã¼Ã§Ã¼z lerinin
Ã¼Ã§Ã¼z Ã¼nÃ¼
Ã¼Ã§Ã¼z Ã¼nde
Ã¼Ã§Ã¼z Ã¼nden
Ã¼mitli ler
fotoÄŁraf Ä±
fotoÄŁraf Ä±n
fotoÄŁraf larÄ±nda
fotoÄŁraf larÄ±nÄ±n
fotoÄŁraf larÄ±ndan
fotoÄŁraf Ä±nÄ±n
fotoÄŁraf Ä±ndan
fotoÄŁraf Ä±na
fotoÄŁraf Ä±nda
jokey in
jokey lerin
jokey leri
jokey lerinden
jokey lerine
jokey lerinin
ÅŁifonyer in
ÅŁifonyer lerin
ÅŁifonyer lerinden
ÅŁifonyer lerine
ÅŁifonyer lerinin
ÅŁifonyer inin
ÅŁifonyer ini
ÅŁifonyer inde
ÅŁifonyer ine
kozmonot u
kozmonot larÄ±n
kozmonot larÄ±
kozmonot larÄ±nda
kozmonot larÄ±ndan
kozmonot larÄ±nÄ±
kozmonot larÄ±na
kozmonot unun
kozmonot unda
kozmonot una
kozmonot unu
kist i
kist in
kist lerin
kist leri
kist lerinden
kist lerini
kist lerine
kist lerinde
kist inin
kist ini
kist inde
kist ine
mas allarÄ±
katil in
katil leri
katil lerinden
katil lerini
katil lerine
katil lerinde
katil lerinin
katil inin
katil ini
katil inde
katil ine
kirmen in
kirmen lerin
kirmen leri
kirmen lerine
kirmen lerinde
kirmen lerinin
kirmen inin
kirmen ini
kirmen inden
yaÄŁmur larÄ±n
yaÄŁmur larÄ±nda
yaÄŁmur larÄ±nÄ±n
yaÄŁmur larÄ±ndan
yaÄŁmur larÄ±nÄ±
yaÄŁmur larÄ±na
yaÄŁmur una
yaÄŁmur unu
samur un
samur larÄ±
samur larÄ±nda
samur larÄ±nÄ±n
samur larÄ±ndan
samur larÄ±nÄ±
samur unun
rimel in
rimel lerin
rimel lerinden
rimel lerini
rimel lerine
rimel ine
rimel inden
ĠÅŁok u
ĠÅŁok larÄ±n
ĠÅŁok larÄ±
ĠÅŁok larÄ±nÄ±n
ĠÅŁok larÄ±na
ĠÅŁok unun
ĠÅŁok una
ĠÅŁok undan
Ġiske leti
uygulama larÄ±n
uygulama larÄ±
uygulama larÄ±nda
uygulama larÄ±nÄ±n
uygulama larÄ±ndan
uygulama larÄ±na
gizemli ler
Ã§avuÅŁ larÄ±n
Ã§avuÅŁ larÄ±
Ã§avuÅŁ larÄ±nÄ±n
Ã§avuÅŁ larÄ±ndan
Ã§avuÅŁ larÄ±na
Ã§avuÅŁ unun
Ã§avuÅŁ unda
Ã§avuÅŁ unu
Ã§avuÅŁ undan
akrobat Ä±
akrobat Ä±n
akrobat larÄ±n
akrobat larÄ±
akrobat larÄ±nda
akrobat larÄ±nÄ±n
akrobat larÄ±ndan
akrobat Ä±nÄ±
akrobat Ä±ndan
strÃ¼ktÃ¼r Ã¼
strÃ¼ktÃ¼r Ã¼n
strÃ¼ktÃ¼r lerin
strÃ¼ktÃ¼r leri
strÃ¼ktÃ¼r lerinden
strÃ¼ktÃ¼r lerini
strÃ¼ktÃ¼r lerinde
strÃ¼ktÃ¼r lerinin
strÃ¼ktÃ¼r Ã¼ne
strÃ¼ktÃ¼r Ã¼nÃ¼
strÃ¼ktÃ¼r Ã¼nden
istirahat Ä±n
istirahat larÄ±n
istirahat larÄ±nda
istirahat larÄ±nÄ±n
istirahat larÄ±nÄ±
istirahat larÄ±na
istirahat Ä±nÄ±n
istirahat Ä±ndan
istirahat Ä±na
evcikkÄ±ran Ä±
evcikkÄ±ran Ä±n
evcikkÄ±ran larÄ±n
evcikkÄ±ran larÄ±nda
evcikkÄ±ran larÄ±nÄ±n
evcikkÄ±ran larÄ±ndan
evcikkÄ±ran larÄ±nÄ±
evcikkÄ±ran Ä±nÄ±n
evcikkÄ±ran Ä±nÄ±
evcikkÄ±ran Ä±nda
irkeyel i
irkeyel in
irkeyel lerin
irkeyel leri
irkeyel lerinden
irkeyel lerine
irkeyel lerinin
irkeyel inin
irkeyel ini
irkeyel inde
bok sundan
polen i
polen lerinden
polen lerini
polen lerine
polen inde
polen inden
yut aÄŁÄ±
Ã§ak allarÄ±
eniÅŁt enin
sebe bi
mezuniyet lerin
mezuniyet leri
mezuniyet lerini
mezuniyet lerine
mezuniyet lerinde
mezuniyet inin
mezuniyet inden
karne lerin
karne leri
karne lerinden
karne lerini
karne lerine
karne lerinde
karne lerinin
sÃ¼rgÃ¼n Ã¼
sÃ¼rgÃ¼n lerin
sÃ¼rgÃ¼n leri
sÃ¼rgÃ¼n lerinden
sÃ¼rgÃ¼n lerini
sÃ¼rgÃ¼n lerine
sÃ¼rgÃ¼n lerinin
sÃ¼rgÃ¼n Ã¼ne
sÃ¼rgÃ¼n Ã¼nÃ¼
sÃ¼rgÃ¼n Ã¼nden
dikdÃ¶rtgen i
dikdÃ¶rtgen in
dikdÃ¶rtgen lerin
dikdÃ¶rtgen lerinden
dikdÃ¶rtgen lerini
dikdÃ¶rtgen lerinde
dikdÃ¶rtgen lerinin
dikdÃ¶rtgen inin
dikdÃ¶rtgen ini
dikdÃ¶rtgen inden
radar Ä±
radar larÄ±n
radar larÄ±
radar larÄ±nda
radar larÄ±nÄ±n
radar larÄ±nÄ±
radar Ä±nÄ±n
radar Ä±nÄ±
radar Ä±ndan
radar Ä±na
karadul un
karadul larÄ±n
karadul larÄ±ndan
karadul larÄ±nÄ±
karadul larÄ±na
karadul unun
karadul unda
karadul una
karadul unu
karadul undan
papir Ã¼sÃ¼nÃ¼
papir Ã¼sÃ¼ne
papir Ã¼sÃ¼nÃ¼n
papyon larÄ±nÄ±n
papyon larÄ±ndan
papyon larÄ±nÄ±
papyon larÄ±na
papyon unun
papyon unda
papyon una
krav atÄ±
garson u
garson larÄ±ndan
garson larÄ±na
garson unda
garson una
garson unu
ÅŁark Ä±n
ÅŁark larÄ±
ÅŁark larÄ±nda
ÅŁark larÄ±ndan
ÅŁark larÄ±nÄ±
ÅŁark larÄ±na
ÅŁark Ä±nÄ±n
ÅŁark Ä±nÄ±
ÅŁark Ä±ndan
ÅŁark Ä±na
ÅŁark Ä±nda
cenaze lerin
cenaze lerinden
cenaze lerini
cenaze lerine
cenaze lerinde
cenaze lerinin
haÅŁefe lerin
haÅŁefe leri
haÅŁefe lerini
haÅŁefe lerine
haÅŁefe lerinde
haÅŁefe lerinin
uÃ§urtma larÄ±n
uÃ§urtma larÄ±
uÃ§urtma larÄ±nÄ±n
uÃ§urtma larÄ±ndan
uÃ§urtma larÄ±nÄ±
uÃ§urtma larÄ±na
Ã§alÄ±ÅŁma larÄ±n
Ã§alÄ±ÅŁma larÄ±
Ã§alÄ±ÅŁma larÄ±ndan
Ã§alÄ±ÅŁma larÄ±nÄ±
planet i
planet in
planet lerinden
planet inin
planet ini
planet inde
planet ine
planet inden
marangoz u
marangoz larÄ±
marangoz larÄ±nÄ±
marangoz larÄ±na
marangoz unun
marangoz unu
marangoz undan
albatro sun
albatro sundan
albatro suna
albatro sunda
albatro sunun
ambulan sÄ±n
ambulan sÄ±na
ambulan sÄ±ndan
his sin
his lerin
his sinden
his leri
his lerinden
his lerini
his lerinde
his sinin
his sini
koy un
koy larÄ±
koy larÄ±ndan
koy larÄ±nÄ±
koy larÄ±na
koy unda
koy una
koy unu
Ã§amur un
Ã§amur larÄ±nÄ±n
Ã§amur larÄ±ndan
Ã§amur larÄ±nÄ±
Ã§amur larÄ±na
Ã§amur unun
Ã§amur una
Ã§amur undan
Ã§algÄ±cÄ± mÄ±z
Ã§algÄ±cÄ± larÄ±nda
Ã§algÄ±cÄ± larÄ±ndan
Ã§algÄ±cÄ± mÄ±zÄ±
Ã§algÄ±cÄ± mÄ±zÄ±n
Ã§algÄ±cÄ± mÄ±zdan
Ã§algÄ±cÄ± mÄ±za
Ã§algÄ±cÄ± mÄ±zda
blogcu larÄ±
blogcu larÄ±nda
blogcu larÄ±nÄ±n
blogcu larÄ±ndan
blogcu larÄ±nÄ±
blogcu larÄ±na
dÃ¼ldÃ¼l Ã¼
dÃ¼ldÃ¼l lerin
dÃ¼ldÃ¼l leri
dÃ¼ldÃ¼l lerinde
dÃ¼ldÃ¼l lerinin
dÃ¼ldÃ¼l Ã¼ne
dÃ¼ldÃ¼l Ã¼nÃ¼
dÃ¼ldÃ¼l Ã¼nde
dÃ¼ldÃ¼l Ã¼nden
hatÄ±r Ä±
hatÄ±r Ä±n
hatÄ±r larÄ±n
hatÄ±r larÄ±nda
hatÄ±r larÄ±nÄ±n
hatÄ±r Ä±nÄ±
hatÄ±r Ä±ndan
hatÄ±r Ä±na
hatÄ±r Ä±nda
yangÄ±n larÄ±n
yangÄ±n larÄ±
yangÄ±n larÄ±nda
yangÄ±n larÄ±nÄ±n
yangÄ±n larÄ±ndan
yangÄ±n larÄ±nÄ±
parÃ§alanma larÄ±n
parÃ§alanma larÄ±
parÃ§alanma larÄ±nÄ±n
parÃ§alanma larÄ±ndan
parÃ§alanma larÄ±nÄ±
parÃ§alanma larÄ±na
teklif leri
teklif lerinden
teklif lerine
teklif lerinin
teklif inin
teklif ini
teklif ine
Ġiskelet in
Ġiskelet lerin
Ġiskelet leri
Ġiskelet lerinden
Ġiskelet lerinin
Ġiskelet inin
Ġiskelet ini
Ġiskelet inde
Ġiskelet ine
valiz i
valiz in
valiz lerinden
valiz lerini
valiz lerinde
valiz inin
valiz ine
valiz inden
albÃ¼m Ã¼n
albÃ¼m leri
albÃ¼m lerinden
albÃ¼m lerini
albÃ¼m lerinin
albÃ¼m Ã¼ne
albÃ¼m Ã¼nÃ¼
albÃ¼m Ã¼nden
dublÃ¶r Ã¼
dublÃ¶r lerin
dublÃ¶r lerinden
dublÃ¶r lerine
dublÃ¶r lerinin
dublÃ¶r Ã¼ne
dublÃ¶r Ã¼nde
dublÃ¶r Ã¼nden
reaktÃ¶r Ã¼n
reaktÃ¶r leri
reaktÃ¶r lerini
reaktÃ¶r lerine
reaktÃ¶r Ã¼nÃ¼
reaktÃ¶r Ã¼nde
reaktÃ¶r Ã¼nden
iftitah Ä±
iftitah Ä±n
iftitah larÄ±
iftitah larÄ±nÄ±n
iftitah larÄ±ndan
iftitah larÄ±na
iftitah Ä±nÄ±
iftitah Ä±ndan
iftitah Ä±na
iftitah Ä±nda
fragman Ä±
fragman larÄ±nda
fragman larÄ±nÄ±
fragman larÄ±na
fragman Ä±ndan
fragman Ä±na
fragman Ä±nda
gondol larÄ±n
gondol larÄ±
gondol larÄ±nda
gondol larÄ±ndan
gondol larÄ±nÄ±
gondol larÄ±na
gondol unun
gondol una
gondol unu
acÄ± larÄ±
acÄ± larÄ±nda
acÄ± larÄ±nÄ±n
acÄ± larÄ±nÄ±
bÃ¼z Ã¼
bÃ¼z lerin
bÃ¼z lerinden
bÃ¼z lerini
bÃ¼z lerine
bÃ¼z lerinde
bÃ¼z Ã¼nÃ¼n
bÃ¼z Ã¼ne
bÃ¼z Ã¼nÃ¼
bÃ¼z Ã¼nde
hap sin
hap si
hap sine
hap sinde
hap sini
hÃ¼l yanÄ±n
orfoz u
orfoz larÄ±nda
orfoz larÄ±nÄ±n
orfoz larÄ±ndan
orfoz larÄ±nÄ±
orfoz larÄ±na
orfoz unun
orfoz una
orfoz unu
destan Ä±n
destan larÄ±
destan larÄ±nÄ±n
destan larÄ±ndan
destan larÄ±nÄ±
destan larÄ±na
destan Ä±nÄ±n
destan Ä±ndan
destan Ä±na
destan Ä±nda
kolon yanÄ±n
start Ä±
start larÄ±n
start larÄ±
start larÄ±nda
start larÄ±nÄ±
start Ä±nÄ±
start Ä±na
bitiÅŁ i
bitiÅŁ lerin
bitiÅŁ leri
bitiÅŁ lerinden
bitiÅŁ lerini
bitiÅŁ lerine
bitiÅŁ ini
bitiÅŁ ine
bitiÅŁ inden
Ä±span aÄŁÄ±
Ã¶ÄŁretmen in
Ã¶ÄŁretmen lerin
Ã¶ÄŁretmen lerinden
Ã¶ÄŁretmen lerine
Ã¶ÄŁretmen lerinde
Ã¶ÄŁretmen ini
Ã¶ÄŁretmen inden
bastÄ±r manÄ±n
batar yanÄ±n
otob Ã¼sÃ¼n
otob Ã¼sÃ¼ne
otob Ã¼sÃ¼nde
otob Ã¼sÃ¼nden
vezir lerin
vezir leri
vezir lerinden
vezir lerini
vezir inin
vezir ini
vezir inde
vezir ine
vezir inden
ĠÅŁar abÄ±
sÃ¼tyen lerin
sÃ¼tyen leri
sÃ¼tyen lerini
sÃ¼tyen lerinde
sÃ¼tyen lerinin
sÃ¼tyen ini
sÃ¼tyen ine
karakter lerin
karakter leri
karakter lerinden
karakter lerini
karakter lerine
karakter ini
karakter inde
karakter ine
karakter inden
kardelen lerin
kardelen leri
kardelen lerinden
kardelen lerini
kardelen lerine
kardelen inin
kardelen ini
kardelen inde
kardelen inden
Ġsinek lerin
ibli si
ibli sine
ibli sinin
ibli sinde
ibli sini
tutulma larÄ±
tutulma larÄ±nda
tutulma larÄ±nÄ±n
tutulma larÄ±ndan
tutulma larÄ±nÄ±
tutulma larÄ±na
iÅŁkence lerin
iÅŁkence leri
iÅŁkence lerinden
iÅŁkence lerini
iÅŁkence lerinde
iÅŁkence lerinin
figÃ¼ran larÄ±n
figÃ¼ran larÄ±nda
figÃ¼ran larÄ±nÄ±n
figÃ¼ran larÄ±nÄ±
figÃ¼ran Ä±nÄ±n
figÃ¼ran Ä±nÄ±
figÃ¼ran Ä±ndan
figÃ¼ran Ä±nda
zaÄŁar Ä±n
zaÄŁar larÄ±n
zaÄŁar larÄ±nÄ±n
zaÄŁar larÄ±ndan
zaÄŁar Ä±ndan
zaÄŁar Ä±na
zaÄŁar Ä±nda
kravat larÄ±n
kravat larÄ±nda
kravat larÄ±nÄ±n
kravat larÄ±ndan
kravat larÄ±nÄ±
kravat larÄ±na
kravat Ä±nÄ±n
kravat Ä±nÄ±
kravat Ä±ndan
domate sin
domate sine
domate sinde
domate sini
jenerasyon u
jenerasyon larÄ±
jenerasyon larÄ±ndan
jenerasyon larÄ±na
jenerasyon unun
jenerasyon unda
pipet i
pipet lerin
pipet leri
pipet lerinde
pipet lerinin
pipet ini
pipet ine
pipet inden
tahdi dinin
Ä±stakoz u
Ä±stakoz un
Ä±stakoz larÄ±n
Ä±stakoz larÄ±nda
Ä±stakoz larÄ±nÄ±n
Ä±stakoz larÄ±na
Ä±stakoz unun
Ä±stakoz unda
Ä±stakoz unu
Ä±stakoz undan
mustat ili
enjeksiyon Ä±n
enjeksiyon larÄ±nda
enjeksiyon larÄ±nÄ±n
enjeksiyon larÄ±ndan
enjeksiyon larÄ±nÄ±
enjeksiyon larÄ±na
enjeksiyon Ä±ndan
enjeksiyon Ä±na
bÃ¶lÃ¼m lerin
bÃ¶lÃ¼m leri
bÃ¶lÃ¼m lerinden
bÃ¶lÃ¼m lerini
bÃ¶lÃ¼m Ã¼nÃ¼n
bÃ¶lÃ¼m Ã¼ne
bÃ¶lÃ¼m Ã¼nde
fok u
fok un
fok larÄ±nÄ±n
fok larÄ±ndan
fok larÄ±nÄ±
fok larÄ±na
fok unun
fok unda
fok una
fok unu
ileri leri
ileri lerinden
ileri lerini
ileri lerinde
ileri lerinin
Ã¼st en
makta larÄ±n
makta larÄ±
makta larÄ±nda
makta larÄ±nÄ±n
makta larÄ±ndan
makta larÄ±nÄ±
makta larÄ±na
konsey i
konsey lerin
konsey leri
konsey lerinden
konsey lerini
konsey lerine
konsey lerinde
konsey ini
konsey ine
konsey inden
belde lerin
belde leri
belde lerine
belde lerinde
belde lerinin
pusula larÄ±n
pusula larÄ±
pusula larÄ±nda
pusula larÄ±ndan
pusula larÄ±nÄ±
pusula larÄ±na
ÅŁapkacÄ± larÄ±n
ÅŁapkacÄ± larÄ±ndan
ÅŁapkacÄ± larÄ±nÄ±
ÅŁapkacÄ± larÄ±na
oynatÄ±cÄ± larÄ±n
oynatÄ±cÄ± larÄ±
oynatÄ±cÄ± larÄ±nda
oynatÄ±cÄ± larÄ±nÄ±n
oynatÄ±cÄ± larÄ±ndan
oynatÄ±cÄ± larÄ±nÄ±
manivela larÄ±n
manivela larÄ±
manivela larÄ±nda
manivela larÄ±nÄ±n
manivela larÄ±nÄ±
manivela larÄ±na
Ã§akal Ä±n
Ã§akal larÄ±n
Ã§akal larÄ±nda
Ã§akal larÄ±nÄ±n
Ã§akal larÄ±nÄ±
Ã§akal Ä±nÄ±n
meÅŁrubat Ä±
meÅŁrubat Ä±n
meÅŁrubat larÄ±n
meÅŁrubat larÄ±
meÅŁrubat larÄ±nda
meÅŁrubat larÄ±ndan
meÅŁrubat larÄ±na
meÅŁrubat Ä±nÄ±n
meÅŁrubat Ä±ndan
meÅŁrubat Ä±nda
dÃ¶vÃ¼ÅŁ Ã¼
dÃ¶vÃ¼ÅŁ Ã¼n
dÃ¶vÃ¼ÅŁ leri
dÃ¶vÃ¼ÅŁ lerinden
dÃ¶vÃ¼ÅŁ lerinde
dÃ¶vÃ¼ÅŁ lerinin
dÃ¶vÃ¼ÅŁ Ã¼nÃ¼n
dÃ¶vÃ¼ÅŁ Ã¼nÃ¼
dÃ¶vÃ¼ÅŁ Ã¼nde
silindir i
silindir in
silindir lerin
silindir leri
silindir lerinden
silindir lerini
silindir lerine
silindir inden
striptiz lerini
striptiz lerinin
striptiz inde
jonglÃ¶r Ã¼
jonglÃ¶r lerin
jonglÃ¶r leri
jonglÃ¶r lerini
jonglÃ¶r lerine
jonglÃ¶r Ã¼ne
jonglÃ¶r Ã¼nÃ¼
jonglÃ¶r Ã¼nden
pur onun
iÅŁlev lerin
iÅŁlev leri
iÅŁlev lerinden
iÅŁlev lerini
iÅŁlev lerinde
iÅŁlev lerinin
iÅŁlev inin
iÅŁlev inde
iÅŁlev inden
deney imine
mazot un
mazot larÄ±n
mazot larÄ±
mazot larÄ±nÄ±
mazot larÄ±na
mazot unda
mazot unu
baykuÅŁ larÄ±nÄ±n
baykuÅŁ larÄ±ndan
baykuÅŁ larÄ±nÄ±
baykuÅŁ larÄ±na
baykuÅŁ unun
baykuÅŁ unda
baykuÅŁ una
baykuÅŁ unu
baykuÅŁ undan
Ã§edar larÄ±
Ã§edar larÄ±nda
Ã§edar larÄ±ndan
Ã§edar larÄ±nÄ±
Ã§edar Ä±nÄ±
Ã§edar Ä±na
iÃ§gÃ¼d Ã¼nÃ¼n
Ã¶zne lerinden
Ã¶zne lerini
Ã¶zne lerine
Ã¶zne lerinde
bank Ä±n
bank larÄ±
bank larÄ±nda
bank larÄ±nÄ±n
bank larÄ±nÄ±
bank larÄ±na
bank Ä±nÄ±
bank Ä±ndan
bank Ä±nda
ideal i
ideal lerin
ideal leri
ideal lerinden
ideal lerini
ideal lerine
ideal lerinde
ideal lerinin
ideal inden
lezbiyen i
lezbiyen lerinden
lezbiyen lerine
lezbiyen lerinde
lezbiyen inin
lezbiyen ini
lezbiyen inde
interfaz Ä±
interfaz Ä±n
interfaz larÄ±nda
interfaz larÄ±nÄ±n
interfaz larÄ±ndan
interfaz larÄ±nÄ±
interfaz Ä±nÄ±n
interfaz Ä±nÄ±
interfaz Ä±na
interfaz Ä±nda
Ġekran Ä±
Ġekran larÄ±n
Ġekran larÄ±
Ġekran larÄ±nda
Ġekran larÄ±nÄ±n
Ġekran larÄ±ndan
Ġekran larÄ±na
Ġekran Ä±nÄ±n
Ġekran Ä±nÄ±
Ġekran Ä±na
battaniye leri
battaniye lerinden
battaniye lerini
battaniye lerine
battaniye lerinde
battaniye lerinin
doktrin lerin
doktrin lerinden
doktrin lerini
doktrin lerinde
doktrin lerinin
aikido larÄ±n
aikido larÄ±nÄ±n
aikido larÄ±ndan
numaralama larÄ±nda
numaralama larÄ±nÄ±n
numaralama larÄ±nÄ±
numaralama larÄ±na
pilav Ä±n
pilav larÄ±n
pilav larÄ±
pilav larÄ±nÄ±n
pilav larÄ±na
pilav Ä±nÄ±n
pilav Ä±nÄ±
pilav Ä±ndan
genelev leri
genelev lerini
genelev lerine
genelev lerinin
genelev inin
genelev ini
genelev ine
genelev inden
Ġdesen i
Ġdesen lerinden
Ġdesen lerini
Ġdesen lerinin
Ġdesen inin
Ġdesen ini
Ġdesen ine
secca denin
ziyaret i
ziyaret leri
ziyaret lerinden
ziyaret lerini
ziyaret lerine
ziyaret lerinin
ziyaret ini
ziyaret inden
ĠdeÄŁiÅŁken in
ĠdeÄŁiÅŁken leri
ĠdeÄŁiÅŁken lerine
ĠdeÄŁiÅŁken lerinin
ĠdeÄŁiÅŁken inin
ĠdeÄŁiÅŁken ini
masumiyet in
masumiyet lerin
masumiyet lerini
masumiyet lerine
masumiyet lerinde
masumiyet inin
masumiyet ini
masumiyet inden
koleksiyon u
koleksiyon un
koleksiyon larÄ±na
koleksiyon unun
koleksiyon unda
koleksiyon una
sinagog larÄ±
sinagog larÄ±nda
sinagog larÄ±nÄ±n
sinagog larÄ±na
sinagog unda
sinagog una
sinagog unu
sinagog undan
bÃ¼st lerin
bÃ¼st lerinden
bÃ¼st lerini
bÃ¼st lerinde
bÃ¼st lerinin
bÃ¼st Ã¼nÃ¼n
bÃ¼st Ã¼ne
bÃ¼st Ã¼nde
gol Ã¼
gol lerine
gol lerinde
gol lerinin
gol Ã¼nÃ¼n
gol Ã¼ne
gol Ã¼nÃ¼
gol Ã¼nde
koku larÄ±
koku larÄ±nÄ±n
koku larÄ±ndan
bilgi leri
bilgi lerinden
bilgi lerine
bilgi lerinde
bilgi lerinin
puan Ä±
puan larÄ±n
puan larÄ±
puan larÄ±nda
puan larÄ±na
puan Ä±nÄ±
puan Ä±ndan
diÅŁli lerin
diÅŁli leri
diÅŁli lerinden
diÅŁli lerini
diÅŁli lerinin
devir i
devir lerinden
devir ini
devir inde
devir ine
devir inden
viÅŁne lerini
viÅŁne lerine
viÅŁne lerinde
viÅŁne lerinin
basketbolcu larÄ±
basketbolcu larÄ±nda
basketbolcu larÄ±ndan
basketbolcu larÄ±nÄ±
TiranlÄ± larÄ±nda
TiranlÄ± larÄ±ndan
TiranlÄ± larÄ±nÄ±
TiranlÄ± larÄ±na
kaside lerin
kaside lerinden
kaside lerine
kaside lerinde
kaside lerinin
kelepÃ§e lerin
kelepÃ§e leri
kelepÃ§e lerinden
kelepÃ§e lerine
kelepÃ§e lerinde
hÃ¼kÃ»met leri
hÃ¼kÃ»met lerinden
hÃ¼kÃ»met lerinde
hÃ¼kÃ»met lerinin
mustatil in
mustatil leri
mustatil lerinden
mustatil lerini
mustatil inin
mustatil ini
mustatil inde
mustatil inden
kÃ¼rke lerin
kÃ¼rke leri
kÃ¼rke lerinden
kÃ¼rke lerini
kÃ¼rke lerine
kÃ¼rke lerinde
kÃ¼rke lerinin
Ġgiden i
Ġgiden in
Ġgiden lerin
Ġgiden leri
Ġgiden lerinden
Ġgiden lerinde
Ġgiden lerinin
Ġgiden ini
Ġgiden ine
tÃ¼rev in
tÃ¼rev leri
tÃ¼rev lerini
tÃ¼rev lerine
tÃ¼rev lerinde
tÃ¼rev lerinin
tÃ¼rev inin
tÃ¼rev ine
tÃ¼rev inden
okiya larÄ±n
okiya larÄ±nda
okiya larÄ±nÄ±n
okiya larÄ±nÄ±
avize lerin
avize leri
avize lerinden
avize lerini
avize lerine
avize lerinde
hasta larÄ±
hasta larÄ±nda
hasta larÄ±nÄ±n
hasta larÄ±ndan
hasta larÄ±nÄ±
derleme lerin
derleme lerinden
derleme lerine
derleme lerinin
simil yanÄ±n
salon u
salon un
salon larÄ±nÄ±n
salon larÄ±ndan
salon unda
salon una
salon unu
salon undan
baÅŁkan Ä±
baÅŁkan Ä±n
baÅŁkan larÄ±n
baÅŁkan larÄ±nda
baÅŁkan larÄ±nÄ±n
baÅŁkan larÄ±ndan
baÅŁkan larÄ±nÄ±
baÅŁkan Ä±nÄ±n
baÅŁkan Ä±na
baraj Ä±n
baraj larÄ±n
baraj larÄ±
baraj larÄ±nda
baraj larÄ±na
baraj Ä±nÄ±
baraj Ä±ndan
baraj Ä±nda
popo larÄ±n
popo larÄ±nÄ±n
popo larÄ±nÄ±
popo larÄ±na
evlat larÄ±n
evlat larÄ±nda
evlat larÄ±ndan
evlat larÄ±nÄ±
evlat larÄ±na
saÄŁrÄ± larÄ±n
saÄŁrÄ± larÄ±
saÄŁrÄ± larÄ±nda
saÄŁrÄ± larÄ±nÄ±n
saÄŁrÄ± larÄ±ndan
saÄŁrÄ± larÄ±nÄ±
saÄŁrÄ± larÄ±na
lÃ¼gatÃ§e lerin
lÃ¼gatÃ§e lerinden
lÃ¼gatÃ§e lerinde
lÃ¼gatÃ§e lerinin
BelgratlÄ± larÄ±n
BelgratlÄ± larÄ±nda
BelgratlÄ± larÄ±nÄ±n
BelgratlÄ± larÄ±ndan
protesto larÄ±n
protesto larÄ±
protesto larÄ±nda
protesto larÄ±nÄ±n
protesto larÄ±ndan
protesto larÄ±nÄ±
KopenhaglÄ± larÄ±n
KopenhaglÄ± larÄ±
KopenhaglÄ± larÄ±nda
KopenhaglÄ± larÄ±nÄ±
anjiyo larÄ±nda
anjiyo larÄ±nÄ±n
anjiyo larÄ±ndan
anjiyo larÄ±nÄ±
anjiyo larÄ±na
klatr atÄ±
piskopo sun
piskopo sunu
piskopo sundan
kehribar Ä±
kehribar Ä±n
kehribar larÄ±
kehribar larÄ±nda
kehribar larÄ±nÄ±n
kehribar larÄ±ndan
kehribar larÄ±na
kehribar Ä±na
kehribar Ä±nda
Ġolmuyor muÅŁ
Ġolmuyor um
Ġolmuyor dun
Ġolmuyor dunuz
Ġolmuyor muÅŁum
kÄ±Ã§ Ä±n
kÄ±Ã§ larÄ±n
kÄ±Ã§ larÄ±
kÄ±Ã§ larÄ±nda
kÄ±Ã§ larÄ±nÄ±
kÄ±Ã§ Ä±ndan
kÄ±Ã§ Ä±na
kÄ±Ã§ Ä±nda
virgÃ¼l Ã¼
virgÃ¼l lerin
virgÃ¼l leri
virgÃ¼l lerinden
virgÃ¼l lerini
virgÃ¼l lerine
virgÃ¼l lerinde
ÅŁahÄ±s Ä±
ÅŁahÄ±s larÄ±n
ÅŁahÄ±s larÄ±nda
ÅŁahÄ±s larÄ±nÄ±n
ÅŁahÄ±s larÄ±ndan
ÅŁahÄ±s larÄ±nÄ±
motorin lerin
motorin leri
motorin lerinden
motorin lerini
motorin lerine
motorin lerinde
motorin lerinin
Ġprogramlama larÄ±n
Ġprogramlama larÄ±
Ġprogramlama larÄ±nda
Ġprogramlama larÄ±nÄ±n
Ġprogramlama larÄ±ndan
Ġprogramlama larÄ±nÄ±
Ġprogramlama larÄ±na
kruvasan Ä±
kruvasan Ä±n
kruvasan larÄ±
kruvasan larÄ±nÄ±n
kruvasan larÄ±ndan
kruvasan larÄ±nÄ±
kruvasan larÄ±na
kruvasan Ä±nÄ±n
kruvasan Ä±na
tavuk larÄ±n
tavuk larÄ±
tavuk larÄ±nda
tavuk larÄ±nÄ±n
tavuk larÄ±ndan
forum da
zam larÄ±nda
zam larÄ±nÄ±n
zam larÄ±ndan
zam larÄ±nÄ±
Ã§ip in
Ã§ip lerin
Ã§ip lerine
Ã§ip ini
Ã§ip inde
tutku larÄ±n
tutku larÄ±
tutku larÄ±nda
tutku larÄ±nÄ±n
tutku larÄ±ndan
tutku larÄ±nÄ±
tutku larÄ±na
tÃ¼tÃ¼ lerin
tÃ¼tÃ¼ leri
tÃ¼tÃ¼ lerine
tÃ¼tÃ¼ lerinde
tÃ¼tÃ¼ lerinin
abadi lerin
abadi lerinden
abadi lerinde
abadi lerinin
pancar larÄ±n
pancar larÄ±
pancar larÄ±nda
pancar larÄ±ndan
pancar larÄ±nÄ±
pancar larÄ±na
pancar Ä±nÄ±n
pancar Ä±ndan
pancar Ä±na
doktor un
doktor larÄ±n
doktor larÄ±
doktor larÄ±nda
doktor larÄ±nÄ±n
doktor larÄ±ndan
doktor larÄ±nÄ±
doktor unda
doktor una
doktor unu
doktor undan
kefalet lerin
kefalet lerinde
kefalet ine
yolcu larÄ±nÄ±n
yolcu larÄ±nÄ±
psikoterap inin
kÄ±yamet lerin
kÄ±yamet leri
kÄ±yamet lerinden
kÄ±yamet lerini
kÄ±yamet lerine
kÄ±yamet lerinde
kÄ±yamet lerinin
salata larÄ±n
salata larÄ±
salata larÄ±nda
salata larÄ±ndan
salata larÄ±nÄ±
Ã§ekmece lerinden
Ã§ekmece lerini
Ã§ekmece lerine
Ã§ekmece lerinin
ĠkÃ¶fte lerin
ĠkÃ¶fte lerinden
ĠkÃ¶fte lerini
ĠkÃ¶fte lerinde
ĠkÃ¶fte lerinin
klatrat larÄ±n
klatrat larÄ±
klatrat larÄ±ndan
klatrat larÄ±nÄ±
klatrat larÄ±na
klatrat Ä±nÄ±
klatrat Ä±na
klatrat Ä±nda
bedevi lerin
bedevi leri
bedevi lerinden
bedevi lerine
bedevi lerinde
bedevi lerinin
control leri
control lerine
control lerinde
lolipop u
lolipop larÄ±
lolipop larÄ±ndan
lolipop larÄ±nÄ±
lolipop larÄ±na
lolipop unun
lolipop unda
lolipop una
lolipop unu
nergi sine
nergi sinin
nergi sinde
mesuliyet lerin
mesuliyet leri
mesuliyet lerinden
mesuliyet inin
mesuliyet ini
karnabahar larÄ±n
karnabahar larÄ±
karnabahar larÄ±nda
karnabahar larÄ±na
karnabahar Ä±nÄ±
karnabahar Ä±ndan
karnabahar Ä±nda
sihirbaz Ä±
sihirbaz larÄ±n
sihirbaz larÄ±nÄ±n
sihirbaz Ä±na
sihirbaz Ä±nda
gemi lerinden
gemi lerinde
gemi lerinin
gece leri
gece lerinden
gece lerini
gece lerine
gece lerinde
derece leri
derece lerinden
derece lerini
derece lerine
derece lerinde
derece lerinin
cami lerinden
cami lerini
cami lerine
cami lerinde
cami lerinin
vade lerinden
vade lerini
vade lerine
vade lerinin
bayÄ±lma larÄ±n
bayÄ±lma larÄ±
bayÄ±lma larÄ±nda
bayÄ±lma larÄ±nÄ±n
bayÄ±lma larÄ±na
mumya larÄ±n
mumya larÄ±
mumya larÄ±nÄ±n
mumya larÄ±nÄ±
mumya larÄ±na
otomobilci leri
otomobilci lerini
otomobilci lerine
otomobilci lerinde
hiperbol Ã¼n
hiperbol lerin
hiperbol leri
hiperbol lerine
hiperbol lerinde
hiperbol Ã¼nÃ¼n
hiperbol Ã¼ne
hiperbol Ã¼nÃ¼
hiperbol Ã¼nde
hiperbol Ã¼nden
kÄ±zan Ä±
kÄ±zan Ä±n
kÄ±zan larÄ±n
kÄ±zan larÄ±nÄ±n
kÄ±zan larÄ±ndan
kÄ±zan Ä±nÄ±n
kÄ±zan Ä±nÄ±
kÄ±zan Ä±nda
duymama larÄ±n
duymama larÄ±
duymama larÄ±ndan
duymama larÄ±nÄ±
duymama larÄ±na
huni lerin
huni lerinden
huni lerini
huni lerine
huni lerinde
huni lerinin
huri lerin
huri lerinden
huri lerini
huri lerine
huri lerinde
huri lerinin
mucize lerin
mucize leri
mucize lerinden
mucize lerini
mucize lerinde
mucize lerinin
koruyucu larÄ±n
koruyucu larÄ±
koruyucu larÄ±nÄ±n
koruyucu larÄ±ndan
koruyucu larÄ±nÄ±
hÃ¼lya larÄ±
hÃ¼lya larÄ±nda
hÃ¼lya larÄ±nÄ±n
hÃ¼lya larÄ±ndan
hÃ¼lya larÄ±na
peskÃ¼tan Ä±n
peskÃ¼tan larÄ±n
peskÃ¼tan larÄ±
peskÃ¼tan larÄ±nda
peskÃ¼tan larÄ±nÄ±n
peskÃ¼tan larÄ±ndan
peskÃ¼tan larÄ±nÄ±
peskÃ¼tan Ä±nÄ±
peskÃ¼tan Ä±ndan
peskÃ¼tan Ä±na
peskÃ¼tan Ä±nda
papaÄŁan larÄ±n
papaÄŁan larÄ±nda
papaÄŁan larÄ±ndan
papaÄŁan larÄ±nÄ±
papaÄŁan larÄ±na
papaÄŁan Ä±ndan
papaÄŁan Ä±na
papaÄŁan Ä±nda
esen liÄŁi
etiket i
etiket leri
etiket lerinde
etiket lerinin
etiket inin
etiket inde
etiket inden
iÃ§yÃ¼z Ã¼n
iÃ§yÃ¼z lerin
iÃ§yÃ¼z lerinden
iÃ§yÃ¼z lerinde
iÃ§yÃ¼z lerinin
iÃ§yÃ¼z Ã¼ne
iÃ§yÃ¼z Ã¼nÃ¼
iÃ§yÃ¼z Ã¼nde
kiriÅŁ i
kiriÅŁ lerin
kiriÅŁ lerini
kiriÅŁ lerinde
kiriÅŁ lerinin
kiriÅŁ inin
kiriÅŁ inde
kiriÅŁ ine
kullanma larÄ±ndan
kullanma larÄ±nÄ±
kullanma larÄ±na
parÃ§a larÄ±n
parÃ§a larÄ±
ebediyet i
ebediyet lerinde
ebediyet inin
ebediyet ini
ebediyet inde
pÄ±rasa larÄ±
pÄ±rasa larÄ±nÄ±n
pÄ±rasa larÄ±ndan
pÄ±rasa larÄ±na
paÅŁa larÄ±n
paÅŁa larÄ±
paÅŁa larÄ±nda
paÅŁa larÄ±nÄ±n
paÅŁa larÄ±ndan
paÅŁa larÄ±nÄ±
paÅŁa larÄ±na
Ã§orba larÄ±n
Ã§orba larÄ±
Ã§orba larÄ±nda
Ã§orba larÄ±ndan
bermuda larÄ±nda
bermuda larÄ±nÄ±n
bermuda larÄ±ndan
cezerye lerin
cezerye leri
cezerye lerinden
cezerye lerinin
fare leri
fare lerinden
fare lerini
fare lerine
fare lerinin
video larÄ±n
video larÄ±
video larÄ±nda
video larÄ±nÄ±n
papirÃ¼s Ã¼
papirÃ¼s lerin
papirÃ¼s leri
papirÃ¼s lerini
papirÃ¼s lerine
papirÃ¼s lerinin
ayakkabÄ±cÄ± larÄ±n
ayakkabÄ±cÄ± larÄ±nÄ±n
ayakkabÄ±cÄ± larÄ±ndan
ayakkabÄ±cÄ± larÄ±nÄ±
ayakkabÄ±cÄ± larÄ±na
batarya larÄ±n
batarya larÄ±
batarya larÄ±nda
batarya larÄ±nÄ±n
batarya larÄ±ndan
batarya larÄ±nÄ±
sahife lerin
sahife lerinden
sahife lerini
sahife lerine
sahife lerinde
sahife lerinin
Yahu dinin
ÅŁal Ä±n
ÅŁal larÄ±nda
ÅŁal larÄ±nÄ±n
ÅŁal larÄ±na
ÅŁal Ä±ndan
meme lerin
meme lerinden
meme lerine
meme lerinde
meme lerinin
makina larÄ±n
makina larÄ±
makina larÄ±nda
makina larÄ±nÄ±n
makina larÄ±ndan
makina larÄ±nÄ±
dadÄ± larÄ±n
dadÄ± larÄ±
dadÄ± larÄ±nda
dadÄ± larÄ±nÄ±n
dadÄ± larÄ±ndan
dadÄ± larÄ±nÄ±
okul un
okul larÄ±n
okul larÄ±
okul larÄ±ndan
okul larÄ±nÄ±
okul larÄ±na
okul unda
okul una
dinleti lerinden
dinleti lerini
dinleti lerine
dinleti lerinde
dinleti lerinin
sakso larÄ±
sakso larÄ±nÄ±n
sakso larÄ±ndan
sakso larÄ±nÄ±
sakso larÄ±na
mayo larÄ±n
mayo larÄ±nda
mayo larÄ±nÄ±n
mayo larÄ±ndan
abacÄ± larÄ±n
abacÄ± larÄ±
abacÄ± larÄ±nÄ±n
abacÄ± larÄ±ndan
abacÄ± larÄ±na
voleybolcu larÄ±n
voleybolcu larÄ±
voleybolcu larÄ±nda
voleybolcu larÄ±ndan
voleybolcu larÄ±nÄ±
voleybolcu larÄ±na
sÃ¼lÃ¼s Ã¼
sÃ¼lÃ¼s lerin
sÃ¼lÃ¼s leri
sÃ¼lÃ¼s lerinde
sÃ¼lÃ¼s lerinin
Ġdizi lerin
Ġdizi lerinden
Ġdizi lerini
Ġdizi lerine
Ġdizi lerinde
Ġdizi lerinin
idare lerin
idare lerini
idare lerinin
zurna larÄ±n
zurna larÄ±
zurna larÄ±nda
zurna larÄ±nÄ±n
zurna larÄ±ndan
zurna larÄ±na
laterna larÄ±n
laterna larÄ±nda
laterna larÄ±nÄ±n
laterna larÄ±nÄ±
kolonya larÄ±n
kolonya larÄ±
kolonya larÄ±nda
kolonya larÄ±nÄ±n
kolonya larÄ±ndan
kolonya larÄ±nÄ±
lokanta larÄ±nda
lokanta larÄ±nÄ±n
lokanta larÄ±ndan
lokanta larÄ±na
nohut larÄ±n
nohut larÄ±ndan
nohut larÄ±nÄ±
nohut larÄ±na
nohut unun
nohut unda
nohut unu
nohut undan
vikipedist i
vikipedist leri
vikipedist lerinden
vikipedist lerinde
vikipedist ine
kalamar Ä±n
kalamar larÄ±
kalamar larÄ±nÄ±
kalamar larÄ±na
kalamar Ä±nÄ±n
kalamar Ä±nÄ±
kalamar Ä±ndan
kalamar Ä±nda
gÃ¼nahkÃ¢r Ä±
gÃ¼nahkÃ¢r larÄ±
gÃ¼nahkÃ¢r larÄ±nda
gÃ¼nahkÃ¢r larÄ±nÄ±n
gÃ¼nahkÃ¢r Ä±nÄ±n
gÃ¼nahkÃ¢r Ä±na
ropdÃ¶ÅŁambÄ±r Ä±
ropdÃ¶ÅŁambÄ±r Ä±n
ropdÃ¶ÅŁambÄ±r larÄ±n
ropdÃ¶ÅŁambÄ±r larÄ±
ropdÃ¶ÅŁambÄ±r larÄ±nÄ±n
ropdÃ¶ÅŁambÄ±r larÄ±nÄ±
ropdÃ¶ÅŁambÄ±r larÄ±na
ropdÃ¶ÅŁambÄ±r Ä±nÄ±n
ropdÃ¶ÅŁambÄ±r Ä±ndan
ropdÃ¶ÅŁambÄ±r Ä±na
yasa larÄ±n
yasa larÄ±
yasa larÄ±nda
yasa larÄ±nÄ±n
yasa larÄ±ndan
yasa larÄ±nÄ±
Ã§eÃ§ in
Ã§eÃ§ lerin
Ã§eÃ§ lerine
Ã§eÃ§ inin
Ã§eÃ§ ini
amca larÄ±n
amca larÄ±ndan
amca larÄ±nÄ±
amca larÄ±na
ĠhalÄ± larÄ±
ĠhalÄ± larÄ±nda
ĠhalÄ± larÄ±nÄ±n
ĠhalÄ± larÄ±nÄ±
ĠhalÄ± larÄ±na
vida larÄ±n
vida larÄ±
vida larÄ±nda
vida larÄ±nÄ±n
vida larÄ±ndan
vida larÄ±nÄ±
veter ineri
kerpeten lerinden
kerpeten lerini
kerpeten lerine
kerpeten lerinde
kerpeten lerinin
kerpeten inde
balta larÄ±n
balta larÄ±
balta larÄ±nda
balta larÄ±ndan
hamster lerin
hamster leri
hamster lerinden
hamster lerinin
hamster inin
hamster ini
hamster ine
Ġsandalye lerin
Ġsandalye lerinden
Ġsandalye lerine
Ġsandalye lerinde
Ġsandalye lerinin
embriyo larÄ±
embriyo larÄ±nda
embriyo larÄ±nÄ±n
embriyo larÄ±na
Ġtahta larÄ±n
Ġtahta larÄ±
Ġtahta larÄ±nda
Ġtahta larÄ±nÄ±n
bastÄ±rma larÄ±
bastÄ±rma larÄ±nda
bastÄ±rma larÄ±nÄ±n
bastÄ±rma larÄ±ndan
yÃ¶re lerin
yÃ¶re leri
yÃ¶re lerinden
yÃ¶re lerini
yÃ¶re lerinde
yÃ¶re lerinin
yorum larÄ±n
yorum larÄ±
yorum larÄ±nda
yorum larÄ±nÄ±n
yorum larÄ±ndan
yorum larÄ±nÄ±
iÅŁÃ§i lerin
iÅŁÃ§i leri
iÅŁÃ§i lerini
iÅŁÃ§i lerine
iÅŁÃ§i lerinde
iÅŁÃ§i lerinin
yarasa larÄ±nda
yarasa larÄ±nÄ±
yarasa larÄ±na
Ã¼ye lerin
Ã¼ye lerinden
Ã¼ye lerine
Ã¼ye lerinde
dergi lerin
dergi leri
dergi lerinden
dergi lerini
dergi lerinin
yankÄ± larÄ±nda
yankÄ± larÄ±nÄ±n
yankÄ± larÄ±ndan
yankÄ± larÄ±na
yavru larÄ±n
yavru larÄ±
yavru larÄ±nda
yavru larÄ±nÄ±n
yavru larÄ±ndan
yavru larÄ±nÄ±
yavru larÄ±na
ÅŁaka larÄ±
ÅŁaka larÄ±nÄ±n
ÅŁaka larÄ±nÄ±
ÅŁaka larÄ±na
Musevi lerinden
Musevi lerini
Musevi lerine
Musevi lerinde
Musevi lerinin
iÅŁlemci leri
iÅŁlemci lerini
iÅŁlemci lerine
iÅŁlemci lerinde
iÅŁlemci lerinin
Ġsoru larÄ±
Ġsoru larÄ±nda
Ġsoru larÄ±ndan
Ġsoru larÄ±nÄ±
sosisli lerin
sosisli leri
sosisli lerini
sosisli lerine
sosisli lerinde
sosisli lerinin
LefkoÅŁalÄ± larÄ±
LefkoÅŁalÄ± larÄ±nda
LefkoÅŁalÄ± larÄ±nÄ±n
LefkoÅŁalÄ± larÄ±ndan
LefkoÅŁalÄ± larÄ±nÄ±
eniÅŁte lerin
eniÅŁte lerinde
eniÅŁte lerinin
palyaÃ§o larÄ±n
palyaÃ§o larÄ±
palyaÃ§o larÄ±nda
palyaÃ§o larÄ±nÄ±n
palyaÃ§o larÄ±nÄ±
palyaÃ§o larÄ±na
seccade leri
seccade lerinden
seccade lerine
seccade lerinin
enstrÃ¼mantal i
enstrÃ¼mantal in
enstrÃ¼mantal inin
enstrÃ¼mantal ini
enstrÃ¼mantal ine
net i
net in
net lerini
net inde
net ine
yapÄ±ÅŁma larÄ±n
yapÄ±ÅŁma larÄ±nda
yapÄ±ÅŁma larÄ±nÄ±n
yapÄ±ÅŁma larÄ±ndan
yapÄ±ÅŁma larÄ±nÄ±
daÄŁÄ±tÄ±m larÄ±nda
daÄŁÄ±tÄ±m larÄ±nÄ±n
daÄŁÄ±tÄ±m larÄ±ndan
daÄŁÄ±tÄ±m larÄ±na
matla larÄ±
matla larÄ±nda
matla larÄ±nÄ±n
matla larÄ±ndan
matla larÄ±na
kusma larÄ±n
kusma larÄ±
kusma larÄ±nda
sÄ±ralama larÄ±
sÄ±ralama larÄ±nda
sÄ±ralama larÄ±nÄ±n
pirin ci
eziyetÃ§i lerin
eziyetÃ§i leri
eziyetÃ§i lerinden
eziyetÃ§i lerine
eziyetÃ§i lerinde
koÅŁucu larÄ±n
koÅŁucu larÄ±nda
koÅŁucu larÄ±ndan
mandalina larÄ±n
mandalina larÄ±
mandalina larÄ±nda
mandalina larÄ±nÄ±n
mandalina larÄ±ndan
mandalina larÄ±nÄ±
mandalina larÄ±na
teorem leri
teorem lerinden
teorem lerini
teorem lerine
teorem lerinde
teorem lerinin
semerci lerin
semerci leri
semerci lerini
semerci lerine
semerci lerinde
semerci lerinin
ĠDabili lerin
ĠDabili lerinden
ĠDabili lerini
frizbi lerin
frizbi leri
frizbi lerine
frizbi lerinde
frizbi lerinin
cibin leri
cibin lerini
milimetre lerinden
milimetre lerini
milimetre lerinin
limonata larÄ±nda
limonata larÄ±nÄ±n
ÅŁÄ±rÄ±nga larÄ±nda
ÅŁÄ±rÄ±nga larÄ±ndan
veteriner lerin
veteriner lerinden
veteriner lerini
veteriner lerine
veteriner lerinin
veteriner ini
veteriner ine
sucuk larÄ±n
sucuk larÄ±
sucuk larÄ±nda
sucuk larÄ±nÄ±n
sucuk larÄ±ndan
sucuk larÄ±nÄ±
Ã¶rdek leri
Ã¶rdek lerinden
Ã¶rdek lerini
Ã¶rdek lerine
Ã¶rdek lerinde
Ã¶rdek lerinin
bÄ±yÄ±k larÄ±
bÄ±yÄ±k larÄ±nda
bÄ±yÄ±k larÄ±nÄ±n
bÄ±yÄ±k larÄ±ndan
bÄ±yÄ±k larÄ±nÄ±
bÄ±yÄ±k larÄ±na
ÅŁerbetÃ§i lerin
ÅŁerbetÃ§i leri
ÅŁerbetÃ§i lerinden
ÅŁerbetÃ§i lerinin
Ã§apa larÄ±n
Ã§apa larÄ±
Ã§apa larÄ±nda
kasÄ±k larÄ±n
kasÄ±k larÄ±
kasÄ±k larÄ±nda
kasÄ±k larÄ±nÄ±n
kasÄ±k larÄ±ndan
kasÄ±k larÄ±na
kamÃ§Ä± larÄ±
kamÃ§Ä± larÄ±nda
kamÃ§Ä± larÄ±ndan
kamÃ§Ä± larÄ±nÄ±
kamÃ§Ä± larÄ±na
iÅŁletme lerin
iÅŁletme lerinden
iÅŁletme lerini
yordam larÄ±n
yordam larÄ±
yordam larÄ±nda
yordam larÄ±na
karides lerin
karides leri
karides lerinden
karides lerine
otobÃ¼s leri
otobÃ¼s lerini
otobÃ¼s lerine
otobÃ¼s lerinde
otobÃ¼s lerinin
puro larÄ±nda
midye lerin
midye leri
midye lerini
midye lerine
midye lerinde
izlence lerinden
izlence lerini
izlence lerinin
yumurta larÄ±n
yumurta larÄ±ndan
yumurta larÄ±nÄ±
yumurta larÄ±na
anÃ¼s Ã¼
anÃ¼s lerin
anÃ¼s leri
anÃ¼s lerinden
anÃ¼s lerine
aÅŁÃ§Ä± larÄ±
aÅŁÃ§Ä± larÄ±nda
aÅŁÃ§Ä± larÄ±ndan
karÄ± larÄ±n
karÄ± larÄ±nda
karÄ± larÄ±nÄ±n
karÄ± larÄ±ndan
karÄ± larÄ±nÄ±
karÄ± larÄ±na
ĠyapmÄ±yor uz
ĠyapmÄ±yor sun
ĠyapmÄ±yor du
ĠyapmÄ±yor dun
ĠyapmÄ±yor sunuz
ĠyapmÄ±yor larmÄ±ÅŁ
ĠyapmÄ±yor muÅŁsun
ĠyapmÄ±yor muÅŁsunuz
ĠyapmÄ±yor muÅŁum
kese lerin
kese leri
kese lerine
takÄ± larÄ±n
takÄ± larÄ±
takÄ± larÄ±nÄ±n
takÄ± larÄ±ndan
geri lerinden
geri lerini
geri lerine
geri lerinde
geri lerinin
dondurma larÄ±n
dondurma larÄ±na
emlak larÄ±n
emlak larÄ±nda
emlak larÄ±nÄ±n
emlak larÄ±na
silgi lerin
silgi leri
silgi lerinden
silgi lerini
silgi lerine
Ã§algÄ±Ã§ larÄ±n
Ã§algÄ±Ã§ larÄ±
Ã§algÄ±Ã§ larÄ±nda
Ã§algÄ±Ã§ larÄ±ndan
Ã§algÄ±Ã§ larÄ±nÄ±
Ã§algÄ±Ã§ larÄ±na
harÃ§ larÄ±n
harÃ§ larÄ±
harÃ§ larÄ±nda
harÃ§ larÄ±ndan
harÃ§ larÄ±nÄ±
harÃ§ larÄ±na
kavim lerin
kavim leri
kavim lerinden
kavim lerini
kavim lerine
kavim lerinde
kavim lerinin
tÃ¼mce lerinden
tÃ¼mce lerini
tÃ¼mce lerine
tÃ¼mce lerinde
tÃ¼mce lerinin
Ã¶pÃ¼cÃ¼k leri
Ã¶pÃ¼cÃ¼k lerinden
Ã¶pÃ¼cÃ¼k lerine
heykelcik lerin
heykelcik lerinden
heykelcik lerini
heykelcik lerine
heykelcik lerinde
musluk larÄ±n
musluk larÄ±
musluk larÄ±nda
musluk larÄ±nÄ±n
musluk larÄ±ndan
musluk larÄ±nÄ±
mÃ¼stahdem lerin
mÃ¼stahdem lerinden
mÃ¼stahdem lerini
mÃ¼stahdem lerinin
ÅŁiÅŁlik lerin
ÅŁiÅŁlik leri
ÅŁiÅŁlik lerinden
ÅŁiÅŁlik lerinde
prens leri
prens lerinden
prens lerini
prens lerine
prens lerinde
Ġbirci lerin
Ġbirci lerine
Ġbirci lerinde
Ġbirci lerinin
radyo larÄ±n
radyo larÄ±nda
radyo larÄ±nÄ±n
radyo larÄ±nÄ±
tatlÄ± larÄ±n
tatlÄ± larÄ±nda
tatlÄ± larÄ±nÄ±n
tatlÄ± larÄ±ndan
tatlÄ± larÄ±nÄ±
tatlÄ± larÄ±na
similya larÄ±n
similya larÄ±
similya larÄ±nda
similya larÄ±ndan
similya larÄ±na
yaÄŁlayÄ±cÄ± larÄ±n
yaÄŁlayÄ±cÄ± larÄ±nÄ±n
yaÄŁlayÄ±cÄ± larÄ±ndan
yaÄŁlayÄ±cÄ± larÄ±nÄ±
yaÄŁlayÄ±cÄ± larÄ±na
Ġbellek lerin
Ġbellek leri
Ġbellek lerini
Ġbellek lerine
Ġbellek lerinin
kloroplast Ä±n
kloroplast larÄ±nda
kloroplast larÄ±ndan
kloroplast larÄ±nÄ±
kloroplast larÄ±na
kloroplast Ä±nÄ±
kloroplast Ä±na
akrep lerin
akrep lerinden
akrep lerini
akrep lerinin
kapÄ± larÄ±
kapÄ± larÄ±nda
kapÄ± larÄ±nÄ±n
kapÄ± larÄ±ndan
supap larÄ±n
supap larÄ±
supap larÄ±nda
supap larÄ±nÄ±n
supap larÄ±nÄ±
supap larÄ±na
ipek lerin
ipek leri
ipek lerini
ipek lerine
ipek lerinde
ipek lerinin
ketÃ§ap larÄ±
ketÃ§ap larÄ±nda
ketÃ§ap larÄ±ndan
ketÃ§ap larÄ±nÄ±
ikilem lerin
ikilem leri
ikilem lerini
ikilem lerine
ikilem lerinde
leblebi leri
leblebi lerinden
leblebi lerini
kavun larÄ±n
kavun larÄ±
kavun larÄ±nda
kavun larÄ±ndan
kavun larÄ±nÄ±
nene lerin
nene lerinden
nene lerini
nene lerinin
deyim lerin
deyim leri
deyim lerini
deyim lerine
deyim lerinin
ÅŁafak larÄ±n
ÅŁafak larÄ±nda
ÅŁafak larÄ±nÄ±n
ÅŁafak larÄ±ndan
ÅŁafak larÄ±nÄ±
ÅŁafak larÄ±na
girdap larÄ±n
girdap larÄ±nda
girdap larÄ±nÄ±n
girdap larÄ±ndan
girdap larÄ±na
kalÄ±p larÄ±
kalÄ±p larÄ±nda
kalÄ±p larÄ±ndan
kalÄ±p larÄ±nÄ±
kalÄ±p larÄ±na
baÅŁrahip lerin
baÅŁrahip leri
baÅŁrahip lerinden
baÅŁrahip lerine
baÅŁrahip lerinin
Ã¶ÄŁrenci leri
Ã¶ÄŁrenci lerinden
Ã¶ÄŁrenci lerine
Ã¶ÄŁrenci lerinde
havuÃ§ larÄ±
havuÃ§ larÄ±na
Ã§imke lerin
Ã§imke leri
Ã§imke lerine
Ã§imke lerinde
tosbaÄŁa larÄ±n
tosbaÄŁa larÄ±nda
tosbaÄŁa larÄ±ndan
forumdaÅŁ larÄ±
forumdaÅŁ larÄ±nda
forumdaÅŁ larÄ±nÄ±n
forumdaÅŁ larÄ±ndan
forumdaÅŁ larÄ±nÄ±
forumdaÅŁ Ä±nÄ±n
forumdaÅŁ Ä±nÄ±
forumdaÅŁ Ä±ndan
forumdaÅŁ Ä±na
Ġliste lerin
Ġliste lerinden
Ġliste lerini
Ġliste lerine
Ġliste lerinin
pirinÃ§ leri
pirinÃ§ lerinden
pirinÃ§ lerini
pirinÃ§ lerinde
uyruk larÄ±n
uyruk larÄ±
uyruk larÄ±nda
uyruk larÄ±nÄ±n
uyruk larÄ±ndan
uyruk larÄ±nÄ±
gaf leti
dÃ¶nem lerin
dÃ¶nem lerinden
dÃ¶nem lerini
dÃ¶nem lerinde
dÃ¶nem lerinin
rakÄ± larÄ±n
rakÄ± larÄ±nda
rakÄ± larÄ±ndan
rakÄ± larÄ±na
diÅŁlek leri
diÅŁlek lerini
diÅŁlek lerine
diÅŁlek lerinde
diÅŁlek lerinin
fahiÅŁe lerinden
fahiÅŁe lerini
fahiÅŁe lerine
fahiÅŁe lerinde
mistik leri
mistik lerinden
mistik lerine
mistik lerinin
karÅŁÄ±lÄ±k larÄ±
karÅŁÄ±lÄ±k larÄ±nda
karÅŁÄ±lÄ±k larÄ±ndan
karÅŁÄ±lÄ±k larÄ±na
porsuk larÄ±n
porsuk larÄ±
porsuk larÄ±ndan
porsuk larÄ±nÄ±
porsuk larÄ±na
maskara larÄ±nda
maskara larÄ±nÄ±
maskara larÄ±na
temsilcilik lerin
temsilcilik leri
temsilcilik lerine
temsilcilik lerinde
temsilcilik lerinin
tabiyet i
tabiyet leri
tabiyet lerine
tabiyet lerinde
tabiyet lerinin
tabiyet ini
metafaz Ä±
metafaz larÄ±n
metafaz larÄ±
metafaz larÄ±nÄ±n
metafaz larÄ±ndan
metafaz Ä±nÄ±
alÄ±n larÄ±nda
alÄ±n larÄ±nÄ±n
alÄ±n larÄ±ndan
alÄ±n larÄ±nÄ±
alÄ±n larÄ±na
yapÄ±ncak larÄ±n
yapÄ±ncak larÄ±
yapÄ±ncak larÄ±nda
yapÄ±ncak larÄ±ndan
yapÄ±ncak larÄ±nÄ±
kayak larÄ±n
kayak larÄ±
kayak larÄ±nda
kayak larÄ±nÄ±n
kayak larÄ±nÄ±
yarak larÄ±n
yarak larÄ±
yarak larÄ±nda
yarak larÄ±nÄ±n
yarak larÄ±ndan
yarak larÄ±na
kireÃ§ leri
kireÃ§ lerini
kireÃ§ lerine
kireÃ§ lerinin
sululuk larÄ±n
sululuk larÄ±nda
sululuk larÄ±nÄ±n
sululuk larÄ±ndan
sululuk larÄ±na
derviÅŁ in
derviÅŁ lerin
derviÅŁ leri
derviÅŁ inin
derviÅŁ ine
derviÅŁ inden
baÄŁcÄ±k larÄ±nÄ±n
baÄŁcÄ±k larÄ±ndan
baÄŁcÄ±k larÄ±nÄ±
baÄŁcÄ±k larÄ±na
Ã¶zÃ¼r lerin
Ã¶zÃ¼r lerinden
Ã¶zÃ¼r lerini
Ã¶zÃ¼r lerine
Ã¶zÃ¼r lerinde
Ã¶zÃ¼r lerinin
Ã¶ncelik lerin
Ã¶ncelik leri
Ã¶ncelik lerinden
Ã¶ncelik lerine
Ã¶ncelik lerinde
Ã¶ncelik lerinin
yÃ¼ksÃ¼k lerin
yÃ¼ksÃ¼k leri
yÃ¼ksÃ¼k lerinden
yÃ¼ksÃ¼k lerini
yÃ¼ksÃ¼k lerine
yÃ¼ksÃ¼k lerinin
tÃ¼tsÃ¼ leri
tÃ¼tsÃ¼ lerini
tÃ¼tsÃ¼ lerinde
tÃ¼tsÃ¼ lerinin
sÃ¼rtÃ¼klÃ¼k lerin
sÃ¼rtÃ¼klÃ¼k lerinden
sÃ¼rtÃ¼klÃ¼k lerini
sÃ¼rtÃ¼klÃ¼k lerinde
sÃ¼rtÃ¼klÃ¼k lerinin
Ã¶mÃ¼r lerin
Ã¶mÃ¼r lerinden
Ã¶mÃ¼r lerini
Ã¶mÃ¼r lerine
Ã¶mÃ¼r lerinde
Ã¶mÃ¼r lerinin
aynÅŁtaynyum larÄ±n
aynÅŁtaynyum larÄ±
aynÅŁtaynyum larÄ±nda
aynÅŁtaynyum larÄ±nÄ±n
aynÅŁtaynyum larÄ±nÄ±
aynÅŁtaynyum larÄ±na
sebep leri
sebep lerinden
sebep lerini
sebep lerine
sebep lerinde
domates lerin
domates leri
domates lerinden
domates lerini
domates lerine
domates lerinde
meyhane leri
meyhane lerinden
meyhane lerine
dakika larÄ±n
dakika larÄ±nda
dakika larÄ±ndan
dakika larÄ±na
tulum larÄ±n
tulum larÄ±
tulum larÄ±nÄ±n
tulum larÄ±ndan
tulum larÄ±nÄ±
tulum larÄ±na
gelincik lerin
gelincik leri
gelincik lerinden
gelincik lerini
gelincik lerine
gelincik lerinde
gelincik lerinin
plak larÄ±n
plak larÄ±nda
plak larÄ±ndan
plak larÄ±nÄ±
plak larÄ±na
wiki lerinden
wiki lerine
wiki lerinde
tÃ¼rÃ¼ lerin
tÃ¼rÃ¼ leri
tÃ¼rÃ¼ lerini
tÃ¼rÃ¼ lerine
tÃ¼rÃ¼ lerinde
dildo larÄ±
dildo larÄ±nÄ±
korse leri
korse lerinden
batÄ± larÄ±n
batÄ± larÄ±
batÄ± larÄ±nda
batÄ± larÄ±nÄ±n
batÄ± larÄ±na
salÄ±ncak larÄ±nda
salÄ±ncak larÄ±nÄ±n
salÄ±ncak larÄ±ndan
salÄ±ncak larÄ±na
bardak larÄ±
bardak larÄ±nda
bardak larÄ±nÄ±n
bardak larÄ±nÄ±
bardak larÄ±na
bakire lerin
bakire lerinden
bakire lerini
bakire lerine
eziyetÃ§ilik leri
eziyetÃ§ilik lerinden
eziyetÃ§ilik lerine
eziyetÃ§ilik lerinde
eziyetÃ§ilik lerinin
sÃ¶zcÃ¼ lerin
sÃ¶zcÃ¼ lerini
sÃ¶zcÃ¼ lerine
sÃ¶zcÃ¼ lerinde
totemci leri
totemci lerinden
totemci lerini
totemci lerine
totemci lerinde
totemci lerinin
totemcilik lerin
totemcilik leri
totemcilik lerinden
totemcilik lerine
totemcilik lerinde
totemcilik lerinin
ÅŁehir lerin
ÅŁehir lerinden
ÅŁehir lerini
ÅŁehir lerine
ÅŁehir lerinin
hareketlilik lerin
hareketlilik leri
hareketlilik lerini
hareketlilik lerine
hareketlilik lerinde
Ã§iftlik lerin
Ã§iftlik leri
Ã§iftlik lerinden
Ã§iftlik lerini
Ã§iftlik lerinin
hinterlant larÄ±n
hinterlant larÄ±nda
hinterlant larÄ±ndan
hinterlant larÄ±nÄ±
hinterlant larÄ±na
boks larÄ±
boks larÄ±nda
boks larÄ±ndan
boks larÄ±nÄ±
boks larÄ±na
skrotum larÄ±nda
skrotum larÄ±nÄ±n
skrotum larÄ±ndan
skrotum larÄ±na
giysi leri
giysi lerine
topoloji lerin
topoloji lerinden
baÅŁvuru larÄ±n
baÅŁvuru larÄ±
baÅŁvuru larÄ±nÄ±n
baÅŁvuru larÄ±na
maraton u
maraton un
maraton larÄ±ndan
maraton unda
maraton unu
maraton undan
Ġderleyici lerin
Ġderleyici leri
Ġderleyici lerini
kasap larÄ±n
kasap larÄ±nÄ±n
kasap larÄ±ndan
kasap larÄ±nÄ±
aÅŁÄ±k larÄ±nda
kart larÄ±
kart larÄ±nda
kart larÄ±nÄ±
kart larÄ±na
kuyu larÄ±
kuyu larÄ±nÄ±n
kuyu larÄ±ndan
kuyu larÄ±nÄ±
kuyu larÄ±na
terlik lerin
terlik leri
terlik lerinden
terlik lerine
terlik lerinin
Ã¢lim lerin
Ã¢lim leri
Ã¢lim lerinden
Ã¢lim lerini
Ã¢lim lerinin
alÄ±Ã§ larÄ±n
alÄ±Ã§ larÄ±nda
alÄ±Ã§ larÄ±nÄ±
alÄ±Ã§ larÄ±na
kÄ±llÄ±k larÄ±n
kÄ±llÄ±k larÄ±nda
kÄ±llÄ±k larÄ±nÄ±
kÄ±llÄ±k larÄ±na
yavÅŁak larÄ±nda
yavÅŁak larÄ±nÄ±n
yavÅŁak larÄ±ndan
cezve lerin
cezve leri
cezve lerinde
Ġfikir lerin
Ġfikir leri
Ġfikir lerinden
Ġfikir lerini
Ġfikir lerine
Ġfikir lerinde
Ġfikir lerinin
baÄŁÄ±rsak larÄ±
baÄŁÄ±rsak larÄ±nÄ±n
baÄŁÄ±rsak larÄ±ndan
sÃ¶zcÃ¼lÃ¼k lerini
sÃ¶zcÃ¼lÃ¼k lerine
sÃ¶zcÃ¼lÃ¼k lerinde
sÃ¶zcÃ¼lÃ¼k lerinin
hÄ±Ã§kÄ±rÄ±k larÄ±n
hÄ±Ã§kÄ±rÄ±k larÄ±
hÄ±Ã§kÄ±rÄ±k larÄ±nÄ±n
hÄ±Ã§kÄ±rÄ±k larÄ±ndan
hÄ±Ã§kÄ±rÄ±k larÄ±nÄ±
hÄ±Ã§kÄ±rÄ±k larÄ±na
Ã§evirim lerin
Ã§evirim leri
Ã§evirim lerinden
Ã§evirim lerini
Ã§evirim lerine
Ã§evirim lerinin
gÃ¶mlek lerin
gÃ¶mlek lerine
gÃ¶mlek lerinde
salÃ§alÄ±k larÄ±n
salÃ§alÄ±k larÄ±
salÃ§alÄ±k larÄ±nÄ±n
salÃ§alÄ±k larÄ±ndan
salÃ§alÄ±k larÄ±na
borÃ§ larÄ±n
borÃ§ larÄ±
borÃ§ larÄ±nda
borÃ§ larÄ±nÄ±n
borÃ§ larÄ±ndan
borÃ§ larÄ±na
iblis leri
iblis lerinden
iblis lerini
iblis lerine
iblis lerinde
iblis lerinin
Ġistemci lerini
Ġistemci lerine
Ġistemci lerinde
gaflet lerinden
gaflet lerinde
gaflet ini
gaflet inde
gaflet ine
odak larÄ±
odak larÄ±nda
Ã¼tÃ¼ lerin
Ã¼tÃ¼ leri
Ã¼tÃ¼ lerini
mekik leri
mekik lerinden
mekik lerini
mekik lerine
mekik lerinde
mekik lerinin
Ã¶Ã§ lerin
Ã¶Ã§ leri
Ã¶Ã§ lerinden
Ã¶Ã§ lerine
aÄŁÄ±t larÄ±n
aÄŁÄ±t larÄ±
aÄŁÄ±t larÄ±nÄ±n
aÄŁÄ±t larÄ±nÄ±
aÄŁÄ±t larÄ±na
gÃ¶steri lerin
gÃ¶steri lerini
gÃ¶steri lerinin
hastalÄ±k larÄ±n
hastalÄ±k larÄ±nda
hastalÄ±k larÄ±nÄ±
otostop larÄ±n
otostop larÄ±
otostop larÄ±nda
otostop larÄ±ndan
otostop larÄ±nÄ±
kÃ¼tÃ¼k lerin
kÃ¼tÃ¼k lerini
kÃ¼tÃ¼k lerine
sÃ¶zlÃ¼k leri
sÃ¶zlÃ¼k lerinden
sÃ¶zlÃ¼k lerini
sÃ¶zlÃ¼k lerine
sÃ¶zlÃ¼k lerinde
sÃ¶zlÃ¼k lerinin
film lerin
film leri
film lerinden
film lerini
film lerine
film lerinde
film lerinin
ucube leri
ucube lerinden
ucube lerine
ucube lerinde
cevap larÄ±
cevap larÄ±nÄ±n
cevap larÄ±nÄ±
hata larÄ±nda
hata larÄ±nÄ±
kÃ¢bus larÄ±n
kÃ¢bus larÄ±
kÃ¢bus larÄ±nda
kÃ¢bus larÄ±nÄ±n
kÃ¢bus larÄ±ndan
kÃ¢bus larÄ±nÄ±
kÃ¢bus larÄ±na
gÃ¼vensizlik leri
gÃ¼vensizlik lerinden
gÃ¼vensizlik lerini
gÃ¼vensizlik lerinde
gÃ¼vensizlik lerinin
Ã§arpÄ± larÄ±n
Ã§arpÄ± larÄ±nÄ±n
Ã§arpÄ± larÄ±ndan
Ã§arpÄ± larÄ±nÄ±
ĠsineÄŁ in
burun larÄ±n
burun larÄ±nda
burun larÄ±nÄ±n
burun larÄ±ndan
burun larÄ±na
beyit lerin
beyit leri
beyit lerinden
beyit lerine
beyit lerinde
albatros larÄ±
albatros larÄ±nda
albatros larÄ±nÄ±n
albatros larÄ±nÄ±
albatros larÄ±na
diskotek lerin
diskotek leri
diskotek lerinden
diskotek lerine
diskotek lerinde
rÃ¼ya larÄ±n
rÃ¼ya larÄ±nÄ±n
rÃ¼ya larÄ±na
sÃ¶ÄŁÃ¼t lerin
sÃ¶ÄŁÃ¼t leri
sÃ¶ÄŁÃ¼t lerini
sÃ¶ÄŁÃ¼t lerinin
site lerin
site leri
site lerinde
site lerinin
angut larÄ±n
angut larÄ±ndan
angut larÄ±nÄ±
angut larÄ±na
taraba larÄ±
taraba larÄ±nÄ±n
taraba larÄ±ndan
taraba larÄ±na
yengeÃ§ lerinden
yengeÃ§ lerini
yengeÃ§ lerine
yengeÃ§ lerinin
yenilik lerin
yenilik lerini
yenilik lerine
yenilik lerinde
yenilik lerinin
eÄŁitim lerin
eÄŁitim lerinden
eÄŁitim lerine
eÄŁitim lerinde
eÄŁitim lerinin
yedek leri
yedek lerinden
yedek lerini
yedek lerine
yedek lerinde
yedek lerinin
kerpiÃ§ lerin
kerpiÃ§ lerinden
kerpiÃ§ lerini
kerpiÃ§ lerine
kerpiÃ§ lerinde
kerpiÃ§ lerinin
lastik lerin
lastik leri
lastik lerinden
lastik lerini
lastik lerinde
lastik lerinin
yutak larÄ±n
yutak larÄ±nda
yutak larÄ±nÄ±n
yutak larÄ±na
ekstremum larÄ±nÄ±n
ekstremum larÄ±ndan
ekstremum larÄ±nÄ±
yoÄŁurt larÄ±n
yoÄŁurt larÄ±
yoÄŁurt larÄ±ndan
yoÄŁurt larÄ±nÄ±
yoÄŁurt larÄ±na
vernik lerin
vernik lerini
vernik lerine
vernik lerinde
sevgili lerin
sevgili leri
sevgili lerinden
sevgili lerinde
Yahudi leri
Yahudi lerini
Yahudi lerinde
Yahudi lerinin
taÃ§ larÄ±
taÃ§ larÄ±nÄ±n
taÃ§ larÄ±ndan
sindirim leri
sindirim lerinden
sindirim lerine
sindirim lerinde
sindirim lerinin
gÃ¼de ceÄŁ
dilim lerin
dilim leri
dilim lerinden
dilim lerini
dilim lerine
kedicik lerinden
kedicik lerini
kedicik lerine
kedicik lerinin
kÄ±zlÄ±k larÄ±nÄ±n
kÄ±zlÄ±k larÄ±ndan
gÃ¼venlilik lerin
gÃ¼venlilik lerinden
gÃ¼venlilik lerini
gÃ¼venlilik lerinde
gÃ¼venlilik lerinin
bazalt larÄ±n
bazalt larÄ±nda
bazalt larÄ±nÄ±n
bazalt larÄ±na
kuvvetsizlik lerin
kuvvetsizlik lerinden
kuvvetsizlik lerini
kuvvetsizlik lerine
kuvvetsizlik lerinin
alamet lerine
alamet lerinde
Ã¼cretsizlik lerin
Ã¼cretsizlik lerini
Ã¼cretsizlik lerine
hapis lerin
hapis leri
hapis lerinden
hapis lerine
hapis lerinin
Ä±spanak larÄ±
Ä±spanak larÄ±nda
Ä±spanak larÄ±ndan
gerzek leri
gerzek lerini
gerzek lerine
gerzek lerinde
kanlÄ±lÄ±k larÄ±n
kanlÄ±lÄ±k larÄ±
kanlÄ±lÄ±k larÄ±nÄ±n
kanlÄ±lÄ±k larÄ±ndan
kanlÄ±lÄ±k larÄ±na
ebedilik lerini
ebedilik lerine
Ã§Ä±rak larÄ±
Ã§Ä±rak larÄ±nda
Ã§Ä±rak larÄ±nÄ±n
Ã§Ä±rak larÄ±nÄ±
Ã§Ä±rak larÄ±na
Ã§Ã¶zelti lerin
Ã§Ã¶zelti leri
Ã§Ã¶zelti lerinden
Ã§Ã¶zelti lerini
Ã§Ã¶zelti lerinde
Ã§Ã¶zelti lerinin
kilise lerin
kilise leri
kilise lerinden
ernek lerin
ernek leri
ernek lerinden
ernek lerinde
ernek lerinin
kÄ±ÅŁkÄ±rtÄ±yor lar
betik lerin
betik leri
betik lerinden
kÃ¶ylÃ¼ lerin
kÃ¶ylÃ¼ lerini
kÃ¶ylÃ¼ lerine
kÃ¶ylÃ¼ lerinin
Ã¶rÃ¼mcek lerinden
fiÅŁek lerinden
fiÅŁek lerine
fiÅŁek lerinin
tahdit lerin
tahdit lerinden
tahdit lerini
malumat larÄ±
malumat larÄ±nda
malumat larÄ±na
deneyim lerin
deneyim lerini
deneyim lerine
deneyim lerinde
deneyim lerinin
referans larÄ±
referans larÄ±nda
referans larÄ±nÄ±n
referans larÄ±ndan
referans larÄ±nÄ±
referans larÄ±na
tohum larÄ±n
tohum larÄ±
tohum larÄ±nÄ±n
tohum larÄ±ndan
tohum larÄ±nÄ±
tohum larÄ±na
kelebek lerin
kelebek leri
kelebek lerinden
kelebek lerini
kelebek lerine
kelebek lerinde
psikoterapi lerin
psikoterapi lerini
nergis lerin
nergis lerine
nergis lerinde
Ã§erÃ§i lerini
Ã§erÃ§i lerine
Ã§erÃ§i lerinde
Ã§elik leri
Ã§elik lerinden
Ã§elik lerini
Ã§elik lerine
Ã§elik lerinde
Ã§elik lerinin
kaltak larÄ±n
kaltak larÄ±nÄ±n
kaltak larÄ±na
deri lerinden
deri lerini
Ã¢ÅŁÄ±k larÄ±nda
Ã¢ÅŁÄ±k larÄ±nÄ±n
Ã¢ÅŁÄ±k larÄ±nÄ±
Ã¢ÅŁÄ±k larÄ±na
garp larÄ±n
garp larÄ±nÄ±
garp larÄ±na
ÅŁerbetÃ§ilik lerin
ÅŁerbetÃ§ilik lerinden
ÅŁerbetÃ§ilik lerine
ÅŁerbetÃ§ilik lerinde
arkadaÅŁlÄ±k larÄ±n
arkadaÅŁlÄ±k larÄ±nda
arkadaÅŁlÄ±k larÄ±nÄ±n
arkadaÅŁlÄ±k larÄ±na
ambulans larÄ±n
ambulans larÄ±ndan
ambulans larÄ±na
ĠÅŁarap larÄ±nda
ĠÅŁarap larÄ±ndan
ĠÅŁarap larÄ±na
iÃ§gÃ¼dÃ¼ lerinden
iÃ§gÃ¼dÃ¼ lerine
iÃ§gÃ¼dÃ¼ lerinin
sarÄ±msak larÄ±n
sarÄ±msak larÄ±
sarÄ±msak larÄ±nÄ±n
sarÄ±msak larÄ±ndan
sarÄ±msak larÄ±na
piskopos larÄ±n
piskopos larÄ±nda
piskopos larÄ±nÄ±n
piskopos larÄ±ndan
piskopos larÄ±nÄ±
Zagrepli lerin
Zagrepli leri
Zagrepli lerinden
Zagrepli lerini
Zagrepli lerine
Zagrepli lerinde
gÃ¼decek ler
devinim lerinden
devinim lerini
devinim lerine
devinim lerinde
diyor muÅŁ
diyor muÅŁsun
diyor muÅŁsunuz
diyor muÅŁum
dirilecek ler
saklÄ±yor lar
yaptÄ±rtacak lar
Ã§Ä±ÄŁÄ±rtkanlÄ±k larÄ±
Ã§Ä±ÄŁÄ±rtkanlÄ±k larÄ±nda
Ã§Ä±ÄŁÄ±rtkanlÄ±k larÄ±nÄ±n
Ã§Ä±ÄŁÄ±rtkanlÄ±k larÄ±nÄ±
mikrop larÄ±n
mikrop larÄ±nda
mikrop larÄ±nÄ±n
mikrop larÄ±ndan
aygÄ±tÃ§Ä±k larÄ±nda
aygÄ±tÃ§Ä±k larÄ±nÄ±n
aygÄ±tÃ§Ä±k larÄ±nÄ±
yalÄ±tÄ±m larÄ±nÄ±n
yalÄ±tÄ±m larÄ±ndan
yalÄ±tÄ±m larÄ±nÄ±
kaldÄ±raÃ§ larÄ±nÄ±n
kaldÄ±raÃ§ larÄ±ndan
kaldÄ±raÃ§ larÄ±nÄ±
kaldÄ±raÃ§ larÄ±na
controller leri
controller lerinden
controller lerini
controller lerinde
controller lerinin
sincap larÄ±nda
sincap larÄ±nÄ±n
evlilik lerinden
sÃ¼zgeÃ§ leri
sÃ¼zgeÃ§ lerine
sÃ¼zgeÃ§ lerinde
sÃ¼zgeÃ§ lerinin
anasÄ±zlÄ±k larÄ±nda
yÄ±ldÄ±rÄ±m larÄ±nda
yÄ±ldÄ±rÄ±m larÄ±nÄ±n
yÄ±ldÄ±rÄ±m larÄ±nÄ±
yÄ±ldÄ±rÄ±m larÄ±na
birliktelik lerin
birliktelik leri
birliktelik lerini
birliktelik lerinde
dinamit lerin
dinamit lerine
seÃ§ilecek ler
mumluk larÄ±n
mumluk larÄ±nda
dizem lerin
dizem leri
dizem lerinden
dizem lerini
dizem lerinde
akvaryum larÄ±n
akvaryum larÄ±
akvaryum larÄ±nÄ±n
akvaryum larÄ±ndan
akvaryum larÄ±nÄ±
akvaryum larÄ±na
satranÃ§ larÄ±n
satranÃ§ larÄ±nda
satranÃ§ larÄ±nÄ±
satranÃ§ larÄ±na
Ã¶lÃ§Ã¼lecek ler
spam larÄ±n
spam larÄ±nda
Ã§oÄŁul larÄ±nÄ±
Ã§oÄŁul unu
asit leri
asit lerinden
kanÄ±tlamÄ±ÅŁ lar
mÃ¼ÅŁteri lerin
mÃ¼ÅŁteri lerinde
mÃ¼ÅŁteri lerinin
Ã¶nemsizlik lerinden
Ã¶nemsizlik lerini
Ã¶nemsizlik lerine
Ã¶nemsizlik lerinde
ehemmiyetlilik leri
ehemmiyetlilik lerinde
ehemmiyetlilik lerinin
bÃ¼yÃ¼cÃ¼ leri
bÃ¼yÃ¼cÃ¼ lerini
bÃ¼yÃ¼cÃ¼ lerinde
bÃ¼yÃ¼cÃ¼ lerinin
viski lerin
viski lerinden
viski lerini
viski lerinde
kaynaÅŁtÄ±rÄ±lacak lar
katÄ±lacak lar
esenlik lerinden
esenlik lerini
esenlik lerine
hudut larÄ±n
hudut larÄ±
hudut larÄ±nÄ±n
hudut larÄ±nÄ±
hudut larÄ±na
sorumsuzluk larÄ±ndan
sorumsuzluk larÄ±nÄ±
Ġkutu larÄ±
Ġkutu larÄ±nÄ±n
Ã¼nÃ¼n Ã¼
Ã¼nÃ¼n de
Ã¼nÃ¼n Ã¼n
Ã¼nÃ¼n den
katÄ±lÄ±yor lar
baygÄ±nlÄ±k larÄ±nda
patla dÄ±n
patla dÄ±nÄ±z
patla madÄ±k
patla dÄ±m
patla dÄ±k
patla dÄ±lar
Ġfrekans larÄ±n
Ġfrekans larÄ±nda
Ġfrekans larÄ±nÄ±n
Ġfrekans larÄ±ndan
ĠoÄŁul larÄ±n
ĠoÄŁul larÄ±
ĠoÄŁul larÄ±nda
ĠoÄŁul larÄ±ndan
ĠoÄŁul larÄ±na
Ġtamlama larÄ±ndan
Ġtamlama larÄ±na
atom larÄ±nda
atom larÄ±nÄ±n
atom larÄ±ndan
anlatmÄ±ÅŁ lar
uyuyor lar
sakla madÄ±lar
sakla madÄ±k
sakla madÄ±m
sakla dÄ±m
sakla dÄ±lar
horlamÄ±ÅŁ lar
ÅŁaÅŁÄ±rtacak lar
sattÄ±rtmÄ±ÅŁ lar
aÄŁla dÄ±nÄ±z
aÄŁla madÄ±k
aÄŁla madÄ±m
aÄŁla dÄ±k
aÄŁla dÄ±lar
yuvarlamÄ±ÅŁ lar
kovdurmuÅŁ lar
kopmuÅŁ lar
baÅŁÃ§Ä±k larÄ±nda
baÅŁÃ§Ä±k larÄ±nÄ±
baÅŁÃ§Ä±k larÄ±na
yala dÄ±n
yala dÄ±nÄ±z
yala mÄ±yorlar
yala madÄ±lar
yala dÄ±m
yala dÄ±k
dernek lerin
dernek lerine
dernek lerinde
dernek lerinin
yuvarla mamÄ±ÅŁlar
yuvarla mayacaklar
yuvarla madÄ±k
yuvarla madÄ±m
yuvarla dÄ±k
kurutmuÅŁ lar
horla mamÄ±ÅŁlar
horla madÄ±k
horla dÄ±m
horla dÄ±k
ĠdÃ¶rtgen i
ĠdÃ¶rtgen in
ĠdÃ¶rtgen de
ĠdÃ¶rtgen den
ĠdÃ¶rtgen lere
ĠdÃ¶rtgen lerden
kanÄ±tla dÄ±n
kanÄ±tla madÄ±k
kanÄ±tla madÄ±m
kanÄ±tla dÄ±k
sÃ¼rÃ¼ndÃ¼rÃ¼r ler
ĠÃ§ekmiyor uz
ĠÃ§ekmiyor sun
ĠÃ§ekmiyor du
ĠÃ§ekmiyor um
ĠÃ§ekmiyor duk
ĠÃ§ekmiyor dunuz
ĠÃ§ekmiyor muÅŁsunuz
ĠÃ§ekmiyor muÅŁuz
ĠÃ§ekmiyor muÅŁum
ĠÃ§ekmiyor dum
Ġbili minden
Ġbili minde
Ġbili mini
korkar lar
kaÅŁÄ±yacak lar
gÃ¶tÃ¼rÃ¼r ler
kovdurur lar
karÄ±ÅŁtÄ±rtÄ±r lar
sÃ¼rÃ¼r ler
Ġsite sinden
Ġsite leri
Ġsite lerinden
Ġsite lerini
Ġsite lerine
Ġsite lerinde
Ġsite lerinin
Ġsite sine
Ġsite sinde
Ġsite sini
kÄ±rÄ±ÄŁ Ä±nÄ±n
kÄ±rÄ±ÄŁ Ä±nÄ±
kÄ±rÄ±ÄŁ Ä±ndan
kÄ±rÄ±ÄŁ Ä±nda
oturur lar
yuvarlar lar
yÄ±kayacak lar
ĠÃ§ileÄŁ inin
ĠÃ§ileÄŁ inde
dÃ¼ÅŁÃ¼nÃ¼r ler
Ġhar fe
Ġhar fi
Ġbilimi ne
Ã¢li minde
Ã¢li mini
Ã¢li mine
Ġsu larÄ±
Ġsu larÄ±ndan
Ġsu larÄ±na
Ġharf in
Ġharf te
Ġharf leri
Ġharf lere
Ġharf lerde
Ġharf ten
ĠÃ¼Ã§ gene
ĠÃ¼Ã§gen in
ĠÃ¼Ã§gen ler
ĠÃ¼Ã§gen lerin
ĠÃ¼Ã§gen leri
ĠÃ¼Ã§gen lere
ĠÃ¼Ã§gen lerden
bek le
Ġsiste minden
Ġsiste minde
Ġsiste mini
Ġsiste minin
derleyic inin
lÃ¼ÄŁ e
lÃ¼ÄŁ Ã¼
ĠgÃ¼r eÅŁt
Ġdurumu na
Ġdurumu nu
ĠyazÄ±lÄ±mÄ±n Ä±
ĠyazÄ±lÄ±mÄ±n Ä±z
ĠyazÄ±lÄ±mÄ±n Ä±za
ĠyazÄ±lÄ±mÄ±n Ä±zda
ĠyazÄ±lÄ±mÄ±n Ä±zÄ±
ĠyazÄ±lÄ±mÄ±n Ä±zÄ±n
ĠyazÄ±lÄ±mÄ±n Ä±zdan
plaÄŁ Ä±
plaÄŁ Ä±n
plaÄŁ Ä±nÄ±n
plaÄŁ Ä±nÄ±
plaÄŁ Ä±na
plaÄŁ Ä±nda
Ã§algÄ±c Ä±n
Ã§algÄ±c Ä±nÄ±z
Ã§algÄ±c Ä±ndan
Ã§algÄ±c Ä±na
Ã§algÄ±c Ä±nÄ±zÄ±n
Ã§algÄ±c Ä±nÄ±zda
Ã§algÄ±c Ä±nÄ±zÄ±
Ã§algÄ±c Ä±nÄ±za
eziyetÃ§iliÄŁ i
eziyetÃ§iliÄŁ in
eziyetÃ§iliÄŁ inin
eziyetÃ§iliÄŁ ini
eziyetÃ§iliÄŁ inde
eziyetÃ§iliÄŁ inden
heykelciÄŁ i
heykelciÄŁ in
heykelciÄŁ inin
heykelciÄŁ ini
heykelciÄŁ inde
heykelciÄŁ ine
heykelciÄŁ inden
Ã¼cretsizliÄŁ i
Ã¼cretsizliÄŁ in
Ã¼cretsizliÄŁ inin
Ã¼cretsizliÄŁ ini
Ã¼cretsizliÄŁ inde
Ã¼cretsizliÄŁ ine
Ã¼cretsizliÄŁ inden
kayaÄŁ Ä±
kayaÄŁ Ä±n
kayaÄŁ Ä±nÄ±n
kayaÄŁ Ä±nÄ±
kayaÄŁ Ä±ndan
kayaÄŁ Ä±na
kayaÄŁ Ä±nda
Ã¶rÃ¼mceÄŁ i
Ã¶rÃ¼mceÄŁ ini
Ã¶rÃ¼mceÄŁ inde
Ã¶rÃ¼mceÄŁ ine
Ã¶rÃ¼mceÄŁ inden
kasÄ±ÄŁ Ä±
kasÄ±ÄŁ Ä±n
kasÄ±ÄŁ Ä±nÄ±
kasÄ±ÄŁ Ä±ndan
kasÄ±ÄŁ Ä±na
kasÄ±ÄŁ Ä±nda
kasa bÄ±
sucuÄŁ un
sucuÄŁ unun
sucuÄŁ unda
sucuÄŁ una
sucuÄŁ unu
evliliÄŁ i
evliliÄŁ in
evliliÄŁ inde
evliliÄŁ inden
hastalÄ±ÄŁ Ä±n
hastalÄ±ÄŁ Ä±nÄ±n
hastalÄ±ÄŁ Ä±nÄ±
hastalÄ±ÄŁ Ä±ndan
hastalÄ±ÄŁ Ä±na
hastalÄ±ÄŁ Ä±nda
kalt aÄŁÄ±
kediciÄŁ i
kediciÄŁ in
kediciÄŁ inin
kediciÄŁ ini
kediciÄŁ ine
kediciÄŁ inden
kÄ±zlÄ±ÄŁ Ä±
kÄ±zlÄ±ÄŁ Ä±n
kÄ±zlÄ±ÄŁ Ä±nÄ±n
kÄ±zlÄ±ÄŁ Ä±nÄ±
kÄ±zlÄ±ÄŁ Ä±ndan
kÄ±zlÄ±ÄŁ Ä±na
kÄ±zlÄ±ÄŁ Ä±nda
kÃ¢bu sun
kÃ¢bu sundan
kÃ¢bu suna
kÃ¢bu sunda
musluÄŁ u
musluÄŁ un
musluÄŁ unun
musluÄŁ unda
musluÄŁ una
musluÄŁ unu
musluÄŁ undan
arkadaÅŁlÄ±ÄŁ Ä±
arkadaÅŁlÄ±ÄŁ Ä±nÄ±n
arkadaÅŁlÄ±ÄŁ Ä±nÄ±
arkadaÅŁlÄ±ÄŁ Ä±na
arkadaÅŁlÄ±ÄŁ Ä±nda
hareketliliÄŁ i
hareketliliÄŁ in
hareketliliÄŁ inin
hareketliliÄŁ ine
hareketliliÄŁ inden
Ã¶c Ã¼nÃ¼n
Ã¶c Ã¼ne
Ã¶c Ã¼nÃ¼
Ã¶c Ã¼nde
Ã¶c Ã¼nden
aÅŁÄ±ÄŁ Ä±nÄ±n
aÅŁÄ±ÄŁ Ä±ndan
aÅŁÄ±ÄŁ Ä±na
aÅŁÄ±ÄŁ Ä±nda
yaraÄŁ Ä±n
yaraÄŁ Ä±nÄ±n
yaraÄŁ Ä±nÄ±
yaraÄŁ Ä±ndan
yaraÄŁ Ä±nda
sululuÄŁ u
sululuÄŁ un
sululuÄŁ unun
sululuÄŁ unda
sululuÄŁ unu
sululuÄŁ undan
mumluÄŁ u
mumluÄŁ un
mumluÄŁ unun
mumluÄŁ unda
mumluÄŁ una
mumluÄŁ unu
kÄ±llÄ±ÄŁ Ä±
kÄ±llÄ±ÄŁ Ä±n
kÄ±llÄ±ÄŁ Ä±nÄ±
kÄ±llÄ±ÄŁ Ä±na
kÄ±llÄ±ÄŁ Ä±nda
bÄ±yÄ±ÄŁ Ä±
bÄ±yÄ±ÄŁ Ä±n
bÄ±yÄ±ÄŁ Ä±nÄ±n
bÄ±yÄ±ÄŁ Ä±nÄ±
bÄ±yÄ±ÄŁ Ä±ndan
aynÅŁtaynyu munun
aynÅŁtaynyu munda
aynÅŁtaynyu mundan
baÄŁÄ±rsaÄŁ Ä±n
baÄŁÄ±rsaÄŁ Ä±nÄ±n
baÄŁÄ±rsaÄŁ Ä±nÄ±
baÄŁÄ±rsaÄŁ Ä±na
baÄŁÄ±rsaÄŁ Ä±nda
hÄ±Ã§kÄ±rÄ±ÄŁ Ä±n
hÄ±Ã§kÄ±rÄ±ÄŁ Ä±nÄ±n
hÄ±Ã§kÄ±rÄ±ÄŁ Ä±nÄ±
hÄ±Ã§kÄ±rÄ±ÄŁ Ä±na
ekstremu munun
ekstremu munda
ekstremu mundan
fiÅŁeÄŁ i
fiÅŁeÄŁ ini
fiÅŁeÄŁ inde
fiÅŁeÄŁ ine
fiÅŁeÄŁ inden
gelinciÄŁ i
gelinciÄŁ inin
gelinciÄŁ ini
gelinciÄŁ inden
tavuÄŁ u
tavuÄŁ un
tavuÄŁ unu
igu an
Ġka f
mekiÄŁ i
mekiÄŁ in
mekiÄŁ inin
mekiÄŁ inde
mekiÄŁ ine
Ã§Ä±l g
sindir imine
evciÄŁ i
evciÄŁ in
evciÄŁ inin
evciÄŁ inde
evciÄŁ inden
patlama dÄ±n
patlama dÄ±nÄ±z
emlaÄŁ Ä±
emlaÄŁ Ä±n
emlaÄŁ Ä±na
otosto bu
istatist iÄŁ
diÅŁleÄŁ i
diÅŁleÄŁ in
diÅŁleÄŁ ini
diÅŁleÄŁ ine
diÅŁleÄŁ inden
totemciliÄŁ i
totemciliÄŁ inin
totemciliÄŁ ini
totemciliÄŁ inden
Ã¶nemsizliÄŁ i
Ã¶nemsizliÄŁ inin
Ã¶nemsizliÄŁ ini
Ã¶nemsizliÄŁ ine
Ã¶nemsizliÄŁ inden
kuvvetsizliÄŁ in
kuvvetsizliÄŁ ini
kuvvetsizliÄŁ inde
kuvvetsizliÄŁ ine
teore mi
teore min
teore minden
teore mini
teore minin
mÃ¼stahde min
mÃ¼stahde minden
mÃ¼stahde minde
mÃ¼stahde mini
mistiÄŁ inin
mistiÄŁ ini
mistiÄŁ inde
mistiÄŁ inden
karÅŁÄ±lÄ±ÄŁ Ä±
karÅŁÄ±lÄ±ÄŁ Ä±nÄ±n
karÅŁÄ±lÄ±ÄŁ Ä±ndan
karÅŁÄ±lÄ±ÄŁ Ä±nda
porsuÄŁ un
porsuÄŁ unun
porsuÄŁ unda
porsuÄŁ unu
porsuÄŁ undan
gerzeÄŁ i
gerzeÄŁ in
gerzeÄŁ inde
gerzeÄŁ ine
gerzeÄŁ inden
ĠÅŁarab Ä±nÄ±n
ĠÅŁarab Ä±nÄ±
ĠÅŁarab Ä±ndan
ĠÅŁarab Ä±na
ĠbelleÄŁ i
ĠbelleÄŁ ini
ĠbelleÄŁ ine
kaltaÄŁ Ä±n
kaltaÄŁ Ä±nÄ±n
kaltaÄŁ Ä±nÄ±
kaltaÄŁ Ä±ndan
kaltaÄŁ Ä±na
kaltaÄŁ Ä±nda
piÅŁt in
piÅŁt ik
piÅŁt iniz
piÅŁt im
piÅŁt iler
sÃ¶ÄŁÃ¼ dÃ¼
tulu mun
tulu munun
akre bi
erneÄŁ in
erneÄŁ inin
erneÄŁ inde
erneÄŁ ine
erneÄŁ inden
ato munun
ato munda
birleÅŁt in
birleÅŁt ik
birleÅŁt iniz
birleÅŁt im
birleÅŁt iler
ipeÄŁ i
ipeÄŁ in
ipeÄŁ inin
ipeÄŁ inde
ipeÄŁ inden
sÃ¼zgec i
sÃ¼zgec in
sÃ¼zgec ini
sÃ¼zgec inde
sÃ¼zgec ine
sÃ¼zgec inden
uyruÄŁ u
uyruÄŁ un
uyruÄŁ unda
Ã¶rdeÄŁ in
Ã¶rdeÄŁ inin
Ã¶rdeÄŁ ini
Ã¶rdeÄŁ ine
Ã¶rdeÄŁ inden
baÄŁcÄ±ÄŁ Ä±
baÄŁcÄ±ÄŁ Ä±nÄ±n
baÄŁcÄ±ÄŁ Ä±ndan
baÄŁcÄ±ÄŁ Ä±na
gÃ¼dÃ¼ mi
gÃ¼dÃ¼ minden
gÃ¼dÃ¼ mini
ketÃ§a bÄ±
betiÄŁ i
betiÄŁ in
betiÄŁ inin
betiÄŁ ine
devini minden
devini minde
devini mine
yavÅŁ aÄŁÄ±
garb Ä±n
garb Ä±nÄ±n
garb Ä±ndan
garb Ä±na
garb Ä±nda
lastiÄŁ i
lastiÄŁ inin
lastiÄŁ ini
lastiÄŁ inde
lastiÄŁ ine
ÅŁiÅŁliÄŁ ini
ÅŁiÅŁliÄŁ ine
ÅŁafaÄŁ Ä±nÄ±n
ÅŁafaÄŁ Ä±nÄ±
ÅŁafaÄŁ Ä±ndan
ÅŁafaÄŁ Ä±nda
girdab Ä±n
girdab Ä±nÄ±n
girdab Ä±nÄ±
girdab Ä±ndan
girdab Ä±na
burn unun
burn unda
burn una
burn unu
burn undan
ÅŁehr in
ÅŁehr inin
ÅŁehr ini
ÅŁehr inde
ÅŁehr inden
Ã¶mr Ã¼n
Ã¶mr Ã¼ne
Ã¶mr Ã¼nÃ¼
Ã¶mr Ã¼nde
Ã§iftliÄŁ in
Ã§iftliÄŁ inin
Ã§iftliÄŁ ini
Ã§iftliÄŁ inde
Ã§iftliÄŁ ine
Ã§iftliÄŁ inden
yutaÄŁ Ä±nÄ±n
yutaÄŁ Ä±nÄ±
yutaÄŁ Ä±ndan
yutaÄŁ Ä±na
gÃ¶mleÄŁ in
gÃ¶mleÄŁ inin
gÃ¶mleÄŁ ini
gÃ¶mleÄŁ inde
gÃ¶mleÄŁ inden
salÃ§alÄ±ÄŁ Ä±n
salÃ§alÄ±ÄŁ Ä±nÄ±n
salÃ§alÄ±ÄŁ Ä±nÄ±
salÃ§alÄ±ÄŁ Ä±ndan
salÃ§alÄ±ÄŁ Ä±na
salÃ§alÄ±ÄŁ Ä±nda
aygÄ±tÃ§Ä±ÄŁ Ä±
aygÄ±tÃ§Ä±ÄŁ Ä±n
aygÄ±tÃ§Ä±ÄŁ Ä±na
Ã¶nceliÄŁ in
Ã¶nceliÄŁ inin
Ã¶nceliÄŁ ini
ast Ä±n
ast Ä±k
ast Ä±nÄ±z
tuy dunuz
Ã§eliÄŁ in
Ã§eliÄŁ inden
sinca bÄ±
supa bÄ±
yetiÅŁt in
yetiÅŁt ik
yetiÅŁt iniz
yetiÅŁt im
dÃ¶ne minden
dÃ¶ne minde
dÃ¶ne mini
dÃ¶ne minin
dÃ¶ne mine
kirec i
kirec in
kirec ini
kirec ine
derneÄŁ i
derneÄŁ inin
derneÄŁ inde
derneÄŁ ine
derneÄŁ inden
terc Ã¼
salÄ±ncaÄŁ Ä±n
salÄ±ncaÄŁ Ä±nÄ±n
salÄ±ncaÄŁ Ä±ndan
salÄ±ncaÄŁ Ä±nda
Ã¶zr Ã¼n
Ã¶zr Ã¼nÃ¼n
Ã¶zr Ã¼ne
Ã¶zr Ã¼nde
pirinc in
pirinc ini
pirinc inde
pirinc inden
ÅŁerbetÃ§iliÄŁ in
ÅŁerbetÃ§iliÄŁ inden
gÃ¼venliliÄŁ in
gÃ¼venliliÄŁ ini
gÃ¼venliliÄŁ ine
Ġfikr in
Ġfikr inin
Ġfikr ini
Ġfikr inde
Ġfikr ine
Ġfikr inden
Ä±spanaÄŁ Ä±n
Ä±spanaÄŁ Ä±nÄ±n
Ä±spanaÄŁ Ä±na
diskoteÄŁ inde
diskoteÄŁ ine
kanlÄ±lÄ±ÄŁ Ä±n
kanlÄ±lÄ±ÄŁ Ä±nÄ±
kanlÄ±lÄ±ÄŁ Ä±ndan
kanlÄ±lÄ±ÄŁ Ä±na
ebediliÄŁ i
ebediliÄŁ in
ebediliÄŁ inin
ebediliÄŁ inden
sarÄ±msaÄŁ Ä±
sarÄ±msaÄŁ Ä±n
sarÄ±msaÄŁ Ä±nÄ±n
sarÄ±msaÄŁ Ä±nÄ±
sarÄ±msaÄŁ Ä±ndan
sarÄ±msaÄŁ Ä±na
anasÄ±zlÄ±ÄŁ Ä±nÄ±n
anasÄ±zlÄ±ÄŁ Ä±ndan
anasÄ±zlÄ±ÄŁ Ä±na
anasÄ±zlÄ±ÄŁ Ä±nda
birlikteliÄŁ i
birlikteliÄŁ ini
birlikteliÄŁ ine
birlikteliÄŁ inden
ehemmiyetliliÄŁ i
ehemmiyetliliÄŁ in
ehemmiyetliliÄŁ inin
kasab Ä±n
kasab Ä±nÄ±
kasab Ä±nda
odaÄŁ Ä±nÄ±n
odaÄŁ Ä±nda
Ã¶ne mi
Ã¶ne minden
Ã¶ne minde
aln Ä±n
aln Ä±nÄ±
aln Ä±na
aln Ä±nda
yapÄ±ncaÄŁ Ä±
yapÄ±ncaÄŁ Ä±n
yapÄ±ncaÄŁ Ä±nÄ±
yapÄ±ncaÄŁ Ä±na
Ã¶pÃ¼ÅŁt Ã¼k
Ã¶pÃ¼ÅŁt Ã¼nÃ¼z
birliÄŁ inin
birliÄŁ inde
birliÄŁ inden
asi dinin
ceva bÄ±
dinlet inin
yeniliÄŁ inin
yeniliÄŁ ini
yeniliÄŁ inde
yeniliÄŁ ine
gÃ¼lÃ¼nÃ§leÅŁt iniz
gÃ¼lÃ¼nÃ§leÅŁt im
yedeÄŁ in
yedeÄŁ ine
pust un
pust um
pust unuz
bardaÄŁ Ä±nÄ±n
bardaÄŁ Ä±nÄ±
bardaÄŁ Ä±ndan
ikile mi
ikile min
diÅŁl inin
Ã§Ä±ÄŁÄ±rtkanlÄ±ÄŁ Ä±
Ã§Ä±ÄŁÄ±rtkanlÄ±ÄŁ Ä±nÄ±n
Ã§Ä±ÄŁÄ±rtkanlÄ±ÄŁ Ä±nÄ±
kerpi ci
iÅŁlemc inin
baÅŁrahib in
baÅŁrahib inin
baÅŁrahib ini
baÅŁrahib ine
kelebeÄŁ ini
esenliÄŁ in
esenliÄŁ inde
esenliÄŁ ine
esenliÄŁ inden
ĠoÄŁl un
ĠoÄŁl unun
ĠoÄŁl unda
ĠoÄŁl una
ĠoÄŁl unu
sorumsuzluÄŁ unda
sorumsuzluÄŁ unu
sorumsuzluÄŁ undan
otostob un
otostob unun
otostob unda
otostob undan
yavÅŁaÄŁ Ä±nÄ±
yavÅŁaÄŁ Ä±ndan
yavÅŁaÄŁ Ä±nda
oda cÄ±ÄŁ
Ġbit imin
gÃ¶ster inin
yengec i
yengec in
Ã¢ÅŁÄ±ÄŁ Ä±
Ã¢ÅŁÄ±ÄŁ Ä±ndan
ĠhÃ¢l leri
ĠhÃ¢l lerini
ĠhÃ¢l lerine
ĠhÃ¢l inin
ĠhÃ¢l inde
ĠhÃ¢l ine
ĠhÃ¢l inden
oÄŁl un
oÄŁl unda
oÄŁl una
gÃ¼vensizliÄŁ in
gÃ¼vensizliÄŁ inin
gÃ¼vensizliÄŁ inde
sosyol oÄŁ
kalÄ±b Ä±n
kalÄ±b Ä±nÄ±n
kalÄ±b Ä±ndan
temsilciliÄŁ i
temsilciliÄŁ inin
temsilciliÄŁ ini
temsilciliÄŁ inde
akvaryu munun
akvaryu munda
akvaryu mundan
akreb inin
akreb ini
akreb inden
ketÃ§ab Ä±n
ketÃ§ab Ä±nÄ±
ketÃ§ab Ä±ndan
sincab Ä±n
sincab Ä±nÄ±
sincab Ä±ndan
supab Ä±n
supab Ä±nÄ±n
supab Ä±na
baygnlÄ±ÄŁ Ä±ndan
baygnlÄ±ÄŁ Ä±na
acent eliÄŁ
coÅŁt un
coÅŁt um
coÅŁt uk
terliÄŁ ini
terliÄŁ ine
sÃ¼st Ã¼n
sÃ¼st Ã¼m
sÃ¼st Ã¼y
ĠyazÄ±lÄ±mÄ± mÄ±z
ĠyazÄ±lÄ±mÄ± mÄ±zÄ±n
ĠyazÄ±lÄ±mÄ± mÄ±za
ĠyazÄ±lÄ±mÄ± mÄ±zda
kÃ¶yl Ã¼nÃ¼n
Ã§Ä±raÄŁ Ä±nÄ±
Ã§Ä±raÄŁ Ä±na
verniÄŁ i
verniÄŁ in
verniÄŁ ini
verniÄŁ inde
sevgil inin
cevab Ä±nÄ±
cevab Ä±ndan
cevab Ä±na
cevab Ä±nda
fet v
Ã§at laÄŁ
ento moloj
ĠÃ§ekti lerdi
tac Ä±nÄ±n
tac Ä±nÄ±
tac Ä±ndan
tac Ä±na
tac Ä±nda
derg inin
bedev inin
bilg inin
baÅŁÃ§Ä±ÄŁ Ä±
eziyetÃ§ inin
totemc inin
frizb inin
sebeb in
sebeb inin
sebeb ini
topoloj inin
Ġuzay larÄ±nda
Ġuzay larÄ±nÄ±n
Ġuzay larÄ±ndan
Ġuzay Ä±ndan
Ġuzay Ä±na
Ġuzay Ä±nda
kerpic ine
kerpic inden
acele ciliÄŁ
iÅŁÃ§ inin
alÄ±c Ä±nÄ±n
alÄ±c Ä±nÄ±
alÄ±c Ä±ndan
alÄ±c Ä±nda
dize minden
harc Ä±n
harc Ä±nÄ±n
harc Ä±ndan
harc Ä±na
ÅŁerbetÃ§ inin
kamÃ§ Ä±nÄ±n
ÅŁahÄ± sÄ±n
ÅŁahÄ± sÄ±nÄ±
ÅŁahÄ± sÄ±na
ÅŁahÄ± sÄ±nÄ±n
ÅŁahÄ± sÄ±nda
sÃ¼rtÃ¼klÃ¼ÄŁ Ã¼
Ġfrekan sÄ±nÄ±
Ġfrekan sÄ±na
Ġfrekan sÄ±nda
deyimin i
deyimin in
deyimin den
mikrob unun
mikrob una
Ã¶pÃ¼cÃ¼ÄŁ Ã¼
virgÃ¼lÃ¼n e
virgÃ¼lÃ¼n Ã¼n
virgÃ¼lÃ¼n den
yordamÄ±n Ä±
yordamÄ±n Ä±n
yordamÄ±n da
yordamÄ±n dan
havuc unda
havuc unu
havuc undan
deneyimin in
deneyimin de
deneyimin den
referan sÄ±n
referan sÄ±na
referan sÄ±ndan
referan sÄ±nda
ĠÃ§ilek lerine
ĠÃ§ilek lerinin
Ġdonan Ä±mÄ±n
paleoantrop oloj
aÅŁtÄ± lar
Ġke dinin
Ġderleyic inin
makin anÄ±n
masan Ä±n
sakson un
paylaÅŁtÄ± lar
Ã§alg Ä±nÄ±n
daÄŁÄ±tÄ±mÄ±n Ä±
daÄŁÄ±tÄ±mÄ±n Ä±n
yavr unun
pusulan Ä±n
basketbolc unun
Tiranl Ä±nÄ±n
sÃ¶zcÃ¼lÃ¼ÄŁ Ã¼
borc un
borc unu
borc undan
zammÄ±n Ä±
zammÄ±n Ä±n
kaldÄ±rac Ä±n
spamÄ±n Ä±n
spamÄ±n dan
kÃ¼tÃ¼ÄŁ Ã¼
yÃ¼ksÃ¼ÄŁ Ã¼
Ã§evirimin i
Ã§evirimin den
astÄ± lar
Ġolduy du
Ġolduy duk
Ġolduy dunuz
kartÄ±n Ä±
kartÄ±n da
kartÄ±n dan
dilimin i
dilimin de
dilimin den
aviz enin
kÃ¶pÃ¼ÄŁ Ã¼
korsen in
amcan Ä±n
Ã¶znen in
viÅŁnen in
yolc unun
ÅŁapkac Ä±nÄ±n
yangÄ±nÄ±n a
yangÄ±nÄ±n Ä±
yangÄ±nÄ±n Ä±n
yangÄ±nÄ±n da
yangÄ±nÄ±n dan
tÃ¼mcen in
Ã¶pÃ¼cÃ¼ÄŁÃ¼n e
Ã¶pÃ¼cÃ¼ÄŁÃ¼n Ã¼
Ã¶pÃ¼cÃ¼ÄŁÃ¼n de
Ã¶pÃ¼cÃ¼ÄŁÃ¼n Ã¼n
Ã¶pÃ¼cÃ¼ÄŁÃ¼n den
aikidon un
sÃ¼rtÃ¼klÃ¼ÄŁÃ¼n e
sÃ¼rtÃ¼klÃ¼ÄŁÃ¼n Ã¼
sÃ¼rtÃ¼klÃ¼ÄŁÃ¼n de
sÃ¼rtÃ¼klÃ¼ÄŁÃ¼n Ã¼n
sÃ¼rtÃ¼klÃ¼ÄŁÃ¼n den
lÃ¼gatÃ§ enin
Belgratl Ä±nÄ±n
Ã§orban Ä±n
bermudan Ä±n
cezeryen in
embriy onun
radyon un
yalÄ±tÄ±mÄ±n Ä±
yalÄ±tÄ±mÄ±n da
satranc Ä±n
satranc Ä±nda
sindirimin in
sindirimin de
sit enin
Ġbilim leri
Ġbilim lerini
Ġbilim lerine
Ġbilim lerinde
Ġbilim lerinin
yapÄ±ÅŁtÄ± lar
derec enin
eÄŁitimin i
eÄŁitimin in
unuttu k
unuttu lar
vidan Ä±n
duyma manÄ±n
battaniyen in
manivelan Ä±n
motorinin e
motorinin i
motorinin de
motorinin den
kelepÃ§ enin
pÄ±rasan Ä±n
koruyuc unun
zurn anÄ±n
izlencen in
yÄ±ldÄ±rÄ±mÄ±n Ä±
yÄ±ldÄ±rÄ±mÄ±n Ä±n
yÄ±ldÄ±rÄ±mÄ±n dan
Ġdurum larÄ±nÄ±n
Ġdurum larÄ±ndan
Ġdurum larÄ±nÄ±
voleybolc unun
sÃ¶ÄŁÃ¼dÃ¼n Ã¼
sÃ¶ÄŁÃ¼dÃ¼n de
sÃ¶ÄŁÃ¼dÃ¼n Ã¼n
sÃ¶ÄŁÃ¼dÃ¼n den
malumatÄ±n Ä±
malumatÄ±n Ä±n
malumatÄ±n da
malumatÄ±n dan
milimetren in
kilis enin
kolan Ä±n
oki yanÄ±n
dildon un
yarasan Ä±n
Ġsistem leri
Ġsistem lerini
Ġsistem lerinde
Ġsistem lerinin
kÃ¶pÃ¼ÄŁÃ¼n de
kÃ¶pÃ¼ÄŁÃ¼n Ã¼n
kÃ¶pÃ¼ÄŁÃ¼n den
tutk unun
koktu lar
korktu k
korktu lar
matlan Ä±n
diskon un
kavunun un
kavunun da
kavunun dan
bazaltÄ±n a
bazaltÄ±n Ä±
bazaltÄ±n da
baltan Ä±n
oynatÄ±c Ä±nÄ±n
Kopenhagl Ä±nÄ±n
beytin i
beytin de
beytin den
sÃ¶zcÃ¼lÃ¼ÄŁÃ¼n e
sÃ¶zcÃ¼lÃ¼ÄŁÃ¼n de
sÃ¶zcÃ¼lÃ¼ÄŁÃ¼n den
cibinin e
cibinin in
cibinin de
cibinin den
tahdidin e
tahdidin i
tahdidin de
tahdidin den
tatl Ä±nÄ±n
aynÅŁtaynyumu na
aynÅŁtaynyumu nu
ekstremumu na
ekstremumu nu
tulumu na
atomu nu
yoÄŁurdun a
yoÄŁurdun u
yoÄŁurdun dan
taraban Ä±n
derlemen in
Ġsandalyen in
memen in
tuttu k
daÄŁÄ±tÄ±mÄ± na
kuruttu k
sÃ¶zlÃ¼ÄŁÃ¼n e
sÃ¶zlÃ¼ÄŁÃ¼n Ã¼
sÃ¶zlÃ¼ÄŁÃ¼n de
cezven in
iÅŁletmen in
doktrinin e
doktrinin i
doktrinin de
kÄ±yametin i
kÄ±yametin in
kÄ±yametin de
alametin i
alametin in
alametin de
hinterlandÄ±n Ä±n
hinterlandÄ±n da
sahif enin
skrotumu nu
latern anÄ±n
tohumu na
Ġlist enin
Ġsuy unun
Ġsuy unda
Ġsuy una
Ġsuy undan
kÃ¼tÃ¼ÄŁÃ¼n e
kÃ¼tÃ¼ÄŁÃ¼n de
kÃ¼tÃ¼ÄŁÃ¼n Ã¼n
kÃ¼tÃ¼ÄŁÃ¼n den
angudun da
angudun dan
Ã¶pÃ¼ÅŁtÃ¼ ler
asidin e
asidin i
asidin den
yorumu nu
yorumun un
yorumun da
yorumun dan
mayan Ä±n
ÅŁta ya
pedin i
pedin den
evladÄ±n Ä±
evladÄ±n Ä±n
evladÄ±n da
yordamÄ± na
iÅŁkencen in
hÃ¼kÃ»metin e
hÃ¼kÃ»metin in
ÅŁÄ±rÄ±ng anÄ±n
yumurtan Ä±n
zammÄ± na
Ġdurumun un
aÄŁÄ±dÄ±n a
aÄŁÄ±dÄ±n Ä±n
yÃ¼ksÃ¼ÄŁÃ¼n de
yÃ¼ksÃ¼ÄŁÃ¼n den
uygula manÄ±n
Ã§Ã¶zeltin in
hududun da
dinamitin e
dinamitin in
yapÄ±ÅŁt Ä±m
yapÄ±ÅŁt Ä±k
yapÄ±ÅŁt Ä±nÄ±z
ĠsÄ±kÄ±ÅŁt Ä±n
ĠsÄ±kÄ±ÅŁt Ä±k
tÃ¼tsÃ¼n Ã¼n
Ġprogramla manÄ±n
maskaran Ä±n
anjiy onun
tohumun dan
skrotumun un
skrotumun da
armu da
rime li
mikro bu
daÄŁÄ±nÄ± ÄŁ
V ikipe
a i
a sÄ±n
a ha
a ÅŁtÄ±m
a lete
b Ã¶l
b Ã¼ste
c Ä±n
c Ä±nÄ±n
c asÄ±
d ayÄ±
e le
f oka
g unuz
g anÄ±n
g ole
h iste
i se
i siniz
i lerimiz
i leriniz
i din
i si
i lerinden
i lerini
i lerine
i lerinin
i lerimize
i lerinizden
i lerimizden
i lerinizin
i lerimizin
i lerinizde
i lerinizi
i lerinize
i sine
i sinize
i sinizden
i sinizi
i sinizin
k iste
k ipe
l unun
n in
o daÄŁÄ±
p aba
r ayÄ±
s iyi
s asÄ±
t onun
u la
u ma
u yacaÄŁÄ±z
v iÅŁte
Ġ di
Ġ aldÄ±nÄ±z
Ġ sÃ¼rÃ¼me
Ġ masallarÄ±
ÅŁ ive
ÅŁ ala
Ã¼ tÃ¼y
la manÄ±n
me ne
me meye
me meyi
mak tanÄ±
mak tayÄ±
mak tasÄ±
ya larmÄ±ÅŁ
ya lama
ya larmÄ±ÅŁÄ±z
ya larmÄ±ÅŁÄ±m
ya larmÄ±ÅŁsÄ±nÄ±z
ya lardÄ±m
ya lamayÄ±n
ya lamayÄ±z
ya lamam
ya muÄŁ
ya lamayÄ±nÄ±z
ya sayÄ±
ya sasÄ±
ma maya
ma man
ma manÄ±z
ma manda
ma manÄ±
ma manÄ±zÄ±
ma manÄ±za
ma sayÄ±
le ve
Ã§ ayÄ±
Ã§ aldÄ±nÄ±z
in iniz
in din
in diniz
in miÅŁsiniz
in miÅŁsin
in miÅŁiz
in dim
in medim
in memiÅŁim
in memiÅŁlerdi
in memiÅŁmiÅŁsiniz
in memiÅŁlermiÅŁ
in memiÅŁtim
in memiÅŁtin
in meyecektim
in meyecekmiÅŁsin
in mediydi
in mediydik
in memiÅŁmiÅŁsin
in meyecektin
in memiÅŁsin
in meyecekmiÅŁsiniz
in meyecekmiÅŁiz
in mediydim
in memiÅŁti
in mediydiniz
in mezsiniz
in mezdin
in mezmiÅŁsin
in memiÅŁtiniz
in meyeceÄŁiz
in mem
in mezmiÅŁsiniz
in memiÅŁmiÅŁ
in mediydin
in mezdi
in mezdik
in mezlerdi
in memiÅŁtik
in meyeceklerdi
in meyecektiniz
in medilerdi
in memiÅŁmiÅŁim
in memiÅŁmiÅŁiz
in memiÅŁiz
in meyecekti
in meyiz
in meyeceklermiÅŁ
in mezdiniz
in mezmiÅŁim
in meyiniz
in meyeceksiniz
in eceÄŁim
in mezdim
in eceÄŁiz
in miyorlarmÄ±ÅŁ
in miyormuÅŁsunuz
in miyorlardÄ±
in miyorsunuz
in miyormuÅŁ
in miyorsun
in miyormuÅŁum
in miyoruz
in miyormuÅŁsun
in miyordu
in miyorduk
in miyormuÅŁuz
in miyordum
in dilerdi
in miyordunuz
in diydi
in diydim
in diydin
an ma
an Ä±nÄ±z
an dÄ±n
an dÄ±nÄ±z
an mÄ±ÅŁsÄ±nÄ±z
an mÄ±ÅŁsÄ±n
an mÄ±ÅŁÄ±z
an mÄ±ÅŁÄ±m
an madÄ±ydÄ±
an mazdÄ±
an madÄ±m
an madÄ±nÄ±z
an dÄ±m
an dÄ±k
an dÄ±lar
an dÄ±ydÄ±
an madÄ±ydÄ±k
an madÄ±ydÄ±m
an mazdÄ±m
an mazdÄ±k
an mamÄ±ÅŁsÄ±nÄ±z
an mamÄ±ÅŁtÄ±n
an madÄ±ydÄ±n
an mazmÄ±ÅŁÄ±z
an mamÄ±ÅŁmÄ±ÅŁsÄ±nÄ±z
an mayÄ±z
an mayÄ±nÄ±z
an mamÄ±ÅŁlarmÄ±ÅŁ
an mayÄ±n
an mayacakmÄ±ÅŁ
an madÄ±ydÄ±nÄ±z
an mayacaÄŁÄ±m
an mayacakmÄ±ÅŁsÄ±nÄ±z
an mazdÄ±nÄ±z
an mamÄ±ÅŁÄ±z
an madÄ±lardÄ±
an mayacaksÄ±n
an mayacaktÄ±
an mazmÄ±ÅŁ
an mamÄ±ÅŁmÄ±ÅŁ
an mayacaktÄ±k
an mazmÄ±ÅŁsÄ±nÄ±z
an mayacaksÄ±nÄ±z
an mayacaklardÄ±
an mayacaktÄ±n
an mayacaktÄ±nÄ±z
an mamÄ±ÅŁtÄ±nÄ±z
an mazmÄ±ÅŁsÄ±n
an mamÄ±ÅŁsÄ±n
an mayacaÄŁÄ±z
an mayacakmÄ±ÅŁsÄ±n
an mayacakmÄ±ÅŁÄ±m
an mazmÄ±ÅŁÄ±m
an mazsÄ±n
an mam
an mayacaktÄ±m
an mazlarmÄ±ÅŁ
an mamÄ±ÅŁmÄ±ÅŁÄ±m
an mazlardÄ±
an mÄ±yorsunuz
an mazdÄ±n
an mÄ±yormuÅŁ
an mÄ±yorlarmÄ±ÅŁ
an mÄ±yordun
an mÄ±yormuÅŁsun
an mÄ±yorum
an mÄ±yormuÅŁuz
an mÄ±yorsun
an mÄ±yordunuz
an mÄ±yormuÅŁsunuz
an mÄ±yormuÅŁum
an dÄ±ydÄ±m
an dÄ±ydÄ±n
an dÄ±ydÄ±k
an Ã¼sÃ¼ne
an Ã¼sÃ¼nde
an Ã¼sÃ¼nÃ¼n
an Ã¼sÃ¼nden
an Ã¼se
an Ã¼sten
ir ke
yor gunuz
Ã¶ ce
Ã¼r eyi
maya ya
maya lar
maya larÄ±n
maya dan
maya larÄ±
maya mÄ±z
maya yÄ±
maya larÄ±mÄ±z
maya larÄ±nÄ±z
maya sÄ±
maya larÄ±nÄ±n
maya larÄ±na
maya lardan
maya larda
maya lara
maya larÄ±mÄ±zÄ±
maya larÄ±nÄ±zÄ±
maya larÄ±mÄ±zÄ±n
maya larÄ±nÄ±za
maya larÄ±nÄ±zÄ±n
maya larÄ±mÄ±zdan
maya larÄ±nÄ±zda
maya larÄ±nÄ±zdan
maya mÄ±zÄ±
maya sÄ±na
maya mÄ±zÄ±n
maya mÄ±zdan
maya sÄ±nda
maya mÄ±zda
maya nÄ±z
Ġol muÅŁuz
Ġol mayÄ±nÄ±z
Ġol mamÄ±ÅŁmÄ±ÅŁ
de me
de miÅŁsiniz
de miÅŁsin
de miÅŁim
de miÅŁiz
de memiÅŁim
de memiÅŁlerdi
de memiÅŁmiÅŁsiniz
de memiÅŁlermiÅŁ
de memiÅŁtim
de memiÅŁtin
de meyecektim
de memiÅŁmiÅŁsin
de meyecektin
de meyin
de memiÅŁsin
de meyeceksin
de meyecekmiÅŁsiniz
de meyecekmiÅŁiz
de mediydim
de memiÅŁti
de mezsiniz
de mezdin
de mezmiÅŁsin
de memiÅŁsiniz
de memiÅŁtiniz
de meyeceÄŁiz
de mem
de mezmiÅŁsiniz
de memiÅŁmiÅŁ
de mediydin
de mezmiÅŁ
de mezdi
de mezsin
de mezdik
de mezlerdi
de mezlermiÅŁ
de memiÅŁtik
de meyeceklerdi
de meyecektiniz
de medilerdi
de memiÅŁmiÅŁiz
de meyeceÄŁim
de memiÅŁiz
de meyecekti
de meyiz
de meyecekmiÅŁ
de meyecekmiÅŁim
de mezdiniz
de mezmiÅŁim
de meyiniz
de meyeceksiniz
de mezdim
de miyormuÅŁsunuz
de miyorlardÄ±
de miyorsunuz
de miyormuÅŁ
de miyoruz
de miyordun
de miyordu
de miyorduk
de miyormuÅŁuz
de miyordum
de miyordunuz
de denin
de deyi
ka sÄ±n
ka sÄ±nda
ek erler
er ken
di lermiÅŁ
al na
al ta
al Ä±ndan
al Ä±nda
ar ÅŁive
ec eniz
ec enden
ec eyi
ec eni
ec ende
ec ene
ec enizde
ec enizden
ec enizi
en Ã¼n
ik ize
ur a
ur u
ur lar
ur un
ur da
ur larÄ±n
ur dan
ur larÄ±
ur lardan
ur lara
yap ma
yap Ä±n
yap Ä±nÄ±z
yap tÄ±n
yap tÄ±m
yap mÄ±ÅŁsÄ±n
yap mÄ±ÅŁÄ±z
yap mÄ±ÅŁÄ±m
yap madÄ±ydÄ±
yap mazdÄ±
yap madÄ±m
yap madÄ±ydÄ±k
yap madÄ±ydÄ±m
yap mazdÄ±m
yap mazdÄ±k
yap mamÄ±ÅŁtÄ±n
yap madÄ±ydÄ±n
yap mazmÄ±ÅŁÄ±z
yap mamÄ±ÅŁmÄ±ÅŁsÄ±n
yap mamÄ±ÅŁtÄ±k
yap mayÄ±z
yap mayÄ±nÄ±z
yap mamÄ±ÅŁtÄ±
yap mamÄ±ÅŁlarmÄ±ÅŁ
yap mayÄ±n
yap mayacakmÄ±ÅŁ
yap mamÄ±ÅŁÄ±m
yap mayacakmÄ±ÅŁsÄ±nÄ±z
yap mazdÄ±nÄ±z
yap mamÄ±ÅŁÄ±z
yap madÄ±lardÄ±
yap mayacaksÄ±n
yap mamÄ±ÅŁtÄ±m
yap mayacaktÄ±
yap mayacakmÄ±ÅŁÄ±z
yap mazmÄ±ÅŁ
yap mamÄ±ÅŁmÄ±ÅŁ
yap mayacaktÄ±k
yap mazmÄ±ÅŁsÄ±nÄ±z
yap mayacaksÄ±nÄ±z
yap mayacaklardÄ±
yap mayacaktÄ±n
yap mamÄ±ÅŁtÄ±nÄ±z
yap mazmÄ±ÅŁsÄ±n
yap mamÄ±ÅŁsÄ±n
yap mayacakmÄ±ÅŁsÄ±n
yap mayacakmÄ±ÅŁÄ±m
yap mazmÄ±ÅŁÄ±m
yap mazsÄ±nÄ±z
yap mam
yap mayacaktÄ±m
yap mazlarmÄ±ÅŁ
yap mamÄ±ÅŁmÄ±ÅŁÄ±z
yap mazlardÄ±
yap mÄ±yorsunuz
yap mÄ±yormuÅŁ
yap mÄ±yordu
yap mÄ±yorlarmÄ±ÅŁ
yap mÄ±yordun
yap mÄ±yormuÅŁsun
yap mÄ±yorum
yap mÄ±yorsun
yap mÄ±yordunuz
yap mÄ±yorduk
yap mÄ±yordum
yap mÄ±yoruz
yap mÄ±yormuÅŁum
yap tÄ±ydÄ±
yap acaÄŁÄ±m
yap tÄ±ydÄ±n
yap tÄ±ydÄ±nÄ±z
yap tÄ±lardÄ±
yap Ä±lacaÄŁÄ±m
yap Ä±lacaÄŁÄ±z
da dÄ±lar
da larmÄ±ÅŁÄ±z
da larmÄ±ÅŁÄ±m
da larmÄ±ÅŁsÄ±n
da lardÄ±m
da lardÄ±k
da lacaÄŁÄ±m
el maya
el man
el lermiÅŁ
el manÄ±z
el manÄ±n
el mandan
el manÄ±
el manÄ±zÄ±
el manÄ±zÄ±n
el manÄ±za
el manÄ±zdan
et i
et in
et ler
et iniz
et lerimiz
et leriniz
et te
et leri
et lerinden
et lerini
et lerinin
et lere
et lerden
et ini
et inde
et lerimize
et lerinizden
et inden
et lerimizden
et lerinizin
et lerimizin
et lerimizde
et lerinizde
et lerinizi
et lerinize
et lerimizi
et ten
et imize
et imizde
et inizden
et imizin
et inizi
Ã¼n lerimiz
Ã¼n leriniz
Ã¼n Ã¼nÃ¼z
Ã¼n lere
Ã¼n lerde
Ã¼n lerimize
Ã¼n lerinizden
Ã¼n lerimizden
Ã¼n lerinizin
Ã¼n lerimizin
Ã¼n lerimizde
Ã¼n lerinizde
Ã¼n lerinizi
Ã¼n lerinize
Ã¼n lerimizi
Ã¼n Ã¼mÃ¼z
Ã¼n Ã¼mÃ¼zÃ¼
Ã¼n Ã¼nÃ¼zden
Ã¼n Ã¼mÃ¼zÃ¼n
Ã¼n Ã¼nÃ¼zÃ¼n
Ã¼n Ã¼nÃ¼ze
Ã¼n Ã¼mÃ¼zde
lan Ä±n
dÃ¼r Ã¼n
dÃ¼r mÃ¼ÅŁsÃ¼n
dÃ¼r medim
dÃ¼r medik
dÃ¼r medin
dÃ¼r mediniz
dÃ¼r memiÅŁim
dÃ¼r memiÅŁlerdi
dÃ¼r memiÅŁmiÅŁsiniz
dÃ¼r memiÅŁlermiÅŁ
dÃ¼r memiÅŁtim
dÃ¼r memiÅŁtin
dÃ¼r meyecektim
dÃ¼r meyecekmiÅŁsin
dÃ¼r mediydi
dÃ¼r mediydik
dÃ¼r memiÅŁmiÅŁsin
dÃ¼r meyecektin
dÃ¼r meyin
dÃ¼r memiÅŁsin
dÃ¼r meyeceksin
dÃ¼r meyecekmiÅŁsiniz
dÃ¼r meyecekmiÅŁiz
dÃ¼r mediydim
dÃ¼r memiÅŁti
dÃ¼r mediydiniz
dÃ¼r dÃ¼nÃ¼z
dÃ¼r mezsiniz
dÃ¼r mezmiÅŁsin
dÃ¼r memiÅŁsiniz
dÃ¼r meyeceÄŁiz
dÃ¼r mezmiÅŁsiniz
dÃ¼r memiÅŁmiÅŁ
dÃ¼r meyecektik
dÃ¼r mediydin
dÃ¼r mezmiÅŁ
dÃ¼r mezsin
dÃ¼r mezdik
dÃ¼r mezlerdi
dÃ¼r mezlermiÅŁ
dÃ¼r memiÅŁtik
dÃ¼r meyeceklerdi
dÃ¼r medilerdi
dÃ¼r memiÅŁmiÅŁim
dÃ¼r meyeceÄŁim
dÃ¼r meyecekti
dÃ¼r meyiz
dÃ¼r meyecekmiÅŁim
dÃ¼r meyeceklermiÅŁ
dÃ¼r mezdiniz
dÃ¼r mezmiÅŁim
dÃ¼r meyiniz
dÃ¼r meyeceksiniz
dÃ¼r mezmiÅŁiz
dÃ¼r mezdim
dÃ¼r eceÄŁiz
dÃ¼r mÃ¼ÅŁtÃ¼k
dÃ¼r mÃ¼ÅŁtÃ¼n
dÃ¼r Ã¼me
dÃ¼r mÃ¼ÅŁtÃ¼
dÃ¼r mÃ¼ÅŁtÃ¼m
dÃ¼r mÃ¼ÅŁtÃ¼nÃ¼z
dÃ¼r dÃ¼ydÃ¼n
dÃ¼r dÃ¼ydÃ¼m
dÃ¼r dÃ¼ydÃ¼k
dÃ¼r dÃ¼ydÃ¼
dÃ¼r dÃ¼lerdi
Ã¼z me
Ã¼z Ã¼n
Ã¼z Ã¼nÃ¼z
Ã¼z mÃ¼ÅŁsÃ¼n
Ã¼z mediniz
Ã¼z mÃ¼ÅŁsÃ¼nÃ¼z
Ã¼z memiÅŁim
Ã¼z memiÅŁlerdi
Ã¼z memiÅŁlermiÅŁ
Ã¼z memiÅŁtim
Ã¼z memiÅŁtin
Ã¼z meyecektim
Ã¼z meyecekmiÅŁsin
Ã¼z mediydi
Ã¼z mediydik
Ã¼z memiÅŁmiÅŁsin
Ã¼z meyecektin
Ã¼z meyin
Ã¼z memiÅŁsin
Ã¼z meyecekmiÅŁsiniz
Ã¼z meyecekmiÅŁiz
Ã¼z mediydiniz
Ã¼z mezsiniz
Ã¼z mezdin
Ã¼z memiÅŁsiniz
Ã¼z memiÅŁtiniz
Ã¼z meyeceÄŁiz
Ã¼z mem
Ã¼z mezmiÅŁsiniz
Ã¼z meyecektik
Ã¼z mediydin
Ã¼z mezmiÅŁ
Ã¼z mezsin
Ã¼z mezdik
Ã¼z mezlerdi
Ã¼z mezlermiÅŁ
Ã¼z medilerdi
Ã¼z memiÅŁmiÅŁim
Ã¼z meyeceÄŁim
Ã¼z memiÅŁiz
Ã¼z meyecekti
Ã¼z meyiz
Ã¼z meyecekmiÅŁ
Ã¼z meyecekmiÅŁim
Ã¼z meyeceklermiÅŁ
Ã¼z mezmiÅŁim
Ã¼z meyiniz
Ã¼z meyeceksiniz
Ã¼z mezmiÅŁiz
Ã¼z eceÄŁim
Ã¼z mezdim
Ã¼z dÃ¼k
Ã¼z eceÄŁiz
Ã¼z mÃ¼ÅŁtÃ¼k
Ã¼z mÃ¼ÅŁtÃ¼n
Ã¼z mÃ¼ÅŁtÃ¼
Ã¼z mÃ¼ÅŁtÃ¼m
Ã¼z dÃ¼ydÃ¼n
Ã¼z dÃ¼ydÃ¼m
Ã¼z dÃ¼ydÃ¼nÃ¼z
Ã¼z dÃ¼ydÃ¼k
Ã¼z dÃ¼ydÃ¼
ko br
ko kacaÄŁÄ±m
aÄŁ a
aÄŁ da
aÄŁ larÄ±n
aÄŁ dan
aÄŁ Ä±nÄ±z
aÄŁ larÄ±mÄ±z
aÄŁ larÄ±nÄ±z
aÄŁ lardÄ±
aÄŁ larmÄ±ÅŁ
aÄŁ Ä±mÄ±z
aÄŁ larÄ±nda
aÄŁ larÄ±ndan
aÄŁ lardan
aÄŁ larda
aÄŁ lara
aÄŁ larÄ±mÄ±za
aÄŁ larÄ±mÄ±zÄ±
aÄŁ larÄ±mÄ±zÄ±n
aÄŁ larÄ±nÄ±za
aÄŁ larÄ±nÄ±zÄ±n
aÄŁ larÄ±nÄ±zdan
aÄŁ Ä±na
aÄŁ Ä±nÄ±zÄ±n
aÄŁ Ä±nÄ±zda
aÄŁ Ä±nÄ±zÄ±
aÄŁ Ä±nÄ±za
aÄŁ Ä±nÄ±zdan
aÄŁ Ä±mÄ±zdan
aÄŁ Ä±mÄ±zÄ±n
aÄŁ Ä±mÄ±zda
aÄŁ acÄ±
aÄŁ larmÄ±ÅŁÄ±z
aÄŁ larmÄ±ÅŁÄ±m
aÄŁ larmÄ±ÅŁsÄ±nÄ±z
aÄŁ larmÄ±ÅŁsÄ±n
aÄŁ lardÄ±k
aÄŁ lamayÄ±n
aÄŁ lamayÄ±z
aÄŁ aca
aÄŁ acÄ±n
aÅŁ Ä±n
aÅŁ Ä±nÄ±z
aÅŁ mÄ±ÅŁsÄ±nÄ±z
aÅŁ mÄ±ÅŁÄ±z
aÅŁ madÄ±ydÄ±
aÅŁ mazdÄ±
aÅŁ madÄ±n
aÅŁ madÄ±ydÄ±k
aÅŁ madÄ±ydÄ±m
aÅŁ mazdÄ±m
aÅŁ mamÄ±ÅŁtÄ±n
aÅŁ madÄ±ydÄ±n
aÅŁ mazmÄ±ÅŁÄ±z
aÅŁ mamÄ±ÅŁmÄ±ÅŁsÄ±nÄ±z
aÅŁ mamÄ±ÅŁmÄ±ÅŁsÄ±n
aÅŁ mamÄ±ÅŁtÄ±k
aÅŁ mayÄ±z
aÅŁ mayÄ±nÄ±z
aÅŁ mamÄ±ÅŁtÄ±
aÅŁ mamÄ±ÅŁlarmÄ±ÅŁ
aÅŁ mayacakmÄ±ÅŁ
aÅŁ madÄ±ydÄ±nÄ±z
aÅŁ mayacakmÄ±ÅŁsÄ±nÄ±z
aÅŁ mazdÄ±nÄ±z
aÅŁ mamÄ±ÅŁÄ±z
aÅŁ mamÄ±ÅŁtÄ±m
aÅŁ mayacakmÄ±ÅŁÄ±z
aÅŁ mazmÄ±ÅŁ
aÅŁ mamÄ±ÅŁmÄ±ÅŁ
aÅŁ mazmÄ±ÅŁsÄ±nÄ±z
aÅŁ mayacaksÄ±nÄ±z
aÅŁ mayacaktÄ±n
aÅŁ mamÄ±ÅŁlardÄ±
aÅŁ mamÄ±ÅŁtÄ±nÄ±z
aÅŁ mazmÄ±ÅŁsÄ±n
aÅŁ mamÄ±ÅŁsÄ±n
aÅŁ mayacakmÄ±ÅŁsÄ±n
aÅŁ mayacakmÄ±ÅŁÄ±m
aÅŁ mazmÄ±ÅŁÄ±m
aÅŁ mazsÄ±n
aÅŁ mazsÄ±nÄ±z
aÅŁ mayacaktÄ±m
aÅŁ mazlarmÄ±ÅŁ
aÅŁ mamÄ±ÅŁmÄ±ÅŁÄ±m
aÅŁ mamÄ±ÅŁmÄ±ÅŁÄ±z
aÅŁ mazdÄ±n
aÅŁ mÄ±yormuÅŁ
aÅŁ mÄ±yordu
aÅŁ mÄ±yorlarmÄ±ÅŁ
aÅŁ mÄ±yormuÅŁsun
aÅŁ mÄ±yorum
aÅŁ mÄ±yormuÅŁuz
aÅŁ mÄ±yorsun
aÅŁ mÄ±yordunuz
aÅŁ mÄ±yordum
aÅŁ mÄ±yoruz
aÅŁ mÄ±yormuÅŁum
aÅŁ mÄ±yorlardÄ±
aÅŁ acaÄŁÄ±m
sun dun
sun muÅŁsun
sun muÅŁsunuz
sun muÅŁuz
sun muÅŁum
sun dum
sun umuz
sun madÄ±ydÄ±
sun mazdÄ±
sun madÄ±k
sun uyu
sun unda
sun una
sun unu
sun undan
sun madÄ±ydÄ±k
sun mazdÄ±m
sun mazdÄ±k
sun mamÄ±ÅŁsÄ±nÄ±z
sun mamÄ±ÅŁtÄ±n
sun mamÄ±ÅŁtÄ±k
sun mayÄ±z
sun mayÄ±nÄ±z
sun mamÄ±ÅŁtÄ±
sun mamÄ±ÅŁÄ±m
sun madÄ±ydÄ±nÄ±z
sun mayacaÄŁÄ±m
sun mayacakmÄ±ÅŁsÄ±nÄ±z
sun mazdÄ±nÄ±z
sun mamÄ±ÅŁÄ±z
sun madÄ±lardÄ±
sun mayacaksÄ±n
sun mayacaklarmÄ±ÅŁ
sun mamÄ±ÅŁtÄ±m
sun mayacaktÄ±
sun mayacakmÄ±ÅŁÄ±z
sun mazmÄ±ÅŁsÄ±nÄ±z
sun mayacaksÄ±nÄ±z
sun mayacaklardÄ±
sun mayacaktÄ±n
sun mayacaktÄ±nÄ±z
sun mamÄ±ÅŁlardÄ±
sun mamÄ±ÅŁtÄ±nÄ±z
sun mazmÄ±ÅŁsÄ±n
sun mayacaÄŁÄ±z
sun mayacakmÄ±ÅŁsÄ±n
sun mayacakmÄ±ÅŁÄ±m
sun mazmÄ±ÅŁÄ±m
sun mazsÄ±n
sun mazsÄ±nÄ±z
sun unuzun
sun mam
sun mazlarmÄ±ÅŁ
sun mamÄ±ÅŁmÄ±ÅŁÄ±m
sun unuzu
sun unuzda
sun mazlardÄ±
sun mazdÄ±n
sun unuza
sun unuzdan
sun umuza
sun umuzun
sun umuzu
sun umuzda
sun umuzdan
sun acaÄŁÄ±m
sun acaÄŁÄ±z
sun muÅŁtu
sun dular
sun muÅŁtuk
sun muÅŁtunuz
sun duyduk
sun duydunuz
sun duydun
sun duydum
sun duydu
tÃ¼r Ã¼n
tÃ¼r Ã¼mÃ¼z
tÃ¼r Ã¼ye
tÃ¼r Ã¼nÃ¼n
tÃ¼r Ã¼ne
tÃ¼r Ã¼nÃ¼
tÃ¼r Ã¼nde
tÃ¼r Ã¼nÃ¼zÃ¼
tÃ¼r Ã¼nÃ¼zden
tÃ¼r Ã¼mÃ¼zÃ¼n
tÃ¼r Ã¼nÃ¼zÃ¼n
tÃ¼r Ã¼mÃ¼ze
tÃ¼r Ã¼mÃ¼zden
tÃ¼r Ã¼nÃ¼ze
tÃ¼r Ã¼mÃ¼zde
tÃ¼r Ã¼nÃ¼zde
tÃ¼r Ã¼sÃ¼
tÃ¼r Ã¼sÃ¼ne
tÃ¼r Ã¼sÃ¼nde
tÃ¼r Ã¼yÃ¼
len in
se lama
se ye
ol ma
ol un
ol duk
ol muÅŁsunuz
ol muÅŁuz
ol muÅŁum
ol dum
ol madÄ±ydÄ±
ol mazdÄ±
ol madÄ±k
ol madÄ±n
ol madÄ±ydÄ±k
ol madÄ±ydÄ±m
ol mazdÄ±m
ol mamÄ±ÅŁsÄ±nÄ±z
ol mamÄ±ÅŁtÄ±n
ol madÄ±ydÄ±n
ol mamÄ±ÅŁmÄ±ÅŁsÄ±nÄ±z
ol mamÄ±ÅŁmÄ±ÅŁsÄ±n
ol mamÄ±ÅŁtÄ±k
ol mayÄ±z
ol mamÄ±ÅŁtÄ±
ol mamÄ±ÅŁlarmÄ±ÅŁ
ol mayÄ±n
ol mayacakmÄ±ÅŁ
ol mamÄ±ÅŁÄ±m
ol mayacaÄŁÄ±m
ol mayacakmÄ±ÅŁsÄ±nÄ±z
ol mamÄ±ÅŁÄ±z
ol madÄ±lardÄ±
ol mayacaksÄ±n
ol mayacaklarmÄ±ÅŁ
ol mamÄ±ÅŁtÄ±m
ol mayacaktÄ±
ol mayacakmÄ±ÅŁÄ±z
ol mamÄ±ÅŁmÄ±ÅŁ
ol mayacaktÄ±k
ol mayacaksÄ±nÄ±z
ol mamÄ±ÅŁlardÄ±
ol mamÄ±ÅŁtÄ±nÄ±z
ol mamÄ±ÅŁsÄ±n
ol mayacakmÄ±ÅŁsÄ±n
ol mayacakmÄ±ÅŁÄ±m
ol mam
ol mayacaktÄ±m
ol mamÄ±ÅŁmÄ±ÅŁÄ±m
ol muÅŁtu
ol muÅŁtun
ol muÅŁtuk
ol muÅŁtunuz
ol muÅŁtum
ol duyduk
ol duydunuz
ol duydun
ol duydum
ol duydu
du la
du ayÄ±
du ta
du anÄ±n
du ada
ge le
ge min
ge mimiz
ge minden
ge minde
ge minize
ge mimizde
ge minizde
ge mimizi
ge minizi
ge minizin
ge mimizin
ge minizden
ge mimizden
ge leceÄŁiz
ge leceÄŁim
gÃ¼ le
kÄ±r Ä±lacaÄŁÄ±m
kÄ±r Ä±lacaÄŁÄ±z
kar maya
kar Ä±nÄ±z
kar ta
kar Ä±mÄ±z
kar Ä±nÄ±n
kar Ä±nÄ±
kar Ä±ndan
kar Ä±na
kar Ä±nda
kar Ä±nÄ±zÄ±n
kar Ä±nÄ±zda
kar Ä±nÄ±zÄ±
kar Ä±nÄ±zdan
kar Ä±mÄ±zdan
kar Ä±mÄ±zda
kar Ä±mÄ±zÄ±
kar Ä±sÄ±
kar manÄ±n
Ã¶p me
Ã¶p Ã¼n
Ã¶p Ã¼nÃ¼z
Ã¶p medik
Ã¶p mediniz
Ã¶p mÃ¼ÅŁsÃ¼nÃ¼z
Ã¶p memiÅŁim
Ã¶p memiÅŁlerdi
Ã¶p memiÅŁmiÅŁsiniz
Ã¶p memiÅŁlermiÅŁ
Ã¶p memiÅŁtim
Ã¶p memiÅŁtin
Ã¶p meyecekmiÅŁsin
Ã¶p mediydi
Ã¶p mediydik
Ã¶p memiÅŁmiÅŁsin
Ã¶p meyin
Ã¶p memiÅŁsin
Ã¶p meyecekmiÅŁsiniz
Ã¶p meyecekmiÅŁiz
Ã¶p memiÅŁti
Ã¶p mediydiniz
Ã¶p mezsiniz
Ã¶p mezdin
Ã¶p mezmiÅŁsin
Ã¶p memiÅŁtiniz
Ã¶p meyeceÄŁiz
Ã¶p mem
Ã¶p mezmiÅŁsiniz
Ã¶p memiÅŁmiÅŁ
Ã¶p meyecektik
Ã¶p mediydin
Ã¶p mezmiÅŁ
Ã¶p mezdi
Ã¶p mezdik
Ã¶p mezlermiÅŁ
Ã¶p meyeceklerdi
Ã¶p meyecektiniz
Ã¶p memiÅŁmiÅŁim
Ã¶p memiÅŁmiÅŁiz
Ã¶p meyeceÄŁim
Ã¶p meyiz
Ã¶p meyecekmiÅŁ
Ã¶p meyecekmiÅŁim
Ã¶p meyeceklermiÅŁ
Ã¶p mezdiniz
Ã¶p mezmiÅŁim
Ã¶p meyiniz
Ã¶p mezmiÅŁiz
Ã¶p eceÄŁim
Ã¶p mezdim
Ã¶p eceÄŁiz
Ã¶p mÃ¼ÅŁtÃ¼k
Ã¶p mÃ¼ÅŁtÃ¼n
Ã¶p mÃ¼ÅŁtÃ¼
Ã¶p mÃ¼ÅŁtÃ¼m
Ã¶p mÃ¼ÅŁtÃ¼nÃ¼z
Ã¶p tÃ¼nÃ¼z
Ã¶p tÃ¼lerdi
Ã¶p tÃ¼ydÃ¼m
Ã¶p tÃ¼ydÃ¼nÃ¼z
Ã¶p tÃ¼ydÃ¼k
var ma
var Ä±n
var Ä±nÄ±z
var dÄ±n
var mÄ±ÅŁsÄ±nÄ±z
var mÄ±ÅŁsÄ±n
var mÄ±ÅŁÄ±z
var mÄ±ÅŁÄ±m
var mazdÄ±
var dÄ±m
var dÄ±k
var dÄ±ydÄ±
var madÄ±ydÄ±k
var madÄ±ydÄ±m
var mazdÄ±k
var mamÄ±ÅŁsÄ±nÄ±z
var mamÄ±ÅŁtÄ±n
var madÄ±ydÄ±n
var mazmÄ±ÅŁÄ±z
var mamÄ±ÅŁmÄ±ÅŁsÄ±n
var mamÄ±ÅŁtÄ±k
var mayÄ±z
var mamÄ±ÅŁlarmÄ±ÅŁ
var mayÄ±n
var mayacakmÄ±ÅŁ
var mamÄ±ÅŁÄ±m
var madÄ±ydÄ±nÄ±z
var mayacaÄŁÄ±m
var mayacakmÄ±ÅŁsÄ±nÄ±z
var mazdÄ±nÄ±z
var mamÄ±ÅŁÄ±z
var madÄ±lardÄ±
var mayacaksÄ±n
var mayacaklarmÄ±ÅŁ
var mayacaktÄ±
var mayacakmÄ±ÅŁÄ±z
var mazmÄ±ÅŁ
var mamÄ±ÅŁmÄ±ÅŁ
var mayacaktÄ±k
var mazmÄ±ÅŁsÄ±nÄ±z
var mayacaksÄ±nÄ±z
var mayacaklardÄ±
var mayacaktÄ±n
var mayacaktÄ±nÄ±z
var mamÄ±ÅŁlardÄ±
var mamÄ±ÅŁsÄ±n
var mayacakmÄ±ÅŁsÄ±n
var mayacakmÄ±ÅŁÄ±m
var mazmÄ±ÅŁÄ±m
var mazsÄ±n
var mazsÄ±nÄ±z
var mam
var mayacaktÄ±m
var mazlarmÄ±ÅŁ
var mamÄ±ÅŁmÄ±ÅŁÄ±m
var mÄ±yorsunuz
var mÄ±yormuÅŁ
var mÄ±yordu
var mÄ±yorlarmÄ±ÅŁ
var mÄ±yordun
var mÄ±yorum
var mÄ±yormuÅŁuz
var mÄ±yorsun
var mÄ±yordunuz
var mÄ±yordum
var mÄ±yoruz
var mÄ±yormuÅŁsunuz
var mÄ±yormuÅŁum
var mÄ±yorlardÄ±
var acaÄŁÄ±m
var acaÄŁÄ±z
var dÄ±ydÄ±n
var dÄ±ydÄ±nÄ±z
var dÄ±ydÄ±k
ot a
ot u
ot larÄ±n
ot tan
ot larÄ±mÄ±z
ot ta
ot larÄ±nda
ot larÄ±nÄ±n
ot unuz
ot larda
ot lara
ot umuz
ot larÄ±mÄ±za
ot larÄ±mÄ±zÄ±
ot larÄ±nÄ±zÄ±
ot larÄ±mÄ±zda
ot larÄ±nÄ±za
ot larÄ±nÄ±zÄ±n
ot larÄ±nÄ±zdan
ot unun
ot unda
ot unu
ot unuzun
ot unuzu
ot unuza
ot unuzdan
ot umuza
ot umuzun
ot umuzda
sat Ä±nÄ±z
sat mÄ±ÅŁÄ±z
sat mÄ±ÅŁÄ±m
sat madÄ±ydÄ±
sat mazdÄ±
sat mÄ±ÅŁlar
sat madÄ±nÄ±z
sat madÄ±ydÄ±k
sat madÄ±ydÄ±m
sat mazdÄ±m
sat mamÄ±ÅŁsÄ±nÄ±z
sat mamÄ±ÅŁtÄ±n
sat madÄ±ydÄ±n
sat mazmÄ±ÅŁÄ±z
sat mamÄ±ÅŁmÄ±ÅŁsÄ±nÄ±z
sat mamÄ±ÅŁmÄ±ÅŁsÄ±n
sat mamÄ±ÅŁtÄ±k
sat mayÄ±z
sat mayÄ±nÄ±z
sat mamÄ±ÅŁtÄ±
sat mamÄ±ÅŁlarmÄ±ÅŁ
sat mayÄ±n
sat mayacakmÄ±ÅŁ
sat madÄ±ydÄ±nÄ±z
sat mayacaÄŁÄ±m
sat mazdÄ±nÄ±z
sat mamÄ±ÅŁÄ±z
sat madÄ±lardÄ±
sat mayacaksÄ±n
sat mayacaklarmÄ±ÅŁ
sat mamÄ±ÅŁtÄ±m
sat mayacaktÄ±
sat mayacakmÄ±ÅŁÄ±z
sat mazmÄ±ÅŁ
sat mamÄ±ÅŁmÄ±ÅŁ
sat mayacaktÄ±k
sat mazmÄ±ÅŁsÄ±nÄ±z
sat mayacaklardÄ±
sat mayacaktÄ±nÄ±z
sat mamÄ±ÅŁlardÄ±
sat mamÄ±ÅŁtÄ±nÄ±z
sat mazmÄ±ÅŁsÄ±n
sat mayacaÄŁÄ±z
sat mayacakmÄ±ÅŁsÄ±n
sat mayacakmÄ±ÅŁÄ±m
sat mazmÄ±ÅŁÄ±m
sat mazsÄ±n
sat mazsÄ±nÄ±z
sat mam
sat mayacaktÄ±m
sat mazlardÄ±
sat mÄ±yorsunuz
sat mazdÄ±n
sat mÄ±yormuÅŁ
sat mÄ±yordu
sat mÄ±yorlarmÄ±ÅŁ
sat mÄ±yordun
sat mÄ±yorum
sat mÄ±yormuÅŁuz
sat mÄ±yorsun
sat mÄ±yordunuz
sat mÄ±yorduk
sat mÄ±yordum
sat mÄ±yoruz
sat mÄ±yormuÅŁsunuz
sat mÄ±yormuÅŁum
sat mÄ±yorlardÄ±
sat tÄ±ydÄ±
sat tÄ±ydÄ±m
sat tÄ±ydÄ±n
sat tÄ±ydÄ±k
sat tÄ±ydÄ±nÄ±z
sat tÄ±lardÄ±
leÅŁt en
Ġyap mazdÄ±k
Ġyap mazdÄ±nÄ±z
Ġyap mayacakmÄ±ÅŁÄ±z
Ġyap mamÄ±ÅŁtÄ±nÄ±z
Ġyap mayacaktÄ±m
Ġyap tÄ±ydÄ±
canlan mazdÄ±
canlan madÄ±k
canlan madÄ±ydÄ±m
canlan mazdÄ±m
canlan mazdÄ±k
canlan mamÄ±ÅŁsÄ±nÄ±z
canlan mamÄ±ÅŁtÄ±n
canlan madÄ±ydÄ±n
canlan mazmÄ±ÅŁÄ±z
canlan mamÄ±ÅŁmÄ±ÅŁsÄ±nÄ±z
canlan mamÄ±ÅŁmÄ±ÅŁsÄ±n
canlan mamÄ±ÅŁtÄ±k
canlan mamÄ±ÅŁlarmÄ±ÅŁ
canlan mayacakmÄ±ÅŁ
canlan mamÄ±ÅŁÄ±m
canlan madÄ±ydÄ±nÄ±z
canlan mayacaÄŁÄ±m
canlan mazdÄ±nÄ±z
canlan mamÄ±ÅŁÄ±z
canlan madÄ±lardÄ±
canlan mayacaksÄ±n
canlan mayacaktÄ±
canlan mayacakmÄ±ÅŁÄ±z
canlan mazmÄ±ÅŁ
canlan mamÄ±ÅŁmÄ±ÅŁ
canlan mazmÄ±ÅŁsÄ±nÄ±z
canlan mayacaksÄ±nÄ±z
canlan mayacaklardÄ±
canlan mayacaktÄ±n
canlan mamÄ±ÅŁlardÄ±
canlan mamÄ±ÅŁtÄ±nÄ±z
canlan mazmÄ±ÅŁsÄ±n
canlan mamÄ±ÅŁsÄ±n
canlan mayacaÄŁÄ±z
canlan mayacakmÄ±ÅŁsÄ±n
canlan mayacakmÄ±ÅŁÄ±m
canlan mazmÄ±ÅŁÄ±m
canlan mazsÄ±n
canlan mayacaktÄ±m
canlan mazlarmÄ±ÅŁ
canlan mazlardÄ±
canlan mÄ±yorsunuz
canlan mÄ±yormuÅŁ
canlan mÄ±yordu
canlan mÄ±yordun
canlan mÄ±yormuÅŁuz
canlan mÄ±yorsun
canlan mÄ±yorduk
canlan mÄ±yordum
canlan mÄ±yoruz
canlan mÄ±yormuÅŁum
iy eye
gÃ¶ Ã§e
bir eye
bir eyi
ok ula
dil me
dil in
dil iniz
dil miÅŁsiniz
dil miÅŁsin
dil miÅŁim
dil miÅŁiz
dil medik
dil medin
dil memiÅŁim
dil memiÅŁlerdi
dil memiÅŁmiÅŁsiniz
dil memiÅŁlermiÅŁ
dil memiÅŁtim
dil meyecektim
dil mediydi
dil mediydik
dil memiÅŁsin
dil meyecekmiÅŁsiniz
dil meyecekmiÅŁiz
dil mediydim
dil memiÅŁti
dil mezsiniz
dil memiÅŁsiniz
dil memiÅŁtiniz
dil meyeceÄŁiz
dil mem
dil mezmiÅŁsiniz
dil memiÅŁmiÅŁ
dil meyecektik
dil mediydin
dil mezmiÅŁ
dil mezdi
dil mezsin
dil mezdik
dil mezlermiÅŁ
dil memiÅŁtik
dil meyeceklerdi
dil meyecektiniz
dil medilerdi
dil memiÅŁmiÅŁim
dil memiÅŁmiÅŁiz
dil meyeceÄŁim
dil memiÅŁiz
dil meyecekti
dil meyiz
dil meyecekmiÅŁ
dil meyeceklermiÅŁ
dil mezdiniz
dil mezmiÅŁim
dil meyiniz
dil meyeceksiniz
dil mezmiÅŁiz
dil mezdim
dil miyorlarmÄ±ÅŁ
dil miyormuÅŁsunuz
dil miyorlardÄ±
dil miyorsunuz
dil miyorsun
dil miyormuÅŁum
dil miyoruz
dil miyormuÅŁsun
dil miyordun
dil miyordu
dil miyorduk
dil miyormuÅŁuz
dil miyordum
dil dilerdi
dil miyordunuz
dil diydi
dil diydik
dil diydiniz
dil diydim
dil diydin
dil ime
as ma
as mÄ±ÅŁsÄ±n
as mÄ±ÅŁÄ±z
as mÄ±ÅŁÄ±m
as madÄ±ydÄ±
as mazdÄ±
as ide
as madÄ±ydÄ±k
as madÄ±ydÄ±m
as mazdÄ±m
as mazdÄ±k
as mamÄ±ÅŁsÄ±nÄ±z
as mamÄ±ÅŁtÄ±n
as madÄ±ydÄ±n
as mazmÄ±ÅŁÄ±z
as mamÄ±ÅŁmÄ±ÅŁsÄ±nÄ±z
as mamÄ±ÅŁmÄ±ÅŁsÄ±n
as mamÄ±ÅŁtÄ±k
as mayÄ±z
as mayÄ±nÄ±z
as mamÄ±ÅŁtÄ±
as mamÄ±ÅŁlarmÄ±ÅŁ
as mayÄ±n
as mayacakmÄ±ÅŁsÄ±nÄ±z
as mazdÄ±nÄ±z
as mamÄ±ÅŁÄ±z
as madÄ±lardÄ±
as mayacaklarmÄ±ÅŁ
as mamÄ±ÅŁtÄ±m
as mayacaktÄ±
as mayacakmÄ±ÅŁÄ±z
as mamÄ±ÅŁmÄ±ÅŁ
as mayacaktÄ±k
as mayacaksÄ±nÄ±z
as mayacaktÄ±nÄ±z
as mamÄ±ÅŁlardÄ±
as mamÄ±ÅŁsÄ±n
[...]
