{"<s>":0,"<pad>":1,"</s>":2,"<unk>":3,"<mask>":4,"SG":5,"NEG":6,"N":7,"IRR":8,"PSS2P":9,"V":10,"PL":11,"LOC":12,"IMP":13,"PST":14,"PROSP":15,"ACC":16,"ADJ":17,"IND":18,"NOM":19,"NFIN":20,"FUT":21,"INTR":22,"GEN":23,"DAT":24,"HAB":25,"1":26,"PSS1P":27,"2":28,"PSS2S":29,"PRF":30,"ABL":31,"LGSPEC1":32,"PSS3P":33,"DECL":34,"LGSPEC2":35,"PSS3S":36,"3":37,"PROG":38,"POS":39,"PRS":40,"!":41,"\"":42,"#":43,"$":44,"%":45,"&":46,"'":47,"(":48,")":49,"*":50,"+":51,",":52,"-":53,".":54,"/":55,"0":56,"4":57,"5":58,"6":59,"7":60,"8":61,"9":62,":":63,";":64,"<":65,"=":66,">":67,"?":68,"@":69,"A":70,"B":71,"C":72,"D":73,"E":74,"F":75,"G":76,"H":77,"I":78,"J":79,"K":80,"L":81,"M":82,"O":83,"P":84,"Q":85,"R":86,"S":87,"T":88,"U":89,"W":90,"X":91,"Y":92,"Z":93,"[":94,"\\":95,"]":96,"^":97,"_":98,"`":99,"a":100,"b":101,"c":102,"d":103,"e":104,"f":105,"g":106,"h":107,"i":108,"j":109,"k":110,"l":111,"m":112,"n":113,"o":114,"p":115,"q":116,"r":117,"s":118,"t":119,"u":120,"v":121,"w":122,"x":123,"y":124,"z":125,"{":126,"|":127,"}":128,"~":129,"¡":130,"¢":131,"£":132,"¤":133,"¥":134,"¦":135,"§":136,"¨":137,"©":138,"ª":139,"«":140,"¬":141,"®":142,"¯":143,"°":144,"±":145,"²":146,"³":147,"´":148,"µ":149,"¶":150,"·":151,"¸":152,"¹":153,"º":154,"»":155,"¼":156,"½":157,"¾":158,"¿":159,"À":160,"Á":161,"Â":162,"Ã":163,"Ä":164,"Å":165,"Æ":166,"Ç":167,"È":168,"É":169,"Ê":170,"Ë":171,"Ì":172,"Í":173,"Î":174,"Ï":175,"Ð":176,"Ñ":177,"Ò":178,"Ó":179,"Ô":180,"Õ":181,"Ö":182,"×":183,"Ø":184,"Ù":185,"Ú":186,"Û":187,"Ü":188,"Ý":189,"Þ":190,"ß":191,"à":192,"á":193,"â":194,"ã":195,"ä":196,"å":197,"æ":198,"ç":199,"è":200,"é":201,"ê":202,"ë":203,"ì":204,"í":205,"î":206,"ï":207,"ð":208,"ñ":209,"ò":210,"ó":211,"ô":212,"õ":213,"ö":214,"÷":215,"ø":216,"ù":217,"ú":218,"û":219,"ü":220,"ý":221,"þ":222,"ÿ":223,"Ā":224,"ā":225,"Ă":226,"ă":227,"Ą":228,"ą":229,"Ć":230,"ć":231,"Ĉ":232,"ĉ":233,"Ċ":234,"ċ":235,"Č":236,"č":237,"Ď":238,"ď":239,"Đ":240,"đ":241,"Ē":242,"ē":243,"Ĕ":244,"ĕ":245,"Ė":246,"ė":247,"Ę":248,"ę":249,"Ě":250,"ě":251,"Ĝ":252,"ĝ":253,"Ğ":254,"ğ":255,"Ġ":256,"ġ":257,"Ģ":258,"ģ":259,"Ĥ":260,"ĥ":261,"Ħ":262,"ħ":263,"Ĩ":264,"ĩ":265,"Ī":266,"ī":267,"Ĭ":268,"ĭ":269,"Į":270,"į":271,"İ":272,"ı":273,"Ĳ":274,"ĳ":275,"Ĵ":276,"ĵ":277,"Ķ":278,"ķ":279,"ĸ":280,"Ĺ":281,"ĺ":282,"Ļ":283,"ļ":284,"Ľ":285,"ľ":286,"Ŀ":287,"ŀ":288,"Ł":289,"ł":290,"Ń":291,"Ä±":292,"ak":293,"ÅŁ":294,"mÄ±":295,"Ã¼":296,"la":297,"me":298,"mak":299,"mek":300,"cak":301,"ya":302,"ma":303,"Ä±n":304,"Ġo":305,"mÄ±ÅŁ":306,"mi":307,"le":308,"Ä±r":309,"ĠmÄ±":310,"or":311,"Ã§":312,"in":313,"lar":314,"an":315,"Ä±z":316,"ir":317,"yor":318,"ĠmÄ±y":319,"Ã¶":320,"ÄŁ":321,"Ã¼r":322,"maya":323,"Ġol":324,"de":325,"mayacak":326,"ka":327,"lacak":328,"mu":329,"ek":330,"ler":331,"Ġolacak":332,"sÄ±n":333,"Ġolmayacak":334,"er":335,"miÅŁ":336,"at":337,"di":338,"al":339,"ar":340,"iz":341,"ec":342,"dÄ±":343,"ÅŁt":344,"ĠmÄ±ymÄ±ÅŁ":345,"un":346,"Ġmi":347,"en":348,"Ä±l":349,"il":350,"ecek":351,"dÄ±r":352,"ay":353,"Ä±m":354,"ik":355,"Ġmiy":356,"ur":357,"yap":358,"da":359,"el":360,"sÄ±nÄ±z":361,"et":362,"iniz":363,"Ä±yor":364,"Ã¼n":365,"larÄ±n":366,"tmak":367,"Ġmu":368,"lan":369,"Ã¼ÅŁ":370,"tmek":371,"Ã¼k":372,"dÃ¼r":373,"ÅŁtÄ±r":374,"Ã¼z":375,"muÅŁ":376,"ko":377,"uz":378,"acak":379,"iÅŁ":380,"dir":381,"st":382,"aÄŁ":383,"dan":384,"ĠmÄ±ydÄ±":385,"Ġmuy":386,"aÅŁ":387,"sun":388,"on":389,"tan":390,"den":391,"ul":392,"Ä±k":393,"Ä±ÅŁ":394,"Ä±lmak":395,"tÃ¼r":396,"len":397,"iyor":398,"se":399,"ol":400,"sin":401,"lerin":402,"du":403,"Ã¶l":404,"lamak":405,"can":406,"ge":407,"irmek":408,"mez":409,"larÄ±":410,"maz":411,"Ä±nÄ±z":412,"mÄ±z":413,"im":414,"mamÄ±ÅŁ":415,"gÃ¼":416,"kÄ±r":417,"miz":418,"kar":419,"dÄ±rmak":420,"tÄ±r":421,"Ã¼yor":422,"Ã¶p":423,"mey":424,"ver":425,"oÅŁ":426,"var":427,"um":428,"ot":429,"imiz":430,"mÄ±yor":431,"memiÅŁ":432,"kay":433,"sat":434,"Ã¶k":435,"leÅŁt":436,"Ġyap":437,"canlan":438,"ĠmiymiÅŁ":439,"Ã¼m":440,"iy":441,"ĠolacakmÄ±ÅŁ":442,"deÄŁ":443,"ĠolmayacakmÄ±ÅŁ":444,"meyecek":445,"eÄŁ":446,"it":447,"caÄŁ":448,"Ġolacaklar":449,"na":450,"Ġolmayacaklar":451,"gÃ¶":452,"sÃ¼r":453,"Ġmiydi":454,"ap":455,"Ã¼l":456,"bir":457,"mÃ¼ÅŁ":458,"Ä±t":459,"ok":460,"Ã¶ÄŁ":461,"dil":462,"man":463,"ĠmÄ±yd":464,"as":465,"ha":466,"ut":467,"tÃ¼k":468,"kap":469,"gec":470,"dur":471,"Ã§ek":472,"say":473,"yÄ±":474,"ce":475,"larÄ±mÄ±z":476,"gel":477,"larÄ±nÄ±z":478,"madÄ±":479,"Ã¶ker":480,"kur":481,"ĠmuymuÅŁ":482,"leÅŁ":483,"almak":484,"ĠÃ§ek":485,"Ã§Ã¶ker":486,"ne":487,"utan":488,"miyor":489,"Ã¶lÃ§":490,"ilmek":491,"bÃ¼k":492,"gecik":493,"boÅŁ":494,"kayna":495,"kaynaÅŁtÄ±r":496,"su":497,"siniz":498,"Ä±ÅŁtÄ±r":499,"piÅŁ":500,"li":501,"lerimiz":502,"op":503,"leriniz":504,"dÃ¼z":505,"Ã¶ldÃ¼r":506,"kat":507,"laÅŁtÄ±r":508,"ev":509,"te":510,"yu":511,"art":512,"Ã¼s":513,"dun":514,"din":515,"ĠmÄ±sÄ±n":516,"ĠmÄ±yÄ±m":517,"ah":518,"ĠmÄ±ymÄ±ÅŁÄ±z":519,"ĠmÄ±sÄ±nÄ±z":520,"ĠmÄ±ymÄ±ÅŁÄ±m":521,"ĠmÄ±yÄ±z":522,"ĠmÄ±ymÄ±ÅŁsÄ±nÄ±z":523,"dik":524,"gi":525,"ĠmÄ±ymÄ±ÅŁsÄ±n":526,"sunuz":527,"yar":528,"kan":529,"bit":530,"Ġs":531,"bay":532,"yet":533,"av":534,"ke":535,"aÃ§":536,"sÄ±z":537,"uyor":538,"dÃ¶":539,"emek":540,"tak":541,"aldÄ±rmak":542,"canlandÄ±r":543,"Ä±rmak":544,"medi":545,"dÃ¼rmek":546,"Ġolmak":547,"aldÄ±r":548,"Ã¼rmek":549,"lenmek":550,"Ġyapmak":551,"Ã§e":552,"atmak":553,"leÅŁtirmek":554,"Ä±ÅŁmak":555,"kmak":556,"anmak":557,"leÅŁtir":558,"enmek":559,"iÃ§":560,"tar":561,"utmak":562,"sak":563,"lÄ±":564,"kul":565,"tanÄ±":566,"ci":567,"yen":568,"seÃ§":569,"ret":570,"sÃ¶":571,"Ã¶ldÃ¼rt":572,"dÃ¼ÅŁ":573,"fe":574,"let":575,"yal":576,"kÄ±":577,"kir":578,"Ã¼y":579,"daÄŁ":580,"tÄ±":581,"Ä±s":582,"uÃ§":583,"caÄŁÄ±m":584,"kÃ¶p":585,"caÄŁÄ±z":586,"geÃ§":587,"Ġmuydu":588,"yaz":589,"yaÄŁ":590,"ste":591,"gÃ¶Ã§":592,"bol":593,"us":594,"sÃ¼n":595,"ber":596,"ger":597,"alan":598,"hast":599,"coÅŁ":600,"kor":601,"Ġt":602,"tir":603,"ayÄ±":604,"sÄ±":605,"kal":606,"ip":607,"diniz":608,"sul":609,"lardÄ±":610,"gez":611,"uÄŁ":612,"sÃ¼z":613,"ĠmÄ±ydÄ±m":614,"ta":615,"ĠmÄ±ydÄ±n":616,"ĠmÄ±ydÄ±k":617,"Ã¶ÄŁret":618,"ng":619,"iÅŁt":620,"sev":621,"der":622,"pat":623,"ĠmÄ±ydÄ±nÄ±z":624,"don":625,"dÃ¼ÅŁÃ¼n":626,"makya":627,"makyaj":628,"sik":629,"del":630,"sÃ¼s":631,"kullan":632,"Ġolmaya":633,"sinden":634,"ben":635,"sap":636,"gÃ¼l":637,"Ã¶ÄŁÃ¼":638,"rak":639,"Ã¼rk":640,"dem":641,"Ġola":642,"benz":643,"dondur":644,"kop":645,"uyar":646,"ulu":647,"irmez":648,"uy":649,"em":650,"ba":651,"deÄŁiÅŁ":652,"pay":653,"ÅŁÄ±":654,"payla":655,"ser":656,"ses":657,"larmÄ±ÅŁ":658,"iyi":659,"cÄ±":660,"fes":661,"yacak":662,"iliz":663,"paylaÅŁ":664,"kurtar":665,"nefes":666,"lik":667,"sÃ¼rÃ¼n":668,"yuvar":669,"bÃ¼r":670,"ilk":671,"kÄ±ÅŁ":672,"Ġver":673,"kÄ±ÅŁkÄ±r":674,"yaptÄ±r":675,"dirtmek":676,"gÃ¶tÃ¼r":677,"cart":678,"taÅŁ":679,"lemek":680,"tÄ±raÅŁ":681,"cartayÄ±":682,"hor":683,"ald":684,"onar":685,"piÅŁman":686,"°ng":687,"Ä°ng":688,"geber":689,"Ä°ngiliz":690,"gÃ¼lÃ¼n":691,"Ã¼ste":692,"ĠÃ§ekmek":693,"tÄ±lmak":694,"satÄ±n":695,"lendir":696,"hastalan":697,"ilklendir":698,"Ã¼stesinden":699,"dadan":700,"kanÄ±t":701,"ĠsÄ±k":702,"tep":703,"tirmek":704,"otur":705,"dilmek":706,"gelmek":707,"lamÄ±":708,"Ã¶lÃ§tÃ¼r":709,"tÄ±n":710,"Ã¼mek":711,"cÄ±z":712,"vdur":713,"ÅŁaÅŁ":714,"kovdur":715,"yalvar":716,"gerek":717,"Ä°ngilizce":718,"gÃ¼lÃ¼nÃ§":719,"cÄ±zlamÄ±":720,"ÅŁaÅŁÄ±r":721,"dedi":722,"yÄ±ÄŁ":723,"atÄ±ÅŁtÄ±r":724,"sattÄ±r":725,"sugeÃ§":726,"sugeÃ§irmez":727,"cu":728,"leÅŁmek":729,"TÃ¼rk":730,"sÃ¼m":731,"kaÃ§":732,"TÃ¼rkÃ§e":733,"vÄ±":734,"anla":735,"karÄ±ÅŁtÄ±r":736,"dÃ¶n":737,"allarÄ±":738,"uÄŁr":739,"Ġav":740,"oprak":741,"Ġtoprak":742,"ĠavuÃ§":743,"ey":744,"kodu":745,"sÄ±vÄ±":746,"dedikodu":747,"deÄŁiÅŁt":748,"yetiÅŁ":749,"nallarÄ±":750,"Ġdik":751,"itmek":752,"bÃ¼ktÃ¼r":753,"Ã§al":754,"yok":755,"sullaÅŁtÄ±r":756,"yoksullaÅŁtÄ±r":757,"Ã¶pÃ¼ÅŁ":758,"sol":759,"si":760,"gÃ¼c":761,"sÄ±vÄ±laÅŁtÄ±r":762,"Ã¶ldÃ¼rtÃ¼l":763,"dÃ¼zel":764,"tÄ±k":765,"sÃ¶k":766,"yum":767,"Ġm":768,"Ã¶lÃ§Ã¼l":769,"cek":770,"sÃ¶v":771,"ra":772,"mÃ¼yor":773,"pus":774,"kaÅŁÄ±":775,"dirt":776,"kaybol":777,"leri":778,"oz":779,"kara":780,"Ġmuydun":781,"muyor":782,"tÄ±l":783,"re":784,"yÄ±ka":785,"tÄ±nÄ±z":786,"Ä±mÄ±z":787,"ku":788,"sa":789,"ilik":790,"kÄ±y":791,"tÄ±m":792,"solu":793,"kapa":794,"lÄ±k":795,"dal":796,"larÄ±nda":797,"lama":798,"larÄ±nÄ±n":799,"dÄ±n":800,"larÄ±ndan":801,"Ã§Ä±":802,"be":803,"am":804,"larÄ±nÄ±":805,"ĠdeÄŁ":806,"lecek":807,"larÄ±na":808,"tut":809,"dÄ±nÄ±z":810,"is":811,"bat":812,"lerinden":813,"ĠdeÄŁil":814,"Ã§a":815,"lerini":816,"lerine":817,"san":818,"iyet":819,"lerinde":820,"mÄ±ÅŁsÄ±nÄ±z":821,"tr":822,"lerinin":823,"canlanma":824,"umu":825,"lerdi":826,"az":827,"ter":828,"mÄ±ÅŁsÄ±n":829,"mÄ±ÅŁÄ±z":830,"ley":831,"Ã¶r":832,"og":833,"bil":834,"mÄ±ÅŁÄ±m":835,"ĠmÃ¼y":836,"Ã¶ldÃ¼rtÃ¼lme":837,"Ġmiydin":838,"Ġmiydik":839,"Ġmiydim":840,"Ġmiydiniz":841,"lamÄ±ÅŁ":842,"oto":843,"gen":844,"tÃ¼":845,"ydÄ±":846,"Ä±lÄ±yor":847,"eÄŁit":848,"ru":849,"Ã§i":850,"yapÄ±ÅŁ":851,"Ä±lacak":852,"ĠolmayacakmÄ±ÅŁÄ±z":853,"ti":854,"ĠolmayacaklarmÄ±ÅŁ":855,"ĠolacakmÄ±ÅŁsÄ±n":856,"ĠolmayacaÄŁÄ±m":857,"ĠolacakmÄ±ÅŁÄ±m":858,"daÄŁÄ±":859,"ĠolmayacaÄŁÄ±z":860,"ĠolmayacakmÄ±ÅŁÄ±m":861,"ĠolacaklarmÄ±ÅŁ":862,"ĠolacaksÄ±n":863,"ĠolacakmÄ±ÅŁsÄ±nÄ±z":864,"ĠolacakmÄ±ÅŁÄ±z":865,"ĠolmayacakmÄ±ÅŁsÄ±nÄ±z":866,"daÄŁÄ±t":867,"ĠolacaÄŁÄ±m":868,"Ä±lmÄ±ÅŁ":869,"lek":870,"ĠolmayacaksÄ±nÄ±z":871,"ĠolacaÄŁÄ±z":872,"ĠolmayacakmÄ±ÅŁsÄ±n":873,"miÅŁsiniz":874,"Ã¼nÃ¼z":875,"inc":876,"miÅŁsin":877,"unuz":878,"ĠolmayacaksÄ±n":879,"ĠolacaksÄ±nÄ±z":880,"lu":881,"yon":882,"Ã¶ÄŁÃ¼t":883,"ye":884,"miÅŁim":885,"Ä±sÄ±r":886,"yan":887,"kÄ±rÄ±lmak":888,"miÅŁiz":889,"ren":890,"Ã¢":891,"may":892,"tin":893,"kÃ¼":894,"Ä±lÄ±r":895,"dirilmek":896,"gÃ¼tmek":897,"ĠaldÄ±rmak":898,"yapÄ±lmak":899,"bayÄ±lmak":900,"kurtarmak":901,"kaÅŁÄ±mak":902,"sermek":903,"paylaÅŁmak":904,"ĠaldÄ±r":905,"demek":906,"sapmak":907,"uyarmak":908,"ulumak":909,"yuvarlamak":910,"Ã§almak":911,"yapmak":912,"katÄ±lmak":913,"Ä±sÄ±rmak":914,"sÃ¼rÃ¼ndÃ¼r":915,"sÃ¼rÃ¼ndÃ¼rmek":916,"ri":917,"Ġf":918,"aÃ§mak":919,"seslen":920,"seslenmek":921,"Ġvermek":922,"kÄ±ÅŁkÄ±rtmak":923,"dalmak":924,"yalamak":925,"katmak":926,"saydÄ±rmak":927,"yendirtmek":928,"seÃ§ilmek":929,"yazmak":930,"sÃ¼smek":931,"gÃ¶tÃ¼rmek":932,"taÅŁmak":933,"ellemek":934,"kÄ±rdÄ±rmak":935,"Ã§Ã¶kertmek":936,"yaptÄ±rtmak":937,"letmek":938,"sunmak":939,"verdirtmek":940,"saydÄ±r":941,"kirletmek":942,"kÃ¶pÃ¼rmek":943,"horlamak":944,"kÄ±rdÄ±r":945,"tanÄ±tmak":946,"sÃ¼zmek":947,"demlemek":948,"canlandÄ±rmak":949,"utanmak":950,"geciktirmek":951,"canlandÄ±rtÄ±lmak":952,"kirlet":953,"kÃ¶pÃ¼r":954,"gebermek":955,"ayÄ±rmak":956,"tÃ¼remek":957,"bÃ¼kmek":958,"evlen":959,"evlenmek":960,"takmak":961,"gÃ¶Ã§mek":962,"Ã¶ÄŁretmek":963,"kullanÄ±lmak":964,"Ġgelmek":965,"geciktir":966,"gidilmek":967,"hastalanmak":968,"baÄŁ":969,"Ġalmak":970,"lermiÅŁ":971,"ayÄ±r":972,"tÃ¼kÃ¼rmek":973,"Ã¶ÄŁÃ¼tmek":974,"ilklendirmek":975,"kanÄ±tlamak":976,"ĠsÄ±kÄ±ÅŁmak":977,"Ã¶lÃ§Ã¼lmek":978,"saldÄ±rmak":979,"Ã¼ÅŁenmek":980,"saymak":981,"boÅŁanmak":982,"bÃ¼rÃ¼mek":983,"aldatmak":984,"sÃ¶kmek":985,"pusmak":986,"artmak":987,"tÃ¼kÃ¼r":988,"kapatmak":989,"kaynaÅŁtÄ±rtÄ±lmak":990,"yaÄŁlamak":991,"patlamak":992,"dadanmak":993,"tepmek":994,"oturmak":995,"bitmek":996,"saldÄ±r":997,"atÄ±lmak":998,"atÄ±ÅŁmak":999,"Ġmiyiz":1000,"Ã¼ÅŁen":1001,"Ã¶pmek":1002,"boÅŁan":1003,"sÄ±zmak":1004,"kalkmak":1005,"aldat":1006,"onarmak":1007,"Ã¶lÃ§tÃ¼rtmek":1008,"yetiÅŁmek":1009,"iÄŁ":1010,"diremek":1011,"asmak":1012,"kapat":1013,"utandÄ±rmak":1014,"gezmek":1015,"iyileÅŁtirmek":1016,"kovdurmak":1017,"yalvarmak":1018,"gerekmek":1019,"Ä°ngilizceleÅŁtirmek":1020,"gÃ¼lÃ¼nÃ§leÅŁmek":1021,"ÅŁaÅŁÄ±rtmak":1022,"tÄ±yor":1023,"Ã¼zmek":1024,"Ã§Ã¶kermek":1025,"iÃ§mek":1026,"benzemek":1027,"atÄ±ÅŁtÄ±rmak":1028,"sattÄ±rtmak":1029,"lÄ±yor":1030,"inmek":1031,"kokmak":1032,"aÅŁmak":1033,"utandÄ±r":1034,"dÃ¼ÅŁÃ¼nmek":1035,"iyileÅŁtir":1036,"Ä°ngilizceleÅŁtir":1037,"TÃ¼rkÃ§eleÅŁtirmek":1038,"Ã¶pÃ¼ÅŁmek":1039,"tÃ¼kenmek":1040,"bitirmek":1041,"dondurmak":1042,"kaÃ§Ä±r":1043,"kaÃ§Ä±rmak":1044,"daÄŁÄ±tmak":1045,"aba":1046,"unutmak":1047,"ettirmek":1048,"sÃ¼rÃ¼mek":1049,"dÃ¼zmek":1050,"kopmak":1051,"sÃ¼mÃ¼rmek":1052,"TÃ¼rkÃ§eleÅŁtir":1053,"anlatmak":1054,"karÄ±ÅŁtÄ±rtmak":1055,"dÃ¶ndÃ¼rmek":1056,"birleÅŁmek":1057,"tÃ¼ken":1058,"kaynaÅŁtÄ±rÄ±lmak":1059,"coÅŁmak":1060,"sikilmek":1061,"delirmek":1062,"uÄŁratmak":1063,"yÄ±kamak":1064,"unut":1065,"ettir":1066,"aÄŁlamak":1067,"olmak":1068,"varmak":1069,"boÅŁalmak":1070,"tanÄ±mak":1071,"sÃ¼mÃ¼r":1072,"dÃ¶ndÃ¼r":1073,"yummak":1074,"Ã¶ldÃ¼rtmek":1075,"korkmak":1076,"uÄŁrat":1077,"kurutmak":1078,"gecikmek":1079,"saklamak":1080,"deÄŁiÅŁmek":1081,"sal":1082,"yapÄ±ÅŁmak":1083,"piÅŁmek":1084,"uymak":1085,"Ġdikmek":1086,"dÃ¼rtmek":1087,"kurut":1088,"sÃ¼nmek":1089,"sevmek":1090,"bÃ¼ktÃ¼rmek":1091,"sÃ¶vmek":1092,"sanmak":1093,"tacak":1094,"yoksullaÅŁtÄ±rmak":1095,"kaybolmak":1096,"kÄ±ymak":1097,"ĠmiymiÅŁsiniz":1098,"eÄŁlen":1099,"eÄŁlenmek":1100,"yÄ±ÄŁmak":1101,"tmÄ±ÅŁ":1102,"siz":1103,"gÃ¼cenmek":1104,"sÄ±vÄ±laÅŁtÄ±rmak":1105,"canlanmamak":1106,"Ġmiyim":1107,"ĠsÄ±kÄ±ÅŁ":1108,"deÄŁiÅŁtirmek":1109,"gÃ¼cen":1110,"Ġh":1111,"ĠmiymiÅŁsin":1112,"solumak":1113,"Ã¶ldÃ¼rtÃ¼lmemek":1114,"verilmek":1115,"dÃ¼zeltmek":1116,"tutmak":1117,"ĠmiymiÅŁim":1118,"gÃ¼lÃ¼nÃ§leÅŁ":1119,"kÃ¶":1120,"Ã¶z":1121,"Ġmisiniz":1122,"ĠmiymiÅŁiz":1123,"atÄ±ÅŁ":1124,"Ġmisin":1125,"satmak":1126,"eÄŁitmek":1127,"kapamak":1128,"bitir":1129,"mur":1130,"birleÅŁ":1131,"delir":1132,"lardan":1133,"men":1134,"larda":1135,"tot":1136,"vi":1137,"lara":1138,"layacak":1139,"deÄŁiÅŁtir":1140,"tik":1141,"tanÄ±t":1142,"verdirt":1143,"Ã§Ã¶kert":1144,"yendirt":1145,"ca":1146,"so":1147,"duk":1148,"pap":1149,"muÅŁsun":1150,"Ġmuydum":1151,"Ã¶lÃ§tÃ¼rt":1152,"baÅŁ":1153,"eÅŁ":1154,"dunuz":1155,"of":1156,"lere":1157,"muÅŁsunuz":1158,"diril":1159,"gÃ¼d":1160,"met":1161,"dÃ¼rt":1162,"muÅŁuz":1163,"mediy":1164,"inin":1165,"muÅŁum":1166,"gidil":1167,"seÃ§il":1168,"Ġmuyduk":1169,"Ġmuydunuz":1170,"canlandÄ±rtÄ±l":1171,"ĠmuymuÅŁuz":1172,"if":1173,"lerde":1174,"dÃ¼zelt":1175,"kaynaÅŁtÄ±rtÄ±l":1176,"Ġgel":1177,"mamÄ±ÅŁlar":1178,"Ġal":1179,"kr":1180,"mazlar":1181,"ban":1182,"lerden":1183,"Ġmuyum":1184,"ĠmuymuÅŁsun":1185,"sikil":1186,"boÅŁal":1187,"Ġmuyuz":1188,"ola":1189,"ĠmuymuÅŁum":1190,"dum":1191,"cik":1192,"lÃ¼":1193,"ĠmuymuÅŁsunuz":1194,"sÃ¶z":1195,"Ġmusun":1196,"mayacaklar":1197,"veril":1198,"Ã§Ä±ÄŁ":1199,"ve":1200,"Ġmusunuz":1201,"umuz":1202,"gÃ¼r":1203,"ini":1204,"alÄ±":1205,"leyi":1206,"gÄ±":1207,"Ã¼c":1208,"bl":1209,"yer":1210,"akir":1211,"ad":1212,"af":1213,"ket":1214,"sil":1215,"dim":1216,"do":1217,"fil":1218,"sÃ¼rÃ¼m":1219,"kok":1220,"larÄ±mÄ±za":1221,"larÄ±mÄ±zÄ±":1222,"pan":1223,"Ä±nÄ±n":1224,"kalk":1225,"str":1226,"bi":1227,"mÃ¼":1228,"inde":1229,"tiniz":1230,"larÄ±nÄ±zÄ±":1231,"mo":1232,"ran":1233,"larÄ±mÄ±zda":1234,"larÄ±mÄ±zÄ±n":1235,"dar":1236,"dok":1237,"Ä±rt":1238,"larÄ±nÄ±za":1239,"larÄ±nÄ±zÄ±n":1240,"ĠmÃ¼yd":1241,"memiÅŁler":1242,"sizlik":1243,"gÃ¼n":1244,"pu":1245,"larÄ±mÄ±zdan":1246,"lilik":1247,"Ã¶n":1248,"kork":1249,"tim":1250,"larÄ±nÄ±zda":1251,"ine":1252,"lerimize":1253,"Ã§algÄ±":1254,"bar":1255,"bet":1256,"ucu":1257,"iki":1258,"larÄ±nÄ±zdan":1259,"meyecekler":1260,"lerinizden":1261,"oÄŁ":1262,"inden":1263,"madÄ±ydÄ±":1264,"lerimizden":1265,"elle":1266,"mÄ±yorlar":1267,"yaÄŁla":1268,"lerinizin":1269,"ilecek":1270,"va":1271,"lerimizin":1272,"leyici":1273,"Ä±nÄ±":1274,"bayÄ±l":1275,"Ä±ndan":1276,"lerimizde":1277,"min":1278,"mat":1279,"lerinizde":1280,"dak":1281,"mum":1282,"par":1283,"lerinizi":1284,"mezler":1285,"lerinize":1286,"Ä±na":1287,"mazdÄ±":1288,"bu":1289,"ist":1290,"lerimizi":1291,"eceÄŁ":1292,"madÄ±lar":1293,"diz":1294,"elik":1295,"demle":1296,"sen":1297,"Ä±nda":1298,"ize":1299,"benze":1300,"ken":1301,"tÃ¼re":1302,"dire":1303,"to":1304,"nem":1305,"sek":1306,"kÃ¼Ã§":1307,"kÃ¼Ã§Ã¼k":1308,"liÄŁ":1309,"pr":1310,"bÃ¼y":1311,"Ã¼mÃ¼z":1312,"ecekler":1313,"stan":1314,"kon":1315,"kus":1316,"gÃ¼t":1317,"luk":1318,"dis":1319,"adsÄ±z":1320,"bel":1321,"ĠÅŁ":1322,"diÅŁ":1323,"ef":1324,"har":1325,"om":1326,"kuÅŁ":1327,"kÄ±l":1328,"rat":1329,"akÄ±ÅŁ":1330,"raf":1331,"bÄ±":1332,"ten":1333,"olay":1334,"gun":1335,"mot":1336,"pe":1337,"sÄ±r":1338,"suz":1339,"muz":1340,"sÄ±nÄ±r":1341,"ide":1342,"siy":1343,"ayn":1344,"seÃ§me":1345,"bah":1346,"por":1347,"sar":1348,"blog":1349,"sÃ¼":1350,"leb":1351,"anas":1352,"bakir":1353,"pir":1354,"ikli":1355,"gat":1356,"cev":1357,"miÅŁler":1358,"Ä±lÄ±k":1359,"Ġoluyor":1360,"ez":1361,"lev":1362,"dev":1363,"diy":1364,"otomo":1365,"eziyet":1366,"mÄ±ÅŁlar":1367,"otomobil":1368,"yÄ±l":1369,"lez":1370,"Ä±yorlar":1371,"mediler":1372,"incil":1373,"dÃ¼":1374,"kedi":1375,"ag":1376,"Ġsay":1377,"Ġyaz":1378,"sÃ¶zc":1379,"ĠyazÄ±l":1380,"ekli":1381,"iliÄŁ":1382,"hip":1383,"ro":1384,"kav":1385,"acaklar":1386,"karak":1387,"karde":1388,"hiper":1389,"ven":1390,"sÄ±nÄ±":1391,"ker":1392,"vet":1393,"yav":1394,"ece":1395,"sine":1396,"dÃ¼l":1397,"kacak":1398,"dul":1399,"inter":1400,"koÅŁ":1401,"kef":1402,"totem":1403,"lÃ¼k":1404,"avu":1405,"gar":1406,"pop":1407,"lamÄ±yor":1408,"Ã§ok":1409,"miyorlar":1410,"kÃ¶y":1411,"eh":1412,"ÅŁer":1413,"cez":1414,"mÃ¼ÅŁt":1415,"siyon":1416,"ÅŁerbet":1417,"karaya":1418,"efe":1419,"ga":1420,"hat":1421,"kÄ±z":1422,"kÃ¢":1423,"yÃ¼k":1424,"Ġkaraya":1425,"gÃ¼ven":1426,"ĠyapmÄ±ÅŁ":1427,"ĠyapÄ±yor":1428,"mÃ¼ÅŁsÃ¼n":1429,"ĠfÃ¼z":1430,"ĠolmuÅŁ":1431,"ayna":1432,"daÅŁ":1433,"Ġyapacak":1434,"mandal":1435,"disko":1436,"ptot":1437,"Ġas":1438,"Ã§ar":1439,"mÄ±zÄ±":1440,"imptot":1441,"baz":1442,"Ġasimptot":1443,"viÅŁ":1444,"lem":1445,"eri":1446,"urt":1447,"Ġhal":1448,"lamamÄ±ÅŁ":1449,"Ã§Ä±k":1450,"kÃ¶pÃ¼k":1451,"Ã§Ä±ÄŁÄ±rt":1452,"Ã§Ä±ÄŁÄ±rtkan":1453,"ebe":1454,"mama":1455,"miyet":1456,"mit":1457,"evcik":1458,"bolcu":1459,"kerp":1460,"alet":1461,"madÄ±k":1462,"last":1463,"iyo":1464,"orum":1465,"ili":1466,"iyorlar":1467,"ÅŁak":1468,"Ã§ap":1469,"asa":1470,"gÃ¼dÃ¼m":1471,"pusu":1472,"faz":1473,"lak":1474,"cen":1475,"lim":1476,"lamayacak":1477,"kÄ±rÄ±l":1478,"birlik":1479,"cilik":1480,"kut":1481,"Ġsin":1482,"alt":1483,"ina":1484,"kullanÄ±l":1485,"kaynaÅŁtÄ±rÄ±l":1486,"katÄ±l":1487,"kÄ±ÅŁkÄ±rt":1488,"ÅŁÄ±r":1489,"ĠolacaktÄ±m":1490,"yapÄ±l":1491,"uyu":1492,"ÅŁÄ±k":1493,"lamaz":1494,"madÄ±y":1495,"Ġolmaz":1496,"imize":1497,"imizde":1498,"ĠolacaklardÄ±":1499,"madÄ±m":1500,"rep":1501,"ĠsayÄ±":1502,"inizden":1503,"madÄ±n":1504,"Ã¶nem":1505,"atÄ±l":1506,"yol":1507,"ĠolacaktÄ±n":1508,"anlat":1509,"yn":1510,"lÄ±ÄŁ":1511,"ÅŁaÅŁÄ±rt":1512,"ĠfÃ¼ze":1513,"egen":1514,"kas":1515,"ĠolmayacaktÄ±k":1516,"atÄ±":1517,"imizden":1518,"gezegen":1519,"ĠmÃ¼":1520,"imizin":1521,"madÄ±nÄ±z":1522,"ĠolmayacaktÄ±n":1523,"sattÄ±rt":1524,"ĠolmayacaktÄ±m":1525,"dÄ±m":1526,"duy":1527,"kÄ±rÄ±k":1528,"imizi":1529,"Ä±ÄŁ":1530,"dek":1531,"ĠolmayacaklardÄ±":1532,"incir":1533,"gu":1534,"Ä±ncak":1535,"ĠolacaktÄ±k":1536,"ĠolacaktÄ±nÄ±z":1537,"inizi":1538,"sÃ¼rÃ¼":1539,"karÄ±ÅŁtÄ±rt":1540,"derleyici":1541,"yÄ±k":1542,"ĠolmayacaktÄ±":1543,"ĠolmayacaktÄ±nÄ±z":1544,"diler":1545,"dÄ±k":1546,"unun":1547,"kutu":1548,"rt":1549,"ana":1550,"inize":1551,"dÃ¶rt":1552,"yaptÄ±rt":1553,"dÃ¶rtgen":1554,"saÄŁ":1555,"ĠyazÄ±lÄ±m":1556,"leme":1557,"ĠolacaktÄ±":1558,"bÃ¼rÃ¼":1559,"Ã§ilik":1560,"cel":1561,"inizde":1562,"inizin":1563,"Ã§alar":1564,"ac":1565,"oj":1566,"oloj":1567,"lam":1568,"ans":1569,"aÄŁaÃ§":1570,"medim":1571,"Ġgezegen":1572,"unda":1573,"benzer":1574,"laacak":1575,"Ġyapar":1576,"mut":1577,"Ä±nÄ±zÄ±n":1578,"medik":1579,"dÄ±lar":1580,"ĠÃ§ekiyor":1581,"bili":1582,"iste":1583,"Ġolur":1584,"una":1585,"Ä±nÄ±zda":1586,"oÄŁul":1587,"Ã¼Ã§":1588,"dÄ±ÅŁ":1589,"iye":1590,"unu":1591,"Ä±nÄ±zÄ±":1592,"meyeceÄŁ":1593,"medin":1594,"Ġan":1595,"iner":1596,"gelecek":1597,"ahtar":1598,"Ġanahtar":1599,"alacak":1600,"nek":1601,"son":1602,"tsuz":1603,"dilecek":1604,"dÄ±ydÄ±":1605,"undan":1606,"asan":1607,"umutsuz":1608,"bÃ¼yÃ¼":1609,"mediniz":1610,"ikiz":1611,"tÄ±lacak":1612,"eyecek":1613,"liyor":1614,"olacak":1615,"ÅŁap":1616,"Ä±nÄ±za":1617,"tÃ¼t":1618,"Ä±nÄ±zdan":1619,"ÅŁapka":1620,"ÅŁar":1621,"dÃ¼ÅŁÃ¼ncel":1622,"ynatÄ±":1623,"bec":1624,"ĠÃ§ekecek":1625,"rek":1626,"rtak":1627,"tsÄ±z":1628,"Ġkat":1629,"ĠkÃ¼Ã§Ã¼k":1630,"Ġortak":1631,"kulu":1632,"sis":1633,"bahtsÄ±z":1634,"nu":1635,"nen":1636,"Ã¼yecek":1637,"jur":1638,"yakÄ±ÅŁ":1639,"mer":1640,"Ä±klÄ±":1641,"abajur":1642,"becer":1643,"yakÄ±ÅŁÄ±klÄ±":1644,"mel":1645,"sunu":1646,"ite":1647,"daÄŁÄ±n":1648,"parÃ§":1649,"oloji":1650,"oley":1651,"voley":1652,"Ġis":1653,"yalan":1654,"ordin":1655,"koordin":1656,"Ġson":1657,"ral":1658,"ĠsÃ¼rÃ¼m":1659,"masal":1660,"Ä±rlar":1661,"altÄ±n":1662,"Ã¶lÃ¼m":1663,"Ä±mÄ±zdan":1664,"bal":1665,"fer":1666,"olmaz":1667,"ift":1668,"daÄŁÄ±nÄ±k":1669,"koordinat":1670,"ĠÃ§ekmiÅŁ":1671,"Ä±mÄ±zÄ±n":1672,"bÃ¼yÃ¼leyici":1673,"elek":1674,"tiz":1675,"Ġek":1676,"Ä±mÄ±":1677,"kam":1678,"arka":1679,"ayip":1680,"karma":1681,"coÅŁkus":1682,"ayÄ±f":1683,"Ä±mÄ±za":1684,"sos":1685,"acayip":1686,"dÃ¼ÅŁÃ¼nceli":1687,"elektr":1688,"coÅŁkusuz":1689,"ib":1690,"yorgun":1691,"ciÄŁ":1692,"fren":1693,"sÃ¼l":1694,"yang":1695,"yaban":1696,"dey":1697,"iÅŁlet":1698,"sto":1699,"evla":1700,"uluk":1701,"lÄ±ÅŁ":1702,"Ã¼ren":1703,"kastan":1704,"Ã¼yorlar":1705,"yuma":1706,"yanlÄ±ÅŁ":1707,"dÄ±z":1708,"hÄ±z":1709,"mantÄ±k":1710,"leti":1711,"uygu":1712,"portak":1713,"yÄ±ldÄ±z":1714,"cenaz":1715,"kastanyet":1716,"hÄ±zlÄ±":1717,"mantÄ±klÄ±":1718,"sunucu":1719,"geÃ§miÅŁ":1720,"coÅŁkulu":1721,"Ä±mÄ±zda":1722,"motel":1723,"becerikli":1724,"cÄ±k":1725,"fah":1726,"giz":1727,"hun":1728,"huz":1729,"haÅŁ":1730,"obi":1731,"vvet":1732,"Ã¼mit":1733,"masa":1734,"malam":1735,"irler":1736,"Ã¼re":1737,"hava":1738,"gider":1739,"yeten":1740,"uÃ§urt":1741,"kuvvet":1742,"trol":1743,"seksi":1744,"anason":1745,"fahiÅŁ":1746,"gizem":1747,"huzur":1748,"malamoz":1749,"Ġdil":1750,"ceviz":1751,"portakal":1752,"bas":1753,"hur":1754,"hey":1755,"kel":1756,"pem":1757,"ron":1758,"tÃ¼m":1759,"zÄ±rt":1760,"ĠbaÄŁ":1761,"Ġdiz":1762,"mikr":1763,"Ã§Ä±t":1764,"Ã¶pÃ¼c":1765,"ham":1766,"yalÄ±n":1767,"patron":1768,"Ã§alÄ±ÅŁ":1769,"ozof":1770,"Ä±mÄ±zÄ±":1771,"tutul":1772,"battan":1773,"sansar":1774,"filozof":1775,"doktr":1776,"lezyon":1777,"saÄŁr":1778,"parÃ§alan":1779,"heykel":1780,"pembe":1781,"ive":1782,"ipe":1783,"tren":1784,"banda":1785,"zÄ±rtgel":1786,"Mu":1787,"Tir":1788,"aiki":1789,"gl":1790,"hÃ¼r":1791,"iya":1792,"oynatÄ±":1793,"syon":1794,"vir":1795,"vam":1796,"ĠsÄ±nÄ±":1797,"ÅŁu":1798,"ÅŁah":1799,"maat":1800,"mara":1801,"yorda":1802,"Ã¼rÃ¼n":1803,"mus":1804,"ateÅŁ":1805,"izola":1806,"ikipe":1807,"kola":1808,"stah":1809,"tandÄ±r":1810,"sÃ¼rtÃ¼k":1811,"manive":1812,"cemaat":1813,"teor":1814,"ĠmÃ¼ymÃ¼ÅŁ":1815,"eÅŁof":1816,"mÃ¼stah":1817,"motor":1818,"numara":1819,"arkadaÅŁ":1820,"basket":1821,"bandaj":1822,"Musev":1823,"Tiran":1824,"vampir":1825,"ĠsÄ±nÄ±f":1826,"izolasyon":1827,"Ġha":1828,"alyan":1829,"ener":1830,"iyen":1831,"kele":1832,"keman":1833,"dalye":1834,"ikipedi":1835,"eÅŁofman":1836,"Bel":1837,"gir":1838,"grat":1839,"kak":1840,"kÃ¼rk":1841,"psik":1842,"vap":1843,"vaz":1844,"Ġin":1845,"ĠseÃ§me":1846,"ÅŁiÅŁ":1847,"ÅŁaf":1848,"mÄ±sÄ±r":1849,"malÄ±":1850,"anaf":1851,"kasi":1852,"elma":1853,"iÅŁken":1854,"iÅŁlem":1855,"dirtir":1856,"ster":1857,"ongun":1858,"birincil":1859,"hamÄ±z":1860,"negat":1861,"teg":1862,"Ã¼sÃ¼n":1863,"Ġsor":1864,"kÄ±ya":1865,"sosis":1866,"lÃ¼gat":1867,"gÃ¼rz":1868,"omlet":1869,"sÄ±nÄ±rlÄ±":1870,"Ã§oktan":1871,"gamalÄ±":1872,"aÄŁaÃ§kak":1873,"ÅŁuur":1874,"kelep":1875,"Belgrat":1876,"girda":1877,"vapur":1878,"vaziyet":1879,"Ġinteg":1880,"ĠseÃ§meli":1881,"anafaz":1882,"negatif":1883,"Ġkedi":1884,"Ä±nlÄ±k":1885,"irim":1886,"seÃ§men":1887,"kefir":1888,"aÄŁaÃ§kakan":1889,"Ġintegral":1890,"Kop":1891,"Lef":1892,"aat":1893,"bur":1894,"fret":1895,"fakir":1896,"hÃ¼k":1897,"kl":1898,"pÄ±r":1899,"paÅŁ":1900,"pren":1901,"rah":1902,"Ã»":1903,"ĠdÄ±":1904,"Ġpr":1905,"ĠgÃ¼dÃ¼m":1906,"ÅŁeh":1907,"mist":1908,"Ã§or":1909,"Ã§avu":1910,"anket":1911,"Ã¶m":1912,"kalÄ±":1913,"eket":1914,"ÅŁtayn":1915,"enha":1916,"semer":1917,"karÅŁ":1918,"ote":1919,"dilber":1920,"kaplan":1921,"nefret":1922,"suvar":1923,"dinoz":1924,"kantin":1925,"Ġsaat":1926,"sakÄ±z":1927,"uÃ§an":1928,"gÃ¶Ã§Ã¼ren":1929,"bermu":1930,"sÃ¼span":1931,"ram":1932,"sala":1933,"Ã§adÄ±r":1934,"ogram":1935,"ruj":1936,"baÅŁrah":1937,"gÃ¼neÅŁ":1938,"prote":1939,"hareket":1940,"aynÅŁtayn":1941,"porsu":1942,"karakol":1943,"kÃ¶ygÃ¶Ã§Ã¼ren":1944,"cezer":1945,"mutlu":1946,"istem":1947,"Kopenha":1948,"LefkoÅŁ":1949,"hÃ¼kÃ»":1950,"ĠdÄ±ÅŁÄ±":1951,"Ġprogram":1952,"ĠgÃ¼dÃ¼mlÃ¼":1953,"dinozor":1954,"sÃ¼spansuvar":1955,"ala":1956,"dÃ¼n":1957,"fi":1958,"sinin":1959,"key":1960,"dÃ¼ÅŁman":1961,"karadan":1962,"kÃ¶m":1963,"ped":1964,"ĠhaÃ§":1965,"Abu":1966,"Da":1967,"bey":1968,"fr":1969,"ft":1970,"far":1971,"foto":1972,"gri":1973,"hÄ±":1974,"hinter":1975,"ila":1976,"idar":1977,"jok":1978,"mon":1979,"pila":1980,"tekli":1981,"zmon":1982,"ĠDa":1983,"akro":1984,"ÅŁif":1985,"irah":1986,"ÄŁraf":1987,"muc":1988,"kozmon":1989,"danoz":1990,"onyer":1991,"karide":1992,"haz":1993,"Ã§ekme":1994,"ĠÃ§eker":1995,"evren":1996,"artÃ§Ä±":1997,"baytar":1998,"cihaz":1999,"koruyu":2000,"bÃ¼rÃ¼m":2001,"ograf":2002,"Ã§ift":2003,"maydanoz":2004,"Ġfik":2005,"baÄŁÄ±r":2006,"Ã¼cret":2007,"strÃ¼k":2008,"matograf":2009,"istirah":2010,"efsun":2011,"sÃ¶zcÃ¼l":2012,"kardeÅŁ":2013,"sinematograf":2014,"aynasÄ±z":2015,"evcikkÄ±r":2016,"Ã¼Ã§Ã¼z":2017,"Ã¼mitli":2018,"friz":2019,"fotoÄŁraf":2020,"hÄ±Ã§":2021,"hinterlan":2022,"jokey":2023,"ÅŁifonyer":2024,"kozmonot":2025,"br":2026,"kist":2027,"mas":2028,"irkey":2029,"katil":2030,"kirmen":2031,"yaÄŁmur":2032,"samur":2033,"gene":2034,"rimel":2035,"ĠÅŁok":2036,"Ġiske":2037,"uygulama":2038,"yetenekli":2039,"gizemli":2040,"Ã§avuÅŁ":2041,"akrobat":2042,"strÃ¼ktÃ¼r":2043,"istirahat":2044,"evcikkÄ±ran":2045,"irkeyel":2046,"bok":2047,"fra":2048,"gon":2049,"goz":2050,"msil":2051,"olen":2052,"plan":2053,"polen":2054,"sah":2055,"skr":2056,"val":2057,"yut":2058,"zur":2059,"zaÄŁ":2060,"ĠkÃ¶":2061,"akt":2062,"akka":2063,"maran":2064,"Ã§ak":2065,"Ã§ev":2066,"anj":2067,"ekst":2068,"alb":2069,"albat":2070,"uniyet":2071,"eniÅŁt":2072,"ayakka":2073,"ikincil":2074,"sey":2075,"sebe":2076,"sinde":2077,"dubl":2078,"mezuniyet":2079,"karne":2080,"gÃ¶m":2081,"sÃ¼rgÃ¼n":2082,"Ã¶ÄŁren":2083,"hav":2084,"temsil":2085,"dikdÃ¶rtgen":2086,"Ġsan":2087,"iÃ§li":2088,"cib":2089,"embr":2090,"radar":2091,"karadul":2092,"reakt":2093,"ambu":2094,"Ã¶rÃ¼m":2095,"salÃ§al":2096,"vide":2097,"papir":2098,"papyon":2099,"krav":2100,"garson":2101,"ÅŁark":2102,"olmazsa":2103,"iftit":2104,"elektrikli":2105,"cenaze":2106,"haÅŁefe":2107,"uÃ§urtma":2108,"Ã§alÄ±ÅŁma":2109,"frag":2110,"gond":2111,"planet":2112,"skrot":2113,"ĠkÃ¶f":2114,"marangoz":2115,"ekstre":2116,"albatro":2117,"ayakkabÄ±":2118,"ambulan":2119,"his":2120,"Ġde":2121,"koy":2122,"Ã§amur":2123,"doma":2124,"Ã§algÄ±cÄ±":2125,"blogcu":2126,"dÃ¼ldÃ¼l":2127,"hatÄ±r":2128,"yangÄ±n":2129,"parÃ§alanma":2130,"teklif":2131,"Ġiskelet":2132,"valiz":2133,"albÃ¼m":2134,"dublÃ¶r":2135,"reaktÃ¶r":2136,"iftitah":2137,"fragman":2138,"gondol":2139,"acÄ±":2140,"bor":2141,"bÃ¼z":2142,"fiÅŁ":2143,"foz":2144,"hap":2145,"hÃ¼l":2146,"jek":2147,"jon":2148,"jener":2149,"lon":2150,"lok":2151,"pip":2152,"tah":2153,"tyen":2154,"yoÄŁ":2155,"zir":2156,"Ä±st":2157,"akoz":2158,"ÅŁru":2159,"later":2160,"meÅŁru":2161,"mili":2162,"orfoz":2163,"destan":2164,"must":2165,"enjek":2166,"kolon":2167,"dirim":2168,"stÄ±r":2169,"start":2170,"onat":2171,"sini":2172,"kÄ±rmÄ±zÄ±":2173,"asyon":2174,"bitiÅŁ":2175,"dÃ¶v":2176,"Ä±span":2177,"gerz":2178,"Ġtah":2179,"Ã¶ÄŁretmen":2180,"bastÄ±r":2181,"batar":2182,"otob":2183,"vezir":2184,"gÃ¼ran":2185,"silin":2186,"strip":2187,"ĠÅŁar":2188,"sÃ¼tyen":2189,"karakter":2190,"kardelen":2191,"diskot":2192,"limonat":2193,"Ġsinek":2194,"ÅŁÄ±rÄ±n":2195,"karmaÅŁÄ±k":2196,"ibli":2197,"tutulma":2198,"iÅŁkence":2199,"figÃ¼ran":2200,"zaÄŁar":2201,"kravat":2202,"domate":2203,"jongl":2204,"jenerasyon":2205,"lokan":2206,"pipet":2207,"tahdi":2208,"Ä±stakoz":2209,"mustat":2210,"enjeksiyon":2211,"bÃ¶lÃ¼m":2212,"fok":2213,"ileri":2214,"Ã¼st":2215,"makta":2216,"mimiz":2217,"alya":2218,"giden":2219,"madÄ±ydÄ±k":2220,"konsey":2221,"belde":2222,"pusula":2223,"ÅŁapkacÄ±":2224,"oynatÄ±cÄ±":2225,"manivela":2226,"Ã§akal":2227,"meÅŁrubat":2228,"dÃ¶vÃ¼ÅŁ":2229,"silindir":2230,"striptiz":2231,"jonglÃ¶r":2232,"biyen":2233,"giy":2234,"iyar":2235,"kÃ¼r":2236,"pur":2237,"palya":2238,"sec":2239,"skÃ¼":2240,"tay":2241,"top":2242,"ziyar":2243,"Ġbir":2244,"ĠdeÄŁiÅŁ":2245,"yatay":2246,"masu":2247,"malu":2248,"mari":2249,"matik":2250,"mid":2251,"mimari":2252,"izlen":2253,"unmatik":2254,"eniz":2255,"kolek":2256,"iÅŁlev":2257,"deney":2258,"sinag":2259,"mazot":2260,"otuz":2261,"yumur":2262,"kanl":2263,"baykuÅŁ":2264,"Ã§edar":2265,"iÃ§gÃ¼d":2266,"tab":2267,"rad":2268,"refer":2269,"Ã¶zne":2270,"Ã¶zgÃ¼r":2271,"bank":2272,"yerel":2273,"dokunmatik":2274,"toh":2275,"peskÃ¼":2276,"ideal":2277,"lezbiyen":2278,"interfaz":2279,"ebedil":2280,"Ġekran":2281,"yabancÄ±":2282,"battaniye":2283,"doktrin":2284,"aikido":2285,"numaralama":2286,"pilav":2287,"genelev":2288,"Ġdesen":2289,"palyaÃ§":2290,"secca":2291,"ziyaret":2292,"ĠdeÄŁiÅŁken":2293,"masumiyet":2294,"koleksiyon":2295,"sinagog":2296,"bÃ¼st":2297,"gol":2298,"sÄ±na":2299,"koku":2300,"leyecek":2301,"bilgi":2302,"puan":2303,"diÅŁli":2304,"devir":2305,"viÅŁne":2306,"basketbolcu":2307,"TiranlÄ±":2308,"kaside":2309,"kelepÃ§e":2310,"hÃ¼kÃ»met":2311,"mustatil":2312,"kÃ¼rke":2313,"aj":2314,"gÄ±t":2315,"glÄ±":2316,"hri":2317,"kla":2318,"kru":2319,"pis":2320,"sbaÄŁ":2321,"tat":2322,"vur":2323,"zayÄ±f":2324,"Ġistem":2325,"Ġgiden":2326,"mil":2327,"Ã§Ä±r":2328,"Ã§im":2329,"Ã§Ã¶z":2330,"dÄ±y":2331,"aygÄ±t":2332,"tÃ¼rev":2333,"gelen":2334,"vern":2335,"okiya":2336,"avize":2337,"keleb":2338,"kehri":2339,"dÃ¼ÅŁey":2340,"hasta":2341,"sevg":2342,"derleme":2343,"kopo":2344,"simil":2345,"salon":2346,"baÅŁkan":2347,"baÅŁvur":2348,"baraj":2349,"yaÄŁlayÄ±":2350,"tosbaÄŁ":2351,"sarÄ±m":2352,"popo":2353,"evlat":2354,"saÄŁrÄ±":2355,"lÃ¼gatÃ§e":2356,"BelgratlÄ±":2357,"protesto":2358,"KopenhaglÄ±":2359,"anjiyo":2360,"klatr":2361,"kruv":2362,"piskopo":2363,"Ã§Ã¶zel":2364,"kehribar":2365,"pa":2366,"rÃ¼":2367,"tavu":2368,"ÄŁÃ¼n":2369,"Ġolmuyor":2370,"kÄ±Ã§":2371,"bede":2372,"mÃ¼ÅŁsÃ¼nÃ¼z":2373,"virgÃ¼l":2374,"ÅŁahÄ±s":2375,"motorin":2376,"Ġprogramlama":2377,"kruvasan":2378,"tavuk":2379,"car":2380,"con":2381,"ew":2382,"forum":2383,"han":2384,"hir":2385,"lol":2386,"liliÄŁ":2387,"no":2388,"ner":2389,"tor":2390,"zam":2391,"Ġli":2392,"mesul":2393,"Ã§ip":2394,"sÄ±nÄ±n":2395,"erap":2396,"mÄ±zÄ±n":2397,"karna":2398,"meyhan":2399,"oterap":2400,"aÃ§Ä±lÄ±r":2401,"yalÄ±t":2402,"kaldÄ±r":2403,"ipop":2404,"sihir":2405,"tutku":2406,"tÃ¼tÃ¼":2407,"abadi":2408,"sizliÄŁ":2409,"view":2410,"papaÄŁ":2411,"pancar":2412,"model":2413,"doktor":2414,"madÄ±ydÄ±m":2415,"bahar":2416,"anasÄ±z":2417,"yÄ±ldÄ±r":2418,"kefalet":2419,"birlikt":2420,"yolcu":2421,"psikoterap":2422,"kÄ±yamet":2423,"salata":2424,"Ã§ekmece":2425,"ĠkÃ¶fte":2426,"klatrat":2427,"bedevi":2428,"control":2429,"lolipop":2430,"noh":2431,"nergi":2432,"mesuliyet":2433,"karnabahar":2434,"sihirbaz":2435,"leÄŁ":2436,"gemi":2437,"gece":2438,"derece":2439,"cami":2440,"vade":2441,"bayÄ±lma":2442,"mumya":2443,"mazdÄ±m":2444,"otomobilci":2445,"hiperbol":2446,"kÄ±zan":2447,"duymama":2448,"huni":2449,"huri":2450,"mucize":2451,"koruyucu":2452,"sahi":2453,"hÃ¼lya":2454,"peskÃ¼tan":2455,"papaÄŁan":2456,"Yah":2457,"esen":2458,"imin":2459,"rop":2460,"vey":2461,"vikipedi":2462,"yÃ¼z":2463,"ĠyÃ¼k":2464,"akvar":2465,"ÅŁam":2466,"Ã§er":2467,"Ã¶re":2468,"kalama":2469,"diyet":2470,"iket":2471,"etiket":2472,"dut":2473,"satran":2474,"ahkÃ¢":2475,"dÃ¶ÅŁam":2476,"iÃ§yÃ¼z":2477,"kiriÅŁ":2478,"kullanma":2479,"emmiyet":2480,"Ġfrek":2481,"gÃ¼nahkÃ¢":2482,"parÃ§a":2483,"ehemmiyet":2484,"ebediyet":2485,"havadan":2486,"pÄ±rasa":2487,"paÅŁa":2488,"Ã§orba":2489,"bermuda":2490,"cezerye":2491,"fare":2492,"video":2493,"papirÃ¼s":2494,"ayakkabÄ±cÄ±":2495,"batarya":2496,"sahife":2497,"Yahu":2498,"ropdÃ¶ÅŁam":2499,"ĠyÃ¼ksek":2500,"ropdÃ¶ÅŁamb":2501,"ÅŁal":2502,"meme":2503,"makina":2504,"dadÄ±":2505,"okul":2506,"dinleti":2507,"sakso":2508,"mayo":2509,"abacÄ±":2510,"mazdÄ±k":2511,"voleybolcu":2512,"sÃ¼lÃ¼s":2513,"Ġdizi":2514,"idare":2515,"zurna":2516,"laterna":2517,"kolonya":2518,"lokanta":2519,"nohut":2520,"vikipedist":2521,"kalamar":2522,"gÃ¼nahkÃ¢r":2523,"ropdÃ¶ÅŁambÄ±r":2524,"Zag":2525,"gÄ±nlÄ±k":2526,"hu":2527,"pÄ±":2528,"sorum":2529,"vis":2530,"Ã¼man":2531,"Ã¼vey":2532,"yasa":2533,"ĠoÄŁ":2534,"sÄ±ndan":2535,"enstr":2536,"eten":2537,"mamÄ±ÅŁsÄ±nÄ±z":2538,"mamÄ±ÅŁtÄ±n":2539,"Ã§eÃ§":2540,"amca":2541,"ĠhalÄ±":2542,"vida":2543,"bÃ¼yÃ¼c":2544,"veter":2545,"kerpeten":2546,"madÄ±ydÄ±n":2547,"balta":2548,"hamster":2549,"Ġsandalye":2550,"embriyo":2551,"Ġtahta":2552,"bastÄ±rma":2553,"Zagrep":2554,"sorumsuz":2555,"visk":2556,"enstrÃ¼man":2557,"tal":2558,"yÃ¶re":2559,"yorum":2560,"iÅŁÃ§i":2561,"mazmÄ±ÅŁÄ±z":2562,"mÄ±zdan":2563,"mamÄ±ÅŁmÄ±ÅŁsÄ±nÄ±z":2564,"mamÄ±ÅŁmÄ±ÅŁsÄ±n":2565,"manÄ±z":2566,"yarasa":2567,"Ã¼ye":2568,"dergi":2569,"yankÄ±":2570,"yavru":2571,"ÅŁaka":2572,"Musevi":2573,"iÅŁlemci":2574,"Ġsoru":2575,"sosisli":2576,"LefkoÅŁalÄ±":2577,"eniÅŁte":2578,"palyaÃ§o":2579,"seccade":2580,"enstrÃ¼mantal":2581,"alama":2582,"net":2583,"sÄ±nda":2584,"mamÄ±ÅŁtÄ±k":2585,"mÃ¼ÅŁler":2586,"sucu":2587,"yapÄ±ÅŁma":2588,"daÄŁÄ±tÄ±m":2589,"mayÄ±z":2590,"mayÄ±nÄ±z":2591,"metre":2592,"matla":2593,"kusma":2594,"sÄ±ralama":2595,"pirin":2596,"eziyetÃ§i":2597,"koÅŁucu":2598,"mandalina":2599,"teorem":2600,"semerci":2601,"ĠDabili":2602,"frizbi":2603,"cibin":2604,"milimetre":2605,"limonata":2606,"ÅŁÄ±rÄ±nga":2607,"veteriner":2608,"sucuk":2609,"muÅŁt":2610,"mamÄ±ÅŁtÄ±":2611,"mamÄ±ÅŁlarmÄ±ÅŁ":2612,"Ã¶rdek":2613,"mayÄ±n":2614,"bÄ±yÄ±k":2615,"ÅŁerbetÃ§i":2616,"Ã§apa":2617,"kasÄ±k":2618,"kamÃ§Ä±":2619,"iÅŁletme":2620,"yordam":2621,"karides":2622,"otobÃ¼s":2623,"puro":2624,"midye":2625,"izlence":2626,"yumurta":2627,"yo":2628,"Ġbel":2629,"orop":2630,"anÃ¼s":2631,"mayacakmÄ±ÅŁ":2632,"aÅŁÃ§Ä±":2633,"mamÄ±ÅŁÄ±m":2634,"karÄ±":2635,"memiÅŁim":2636,"ĠyapmÄ±yor":2637,"dina":2638,"kese":2639,"takÄ±":2640,"geri":2641,"dondurma":2642,"emlak":2643,"silgi":2644,"Ã§algÄ±Ã§":2645,"harÃ§":2646,"kavim":2647,"madÄ±ydÄ±nÄ±z":2648,"tÃ¼mce":2649,"Ã¶pÃ¼cÃ¼k":2650,"heykelcik":2651,"musluk":2652,"mÃ¼stahdem":2653,"ÅŁiÅŁlik":2654,"klorop":2655,"prens":2656,"Ġbirci":2657,"radyo":2658,"tatlÄ±":2659,"similya":2660,"yaÄŁlayÄ±cÄ±":2661,"Ġbellek":2662,"kloroplast":2663,"akrep":2664,"meta":2665,"lebi":2666,"mayacaÄŁÄ±m":2667,"mayacakmÄ±ÅŁsÄ±nÄ±z":2668,"ÅŁtÄ±":2669,"mazdÄ±nÄ±z":2670,"mamÄ±ÅŁÄ±z":2671,"kapÄ±":2672,"madÄ±lardÄ±":2673,"supap":2674,"ipek":2675,"uyru":2676,"ketÃ§ap":2677,"ikilem":2678,"leblebi":2679,"kavun":2680,"nene":2681,"deyim":2682,"ÅŁafak":2683,"girdap":2684,"kalÄ±p":2685,"baÅŁrahip":2686,"Ã¶ÄŁrenci":2687,"havuÃ§":2688,"Ã§imke":2689,"tosbaÄŁa":2690,"forumdaÅŁ":2691,"Ġliste":2692,"pirinÃ§":2693,"uyruk":2694,"fa":2695,"gaf":2696,"mayacaksÄ±n":2697,"mayacaklarmÄ±ÅŁ":2698,"mÄ±za":2699,"mamÄ±ÅŁtÄ±m":2700,"dÃ¶nem":2701,"rakÄ±":2702,"ofobi":2703,"daki":2704,"diÅŁlek":2705,"fahiÅŁe":2706,"mistik":2707,"karÅŁÄ±lÄ±k":2708,"porsuk":2709,"maskara":2710,"temsilcilik":2711,"tabiyet":2712,"metafaz":2713,"celik":2714,"eÃ§":2715,"sÃ¼k":2716,"tu":2717,"tul":2718,"mayacaktÄ±":2719,"mayacakmÄ±ÅŁÄ±z":2720,"alÄ±n":2721,"yapÄ±ncak":2722,"mazmÄ±ÅŁ":2723,"mÄ±zda":2724,"mamÄ±ÅŁmÄ±ÅŁ":2725,"kayak":2726,"gelinc":2727,"yarak":2728,"kireÃ§":2729,"sululuk":2730,"derviÅŁ":2731,"baÄŁcÄ±k":2732,"Ã¶zÃ¼r":2733,"Ã¶ncelik":2734,"yÃ¼ksÃ¼k":2735,"tÃ¼tsÃ¼":2736,"sÃ¼rtÃ¼klÃ¼k":2737,"Ã¶mÃ¼r":2738,"aynÅŁtaynyum":2739,"sebep":2740,"domates":2741,"meyhane":2742,"dakika":2743,"tulum":2744,"gelincik":2745,"plak":2746,"wiki":2747,"marat":2748,"mayacaktÄ±k":2749,"steri":2750,"tÃ¼rÃ¼":2751,"mazmÄ±ÅŁsÄ±nÄ±z":2752,"dildo":2753,"korse":2754,"batÄ±":2755,"salÄ±ncak":2756,"bardak":2757,"bakire":2758,"eziyetÃ§ilik":2759,"sÃ¶zcÃ¼":2760,"totemci":2761,"totemcilik":2762,"ÅŁehir":2763,"hareketlilik":2764,"Ã§iftlik":2765,"hinterlant":2766,"boks":2767,"skrotum":2768,"giysi":2769,"topoloji":2770,"baÅŁvuru":2771,"maraton":2772,"Ġderleyici":2773,"anÄ±z":2774,"mayacaksÄ±nÄ±z":2775,"mayacaklardÄ±":2776,"mayacaktÄ±n":2777,"mayacaktÄ±nÄ±z":2778,"kasap":2779,"aÅŁÄ±k":2780,"mamÄ±ÅŁlardÄ±":2781,"mamÄ±ÅŁtÄ±nÄ±z":2782,"kart":2783,"yuvarlÄ±yor":2784,"kuyu":2785,"terlik":2786,"Ã¢lim":2787,"alÄ±Ã§":2788,"kÄ±llÄ±k":2789,"yavÅŁak":2790,"cezve":2791,"Ġfikir":2792,"baÄŁÄ±rsak":2793,"sÃ¶zcÃ¼lÃ¼k":2794,"hÄ±Ã§kÄ±rÄ±k":2795,"Ã§evirim":2796,"gÃ¶mlek":2797,"salÃ§alÄ±k":2798,"borÃ§":2799,"iblis":2800,"Ġistemci":2801,"gaflet":2802,"bus":2803,"odak":2804,"Ã¼tÃ¼":2805,"mekik":2806,"Ã¶Ã§":2807,"alÄ±k":2808,"kokar":2809,"stop":2810,"aÄŁÄ±t":2811,"mazmÄ±ÅŁsÄ±n":2812,"mamÄ±ÅŁsÄ±n":2813,"memiÅŁlerdi":2814,"memiÅŁmiÅŁsiniz":2815,"memiÅŁlermiÅŁ":2816,"memiÅŁtim":2817,"gÃ¶steri":2818,"hastalÄ±k":2819,"otostop":2820,"kÃ¼tÃ¼k":2821,"sÃ¶zlÃ¼k":2822,"film":2823,"ucube":2824,"cevap":2825,"hata":2826,"kÃ¢bus":2827,"gÃ¼vensizlik":2828,"Ã§arpÄ±":2829,"ĠsineÄŁ":2830,"burun":2831,"beyit":2832,"albatros":2833,"diskotek":2834,"rÃ¼ya":2835,"dÃ¼y":2836,"gut":2837,"kili":2838,"sÃ¶ÄŁÃ¼t":2839,"site":2840,"angut":2841,"mayacaÄŁÄ±z":2842,"mayacakmÄ±ÅŁsÄ±n":2843,"mayacakmÄ±ÅŁÄ±m":2844,"mazmÄ±ÅŁÄ±m":2845,"memiÅŁtin":2846,"meyecektim":2847,"taraba":2848,"yengeÃ§":2849,"yenilik":2850,"seriyor":2851,"mÃ¼yorlar":2852,"eÄŁitim":2853,"yedek":2854,"kerpiÃ§":2855,"lastik":2856,"yutak":2857,"ekstremum":2858,"yoÄŁurt":2859,"vernik":2860,"sevgili":2861,"Yahudi":2862,"taÃ§":2863,"yapÄ±lacak":2864,"sunuyor":2865,"sindirim":2866,"mazsÄ±n":2867,"mazsÄ±nÄ±z":2868,"gÃ¼de":2869,"kÄ±rÄ±lÄ±yor":2870,"meyecekmiÅŁsin":2871,"dilim":2872,"yumuyor":2873,"dÃ¼ÅŁÃ¼nÃ¼yor":2874,"kullanÄ±lÄ±yor":2875,"oturuyor":2876,"unuzun":2877,"mediydi":2878,"mediydik":2879,"kedicik":2880,"kÄ±zlÄ±k":2881,"gÃ¼venlilik":2882,"bazalt":2883,"kuvvetsizlik":2884,"alamet":2885,"Ã¼cretsizlik":2886,"hapis":2887,"Ä±spanak":2888,"gerzek":2889,"kanlÄ±lÄ±k":2890,"ebedilik":2891,"Ã§Ä±rak":2892,"Ã§Ã¶zelti":2893,"kilise":2894,"ernek":2895,"memiÅŁmiÅŁsin":2896,"meyecektin":2897,"kÄ±ÅŁkÄ±rtÄ±yor":2898,"yaptÄ±rtÄ±yor":2899,"yaptÄ±rtmÄ±ÅŁ":2900,"ÅŁaÅŁÄ±rtmÄ±ÅŁ":2901,"betik":2902,"devin":2903,"kÃ¶ylÃ¼":2904,"Ã¶rÃ¼mcek":2905,"fiÅŁek":2906,"tahdit":2907,"malumat":2908,"deneyim":2909,"referans":2910,"tohum":2911,"kelebek":2912,"psikoterapi":2913,"nergis":2914,"Ã§erÃ§i":2915,"We":2916,"mam":2917,"Ã§elik":2918,"mayacaktÄ±m":2919,"yapÄ±lÄ±yor":2920,"dalacak":2921,"sinc":2922,"mazlarmÄ±ÅŁ":2923,"mamÄ±ÅŁmÄ±ÅŁÄ±m":2924,"meyin":2925,"memiÅŁsin":2926,"meyeceksin":2927,"meyecekmiÅŁsiniz":2928,"meyecekmiÅŁiz":2929,"bayÄ±lacak":2930,"kÄ±yacak":2931,"gÃ¶Ã§Ã¼yor":2932,"kaltak":2933,"sÃ¼zecek":2934,"deri":2935,"unuzu":2936,"unuzda":2937,"Ã¢ÅŁÄ±k":2938,"boÅŁanÄ±yor":2939,"mediydim":2940,"seÃ§iliyor":2941,"korkuyor":2942,"garp":2943,"ÅŁerbetÃ§ilik":2944,"arkadaÅŁlÄ±k":2945,"ambulans":2946,"ĠÅŁarap":2947,"iÃ§gÃ¼dÃ¼":2948,"sarÄ±msak":2949,"piskopos":2950,"Zagrepli":2951,"gÃ¼decek":2952,"devinim":2953,"Web":2954,"luÄŁ":2955,"uyacak":2956,"yalamÄ±ÅŁ":2957,"diyor":2958,"dirilecek":2959,"tÃ¼rÃ¼yor":2960,"mamÄ±ÅŁmÄ±ÅŁÄ±z":2961,"memiÅŁti":2962,"gecikecek":2963,"saklÄ±yor":2964,"uyaracak":2965,"kÄ±ÅŁkÄ±rtacak":2966,"yaptÄ±rtacak":2967,"kanÄ±tlÄ±yor":2968,"tepiyor":2969,"kovduruyor":2970,"anlatÄ±yor":2971,"karÄ±ÅŁtÄ±rtacak":2972,"Ã¶pÃ¼ÅŁÃ¼yor":2973,"bilim":2974,"kÃ¶pÃ¼rÃ¼yor":2975,"saldÄ±rÄ±yor":2976,"dÃ¶ndÃ¼recek":2977,"verdirtiyor":2978,"mediydiniz":2979,"Ã§Ä±ÄŁÄ±rtkanlÄ±k":2980,"mikrop":2981,"aygÄ±tÃ§Ä±k":2982,"yalÄ±tÄ±m":2983,"kaldÄ±raÃ§":2984,"controller":2985,"sincap":2986,"dÃ¼nÃ¼z":2987,"anÄ±yor":2988,"atÄ±lacak":2989,"uluyor":2990,"mezsiniz":2991,"mezdin":2992,"mezmiÅŁsin":2993,"mazlardÄ±":2994,"memiÅŁsiniz":2995,"memiÅŁtiniz":2996,"Ã¶lÃ§Ã¼":2997,"evlilik":2998,"bayÄ±lÄ±yor":2999,"sÃ¼zgeÃ§":3000,"sapÄ±yor":3001,"kurtarÄ±yor":3002,"taÅŁÄ±yor":3003,"geberiyor":3004,"ilklendirecek":3005,"gerekecek":3006,"gerekiyor":3007,"atÄ±ÅŁtÄ±racak":3008,"sattÄ±rtÄ±yor":3009,"Ġdikiyor":3010,"dalÄ±yor":3011,"kirletiyor":3012,"evlenmiÅŁ":3013,"aldatmÄ±ÅŁ":3014,"bitirecek":3015,"tanÄ±tacak":3016,"Ã§Ã¶kertiyor":3017,"yendirtiyor":3018,"meyeceÄŁiz":3019,"anasÄ±zlÄ±k":3020,"yÄ±ldÄ±rÄ±m":3021,"birliktelik":3022,"dinamit":3023,"luyor":3024,"Ġgelecek":3025,"mem":3026,"kaÅŁ":3027,"atÄ±lÄ±yor":3028,"yapÄ±yor":3029,"Ã¼zecek":3030,"aÅŁacak":3031,"mezmiÅŁsiniz":3032,"mÄ±yorsunuz":3033,"memiÅŁmiÅŁ":3034,"meyecektik":3035,"Ã§Ã¶kermiÅŁ":3036,"Ã§Ã¶keriyor":3037,"katÄ±lmÄ±ÅŁ":3038,"artacak":3039,"sÄ±zÄ±yor":3040,"seÃ§ilecek":3041,"coÅŁmuÅŁ":3042,"patlÄ±yor":3043,"Ġveriyor":3044,"horluyor":3045,"karÄ±ÅŁtÄ±rtmÄ±ÅŁ":3046,"sÃ¶kecek":3047,"sayacak":3048,"Ä±sÄ±racak":3049,"sÃ¼rÃ¼ndÃ¼rÃ¼yor":3050,"sesleniyor":3051,"kÄ±rdÄ±rmÄ±ÅŁ":3052,"ayÄ±racak":3053,"kapatÄ±yor":3054,"tÃ¼keniyor":3055,"unutuyor":3056,"sÃ¼mÃ¼rÃ¼yor":3057,"kurutacak":3058,"gÃ¼lÃ¼nÃ§leÅŁiyor":3059,"atÄ±ÅŁÄ±yor":3060,"yendirtecek":3061,"mediydin":3062,"dÃ¼zeltiyor":3063,"sikiliyor":3064,"mumluk":3065,"dizem":3066,"yÄ±kÄ±yor":3067,"akvaryum":3068,"satranÃ§":3069,"Ã¶lÃ§Ã¼lecek":3070,"pam":3071,"spam":3072,"Ġalacak":3073,"Ã§oÄŁul":3074,"arlar":3075,"dÃ¼rÃ¼yor":3076,"oluyor":3077,"mezmiÅŁ":3078,"mezdi":3079,"mezsin":3080,"mezdik":3081,"mezlerdi":3082,"mezlermiÅŁ":3083,"mazdÄ±n":3084,"memiÅŁtik":3085,"meyeceklerdi":3086,"meyecektiniz":3087,"asit":3088,"saymÄ±ÅŁ":3089,"utanmÄ±ÅŁ":3090,"utanÄ±yor":3091,"dÃ¼zÃ¼yor":3092,"katÄ±yor":3093,"bitiyor":3094,"medilerdi":3095,"korkacak":3096,"Ã¶ÄŁretiyor":3097,"sevecek":3098,"sikilecek":3099,"sÃ¼sÃ¼yor":3100,"kullanÄ±lmÄ±ÅŁ":3101,"sapacak":3102,"serecek":3103,"hastalanacak":3104,"kanÄ±tlamÄ±ÅŁ":3105,"yalvarÄ±yor":3106,"atÄ±ÅŁtÄ±rÄ±yor":3107,"sattÄ±rtacak":3108,"Ã§alacak":3109,"Ä±sÄ±rÄ±yor":3110,"aldatÄ±yor":3111,"ettiriyor":3112,"tanÄ±tmÄ±ÅŁ":3113,"Ã¶lÃ§tÃ¼rtÃ¼yor":3114,"diriliyor":3115,"gÃ¼dÃ¼yor":3116,"mÃ¼ÅŁteri":3117,"Ã¶nemsizlik":3118,"Ä±mÄ±n":3119,"bÃ¼rÃ¼mÃ¼ÅŁ":3120,"ehemmiyetlilik":3121,"bÃ¼yÃ¼cÃ¼":3122,"viski":3123,"erler":3124,"atÄ±lmÄ±ÅŁ":3125,"diriyor":3126,"sunacak":3127,"kÄ±rÄ±lacak":3128,"kÄ±rÄ±lmÄ±ÅŁ":3129,"verilecek":3130,"mÄ±yormuÅŁ":3131,"mÄ±yordu":3132,"mÄ±yorlarmÄ±ÅŁ":3133,"memiÅŁmiÅŁim":3134,"memiÅŁmiÅŁiz":3135,"sÃ¼rÃ¼yor":3136,"diliyor":3137,"asmÄ±ÅŁ":3138,"sayÄ±yor":3139,"kaynaÅŁtÄ±rÄ±lÄ±yor":3140,"kaynaÅŁtÄ±rÄ±lacak":3141,"kaynaÅŁtÄ±rÄ±lmÄ±ÅŁ":3142,"katÄ±lacak":3143,"canlandÄ±racak":3144,"yazÄ±yor":3145,"Ã¶ÄŁretmiÅŁ":3146,"kopuyor":3147,"uyarÄ±yor":3148,"paylaÅŁÄ±yor":3149,"paylaÅŁacak":3150,"bÃ¼rÃ¼yor":3151,"Ġverecek":3152,"taÅŁacak":3153,"onarmÄ±ÅŁ":3154,"hastalanÄ±yor":3155,"tepecek":3156,"ÅŁaÅŁÄ±rtÄ±yor":3157,"pusacak":3158,"kaÅŁÄ±mÄ±ÅŁ":3159,"kayboluyor":3160,"tutuyor":3161,"ĠaldÄ±racak":3162,"seslenecek":3163,"kÄ±rdÄ±rÄ±yor":3164,"geciktirmiÅŁ":3165,"geciktiriyor":3166,"kapatacak":3167,"tÃ¼kenmiÅŁ":3168,"atÄ±ÅŁacak":3169,"boÅŁalÄ±yor":3170,"meyeceÄŁim":3171,"esenlik":3172,"hudut":3173,"sorumsuzluk":3174,"dÃ¼m":3175,"Ġkutu":3176,"inmiÅŁ":3177,"yapmÄ±ÅŁ":3178,"Ã¼nÃ¼n":3179,"dÃ¼recek":3180,"aÄŁlamÄ±ÅŁ":3181,"mÄ±yordun":3182,"mÄ±yormuÅŁsun":3183,"memiÅŁiz":3184,"meyecekti":3185,"bÃ¼kecek":3186,"piÅŁiyor":3187,"dÃ¼zmÃ¼ÅŁ":3188,"katmÄ±ÅŁ":3189,"katacak":3190,"katÄ±lÄ±yor":3191,"baygÄ±nlÄ±k":3192,"aÃ§Ä±yor":3193,"takÄ±yor":3194,"canlandÄ±rtÄ±lacak":3195,"aldÄ±racak":3196,"yalÄ±yor":3197,"gÃ¶Ã§ecek":3198,"coÅŁuyor":3199,"Ġtam":3200,"Ã¶ÄŁretecek":3201,"patla":3202,"patlamÄ±ÅŁ":3203,"kullanÄ±lacak":3204,"benziyor":3205,"donduruyor":3206,"uyarmÄ±ÅŁ":3207,"yalvarmÄ±ÅŁ":3208,"Ã§almÄ±ÅŁ":3209,"yoksullaÅŁtÄ±rÄ±yor":3210,"soluyor":3211,"sÃ¶kÃ¼yor":3212,"kaybolmuÅŁ":3213,"sayar":3214,"daÄŁÄ±tÄ±yor":3215,"saldÄ±rmÄ±ÅŁ":3216,"utandÄ±rÄ±yor":3217,"unutacak":3218,"ettirmiÅŁ":3219,"uÄŁratÄ±yor":3220,"eÄŁleniyor":3221,"ĠsÄ±kÄ±ÅŁacak":3222,"birleÅŁecek":3223,"verdirtecek":3224,"seÃ§ilmiÅŁ":3225,"kalkmÄ±ÅŁ":3226,"ellemiÅŁ":3227,"pusuyor":3228,"Ġfrekans":3229,"ĠoÄŁul":3230,"Ġtamlama":3231,"inecek":3232,"atom":3233,"yapÄ±lmÄ±ÅŁ":3234,"elliyor":3235,"kokacak":3236,"aÄŁlÄ±yor":3237,"tanÄ±yor":3238,"Ã¶pmÃ¼ÅŁ":3239,"meyiz":3240,"mÄ±yorum":3241,"mÄ±yormuÅŁuz":3242,"kayb":3243,"meyecekmiÅŁ":3244,"meyecekmiÅŁim":3245,"meyeceklermiÅŁ":3246,"bÃ¼kÃ¼yor":3247,"boÅŁalacak":3248,"kaynaÅŁtÄ±rtÄ±lacak":3249,"artmÄ±ÅŁ":3250,"bayÄ±lmÄ±ÅŁ":3251,"aÃ§acak":3252,"canlandÄ±rmÄ±ÅŁ":3253,"canlandÄ±rÄ±yor":3254,"aldÄ±rmÄ±ÅŁ":3255,"yazmÄ±ÅŁ":3256,"yaÄŁlÄ±yor":3257,"sÃ¼zÃ¼yor":3258,"sÃ¼secek":3259,"sÃ¼smÃ¼ÅŁ":3260,"demliyor":3261,"sermiÅŁ":3262,"kurtaracak":3263,"ĠvermiÅŁ":3264,"taÅŁmÄ±ÅŁ":3265,"geberecek":3266,"tepmiÅŁ":3267,"yÄ±ÄŁmÄ±ÅŁ":3268,"anlatmÄ±ÅŁ":3269,"karÄ±ÅŁtÄ±rtÄ±yor":3270,"yetiÅŁmiÅŁ":3271,"bÃ¼ktÃ¼rÃ¼yor":3272,"sÄ±vÄ±laÅŁtÄ±rÄ±yor":3273,"sÃ¶vÃ¼yor":3274,"pusmuÅŁ":3275,"yÄ±kamÄ±ÅŁ":3276,"eÄŁitiyor":3277,"yapÄ±ÅŁÄ±yor":3278,"yapÄ±ÅŁacak":3279,"unuza":3280,"Ã¶ÄŁÃ¼tecek":3281,"ĠaldÄ±rmÄ±ÅŁ":3282,"ĠaldÄ±rÄ±yor":3283,"saydÄ±rmÄ±ÅŁ":3284,"saydÄ±rÄ±yor":3285,"kÃ¶pÃ¼recek":3286,"geciktirecek":3287,"Ä°ngilizceleÅŁtirmiÅŁ":3288,"TÃ¼rkÃ§eleÅŁtiriyor":3289,"uÄŁratacak":3290,"ĠsÄ±kÄ±ÅŁÄ±yor":3291,"Ã§Ã¶kertecek":3292,"gidilmiÅŁ":3293,"gidiliyor":3294,"kokuyor":3295,"uyuyor":3296,"kaÅŁÄ±yor":3297,"anacak":3298,"yapacak":3299,"olmuÅŁ":3300,"mezdiniz":3301,"mezmiÅŁim":3302,"Ã¶pecek":3303,"meyiniz":3304,"meyeceksiniz":3305,"bÃ¼kmÃ¼ÅŁ":3306,"artÄ±yor":3307,"iÃ§miÅŁ":3308,"iÃ§iyor":3309,"sakla":3310,"Ã¶ldÃ¼rtÃ¼yor":3311,"yazacak":3312,"yaÄŁlamÄ±ÅŁ":3313,"gÃ¶Ã§mÃ¼ÅŁ":3314,"kalkacak":3315,"gezecek":3316,"sapmÄ±ÅŁ":3317,"paylaÅŁmÄ±ÅŁ":3318,"gÃ¶tÃ¼rÃ¼yor":3319,"horlamÄ±ÅŁ":3320,"dadanacak":3321,"ÅŁaÅŁÄ±rtacak":3322,"sattÄ±rtmÄ±ÅŁ":3323,"anlatacak":3324,"yetiÅŁiyor":3325,"bÃ¼ktÃ¼recek":3326,"sÄ±vÄ±laÅŁtÄ±rmÄ±ÅŁ":3327,"Ã¶lÃ§Ã¼lmÃ¼ÅŁ":3328,"muyorlar":3329,"sanmÄ±ÅŁ":3330,"unuzdan":3331,"Ã¶ÄŁÃ¼tmÃ¼ÅŁ":3332,"Ä±sÄ±rmÄ±ÅŁ":3333,"sÃ¼rÃ¼ndÃ¼recek":3334,"seslenmiÅŁ":3335,"kÄ±rdÄ±racak":3336,"kÃ¶pÃ¼rmÃ¼ÅŁ":3337,"evleniyor":3338,"ayÄ±rmÄ±ÅŁ":3339,"tÃ¼kÃ¼recek":3340,"Ã¼ÅŁenmiÅŁ":3341,"boÅŁanmÄ±ÅŁ":3342,"utandÄ±racak":3343,"Ä°ngilizceleÅŁtirecek":3344,"kaÃ§Ä±rÄ±yor":3345,"kurutuyor":3346,"eÄŁlenmiÅŁ":3347,"atÄ±ÅŁmÄ±ÅŁ":3348,"verdirtmiÅŁ":3349,"dÃ¼rtecek":3350,"Ġgeliyor":3351,"verilmiÅŁ":3352,"veriliyor":3353,"ĠmÃ¼ydÃ¼nÃ¼z":3354,"benzemiÅŁ":3355,"yumacak":3356,"kaybolacak":3357,"iniyor":3358,"demiÅŁ":3359,"aÄŁla":3360,"aÅŁÄ±yor":3361,"mezmiÅŁiz":3362,"Ã¶pÃ¼yor":3363,"mÄ±yorsun":3364,"mÄ±yordunuz":3365,"Ã§Ã¶kerecek":3366,"gecikiyor":3367,"gidilecek":3368,"bitmiÅŁ":3369,"bitecek":3370,"sÄ±zacak":3371,"takacak":3372,"iÃ§ecek":3373,"sÃ¼zmÃ¼ÅŁ":3374,"donduracak":3375,"deÄŁiÅŁiyor":3376,"yuvarlamÄ±ÅŁ":3377,"kÄ±ÅŁkÄ±rtmÄ±ÅŁ":3378,"gÃ¶tÃ¼recek":3379,"kovdurmuÅŁ":3380,"kovduracak":3381,"yÄ±ÄŁacak":3382,"Ã§alÄ±yor":3383,"dalmÄ±ÅŁ":3384,"sanacak":3385,"yapÄ±ÅŁmÄ±ÅŁ":3386,"saydÄ±racak":3387,"ayÄ±rÄ±yor":3388,"aldatacak":3389,"iyileÅŁtirmiÅŁ":3390,"iyileÅŁtiriyor":3391,"Ä°ngilizceleÅŁtiriyor":3392,"kaÃ§Ä±rmÄ±ÅŁ":3393,"TÃ¼rkÃ§eleÅŁtirmiÅŁ":3394,"TÃ¼rkÃ§eleÅŁtirecek":3395,"gÃ¼lÃ¼nÃ§leÅŁmiÅŁ":3396,"delirecek":3397,"deÄŁiÅŁtirmiÅŁ":3398,"dirilmiÅŁ":3399,"dÃ¼rtÃ¼yor":3400,"dÃ¼zeltecek":3401,"kaynaÅŁtÄ±rtÄ±lÄ±yor":3402,"ĠalÄ±yor":3403,"sÃ¼rÃ¼mÃ¼ÅŁ":3404,"eceÄŁim":3405,"diremiÅŁ":3406,"gÃ¼tmÃ¼ÅŁ":3407,"tiy":3408,"yÃ¶n":3409,"enin":3410,"dÃ¼rmÃ¼ÅŁ":3411,"mezdim":3412,"varmÄ±ÅŁ":3413,"mÄ±yorduk":3414,"mÄ±yordum":3415,"asacak":3416,"geliyor":3417,"aÃ§mÄ±ÅŁ":3418,"sÃ¼necek":3419,"sÃ¼nÃ¼yor":3420,"gezmiÅŁ":3421,"seviyor":3422,"dÃ¼ÅŁÃ¼necek":3423,"dondurmuÅŁ":3424,"kopmuÅŁ":3425,"ulumuÅŁ":3426,"onarÄ±yor":3427,"hastalanmÄ±ÅŁ":3428,"ilklendiriyor":3429,"oturacak":3430,"yalvaracak":3431,"atÄ±ÅŁtÄ±rmÄ±ÅŁ":3432,"ĠdikmiÅŁ":3433,"Ġdikecek":3434,"Ã¶pÃ¼ÅŁecek":3435,"sÃ¶vecek":3436,"kÄ±yÄ±yor":3437,"solumuÅŁ":3438,"tutmuÅŁ":3439,"Ã¶ÄŁÃ¼tÃ¼yor":3440,"evlenecek":3441,"tÃ¼kÃ¼rÃ¼yor":3442,"ettirecek":3443,"sÃ¼mÃ¼recek":3444,"dÃ¶ndÃ¼rÃ¼yor":3445,"delirmiÅŁ":3446,"deÄŁiÅŁtirecek":3447,"tanÄ±tÄ±yor":3448,"Ã§Ã¶kertmiÅŁ":3449,"baÅŁÃ§Ä±k":3450,"canlandÄ±rtÄ±lÄ±yor":3451,"kokmuÅŁ":3452,"demlemiÅŁ":3453,"yÃ¶nel":3454,"dÃ¼k":3455,"mun":3456,"aÅŁmÄ±ÅŁ":3457,"sunmuÅŁ":3458,"mÄ±yoruz":3459,"mÄ±yormuÅŁsunuz":3460,"utanacak":3461,"sÄ±zmÄ±ÅŁ":3462,"gÃ¶tÃ¼rmÃ¼ÅŁ":3463,"dadanÄ±yor":3464,"oturmuÅŁ":3465,"yÄ±ÄŁÄ±yor":3466,"yetiÅŁecek":3467,"kapamÄ±ÅŁ":3468,"sanÄ±yor":3469,"eÄŁitecek":3470,"kirletecek":3471,"tÃ¼kÃ¼rmÃ¼ÅŁ":3472,"Ã¼ÅŁenecek":3473,"Ã¼ÅŁeniyor":3474,"iyileÅŁtirecek":3475,"kaÃ§Ä±racak":3476,"dÃ¶ndÃ¼rmÃ¼ÅŁ":3477,"eÄŁlenecek":3478,"gÃ¼ceniyor":3479,"bitirmiÅŁ":3480,"birleÅŁiyor":3481,"deÄŁiÅŁtiriyor":3482,"Ã¶lÃ§tÃ¼rtecek":3483,"canlandÄ±rtÄ±lmÄ±ÅŁ":3484,"ĠgelmiÅŁ":3485,"ĠalmÄ±ÅŁ":3486,"boÅŁalmÄ±ÅŁ":3487,"korkmuÅŁ":3488,"ĠÃ§i":3489,"yala":3490,"varÄ±yor":3491,"satmÄ±ÅŁ":3492,"asÄ±yor":3493,"piÅŁmiÅŁ":3494,"piÅŁecek":3495,"aldÄ±rÄ±yor":3496,"dernek":3497,"kopacak":3498,"uymuÅŁ":3499,"deÄŁiÅŁecek":3500,"kurtarmÄ±ÅŁ":3501,"yuvarla":3502,"ilklendirmiÅŁ":3503,"Ã¶pÃ¼ÅŁmÃ¼ÅŁ":3504,"sÄ±vÄ±laÅŁtÄ±racak":3505,"daÄŁÄ±tacak":3506,"sÃ¼rÃ¼ndÃ¼rmÃ¼ÅŁ":3507,"saldÄ±racak":3508,"kapatmÄ±ÅŁ":3509,"kurutmuÅŁ":3510,"gÃ¼cenmiÅŁ":3511,"gÃ¼cenecek":3512,"bitiriyor":3513,"deliriyor":3514,"Ã¶lÃ§tÃ¼rtmÃ¼ÅŁ":3515,"dÃ¼zeltmiÅŁ":3516,"kaynaÅŁtÄ±rtÄ±lmÄ±ÅŁ":3517,"sikilmiÅŁ":3518,"ĠmÃ¼ydÃ¼":3519,"ĠmÃ¼ydÃ¼m":3520,"Ã¼zÃ¼yor":3521,"varacak":3522,"mÄ±yormuÅŁum":3523,"gelmiÅŁ":3524,"takmÄ±ÅŁ":3525,"tanÄ±mÄ±ÅŁ":3526,"Ã¶ldÃ¼rtecek":3527,"coÅŁacak":3528,"geziyor":3529,"horla":3530,"gebermiÅŁ":3531,"dadanmÄ±ÅŁ":3532,"gerekmiÅŁ":3533,"Ã¶lÃ§Ã¼lÃ¼yor":3534,"sÃ¶vmÃ¼ÅŁ":3535,"tutacak":3536,"kirletmiÅŁ":3537,"utandÄ±rmÄ±ÅŁ":3538,"tÃ¼kenecek":3539,"unutmuÅŁ":3540,"sÃ¼mÃ¼rmÃ¼ÅŁ":3541,"uÄŁratmÄ±ÅŁ":3542,"ĠsÄ±kÄ±ÅŁmÄ±ÅŁ":3543,"birleÅŁmiÅŁ":3544,"yendirtmiÅŁ":3545,"kalkÄ±yor":3546,"rÄ±l":3547,"zincir":3548,"anmÄ±ÅŁ":3549,"ayrÄ±l":3550,"satacak":3551,"tam":3552,"sevmiÅŁ":3553,"deÄŁiÅŁmiÅŁ":3554,"onaracak":3555,"sÃ¶kmÃ¼ÅŁ":3556,"kÄ±ymÄ±ÅŁ":3557,"eÄŁitmiÅŁ":3558,"daÄŁÄ±tmÄ±ÅŁ":3559,"boÅŁanacak":3560,"dÃ¼rtmÃ¼ÅŁ":3561,"ĠmÃ¼ydÃ¼n":3562,"eceÄŁiz":3563,"deniz":3564,"kÄ±rÄ±lÄ±r":3565,"dÃ¼zecek":3566,"katÄ±lÄ±r":3567,"saklamÄ±ÅŁ":3568,"tÄ±lar":3569,"sÃ¼nmÃ¼ÅŁ":3570,"dÃ¼ÅŁÃ¼nmÃ¼ÅŁ":3571,"bÃ¼ktÃ¼rmÃ¼ÅŁ":3572,"yoksullaÅŁtÄ±rmÄ±ÅŁ":3573,"yummuÅŁ":3574,"tÃ¼remiÅŁ":3575,"ĠdÃ¶rtgen":3576,"Ã¼ne":3577,"Ã¼zmÃ¼ÅŁ":3578,"gÃ¼der":3579,"mÄ±yorlardÄ±":3580,"satÄ±yor":3581,"gecikmiÅŁ":3582,"Ã¶ldÃ¼rtmÃ¼ÅŁ":3583,"yaptÄ±rtÄ±r":3584,"kanÄ±tla":3585,"Ã¶ldÃ¼rtÃ¼lÃ¼yor":3586,"gÃ¼lÃ¼nÃ§leÅŁecek":3587,"umuza":3588,"ayrÄ±lma":3589,"dilmiÅŁ":3590,"yoksullaÅŁtÄ±racak":3591,"daÄŁÄ±tÄ±r":3592,"sÃ¼rÃ¼ndÃ¼rÃ¼r":3593,"umuzun":3594,"yapÄ±lÄ±r":3595,"Ã¼nÃ¼":3596,"mize":3597,"yendirtir":3598,"kÄ±yar":3599,"tÄ±ydÄ±":3600,"Ġverir":3601,"Ã¶ldÃ¼rtÃ¼lÃ¼r":3602,"umuzu":3603,"umuzda":3604,"umuzdan":3605,"Ã¼nde":3606,"ulur":3607,"kapÄ±yor":3608,"ĠÃ§ekmiyor":3609,"bayÄ±lÄ±r":3610,"Ä±sÄ±":3611,"ĠmÃ¼ydÃ¼k":3612,"sÃ¶ker":3613,"laÄŁ":3614,"Ä±lÄ±ÄŁ":3615,"mizin":3616,"verdirtir":3617,"Ã§Ã¶kertir":3618,"sattÄ±rtÄ±r":3619,"canlandÄ±rtÄ±lÄ±r":3620,"miniz":3621,"Ġbili":3622,"yalayacak":3623,"kaÅŁÄ±r":3624,"Ã¼zer":3625,"aÄŁlayacak":3626,"tÃ¼rer":3627,"mizden":3628,"canlanmamÄ±ÅŁ":3629,"dÃ¼zer":3630,"aÃ§ar":3631,"canlandÄ±rÄ±r":3632,"iÃ§er":3633,"tanÄ±tÄ±r":3634,"yaÄŁlayacak":3635,"korkar":3636,"demler":3637,"uyarÄ±r":3638,"teper":3639,"Ã¶lÃ§tÃ¼rtÃ¼r":3640,"kaÅŁÄ±yacak":3641,"kapayacak":3642,"saydÄ±rÄ±r":3643,"tÃ¼kÃ¼rÃ¼r":3644,"kaÃ§Ä±rÄ±r":3645,"sÃ¼mÃ¼rÃ¼r":3646,"ĠalÄ±r":3647,"diyecek":3648,"acaÄŁÄ±m":3649,"Ġdur":3650,"yapar":3651,"eller":3652,"aÅŁar":3653,"sever":3654,"mizde":3655,"asÄ±":3656,"miyorlarmÄ±ÅŁ":3657,"miyormuÅŁsunuz":3658,"Ã¶ldÃ¼rtÃ¼r":3659,"kopar":3660,"paylaÅŁÄ±r":3661,"bÃ¼rÃ¼r":3662,"kÄ±ÅŁkÄ±rtÄ±r":3663,"gÃ¶tÃ¼rÃ¼r":3664,"yoksullaÅŁtÄ±rÄ±r":3665,"Ã¶ldÃ¼rtÃ¼lmemiÅŁ":3666,"Ã¶lÃ§Ã¼lÃ¼r":3667,"kirletir":3668,"kapatÄ±r":3669,"eÄŁlenir":3670,"gidilir":3671,"kaynaÅŁtÄ±rtÄ±lÄ±r":3672,"Ġgelir":3673,"boÅŁalÄ±r":3674,"imi":3675,"anar":3676,"miyorlardÄ±":3677,"piÅŁer":3678,"takar":3679,"sapar":3680,"uluyacak":3681,"kurtarÄ±r":3682,"geberir":3683,"dadanÄ±r":3684,"kovdurur":3685,"karÄ±ÅŁtÄ±rtÄ±r":3686,"yetiÅŁir":3687,"seslenir":3688,"kÃ¶pÃ¼rÃ¼r":3689,"TÃ¼rkÃ§eleÅŁtirir":3690,"delirir":3691,"dirilir":3692,"acaÄŁÄ±z":3693,"Ã§iliÄŁ":3694,"elleyecek":3695,"Ã¼nden":3696,"dÃ¼rter":3697,"tanÄ±r":3698,"mizi":3699,"Ã¶per":3700,"sÃ¼rÃ¼r":3701,"yÄ±kar":3702,"gelir":3703,"miyorsunuz":3704,"Ġsite":3705,"saklayacak":3706,"yazar":3707,"gÃ¶Ã§er":3708,"sÃ¼ner":3709,"kalkar":3710,"sÃ¼zer":3711,"sÃ¼ser":3712,"yuvarlayacak":3713,"horlar":3714,"ÅŁaÅŁÄ±rtÄ±r":3715,"soluyacak":3716,"yapÄ±ÅŁÄ±r":3717,"ĠaldÄ±rÄ±r":3718,"evlenir":3719,"unutur":3720,"sikilir":3721,"yumar":3722,"mÄ±n":3723,"atÄ±lÄ±r":3724,"eliÄŁ":3725,"aÄŁÄ±":3726,"olur":3727,"kÄ±rÄ±ÄŁ":3728,"gelin":3729,"miyormuÅŁ":3730,"miyorsun":3731,"miyormuÅŁum":3732,"artar":3733,"aldÄ±rÄ±r":3734,"gezer":3735,"demleyecek":3736,"deÄŁiÅŁir":3737,"horlayacak":3738,"ilklendirir":3739,"oturur":3740,"atÄ±ÅŁtÄ±rÄ±r":3741,"anlatÄ±r":3742,"sanÄ±r":3743,"Ä±sÄ±rÄ±r":3744,"kÄ±rdÄ±rÄ±r":3745,"Ã¼ÅŁenir":3746,"boÅŁanÄ±r":3747,"iyileÅŁtirir":3748,"dÃ¶ndÃ¼rÃ¼r":3749,"uÄŁratÄ±r":3750,"atÄ±ÅŁÄ±r":3751,"seÃ§ilir":3752,"leyic":3753,"dÄ±ydÄ±m":3754,"dÄ±ydÄ±n":3755,"dÄ±ydÄ±nÄ±z":3756,"Ġad":3757,"Ġkon":3758,"demi":3759,"dÃ¼rer":3760,"direyecek":3761,"karan":3762,"veri":3763,"varÄ±r":3764,"canlanmÄ±yor":3765,"kapar":3766,"yÄ±lan":3767,"bÃ¼ker":3768,"biter":3769,"coÅŁar":3770,"Ã¶ÄŁretir":3771,"Ã¶ÄŁÃ¼tÃ¼r":3772,"yuvarlar":3773,"dÃ¼zeltir":3774,"pusar":3775,"yÄ±kayacak":3776,"tutar":3777,"geciktirir":3778,"saldÄ±rÄ±r":3779,"kurutur":3780,"ĠsÄ±kÄ±ÅŁÄ±r":3781,"birleÅŁir":3782,"ĠÃ§ileÄŁ":3783,"liy":3784,"Ä±za":3785,"dalar":3786,"sunar":3787,"satar":3788,"utanÄ±r":3789,"sÄ±zar":3790,"dÃ¼ÅŁÃ¼nÃ¼r":3791,"serer":3792,"kanÄ±tlar":3793,"kaybolur":3794,"umun":3795,"ayÄ±rÄ±r":3796,"utandÄ±rÄ±r":3797,"tÃ¼kenir":3798,"gÃ¼lÃ¼nÃ§leÅŁir":3799,"bitirir":3800,"dÄ±ydÄ±k":3801,"ciliÄŁ":3802,"hi":3803,"kek":3804,"ÅŁtay":3805,"direr":3806,"tÃ¼reyecek":3807,"Ã§Ã¶kerir":3808,"miyoruz":3809,"miyormuÅŁsun":3810,"sÃ¶ver":3811,"dondurur":3812,"bÃ¼rÃ¼yecek":3813,"onarÄ±r":3814,"hastalanÄ±r":3815,"kanÄ±tlayacak":3816,"yalvarÄ±r":3817,"bÃ¼ktÃ¼rÃ¼r":3818,"Ã¶pÃ¼ÅŁÃ¼r":3819,"solur":3820,"Ã¶ldÃ¼rtÃ¼lÃ¼yecek":3821,"eÄŁitir":3822,"ettirir":3823,"Ġhar":3824,"zincirleme":3825,"Ġbilimi":3826,"neÄŁ":3827,"Ã¼ÄŁ":3828,"dÄ±lardÄ±":3829,"miyorum":3830,"miyordun":3831,"gecikir":3832,"yaÄŁlar":3833,"patlar":3834,"patlayacak":3835,"kullanÄ±lÄ±r":3836,"benzeyecek":3837,"taÅŁar":3838,"Ã¢li":3839,"verilir":3840,"ceÄŁ":3841,"yalar":3842,"Ġyapmayacak":3843,"asar":3844,"miyordu":3845,"miyorduk":3846,"katar":3847,"gerekir":3848,"yÄ±ÄŁar":3849,"sÄ±vÄ±laÅŁtÄ±rÄ±r":3850,"alÄ±ÄŁ":3851,"Ã¼mÃ¼zÃ¼":3852,"ĠsineÄŁi":3853,"ab":3854,"Ä±ncaÄŁ":3855,"ĠolmamÄ±ÅŁ":3856,"miyormuÅŁuz":3857,"tanÄ±yacak":3858,"Ġdiker":3859,"Ã¼nÃ¼zÃ¼":3860,"Ã¼nÃ¼zden":3861,"Ä°ngilizceleÅŁtirir":3862,"gÃ¼cenir":3863,"Ã¼mÃ¼zÃ¼n":3864,"fon":3865,"vek":3866,"Ġb":3867,"ĠÄ±ÅŁ":3868,"Ġkur":3869,"Ġsu":3870,"irt":3871,"alfa":3872,"armut":3873,"ĠyapmamÄ±ÅŁ":3874,"kaynaÅŁtÄ±rÄ±lÄ±r":3875,"Ã¼nÃ¼zÃ¼n":3876,"kenar":3877,"Ã¼mÃ¼ze":3878,"Ã¼mÃ¼zden":3879,"konvek":3880,"belirt":3881,"muzun":3882,"Ġharf":3883,"konveks":3884,"tÃ¼y":3885,"izi":3886,"aÄŁlar":3887,"sundan":3888,"Ġyapmaz":3889,"sÃ¼rÃ¼yecek":3890,"miyordum":3891,"Ã¼sÃ¼nÃ¼z":3892,"saklar":3893,"ĠmÃ¼sÃ¼nÃ¼z":3894,"ĠmÃ¼ymÃ¼ÅŁsÃ¼nÃ¼z":3895,"Ã¼nÃ¼ze":3896,"aldatÄ±r":3897,"deÄŁiÅŁtirir":3898,"Ã¼mÃ¼zde":3899,"muzdan":3900,"yÃ¶nelme":3901,"bÃ¶":3902,"gal":3903,"Ġuz":3904,"Ġku":3905,"ĠÃ¼Ã§":3906,"layan":3907,"muk":3908,"suna":3909,"haf":3910,"sÃ¶zdiz":3911,"dÃ¼ler":3912,"ĠmÃ¼ymÃ¼ÅŁÃ¼z":3913,"tamlayan":3914,"karanlÄ±k":3915,"cÄ±lÄ±k":3916,"culuk":3917,"mÃ¼ÅŁÃ¼z":3918,"mÃ¼ÅŁÃ¼m":3919,"tÄ±y":3920,"ĠdeÄŁiller":3921,"ĠmÃ¼ymÃ¼ÅŁsÃ¼n":3922,"muzda":3923,"ĠmÃ¼ymÃ¼ÅŁÃ¼m":3924,"Ġkutusu":3925,"ĠtamlamasÄ±":3926,"aman":3927,"zaman":3928,"Ġte":3929,"sunda":3930,"ĠmÃ¼sÃ¼n":3931,"ĠÃ¼Ã§gen":3932,"Ã¼ÄŁÃ¼n":3933,"sunun":3934,"ĠmÃ¼yÃ¼m":3935,"tiler":3936,"liÄŁi":3937,"muza":3938,"Ġhali":3939,"voleybol":3940,"muÅŁtu":3941,"bek":3942,"anÄ±n":3943,"kasÄ±":3944,"dilerdi":3945,"onuz":3946,"canlanmayacak":3947,"miyordunuz":3948,"Ġsiste":3949,"derleyic":3950,"ĠmÃ¼yÃ¼z":3951,"Ã¼nÃ¼zde":3952,"lÃ¼ÄŁ":3953,"Ã§Ä±kma":3954,"moloji":3955,"Ä±zda":3956,"eker":3957,"muzu":3958,"ĠÃ§ileÄŁi":3959,"imimiz":3960,"ob":3961,"ĠgÃ¼r":3962,"dular":3963,"canlanmaz":3964,"diydi":3965,"diydik":3966,"Ä±zÄ±":3967,"Ä±zÄ±n":3968,"manÄ±n":3969,"ĠÃ§ekmez":3970,"bÃ¼kmÃ¼yor":3971,"saklamÄ±yor":3972,"ulumuyor":3973,"Ã¶ÄŁÃ¼tmÃ¼yor":3974,"kokmuyor":3975,"diydiniz":3976,"Ġdurumu":3977,"Ã¼ÅŁt":3978,"uluÄŁ":3979,"Ã¶ldÃ¼rtmÃ¼yor":3980,"kopmuyor":3981,"yuvarlamÄ±yor":3982,"gÃ¶tÃ¼rmÃ¼yor":3983,"horlamÄ±yor":3984,"horlamamÄ±ÅŁ":3985,"solumuyor":3986,"sÃ¼mÃ¼rmÃ¼yor":3987,"kurutmuyor":3988,"gÃ¼tmÃ¼yor":3989,"diydim":3990,"ĠyazÄ±lÄ±mÄ±n":3991,"ÅŁarkÄ±":3992,"ĠgÃ¼reÅŁ":3993,"cÄ±sÄ±":3994,"yalamamÄ±ÅŁ":3995,"yalamayacak":3996,"ansÄ±":3997,"dÃ¼rmÃ¼yor":3998,"sunmuyor":3999,"manda":4000,"ĠÃ§ekmeyecek":4001,"sÃ¼zmÃ¼yor":4002,"uymuyor":4003,"yuvarlamamÄ±ÅŁ":4004,"kanÄ±tlamÄ±yor":4005,"kovdurmuyor":4006,"kaybolmuyor":4007,"tÃ¼kÃ¼rmÃ¼yor":4008,"plaÄŁ":4009,"ÅŁi":4010,"metin":4011,"dede":4012,"izin":4013,"izden":4014,"Ã¼zmÃ¼yor":4015,"aÄŁlamÄ±yor":4016,"aÄŁlamamÄ±ÅŁ":4017,"Ã¶pmÃ¼yor":4018,"ĠmiymiÅŁler":4019,"Ġmiydiler":4020,"Ã¼sÃ¼":4021,"dondurmuyor":4022,"cÄ±ÄŁ":4023,"kanÄ±tlamamÄ±ÅŁ":4024,"eye":4025,"sÃ¶kmÃ¼yor":4026,"Ã¶lÃ§Ã¼lmÃ¼yor":4027,"sÃ¼rÃ¼ndÃ¼rmÃ¼yor":4028,"Ã¶lÃ§tÃ¼rtmÃ¼yor":4029,"korkmuyor":4030,"Ã§algÄ±c":4031,"minden":4032,"diydin":4033,"eziyetÃ§iliÄŁ":4034,"heykelciÄŁ":4035,"Ã¼cretsizliÄŁ":4036,"ada":4037,"ile":4038,"Ä±ÅŁtÄ±":4039,"yalamÄ±yor":4040,"Ä±zdan":4041,"kayaÄŁ":4042,"izde":4043,"olmuyor":4044,"gÃ¶Ã§mÃ¼yor":4045,"patlamÄ±yor":4046,"patlamamÄ±ÅŁ":4047,"yuvarlamaz":4048,"horlamayacak":4049,"kanÄ±tlamaz":4050,"oturmuyor":4051,"bÃ¼ktÃ¼rmÃ¼yor":4052,"yummuyor":4053,"sÃ¼rÃ¼mÃ¼yor":4054,"bÃ¼rÃ¼mÃ¼yor":4055,"Ã¶rÃ¼mceÄŁ":4056,"munuz":4057,"Ġsitesi":4058,"kasÄ±ÄŁ":4059,"cuÄŁ":4060,"dayÄ±f":4061,"tart":4062,"ĠpaylaÅŁ":4063,"ĠkuÅŁ":4064,"Ġsunucu":4065,"ĠWeb":4066,"yalamaz":4067,"kasa":4068,"kadÄ±n":4069,"kadayÄ±f":4070,"araÃ§":4071,"sinek":4072,"meyve":4073,"ĠÃ§ekmemiÅŁ":4074,"sucuÄŁ":4075,"evliliÄŁ":4076,"saklamaz":4077,"sÃ¼nmÃ¼yor":4078,"hastalÄ±ÄŁ":4079,"kalt":4080,"patlamayacak":4081,"delirmez":4082,"sÃ¼smÃ¼yor":4083,"basÄ±n":4084,"kanÄ±tlamayacak":4085,"pusmuyor":4086,"kÃ¶pÃ¼rmÃ¼yor":4087,"unutmuyor":4088,"dÃ¶ndÃ¼rmÃ¼yor":4089,"indek":4090,"minde":4091,"kediciÄŁ":4092,"kÄ±zlÄ±ÄŁ":4093,"kÃ¢bu":4094,"altdiz":4095,"Ã¶lÃ¼msÃ¼z":4096,"sosyal":4097,"musluÄŁ":4098,"arkadaÅŁlÄ±ÄŁ":4099,"hareketliliÄŁ":4100,"Ġkonfer":4101,"Ġsistemi":4102,"tartÄ±":4103,"ĠpaylaÅŁÄ±m":4104,"tav":4105,"Ã¶c":4106,"enden":4107,"aÄŁlamayacak":4108,"aÅŁÄ±ÄŁ":4109,"dÃ¼zmÃ¼yor":4110,"yaraÄŁ":4111,"bitirmez":4112,"saklamayacak":4113,"sululuÄŁ":4114,"yuvarlamayacak":4115,"horlamaz":4116,"deÄŁiÅŁtirmez":4117,"reÃ§":4118,"tÃ¼ler":4119,"dÃ¼rtmÃ¼yor":4120,"lÃ¼ÄŁÃ¼n":4121,"mini":4122,"mumluÄŁ":4123,"konu":4124,"kÄ±llÄ±ÄŁ":4125,"bÄ±yÄ±ÄŁ":4126,"mÃ¼ÅŁtÃ¼k":4127,"aynÅŁtaynyu":4128,"baÄŁÄ±rsaÄŁ":4129,"hÄ±Ã§kÄ±rÄ±ÄŁ":4130,"ekstremu":4131,"fiÅŁeÄŁ":4132,"gelinciÄŁ":4133,"tavuÄŁ":4134,"KÃ¼r":4135,"bom":4136,"fÃ¼z":4137,"gru":4138,"igu":4139,"jan":4140,"pla":4141,"peri":4142,"spa":4143,"tet":4144,"uc":4145,"uf":4146,"vaf":4147,"Ġka":4148,"Ġdal":4149,"ĠÃ§a":4150,"Ġpar":4151,"ĠkÄ±l":4152,"Ġyol":4153,"Ġvoleybol":4154,"Ġada":4155,"Ġgru":4156,"Ġuf":4157,"ÅŁiz":4158,"latÄ±":4159,"mekiÄŁ":4160,"maÅŁÄ±r":4161,"Ã§Ä±l":4162,"indi":4163,"ÄŁÃ¼s":4164,"deecek":4165,"atist":4166,"enize":4167,"ikÃ¢":4168,"Ã¼nsÃ¼z":4169,"dans":4170,"tanjan":4171,"sindir":4172,"dudak":4173,"kardan":4174,"gÃ¶ÄŁÃ¼s":4175,"kapak":4176,"evciÄŁ":4177,"tarÃ§":4178,"coÅŁmuyor":4179,"Ġtip":4180,"Ã¶ÄŁretim":4181,"patlama":4182,"patlamaz":4183,"emlaÄŁ":4184,"eyi":4185,"tutmuyor":4186,"otosto":4187,"kÃ¼tÃ¼":4188,"ĠhÃ¢li":4189,"ĠhikÃ¢":4190,"ofren":4191,"kral":4192,"elleÄŁ":4193,"minin":4194,"istatist":4195,"demleecek":4196,"sentak":4197,"diÅŁleÄŁ":4198,"harem":4199,"totemciliÄŁ":4200,"mÃ¼ÅŁtÃ¼n":4201,"Ã¶nemsizliÄŁ":4202,"sÃ¼rÃ¼ecek":4203,"melo":4204,"balÄ±k":4205,"Ġeksen":4206,"Ã¼reme":4207,"kuvvetsizliÄŁ":4208,"teore":4209,"mÃ¼stahde":4210,"mistiÄŁ":4211,"karÅŁÄ±lÄ±ÄŁ":4212,"porsuÄŁ":4213,"dÃ¼nya":4214,"gerzeÄŁ":4215,"ĠÅŁarab":4216,"demir":4217,"hikay":4218,"ĠbelleÄŁ":4219,"belirtili":4220,"sÃ¶zdizim":4221,"kaltaÄŁ":4222,"tartÄ±ÅŁtay":4223,"reÃ§el":4224,"bomba":4225,"plaj":4226,"tetraf":4227,"ĠdalÄ±ÅŁ":4228,"ĠÃ§amaÅŁÄ±r":4229,"ĠparlatÄ±":4230,"ÅŁizofren":4231,"ĠhikÃ¢ye":4232,"iÃ§e":4233,"nÄ±z":4234,"piÅŁt":4235,"ruÄŁ":4236,"sÃ¶ÄŁÃ¼":4237,"tulu":4238,"yun":4239,"Ġmasal":4240,"akre":4241,"Ã¼t":4242,"Ã¼me":4243,"angu":4244,"erneÄŁ":4245,"ato":4246,"atÄ±k":4247,"eni":4248,"ende":4249,"aÄŁlamaz":4250,"birleÅŁt":4251,"yaratÄ±k":4252,"kanto":4253,"saklamamÄ±ÅŁ":4254,"ipeÄŁ":4255,"sÃ¼zgec":4256,"dÃ¼ÅŁÃ¼nmÃ¼yor":4257,"uyruÄŁ":4258,"yuvarlaacak":4259,"horlaacak":4260,"Ã¶pÃ¼ÅŁmÃ¼yor":4261,"sÃ¶vmÃ¼yor":4262,"kaÅŁÄ±acak":4263,"canlanmaacak":4264,"Ã¶rdeÄŁ":4265,"baÄŁcÄ±ÄŁ":4266,"gÃ¼dÃ¼":4267,"ketÃ§a":4268,"Ã¶ncel":4269,"betiÄŁ":4270,"devini":4271,"yavÅŁ":4272,"garb":4273,"mÃ¼ÅŁtÃ¼":4274,"mÃ¼ÅŁtÃ¼m":4275,"yÃ¼ksÃ¼":4276,"lastiÄŁ":4277,"ÅŁiÅŁliÄŁ":4278,"ÅŁafaÄŁ":4279,"girdab":4280,"burn":4281,"ÅŁehr":4282,"Ã¶mr":4283,"Ã§iftliÄŁ":4284,"yutaÄŁ":4285,"Ã§evir":4286,"gÃ¶mleÄŁ":4287,"salÃ§alÄ±ÄŁ":4288,"yoÄŁur":4289,"maluma":4290,"aygÄ±tÃ§Ä±ÄŁ":4291,"kokarca":4292,"kadÄ±nlÄ±k":4293,"Ã¶lÃ¼msÃ¼zlÃ¼k":4294,"vaftiz":4295,"kraliÃ§e":4296,"bombacÄ±":4297,"Ã¶nceliÄŁ":4298,"VD":4299,"DVD":4300,"ast":4301,"ademi":4302,"bri":4303,"bift":4304,"drat":4305,"fak":4306,"gaz":4307,"jag":4308,"kim":4309,"kÃ¶r":4310,"ostr":4311,"oyun":4312,"pol":4313,"rme":4314,"tuy":4315,"uv":4316,"vrek":4317,"vuv":4318,"yak":4319,"yÃ¼r":4320,"yemek":4321,"Ġak":4322,"Ġya":4323,"Ġtar":4324,"Ġba":4325,"ĠÃ¶r":4326,"Ġkr":4327,"yacÄ±":4328,"marme":4329,"ĠoynatÄ±":4330,"orta":4331,"Ã§eliÄŁ":4332,"insan":4333,"ÄŁum":4334,"Ġoldu":4335,"kave":4336,"mukave":4337,"ekkek":4338,"digen":4339,"aret":4340,"ene":4341,"dayan":4342,"ete":4343,"uze":4344,"uzay":4345,"iÅŁaret":4346,"onay":4347,"Ä±kl":4348,"sinir":4349,"sinca":4350,"gedan":4351,"gevrek":4352,"sÃ¼rpr":4353,"birey":4354,"okrat":4355,"haÃ§a":4356,"supa":4357,"bayg":4358,"yetiÅŁt":4359,"kemer":4360,"dÃ¶ne":4361,"dÃ¶ten":4362,"saklaacak":4363,"yalnÄ±z":4364,"kirec":4365,"gergedan":4366,"Ġtuz":4367,"derneÄŁ":4368,"patlaacak":4369,"delto":4370,"sessiz":4371,"bÃ¼rokrat":4372,"kanÄ±tlaacak":4373,"kuma":4374,"terc":4375,"yedigen":4376,"salÄ±ncaÄŁ":4377,"ĠhÃ¼c":4378,"Ã¶zr":4379,"soy":4380,"eÅŁkenar":4381,"ofon":4382,"doÄŁum":4383,"bubi":4384,"tÃ¼reecek":4385,"bÃ¼yÃ¼k":4386,"pirinc":4387,"cevh":4388,"ÅŁerbetÃ§iliÄŁ":4389,"gÃ¼venliliÄŁ":4390,"Ġisim":4391,"iÅŁletim":4392,"mikrofon":4393,"klostr":4394,"pedofobi":4395,"Ġfikr":4396,"Ä±spanaÄŁ":4397,"diskoteÄŁ":4398,"enizin":4399,"kanlÄ±lÄ±ÄŁ":4400,"ebediliÄŁ":4401,"sarÄ±msaÄŁ":4402,"anasÄ±zlÄ±ÄŁ":4403,"birlikteliÄŁ":4404,"ehemmiyetliliÄŁ":4405,"fabri":4406,"tamlan":4407,"Ġkontrol":4408,"hidrat":4409,"fondÃ¶ten":4410,"Ġsuyu":4411,"bÃ¶cek":4412,"ĠuzayÄ±":4413,"Ġkup":4414,"kasab":4415,"konuÅŁtay":4416,"KÃ¼rt":4417,"iguana":4418,"Ġkafa":4419,"Ã§Ä±lgÄ±nlÄ±k":4420,"istatistik":4421,"melodi":4422,"biftekkek":4423,"gazete":4424,"jagu":4425,"kimyacÄ±":4426,"polis":4427,"vuvuze":4428,"yakut":4429,"Ġakademi":4430,"ĠyaÅŁ":4431,"Ġtarif":4432,"marmela":4433,"dayanÄ±kl":4434,"ĠhÃ¼cre":4435,"aile":4436,"bo":4437,"gan":4438,"ileti":4439,"odaÄŁ":4440,"yalaacak":4441,"Ã¶ne":4442,"aln":4443,"yapÄ±ncaÄŁ":4444,"karÄ±n":4445,"Ã¶pÃ¼ÅŁt":4446,"birliÄŁ":4447,"asi":4448,"ceva":4449,"dinlet":4450,"tanÄ±acak":4451,"yeniliÄŁ":4452,"uluacak":4453,"gÃ¼lÃ¼nÃ§leÅŁt":4454,"sidik":4455,"kapaacak":4456,"sandalye":4457,"yedeÄŁ":4458,"iÄŁde":4459,"pust":4460,"bardaÄŁ":4461,"ikile":4462,"kondo":4463,"kusmuk":4464,"diÅŁl":4465,"lebleb":4466,"otomobilc":4467,"mÃ¼ÅŁtÃ¼nÃ¼z":4468,"Ã§Ä±ÄŁÄ±rtkanlÄ±ÄŁ":4469,"kerpi":4470,"bÃ¼rÃ¼ecek":4471,"sonra":4472,"hamol":4473,"kolaÃ§":4474,"iÅŁlemc":4475,"sosisl":4476,"baÅŁrahib":4477,"kelebeÄŁ":4478,"esenliÄŁ":4479,"hudu":4480,"ĠoÄŁl":4481,"sorumsuzluÄŁ":4482,"gelinlik":4483,"ÅŁarkÄ±cÄ±lÄ±k":4484,"indeks":4485,"altdizin":4486,"fÃ¼ze":4487,"Ġadam":4488,"tanjant":4489,"kapakÃ§Ä±k":4490,"otostob":4491,"haremlik":4492,"hikaye":4493,"tetrafobi":4494,"yavÅŁaÄŁ":4495,"deltoi":4496,"soylu":4497,"cevher":4498,"fabrika":4499,"jaguar":4500,"vuvuzela":4501,"Nu":4502,"Ben":4503,"acen":4504,"baÃ§":4505,"hen":4506,"hindi":4507,"nlÄ±ÄŁ":4508,"oÅŁt":4509,"oda":4510,"paz":4511,"pom":4512,"rÃ":4513,"sel":4514,"skan":4515,"til":4516,"teÄŁ":4517,"yi":4518,"zak":4519,"zor":4520,"zdir":4521,"Ġma":4522,"Ġyu":4523,"Ġbit":4524,"ĠaÃ§":4525,"ĠkÃ¶p":4526,"Ġkam":4527,"Ġceviz":4528,"Ġkaplan":4529,"lefon":4530,"Ã§ay":4531,"kazak":4532,"atlam":4533,"Ä±msÄ±z":4534,"aÄŁlaacak":4535,"kÄ±rÄ±n":4536,"ĠyaptÄ±":4537,"naz":4538,"gÃ¶ster":4539,"sayrÃ":4540,"cep":4541,"teÅŁ":4542,"yargÄ±":4543,"saka":4544,"yengec":4545,"kÄ±skan":4546,"yazÄ±":4547,"gÃ¶Ã§men":4548,"korku":4549,"Ġtur":4550,"sÄ±cak":4551,"ÅŁÄ±ÄŁ":4552,"karaciÄŁ":4553,"bezdir":4554,"isim":4555,"ĠdeÄŁilmiÅŁ":4556,"ĠdeÄŁilmiÅŁsiniz":4557,"ĠdeÄŁilmiÅŁler":4558,"Ã¢l":4559,"Ã¢ÅŁÄ±ÄŁ":4560,"Ġfil":4561,"baÄŁÄ±msÄ±z":4562,"ĠhÃ¢l":4563,"menteÅŁ":4564,"som":4565,"Ã¶nce":4566,"Ã¶nyargÄ±":4567,"oÄŁl":4568,"elleecek":4569,"yaÄŁlaacak":4570,"benzeecek":4571,"direecek":4572,"sekiz":4573,"sÄ±rat":4574,"gÃ¼vensizliÄŁ":4575,"ynuz":4576,"ĠmÃ¼hen":4577,"asansÃ¶":4578,"ikizkenar":4579,"abajurculuk":4580,"sosyol":4581,"elektrik":4582,"sÃ¼lÃ¼k":4583,"kalÄ±b":4584,"semerc":4585,"temsilciliÄŁ":4586,"enizde":4587,"akvaryu":4588,"tuva":4589,"yÃ¶nelim":4590,"tÄ±ydÄ±m":4591,"Ġkura":4592,"galak":4593,"hafta":4594,"hafÄ±za":4595,"tÄ±ydÄ±n":4596,"Ġtelefon":4597,"dansÃ§Ä±":4598,"tarÃ§Ä±n":4599,"sÃ¶zdizimsel":4600,"ÅŁizofreni":4601,"akreb":4602,"ketÃ§ab":4603,"Ġbaba":4604,"insanlÄ±k":4605,"mukavemet":4606,"sincab":4607,"supab":4608,"baygnlÄ±ÄŁ":4609,"tercÃ¼me":4610,"tamlanan":4611,"boynuz":4612,"karÄ±nca":4613,"deltoid":4614,"NusayrÃ":4615,"Bengal":4616,"acent":4617,"hindistan":4618,"teÄŁet":4619,"Ġmad":4620,"Ã§aydan":4621,"atlambaÃ§":4622,"kÄ±skanÃ§":4623,"ĠmÃ¼hendis":4624,"NusayrÃ®":4625,"Vikipedi":4626,"coÅŁt":4627,"kip":4628,"tÃ¼n":4629,"Ġdel":4630,"lamanÄ±z":4631,"metaÅŁ":4632,"yamuk":4633,"deyn":4634,"erke":4635,"daÅŁÄ±":4636,"dÃ¼rÃ¼m":4637,"ĠyapmadÄ±":4638,"dilbilim":4639,"kanat":4640,"aÃ§lÄ±k":4641,"kÃ¶pek":4642,"sÃ¼nÃ¼z":4643,"serÃ§e":4644,"sac":4645,"ĠdeÄŁiliz":4646,"ĠdeÄŁilsiniz":4647,"ĠdeÄŁildik":4648,"ĠdeÄŁildiniz":4649,"ĠdeÄŁilmiÅŁsin":4650,"ĠdeÄŁilmiÅŁim":4651,"ĠdeÄŁildim":4652,"azÄ±nlÄ±k":4653,"terliÄŁ":4654,"silmetaÅŁ":4655,"ĠÅŁeker":4656,"sÃ¼st":4657,"bakirlik":4658,"ĠyazÄ±lÄ±mÄ±":4659,"kÃ¶yl":4660,"ĠanahtarÄ±":4661,"sismoloji":4662,"yÄ±ldÄ±zÄ±l":4663,"fahiÅŁelik":4664,"Ã¶ÄŁrenc":4665,"enizden":4666,"Ã§Ä±raÄŁ":4667,"verniÄŁ":4668,"sevgil":4669,"muÅŁtun":4670,"tÄ±ydÄ±k":4671,"abece":4672,"tÄ±ydÄ±nÄ±z":4673,"muÅŁtuk":4674,"Ġtipi":4675,"sentaks":4676,"kÃ¶rlÃ¼k":4677,"oyunculuk":4678,"yÃ¼rek":4679,"gevreklik":4680,"yalnÄ±zlÄ±k":4681,"kumaÅŁ":4682,"klostrofobi":4683,"bÃ¶cekbilim":4684,"marmelat":4685,"dayanÄ±klÄ±lÄ±k":4686,"cevab":4687,"kondom":4688,"pazÄ±":4689,"pompa":4690,"ĠaÃ§Ä±":4691,"kÄ±rÄ±ntÄ±":4692,"sekizgen":4693,"asansÃ¶r":4694,"Ġdelik":4695,"ami":4696,"ace":4697,"brek":4698,"fet":4699,"gÃ¶k":4700,"hec":4701,"hiy":4702,"monar":4703,"nÃ¼k":4704,"Ãĩ":4705,"ĠÃ§":4706,"Ġyet":4707,"Ġci":4708,"ĠsÄ±nÄ±r":4709,"Ġelma":4710,"Ġpa":4711,"akn":4712,"Ã¼ecek":4713,"mine":4714,"leot":4715,"Ã§at":4716,"ĠolmadÄ±":4717,"erog":4718,"arakn":4719,"izyon":4720,"ento":4721,"aÅŁÃ§":4722,"eÄŁri":4723,"sÃ¼re":4724,"mandan":4725,"asmayacak":4726,"asker":4727,"hacÄ±lÄ±k":4728,"gelmiyor":4729,"ĠÃ§ekti":4730,"telev":4731,"kemen":4732,"tac":4733,"derg":4734,"raket":4735,"babalÄ±k":4736,"kurtarmamÄ±ÅŁ":4737,"ilkÃ¶ÄŁretim":4738,"onarmaz":4739,"dadanmayacak":4740,"Ã¶ldÃ¼rtÃ¼lÃ¼ecek":4741,"lamay":4742,"bedev":4743,"ĠdeÄŁilim":4744,"ĠdeÄŁildin":4745,"bilg":4746,"daÄŁÄ±tmayacak":4747,"ĠaldÄ±rmÄ±yor":4748,"saydÄ±rmaz":4749,"evlenmez":4750,"evlenmeyecek":4751,"saldÄ±rmayacak":4752,"bitirmeyecek":4753,"yendirtmemiÅŁ":4754,"baÅŁÃ§Ä±ÄŁ":4755,"Ġgelmiyor":4756,"sikilmez":4757,"adok":4758,"paradok":4759,"demlemez":4760,"gÃ¼tmemiÅŁ":4761,"eziyetÃ§":4762,"dÃ¼ÄŁÃ¼n":4763,"totemc":4764,"Ġsonu":4765,"LefkoÅŁal":4766,"ĠDabil":4767,"frizb":4768,"sebeb":4769,"topoloj":4770,"muÅŁtunuz":4771,"dÃ¼ydÃ¼n":4772,"dÃ¼ydÃ¼m":4773,"umunuz":4774,"ĠbalÄ±ÄŁ":4775,"belirtme":4776,"bÃ¶brek":4777,"Ġuzay":4778,"Ġkumanda":4779,"Ġtest":4780,"bekleme":4781,"faks":4782,"ĠkupÃ¼r":4783,"kerpic":4784,"odacÄ±k":4785,"sÄ±caklÄ±k":4786,"karaciÄŁer":4787,"menteÅŁe":4788,"sosyolog":4789,"tuvalet":4790,"galaksi":4791,"acentelik":4792,"Ġmadde":4793,"Ã§aydanlÄ±k":4794,"amiral":4795,"acele":4796,"hiyerog":4797,"nÃ¼kleot":4798,"Ãĩin":4799,"ĠÃ§Ã¶l":4800,"Ġyetmez":4801,"Ġcis":4802,"ĠsÄ±nÄ±rlama":4803,"Ġpast":4804,"televizyon":4805,"hiyerogli":4806,"bra":4807,"tÃ¼nÃ¼z":4808,"demez":4809,"arÅŁi":4810,"yapmamÄ±ÅŁ":4811,"dÃ¼rmemiÅŁ":4812,"kobra":4813,"iÅŁÃ§":4814,"selam":4815,"dua":4816,"kartÄ±":4817,"varmamÄ±ÅŁ":4818,"manÄ±":4819,"gelmemiÅŁ":4820,"katmÄ±yor":4821,"sÄ±zmayacak":4822,"takmamÄ±ÅŁ":4823,"takmÄ±yor":4824,"aldÄ±rmayacak":4825,"iÃ§memiÅŁ":4826,"Ã¶ldÃ¼rtmez":4827,"Ã¶ldÃ¼rtmemiÅŁ":4828,"tÄ±lardÄ±":4829,"yazmayacak":4830,"sÃ¼nmez":4831,"sÃ¼ngÃ¼":4832,"Ã¶ÄŁretmiyor":4833,"sevmez":4834,"sevmiyor":4835,"uyarmamÄ±ÅŁ":4836,"ulumayacak":4837,"ulumaz":4838,"deÄŁiÅŁmez":4839,"sermemiÅŁ":4840,"kurtarmayacak":4841,"onarmÄ±yor":4842,"gebermeyecek":4843,"hastalanmayacak":4844,"dadanmaz":4845,"oturmamÄ±ÅŁ":4846,"Ã§almaz":4847,"yoksullaÅŁtÄ±rmayacak":4848,"Ã¶lÃ§Ã¼lmez":4849,"karalama":4850,"soluacak":4851,"dalmayacak":4852,"ĠdeÄŁildi":4853,"ĠdeÄŁilsin":4854,"ĠdeÄŁilmiÅŁiz":4855,"Ã¶ldÃ¼rtÃ¼lmememiÅŁ":4856,"Ã¶ÄŁÃ¼tmemiÅŁ":4857,"Ä±sÄ±rgan":4858,"yanÄ±n":4859,"sÃ¼rÃ¼ndÃ¼rmemiÅŁ":4860,"seslenmez":4861,"seslenmiyor":4862,"Ã¼ÅŁenmemiÅŁ":4863,"aldatmaz":4864,"kapatmaz":4865,"Ä°ngilizceleÅŁtirmeyecek":4866,"Ä°ngilizceleÅŁtirmiyor":4867,"TÃ¼rkÃ§eleÅŁtirmez":4868,"tÃ¼kenmez":4869,"ettirmez":4870,"eÄŁlenmiyor":4871,"atÄ±ÅŁmÄ±yor":4872,"bitirmiyor":4873,"birleÅŁmemiÅŁ":4874,"verdirtmiyor":4875,"yendirtmez":4876,"yendirtmiyor":4877,"cacÄ±k":4878,"dirilmez":4879,"canlandÄ±rtÄ±lmaz":4880,"kaynaÅŁtÄ±rtÄ±lmayacak":4881,"kaynaÅŁtÄ±rtÄ±lmÄ±yor":4882,"Ġalmayacak":4883,"boÅŁalmayacak":4884,"boÅŁalmÄ±yor":4885,"verilmez":4886,"alÄ±c":4887,"silg":4888,"kalkmayacak":4889,"bayÄ±lmayacak":4890,"bayÄ±lmÄ±yor":4891,"dize":4892,"tÃ¼rememiÅŁ":4893,"harc":4894,"ÅŁerbetÃ§":4895,"kullanÄ±lmayacak":4896,"kaynaÅŁtÄ±rÄ±lmaz":4897,"kaynaÅŁtÄ±rÄ±lmamÄ±ÅŁ":4898,"kÄ±ÅŁkÄ±rtmÄ±yor":4899,"anlatmÄ±yor":4900,"sattÄ±rtmaz":4901,"karÄ±ÅŁtÄ±rtmamÄ±ÅŁ":4902,"yaptÄ±rtmaz":4903,"kamÃ§":4904,"ÅŁahÄ±":4905,"sÃ¼rtÃ¼klÃ¼ÄŁ":4906,"Ã¼sÃ¼nÃ¼":4907,"enizi":4908,"Ġistemc":4909,"Ã§erÃ§":4910,"Ġfrekan":4911,"muÅŁtum":4912,"ĠÄ±ÅŁÄ±ÄŁ":4913,"sÃ¼rpriz":4914,"tilde":4915,"zorluk":4916,"Ġtura":4917,"bezdiri":4918,"baÄŁÄ±msÄ±zlÄ±k":4919,"kÄ±skanÃ§lÄ±k":4920,"kemenÃ§e":4921,"amirallik":4922,"boz":4923,"boÄŁ":4924,"nom":4925,"oan":4926,"set":4927,"wik":4928,"ĠaÄŁ":4929,"ĠkÄ±r":4930,"Ġdon":4931,"Ġkuvvet":4932,"ÅŁeker":4933,"madal":4934,"leoan":4935,"inmez":4936,"inmeyecek":4937,"andan":4938,"anmamÄ±ÅŁ":4939,"anmÄ±yor":4940,"ayran":4941,"yapmaz":4942,"langÄ±":4943,"aÅŁmÄ±yor":4944,"sunmayacak":4945,"sunmaz":4946,"sunmamÄ±ÅŁ":4947,"imboz":4948,"varmaz":4949,"varmÄ±yor":4950,"satmayacak":4951,"iter":4952,"gÃ¶bek":4953,"asmÄ±yor":4954,"hadis":4955,"saymamÄ±ÅŁ":4956,"ceset":4957,"gelmez":4958,"Ã§Ã¶kermemiÅŁ":4959,"utanmaz":4960,"bÃ¼kmez":4961,"bÃ¼kmemiÅŁ":4962,"bÃ¼key":4963,"gecikmiyor":4964,"katmamÄ±ÅŁ":4965,"teist":4966,"artmamÄ±ÅŁ":4967,"artmÄ±yor":4968,"sÄ±zmamÄ±ÅŁ":4969,"canlandÄ±rmaz":4970,"canlandÄ±rmÄ±yor":4971,"iÃ§mez":4972,"tanÄ±mÄ±yor":4973,"yazmaz":4974,"yaÄŁlÄ±":4975,"gÃ¶Ã§meyecek":4976,"sÃ¼nmemiÅŁ":4977,"coÅŁmayacak":4978,"korimboz":4979,"gezmeyecek":4980,"sÃ¼zmez":4981,"tabe":4982,"Ã¶ÄŁretmez":4983,"dÃ¼ÅŁÃ¼nmez":4984,"dÃ¼ÅŁÃ¼nmeyecek":4985,"sÃ¼smemiÅŁ":4986,"sÃ¼smeyecek":4987,"dondurmamÄ±ÅŁ":4988,"emsiy":4989,"deÄŁiÅŁmiyor":4990,"sermiyor":4991,"paylaÅŁmayacak":4992,"kurtarmÄ±yor":4993,"Ġvermiyor":4994,"gÃ¶tÃ¼rmeyecek":4995,"taÅŁmayacak":4996,"gebermez":4997,"gebermemiÅŁ":4998,"ilklendirmemiÅŁ":4999,"dadanmamÄ±ÅŁ":5000,"dadanmÄ±yor":5001,"ĠsÄ±kÄ±ÅŁtÄ±":5002,"tepmemiÅŁ":5003,"yalvarmaz":5004,"yalvarmamÄ±ÅŁ":5005,"yalvarmÄ±yor":5006,"gerekmiyor":5007,"atÄ±ÅŁtÄ±rmamÄ±ÅŁ":5008,"yetiÅŁmeyecek":5009,"bÃ¼ktÃ¼rmemiÅŁ":5010,"Ã§almamÄ±ÅŁ":5011,"yoksullaÅŁtÄ±rmamÄ±ÅŁ":5012,"sÃ¶kmez":5013,"Ã¶lÃ§Ã¼lmemiÅŁ":5014,"kaÅŁÄ±mayacak":5015,"kÄ±ymayacak":5016,"kapamayacak":5017,"kapamÄ±yor":5018,"dalmÄ±yor":5019,"trop":5020,"canlanmamayacak":5021,"otof":5022,"genofobi":5023,"eÄŁitmeyecek":5024,"yapÄ±ÅŁmayacak":5025,"yapÄ±ÅŁmÄ±yor":5026,"daÄŁÄ±tmÄ±yor":5027,"Ä±sÄ±rmaz":5028,"Ä±sÄ±rmamÄ±ÅŁ":5029,"ĠaldÄ±rmayacak":5030,"sÃ¼rÃ¼ndÃ¼rmez":5031,"sÃ¼rÃ¼ndÃ¼rmeyecek":5032,"ĠfÄ±r":5033,"saydÄ±rmayacak":5034,"kÄ±rdÄ±rmamÄ±ÅŁ":5035,"kirletmez":5036,"kÃ¶pÃ¼rmez":5037,"evlenmiyor":5038,"geciktirmemiÅŁ":5039,"ayÄ±rmayacak":5040,"ayÄ±rmÄ±yor":5041,"tÃ¼kÃ¼rmemiÅŁ":5042,"Ã¼ÅŁenmez":5043,"Ã¼ÅŁenmiyor":5044,"aldatmayacak":5045,"kapatmamÄ±ÅŁ":5046,"utandÄ±rmaz":5047,"utandÄ±rmamÄ±ÅŁ":5048,"unutmamÄ±ÅŁ":5049,"dÃ¶ndÃ¼rmeyecek":5050,"kurutmamÄ±ÅŁ":5051,"ĠsÄ±kÄ±ÅŁmamÄ±ÅŁ":5052,"atÄ±ÅŁmayacak":5053,"birleÅŁmez":5054,"birleÅŁmeyecek":5055,"deÄŁiÅŁtirmiyor":5056,"ofiter":5057,"dirilmemiÅŁ":5058,"dÃ¼rtmeyecek":5059,"canlandÄ±rtÄ±lmÄ±yor":5060,"dÃ¼zeltmiyor":5061,"Ġgelmez":5062,"Ġgelmeyecek":5063,"Ġalmaz":5064,"ĠalmamÄ±ÅŁ":5065,"boÅŁalmamÄ±ÅŁ":5066,"verilmeyecek":5067,"kokmayacak":5068,"panteist":5069,"kalkmaz":5070,"korkmaz":5071,"yaÄŁlamaz":5072,"demlemeyecek":5073,"benzemeyecek":5074,"tÃ¼remiyor":5075,"profiter":5076,"ĠÅŁemsiy":5077,"sarh":5078,"mÃ¼ÅŁter":5079,"kÄ±rÄ±lmaz":5080,"kÄ±rÄ±lmamÄ±ÅŁ":5081,"kullanÄ±lmaz":5082,"katÄ±lmÄ±yor":5083,"kÄ±ÅŁkÄ±rtmayacak":5084,"kÄ±ÅŁkÄ±rtmaz":5085,"kÄ±ÅŁkÄ±rtmamÄ±ÅŁ":5086,"yapÄ±lmaz":5087,"anlatmamÄ±ÅŁ":5088,"atÄ±ÅŁtÄ±":5089,"dÄ±ÅŁbÃ¼key":5090,"yalancÄ±":5091,"deyimin":5092,"mikrob":5093,"Ã¶pÃ¼cÃ¼ÄŁ":5094,"iyatr":5095,"virgÃ¼lÃ¼n":5096,"yordamÄ±n":5097,"psikiyatr":5098,"havuc":5099,"deneyimin":5100,"tabak":5101,"referan":5102,"bilgisayar":5103,"paleoan":5104,"Zagrepl":5105,"anÄ±zÄ±":5106,"anÄ±zdan":5107,"dÃ¼ydÃ¼nÃ¼z":5108,"dÃ¼ydÃ¼k":5109,"tiydi":5110,"ĠÃ§ilek":5111,"alfabe":5112,"ĠÃ¶rt":5113,"ĠkÃ¶pr":5114,"nazenin":5115,"ĠkuramÄ±":5116,"fetva":5117,"hecin":5118,"Ã§atlak":5119,"araknofobi":5120,"entomoloji":5121,"acelecilik":5122,"nÃ¼kleotit":5123,"hiyeroglif":5124,"arÅŁiv":5125,"ĠkÄ±rlangÄ±":5126,"Ġdonan":5127,"ÅŁekerpar":5128,"tabela":5129,"paleoantrop":5130,"aÅŁtÄ±":5131,"yÃ¶r":5132,"Ġke":5133,"Ġderleyic":5134,"Ä±la":5135,"Ä±ÅŁt":5136,"makin":5137,"masan":5138,"demiyor":5139,"altÄ±":5140,"yapmayacak":5141,"dÃ¼rmeyecek":5142,"Ã¼zmez":5143,"Ã¼zmemiÅŁ":5144,"Ã¼zmeyecek":5145,"aÅŁmamÄ±ÅŁ":5146,"olmayacak":5147,"olmamÄ±ÅŁ":5148,"satmaz":5149,"dilmeyecek":5150,"saymayacak":5151,"utanmayacak":5152,"bÃ¼kmeyecek":5153,"gecikmez":5154,"piÅŁmez":5155,"piÅŁmiyor":5156,"katmaz":5157,"artmayacak":5158,"artmaz":5159,"aÃ§mayacak":5160,"aÃ§maz":5161,"aÃ§mÄ±yor":5162,"aldÄ±rmÄ±yor":5163,"iÃ§meyecek":5164,"tara":5165,"sakson":5166,"tanÄ±maz":5167,"yazmÄ±yor":5168,"bolc":5169,"sÃ¼nmeyecek":5170,"coÅŁmaz":5171,"sÃ¼zmeyecek":5172,"taÅŁtÄ±":5173,"dÃ¼ÅŁÃ¼nmemiÅŁ":5174,"sÃ¼smez":5175,"sapmaz":5176,"sapmÄ±yor":5177,"dondurmayacak":5178,"uyarmaz":5179,"ulumamÄ±ÅŁ":5180,"uymaz":5181,"uymamÄ±ÅŁ":5182,"paylaÅŁtÄ±":5183,"paylaÅŁmÄ±yor":5184,"gÃ¶tÃ¼rmez":5185,"taÅŁmaz":5186,"taÅŁmÄ±yor":5187,"ilklendirmeyecek":5188,"tepmiyor":5189,"kovdurmaz":5190,"gerekmeyecek":5191,"yÄ±ÄŁmayacak":5192,"atÄ±ÅŁtÄ±rmÄ±yor":5193,"yetiÅŁmez":5194,"yetiÅŁmemiÅŁ":5195,"yetiÅŁmiyor":5196,"Ġdikmeyecek":5197,"bÃ¼ktÃ¼rmeyecek":5198,"Ã§alg":5199,"Ã§almayacak":5200,"sÄ±vÄ±laÅŁtÄ±rmayacak":5201,"sÄ±vÄ±laÅŁtÄ±rmaz":5202,"sÃ¶kmemiÅŁ":5203,"sÃ¶kmeyecek":5204,"yummaz":5205,"sÃ¶vmez":5206,"kaÅŁÄ±maz":5207,"kaÅŁÄ±mÄ±yor":5208,"kaybolmamÄ±ÅŁ":5209,"yÄ±kamayacak":5210,"yÄ±kamaz":5211,"kÄ±ymÄ±yor":5212,"solumaz":5213,"lamadÄ±n":5214,"lamadÄ±nÄ±z":5215,"ĠdeÄŁildiler":5216,"sanmaz":5217,"sanmamÄ±ÅŁ":5218,"canlanmamaz":5219,"canlanmamamÄ±ÅŁ":5220,"canlanmamÄ±yor":5221,"Ã¶ldÃ¼rtÃ¼lmemez":5222,"Ã¶ldÃ¼rtÃ¼lmemeyecek":5223,"eÄŁitmiyor":5224,"daÄŁÄ±tmaz":5225,"daÄŁÄ±tÄ±mÄ±n":5226,"Ä±sÄ±rmÄ±yor":5227,"ĠaldÄ±rmaz":5228,"ĠaldÄ±rmamÄ±ÅŁ":5229,"saydÄ±rmamÄ±ÅŁ":5230,"kÄ±rdÄ±rmÄ±yor":5231,"kirletmemiÅŁ":5232,"kÃ¶pÃ¼rmeyecek":5233,"ayÄ±rmaz":5234,"ayÄ±rmamÄ±ÅŁ":5235,"tÃ¼kÃ¼rmez":5236,"boÅŁanmayacak":5237,"aldatmamÄ±ÅŁ":5238,"utandÄ±rmayacak":5239,"utandÄ±rmÄ±yor":5240,"iyileÅŁtirmemiÅŁ":5241,"Ä°ngilizceleÅŁtirmemiÅŁ":5242,"kaÃ§Ä±rmayacak":5243,"kaÃ§Ä±rmamÄ±ÅŁ":5244,"TÃ¼rkÃ§eleÅŁtirmemiÅŁ":5245,"tÃ¼kenmemiÅŁ":5246,"tÃ¼kenmeyecek":5247,"tÃ¼kenmiyor":5248,"unutmayacak":5249,"ettirmemiÅŁ":5250,"ettirmeyecek":5251,"ettirmiyor":5252,"sÃ¼mÃ¼rmez":5253,"sÃ¼mÃ¼rmemiÅŁ":5254,"sÃ¼mÃ¼rmeyecek":5255,"uÄŁratmayacak":5256,"uÄŁratmaz":5257,"kurutmayacak":5258,"ĠsÄ±kÄ±ÅŁmayacak":5259,"ĠsÄ±kÄ±ÅŁmaz":5260,"ĠsÄ±kÄ±ÅŁmÄ±yor":5261,"gÃ¼cenmez":5262,"gÃ¼cenmemiÅŁ":5263,"gÃ¼cenmiyor":5264,"gÃ¼lÃ¼nÃ§leÅŁmemiÅŁ":5265,"gÃ¼lÃ¼nÃ§leÅŁmiyor":5266,"delirmemiÅŁ":5267,"delirmeyecek":5268,"delirmiyor":5269,"deÄŁiÅŁtirmeyecek":5270,"tanÄ±tmÄ±yor":5271,"verdirtmez":5272,"verdirtmemiÅŁ":5273,"verdirtmeyecek":5274,"Ã§Ã¶kertmez":5275,"Ã§Ã¶kertmiyor":5276,"Ã¶lÃ§tÃ¼rtmez":5277,"Ã¶lÃ§tÃ¼rtmemiÅŁ":5278,"dirilmeyecek":5279,"dÃ¼rtmemiÅŁ":5280,"gidilmemiÅŁ":5281,"gidilmiyor":5282,"seÃ§ilmez":5283,"seÃ§ilmeyecek":5284,"seÃ§ilmiyor":5285,"canlandÄ±rtÄ±lmayacak":5286,"kaynaÅŁtÄ±rtÄ±lmaz":5287,"ĠalmÄ±yor":5288,"sÃ¶zlÃ¼ÄŁ":5289,"verilmiyor":5290,"kokmaz":5291,"kalkmamÄ±ÅŁ":5292,"kalkmÄ±yor":5293,"korkmayacak":5294,"ellemez":5295,"yaÄŁlamayacak":5296,"bayÄ±lmaz":5297,"demlemiyor":5298,"benzemiyor":5299,"tÃ¼remeyecek":5300,"dirememiÅŁ":5301,"diremiyor":5302,"seks":5303,"gÃ¼tmez":5304,"yavr":5305,"pusulan":5306,"kÄ±rÄ±lmÄ±yor":5307,"kullanÄ±lmamÄ±ÅŁ":5308,"kullanÄ±lmÄ±yor":5309,"katÄ±lmayacak":5310,"yapÄ±lmamÄ±ÅŁ":5311,"yapÄ±lmÄ±yor":5312,"atÄ±lmayacak":5313,"anlatmayacak":5314,"ÅŁaÅŁÄ±rtmayacak":5315,"ÅŁaÅŁÄ±rtmaz":5316,"ÅŁaÅŁÄ±rtmÄ±yor":5317,"sattÄ±rtmÄ±yor":5318,"bÃ¼rÃ¼meyecek":5319,"bÃ¼yÃ¼leyic":5320,"ĠsÃ¼rÃ¼mÃ¼":5321,"basketbolc":5322,"Tiranl":5323,"Ġkedisi":5324,"sÃ¶zcÃ¼lÃ¼ÄŁ":5325,"borc":5326,"evlatlÄ±k":5327,"zammÄ±n":5328,"kaldÄ±rac":5329,"anÄ±za":5330,"dÃ¼ydÃ¼":5331,"imine":5332,"ĠkuÅŁu":5333,"Ġsunucusu":5334,"ĠkonferansÄ±":5335,"spamÄ±n":5336,"kÃ¼tÃ¼ÄŁ":5337,"yÃ¼ksÃ¼ÄŁ":5338,"Ã§evirimin":5339,"astÄ±":5340,"paradoks":5341,"nomofobi":5342,"profiterol":5343,"sarhoÅŁ":5344,"bÃ¼yÃ¼leyiciy":5345,"fuz":5346,"nÃ¼":5347,"yacaÄŁÄ±m":5348,"yacaÄŁÄ±z":5349,"Ġokulu":5350,"Ã§Ä±sÄ±":5351,"inmiyor":5352,"anÄ±":5353,"anmayacak":5354,"anmaz":5355,"irge":5356,"Ġolduy":5357,"demeyecek":5358,"yapmÄ±yor":5359,"dÃ¼rmez":5360,"aÅŁmayacak":5361,"onun":5362,"kartÄ±n":5363,"Ã¶pmez":5364,"Ã¶pmemiÅŁ":5365,"varmayacak":5366,"satmamÄ±ÅŁ":5367,"dilmez":5368,"dilmiyor":5369,"dilimin":5370,"asmaz":5371,"asmamÄ±ÅŁ":5372,"Ã§ekirge":5373,"saymaz":5374,"saymÄ±yor":5375,"gelmeyecek":5376,"Ã§Ã¶kermez":5377,"Ã§Ã¶kermeyecek":5378,"utanmamÄ±ÅŁ":5379,"utanmÄ±yor":5380,"gecikmemiÅŁ":5381,"gecikmeyecek":5382,"piÅŁmemiÅŁ":5383,"dinin":5384,"bitmemiÅŁ":5385,"aviz":5386,"kesen":5387,"aÃ§mamÄ±ÅŁ":5388,"takmayacak":5389,"aldÄ±rmamÄ±ÅŁ":5390,"iÃ§miyor":5391,"saksÄ±":5392,"kÃ¶pÃ¼ÄŁ":5393,"yazmamÄ±ÅŁ":5394,"gÃ¶Ã§mez":5395,"gÃ¶Ã§memiÅŁ":5396,"korsen":5397,"gezmez":5398,"gezmemiÅŁ":5399,"gezmiyor":5400,"Ã¶ÄŁretmemiÅŁ":5401,"derle":5402,"dondurmaz":5403,"kopmaz":5404,"kopmamÄ±ÅŁ":5405,"uyarmayacak":5406,"deÄŁiÅŁmeyecek":5407,"ĠvermemiÅŁ":5408,"Ġvermeyecek":5409,"taÅŁmamÄ±ÅŁ":5410,"gebermiyor":5411,"hastalanmaz":5412,"hastalanmÄ±yor":5413,"ilklendirmez":5414,"ilklendirmiyor":5415,"tepmeyecek":5416,"kovdurmayacak":5417,"kovdurmamÄ±ÅŁ":5418,"gerekmemiÅŁ":5419,"yÄ±ÄŁmamÄ±ÅŁ":5420,"atÄ±ÅŁtÄ±rmaz":5421,"Ġdikmez":5422,"ĠdikmemiÅŁ":5423,"Ã§almÄ±yor":5424,"Ã¶pÃ¼ÅŁmez":5425,"Ã¶pÃ¼ÅŁmemiÅŁ":5426,"Ã¶pÃ¼ÅŁmeyecek":5427,"sÄ±vÄ±laÅŁtÄ±rmamÄ±ÅŁ":5428,"yummamÄ±ÅŁ":5429,"Ã¶lÃ§Ã¼lmeyecek":5430,"pusmayacak":5431,"pusmaz":5432,"kaÅŁÄ±mamÄ±ÅŁ":5433,"kaybolmaz":5434,"yÄ±kaacak":5435,"kÄ±ymaz":5436,"kÄ±ymamÄ±ÅŁ":5437,"solumayacak":5438,"kapamamÄ±ÅŁ":5439,"dalmaz":5440,"amcan":5441,"tutmayacak":5442,"sanmayacak":5443,"sanmÄ±yor":5444,"Ã¶ldÃ¼rtÃ¼lmemiyor":5445,"eÄŁitmez":5446,"yapÄ±ÅŁmamÄ±ÅŁ":5447,"Ã¶ÄŁÃ¼tmez":5448,"yank":5449,"saydÄ±rmÄ±yor":5450,"kÄ±rdÄ±rmayacak":5451,"kÄ±rdÄ±rmaz":5452,"kirletmeyecek":5453,"kirletmiyor":5454,"kÃ¶pÃ¼rmemiÅŁ":5455,"geciktirmiyor":5456,"tÃ¼kÃ¼rmeyecek":5457,"saldÄ±rmaz":5458,"saldÄ±rmamÄ±ÅŁ":5459,"Ã¼ÅŁenmeyecek":5460,"boÅŁanmÄ±yor":5461,"aldatmÄ±yor":5462,"kapatmÄ±yor":5463,"iyileÅŁtirmeyecek":5464,"iyileÅŁtirmiyor":5465,"Ä°ngilizceleÅŁtirmez":5466,"kaÃ§Ä±rmaz":5467,"TÃ¼rkÃ§eleÅŁtirmiyor":5468,"uÄŁratmamÄ±ÅŁ":5469,"uÄŁratmÄ±yor":5470,"eÄŁlenmez":5471,"gÃ¼cenmeyecek":5472,"gÃ¼lÃ¼nÃ§leÅŁmeyecek":5473,"Ã¶znen":5474,"bitirmemiÅŁ":5475,"tanÄ±tmayacak":5476,"Ã§Ã¶kertmeyecek":5477,"Ã¶lÃ§tÃ¼rtmeyecek":5478,"dirilmiyor":5479,"dÃ¼rtmez":5480,"gidilmez":5481,"gidilmeyecek":5482,"seÃ§ilmemiÅŁ":5483,"canlandÄ±rtÄ±lmamÄ±ÅŁ":5484,"dÃ¼zeltmez":5485,"dÃ¼zeltmeyecek":5486,"ĠgelmemiÅŁ":5487,"sikilmemiÅŁ":5488,"sikilmiyor":5489,"kokmamÄ±ÅŁ":5490,"ellememiÅŁ":5491,"ellemeyecek":5492,"ellemiyor":5493,"yaÄŁlamamÄ±ÅŁ":5494,"yaÄŁlamÄ±yor":5495,"minize":5496,"benzemez":5497,"diremez":5498,"diremeyecek":5499,"gÃ¼tmeyecek":5500,"viÅŁnen":5501,"kÄ±rÄ±lmayacak":5502,"kaynaÅŁtÄ±rÄ±lmayacak":5503,"kaynaÅŁtÄ±rÄ±lmÄ±yor":5504,"katÄ±lmamÄ±ÅŁ":5505,"yapÄ±lmayacak":5506,"atÄ±lmaz":5507,"yolc":5508,"ÅŁaÅŁÄ±rtmamÄ±ÅŁ":5509,"sattÄ±rtmayacak":5510,"sÃ¼rÃ¼memiÅŁ":5511,"karÄ±ÅŁtÄ±rtmÄ±yor":5512,"yaptÄ±rtmamÄ±ÅŁ":5513,"yaptÄ±rtmÄ±yor":5514,"ÅŁapkac":5515,"yangÄ±nÄ±n":5516,"tÃ¼mcen":5517,"Ã¶pÃ¼cÃ¼ÄŁÃ¼n":5518,"aikidon":5519,"sÃ¼rtÃ¼klÃ¼ÄŁÃ¼n":5520,"Ã¼sÃ¼ne":5521,"Ã¼sÃ¼nde":5522,"Ã¼sÃ¼nÃ¼n":5523,"lÃ¼gatÃ§":5524,"Belgratl":5525,"Ã§orban":5526,"bermudan":5527,"cezeryen":5528,"Ġsandal":5529,"embriy":5530,"milime":5531,"mimize":5532,"mimizde":5533,"Ġbirc":5534,"radyon":5535,"yalÄ±tÄ±mÄ±n":5536,"satranc":5537,"manÄ±zÄ±":5538,"manÄ±zÄ±n":5539,"dinami":5540,"anÄ±zÄ±n":5541,"tiydik":5542,"tiydiniz":5543,"minizde":5544,"ĠkÄ±lÄ±":5545,"Ġyolu":5546,"Ġvoleybolu":5547,"Ġgrubu":5548,"sindirimin":5549,"Ġekseni":5550,"ĠdalÄ±ÅŁÃ§Ä±sÄ±":5551,"ĠÃ§amaÅŁÄ±rÄ±":5552,"ĠparlatÄ±cÄ±sÄ±":5553,"ĠhikÃ¢yesi":5554,"ĠmasalÄ±":5555,"ĠbalÄ±ÄŁÄ±":5556,"madalya":5557,"ĠÅŁemsiye":5558,"ÅŁekerpare":5559,"paleoantropoloji":5560,"nÃ¼fuz":5561,"dulu":5562,"iler":5563,"kil":5564,"kuy":5565,"sit":5566,"Ġbilim":5567,"mayon":5568,"anda":5569,"dememiÅŁ":5570,"ekliy":5571,"eneri":5572,"ikliy":5573,"yapÄ±ÅŁtÄ±":5574,"aÅŁmaz":5575,"denin":5576,"Ã¶pmeyecek":5577,"ĠyapÄ±yorlar":5578,"Ã§Ã¶kermiyor":5579,"dÃ¼zmez":5580,"dÃ¼zmemiÅŁ":5581,"katmayacak":5582,"yarÄ±ÅŁ":5583,"bitmez":5584,"bitmiyor":5585,"sÄ±zmaz":5586,"sÄ±zmÄ±yor":5587,"canlandÄ±rmayacak":5588,"canlandÄ±rmamÄ±ÅŁ":5589,"tanÄ±mayacak":5590,"tanÄ±mamÄ±ÅŁ":5591,"Ã¶ldÃ¼rtmeyecek":5592,"coÅŁmamÄ±ÅŁ":5593,"coÅŁkul":5594,"Ã¶ÄŁretmeyecek":5595,"derec":5596,"sapmamÄ±ÅŁ":5597,"kopmayacak":5598,"sermez":5599,"paylaÅŁmaz":5600,"Ġvermez":5601,"gÃ¶tÃ¼rmemiÅŁ":5602,"onarmayacak":5603,"onarmamÄ±ÅŁ":5604,"hastalanmamÄ±ÅŁ":5605,"oturmayacak":5606,"yalvarmayacak":5607,"yÄ±ÄŁmaz":5608,"bÃ¼ktÃ¼rmez":5609,"yoksullaÅŁtÄ±rmaz":5610,"sÄ±vÄ±laÅŁtÄ±rmÄ±yor":5611,"yummayacak":5612,"yÄ±kamamÄ±ÅŁ":5613,"yÄ±kamÄ±yor":5614,"solumamÄ±ÅŁ":5615,"dalmamÄ±ÅŁ":5616,"tutmaz":5617,"tutmamÄ±ÅŁ":5618,"eÄŁitimin":5619,"yapÄ±ÅŁmaz":5620,"Ġfeneri":5621,"seslenmemiÅŁ":5622,"seslenmeyecek":5623,"geciktirmez":5624,"geciktirmeyecek":5625,"boÅŁanmaz":5626,"boÅŁanmamÄ±ÅŁ":5627,"kapatmayacak":5628,"unutmaz":5629,"unuttu":5630,"dÃ¶ndÃ¼rmez":5631,"dÃ¶ndÃ¼rmemiÅŁ":5632,"gÃ¼lÃ¼nÃ§leÅŁmez":5633,"atÄ±ÅŁmaz":5634,"vidan":5635,"tanÄ±tmamÄ±ÅŁ":5636,"kaynaÅŁtÄ±rtÄ±lmamÄ±ÅŁ":5637,"boÅŁalmaz":5638,"bayÄ±lmamÄ±ÅŁ":5639,"demlememiÅŁ":5640,"benzememiÅŁ":5641,"tÃ¼remez":5642,"blogc":5643,"anasÄ±":5644,"Ġoluyorlar":5645,"dÃ¼lerdi":5646,"katÄ±lmaz":5647,"atÄ±lmÄ±yor":5648,"anlatmaz":5649,"lÄ±ÄŁa":5650,"duyma":5651,"karÄ±ÅŁtÄ±rtmayacak":5652,"bÃ¼rÃ¼mez":5653,"bÃ¼rÃ¼memiÅŁ":5654,"becerikliy":5655,"sunuc":5656,"haÅŁef":5657,"yetenekliy":5658,"gizemliy":5659,"battaniyen":5660,"manivelan":5661,"motorinin":5662,"Ã¼sÃ¼nden":5663,"kelepÃ§":5664,"pÄ±rasan":5665,"muciz":5666,"koruyuc":5667,"zurn":5668,"mimizi":5669,"izlencen":5670,"tavukgÃ¶":5671,"yÄ±ldÄ±rÄ±mÄ±n":5672,"manÄ±za":5673,"manÄ±zdan":5674,"anÄ±zda":5675,"tiydin":5676,"tiydim":5677,"denizanasÄ±":5678,"Ġdurum":5679,"voleybolc":5680,"Ġufku":5681,"sÃ¶ÄŁÃ¼dÃ¼n":5682,"malumatÄ±n":5683,"Ġkrizi":5684,"ĠtuzaÄŁÄ±":5685,"ĠkontrolÃ¼":5686,"Ġakademisi":5687,"Ġtarifi":5688,"ĠhÃ¼cresi":5689,"monarÅŁi":5690,"ĠkupÃ¼rÃ¼":5691,"ĠÄ±ÅŁÄ±ÄŁÄ±":5692,"boÄŁa":5693,"otofobi":5694,"milimetren":5695,"kilis":5696,"tunuz":5697,"vasÄ±":5698,"Ġdan":5699,"Ġarka":5700,"ĠarkadaÅŁ":5701,"ĠkartÄ±":5702,"Ġokul":5703,"inmemiÅŁ":5704,"ĠolmamÄ±ÅŁlar":5705,"Ġolmazlar":5706,"kolan":5707,"karnen":5708,"satmÄ±yor":5709,"ĠyapmamÄ±ÅŁlar":5710,"ĠyapmÄ±yorlar":5711,"Ġyapacaklar":5712,"oki":5713,"dilmemiÅŁ":5714,"dildon":5715,"piÅŁmeyecek":5716,"dÃ¼zmeyecek":5717,"yarasan":5718,"bitmeyecek":5719,"Ġsistem":5720,"Ã¼yecekler":5721,"kÃ¶pÃ¼ÄŁÃ¼n":5722,"sapmayacak":5723,"koptu":5724,"deÄŁiÅŁmemiÅŁ":5725,"sermeyecek":5726,"paylaÅŁmamÄ±ÅŁ":5727,"tepmez":5728,"oturmaz":5729,"yÄ±ÄŁmÄ±yor":5730,"atÄ±ÅŁtÄ±rmayacak":5731,"eyecekler":5732,"Ġdikmiyor":5733,"sÃ¶vmemiÅŁ":5734,"sÃ¶vmeyecek":5735,"pusmamÄ±ÅŁ":5736,"tutk":5737,"eÄŁitmemiÅŁ":5738,"daÄŁÄ±tmamÄ±ÅŁ":5739,"iyileÅŁtirmez":5740,"eÄŁlenmemiÅŁ":5741,"eÄŁlenmeyecek":5742,"atÄ±ÅŁmamÄ±ÅŁ":5743,"birleÅŁmiyor":5744,"deÄŁiÅŁtirmemiÅŁ":5745,"tanÄ±tmaz":5746,"Ã§Ã¶kertmemiÅŁ":5747,"yendirtmeyecek":5748,"ofob":5749,"sikilmeyecek":5750,"koktu":5751,"korktu":5752,"matlan":5753,"dakik":5754,"seksiy":5755,"diskon":5756,"sÄ±rala":5757,"kavunun":5758,"ĠolmuÅŁlar":5759,"mandalin":5760,"Ã§arp":5761,"bazaltÄ±n":5762,"atÄ±lmamÄ±ÅŁ":5763,"lÄ±ÄŁÄ±":5764,"lÄ±ÄŁÄ±n":5765,"duyduk":5766,"duydunuz":5767,"sÃ¼rÃ¼mez":5768,"sÃ¼rÃ¼meyecek":5769,"karÄ±ÅŁtÄ±rtmaz":5770,"yaptÄ±rtmayacak":5771,"Ġolurlar":5772,"dÃ¼ÅŁÃ¼nceliy":5773,"yakÄ±ÅŁÄ±klÄ±y":5774,"baltan":5775,"Ã¼mitliy":5776,"oynatÄ±c":5777,"salatan":5778,"protest":5779,"Kopenhagl":5780,"beytin":5781,"Ã§ekmecen":5782,"sÃ¶zcÃ¼lÃ¼ÄŁÃ¼n":5783,"cibinin":5784,"ayakkabÄ±c":5785,"tahdidin":5786,"tatl":5787,"Ã§imken":5788,"manÄ±zda":5789,"munun":5790,"minizi":5791,"minizin":5792,"ĠÄ±ÅŁÄ±nÄ±":5793,"sÃ¶zdizimi":5794,"aynÅŁtaynyumu":5795,"ekstremumu":5796,"ĠdalÄ±ÅŁÃ§Ä±":5797,"ĠparlatÄ±cÄ±":5798,"tulumu":5799,"atomu":5800,"yoÄŁurdun":5801,"ĠoynatÄ±cÄ±":5802,"ĠoynatÄ±cÄ±sÄ±":5803,"ĠyuvasÄ±":5804,"Ġbitimi":5805,"ĠkampÄ±":5806,"ĠkaplanÄ±":5807,"Ġtelefonu":5808,"ĠmÃ¼hendisliÄŁi":5809,"sÃ¼stÃ¼":5810,"ĠÃ¶rtÃ¼sÃ¼":5811,"taraban":5812,"derlemen":5813,"Ġsandalyen":5814,"coÅŁkuluy":5815,"ĠarkadaÅŁÄ±":5816,"tum":5817,"uk":5818,"yÄ±n":5819,"yÄ±nÄ±z":5820,"memen":5821,"leceÄŁ":5822,"altÄ±nÄ±z":5823,"ÅŁtÄ±nÄ±z":5824,"Ġyapmazlar":5825,"ĠyapmadÄ±lar":5826,"ĠyapmÄ±ÅŁlar":5827,"ĠÃ§ekmedi":5828,"takmaz":5829,"sÃ¼zmemiÅŁ":5830,"sevmemiÅŁ":5831,"sevmeyecek":5832,"uyarmÄ±yor":5833,"uymayacak":5834,"larmÄ±ÅŁÄ±z":5835,"larmÄ±ÅŁÄ±m":5836,"larmÄ±ÅŁsÄ±nÄ±z":5837,"kurtarmaz":5838,"gerekmez":5839,"yoksullaÅŁtÄ±rmÄ±yor":5840,"kapamaz":5841,"tuttu":5842,"tÃ¼lerdi":5843,"tilerdi":5844,"daÄŁÄ±tÄ±mÄ±":5845,"Ã¶ÄŁÃ¼tmeyecek":5846,"Ä±sÄ±rmayacak":5847,"Ġfener":5848,"evlenmemiÅŁ":5849,"saldÄ±rmÄ±yor":5850,"kaÃ§Ä±rmÄ±yor":5851,"TÃ¼rkÃ§eleÅŁtirmeyecek":5852,"kuruttu":5853,"dÃ¼zeltmemiÅŁ":5854,"sÃ¶zlÃ¼ÄŁÃ¼n":5855,"verilmemiÅŁ":5856,"cezven":5857,"sattÄ±rtmamÄ±ÅŁ":5858,"duydun":5859,"duydum":5860,"Ġyaparlar":5861,"iÅŁletmen":5862,"doktrinin":5863,"kÄ±yametin":5864,"alametin":5865,"hinterlandÄ±n":5866,"sahif":5867,"skrotumu":5868,"latern":5869,"mimizin":5870,"midyen":5871,"tohumu":5872,"yaÄŁlayÄ±c":5873,"Ġolmuyorlar":5874,"Ġlist":5875,"diyorlar":5876,"munda":5877,"denizana":5878,"minizden":5879,"Ġsuy":5880,"ĠgÃ¼reÅŁi":5881,"kÃ¼tÃ¼ÄŁÃ¼n":5882,"angudun":5883,"Ġkriz":5884,"Ã¶pÃ¼ÅŁtÃ¼":5885,"asidin":5886,"Ġcevizi":5887,"Ġfilmi":5888,"ĠelmasÄ±":5889,"ĠyetmezliÄŁi":5890,"ĠsÄ±nÄ±rlamasÄ±":5891,"ĠpastasÄ±":5892,"ĠaÄŁacÄ±":5893,"ĠkÃ¶prÃ¼sÃ¼":5894,"tun":5895,"Ã¼yen":5896,"maktan":5897,"yasan":5898,"Ã§oÄŁ":5899,"Ã§asÄ±":5900,"yorumu":5901,"yorumun":5902,"mayan":5903,"ÅŁta":5904,"ÅŁtÄ±n":5905,"ÅŁtÄ±m":5906,"ÅŁtÄ±k":5907,"Ġyapmayacaklar":5908,"ĠÃ§ekmemiÅŁler":5909,"sinize":5910,"sinizden":5911,"aldÄ±rmaz":5912,"uydu":5913,"larmÄ±ÅŁsÄ±n":5914,"oturdu":5915,"kovdurdu":5916,"kaybolmayacak":5917,"ydÄ±k":5918,"ydÄ±m":5919,"kurutmaz":5920,"ucuben":5921,"pedin":5922,"koÅŁuc":5923,"deyi":5924,"evladÄ±":5925,"evladÄ±n":5926,"Ġdilimi":5927,"yordamÄ±":5928,"iÅŁkencen":5929,"hÃ¼kÃ»metin":5930,"maskar":5931,"ĠkÃ¶ften":5932,"ambulansÄ±":5933,"ÅŁÄ±rÄ±ng":5934,"mimizden":5935,"yumurtan":5936,"similyan":5937,"zammÄ±":5938,"yÄ±ldÄ±rÄ±mÄ±":5939,"mundan":5940,"Ġdurumun":5941,"aÄŁÄ±dÄ±n":5942,"ĠkuralÄ±":5943,"tÃ¼ydÃ¼m":5944,"spamÄ±":5945,"yÃ¼ksÃ¼ÄŁÃ¼n":5946,"pustu":5947,"Ġyuva":5948,"Ġkamp":5949,"akvaryumu":5950,"ĠkumandasÄ±":5951,"Ġtesti":5952,"Ġcismi":5953,"ĠfÄ±rÃ§asÄ±":5954,"ĠkÄ±rlangÄ±cÄ±":5955,"ĠdonanÄ±mÄ±":5956,"ĠdansÄ±":5957,"okiyan":5958,"Ã§oÄŁulu":5959,"ydÄ±n":5960,"ydÄ±nÄ±z":5961,"demedi":5962,"koyu":5963,"sta":5964,"onu":5965,"olmadÄ±":5966,"Ã¶pmedi":5967,"meye":5968,"varmadÄ±":5969,"canlanmadÄ±":5970,"ĠÃ§ekmiÅŁler":5971,"ĠÃ§ekmiyorlar":5972,"gecikmedi":5973,"sinizi":5974,"piÅŁmedi":5975,"dÃ¼zmedi":5976,"katmadÄ±":5977,"bitti":5978,"aldÄ±rdÄ±":5979,"Ã¶ldÃ¼rtmedi":5980,"lardÄ±m":5981,"gezdi":5982,"tacÄ±":5983,"dÃ¼ÅŁÃ¼ndÃ¼":5984,"sapmadÄ±":5985,"demley":5986,"uludu":5987,"ulumadÄ±":5988,"paylaÅŁmadÄ±":5989,"gÃ¶tÃ¼rdÃ¼":5990,"aldÄ±n":5991,"onarmadÄ±":5992,"geberdi":5993,"gebermedi":5994,"ilklendirmedi":5995,"yalvarmadÄ±":5996,"yÄ±ÄŁmadÄ±":5997,"deÄŁiÅŁti":5998,"Ġdikti":5999,"yoksullaÅŁtÄ±rmadÄ±":6000,"Ã¶pÃ¼ÅŁmedi":6001,"yumdu":6002,"yummadÄ±":6003,"Ã¶lÃ§Ã¼lmedi":6004,"sÃ¶vmedi":6005,"kayboldu":6006,"kaybolmadÄ±":6007,"yÄ±kadÄ±":6008,"daldÄ±":6009,"daÄŁÄ±ttÄ±":6010,"Ä±sÄ±rmadÄ±":6011,"ĠaldÄ±rdÄ±":6012,"seslenmedi":6013,"kÄ±rdÄ±rmadÄ±":6014,"saldÄ±rmadÄ±":6015,"Ã¼ÅŁendi":6016,"boÅŁandÄ±":6017,"boÅŁanmadÄ±":6018,"aldattÄ±":6019,"kapatmadÄ±":6020,"iyileÅŁtirdi":6021,"Ä°ngilizceleÅŁtirmedi":6022,"TÃ¼rkÃ§eleÅŁtirdi":6023,"eÄŁlendi":6024,"gÃ¼lÃ¼nÃ§leÅŁmedi":6025,"bitirmedi":6026,"delirmedi":6027,"deÄŁiÅŁtirdi":6028,"deÄŁiÅŁtirmedi":6029,"tanÄ±tmadÄ±":6030,"tanÄ±ttÄ±":6031,"verdirtti":6032,"Ã§Ã¶kertti":6033,"canlandÄ±rtÄ±ldÄ±":6034,"canlandÄ±rtÄ±lmadÄ±":6035,"boÅŁalmadÄ±":6036,"verildi":6037,"alÄ±cÄ±":6038,"kalkmadÄ±":6039,"korkmamÄ±ÅŁ":6040,"yaÄŁladÄ±":6041,"mumyan":6042,"demlemedi":6043,"tÃ¼redi":6044,"diredi":6045,"diremedi":6046,"gÃ¼tmedi":6047,"pedi":6048,"bazaltÄ±":6049,"kÄ±rÄ±ldÄ±":6050,"kaynaÅŁtÄ±rÄ±ldÄ±":6051,"katÄ±lmadÄ±":6052,"kÄ±ÅŁkÄ±rttÄ±":6053,"yapÄ±ldÄ±":6054,"atÄ±ldÄ±":6055,"ÅŁaÅŁÄ±rtmadÄ±":6056,"duydu":6057,"sÃ¼rÃ¼medi":6058,"yaptÄ±rtmadÄ±":6059,"bÃ¼rÃ¼medi":6060,"uygula":6061,"ĠÃ§ekerler":6062,"hinterlandÄ±":6063,"boksu":6064,"kolonyan":6065,"Ġtahtan":6066,"lokantan":6067,"referansÄ±":6068,"Ã§Ã¶zeltin":6069,"rÃ¼yan":6070,"forumdaÅŁÄ±":6071,"ĠfrekansÄ±":6072,"patladÄ±":6073,"aÄŁÄ±dÄ±":6074,"tÃ¼ydÃ¼":6075,"tÃ¼ydÃ¼n":6076,"tÃ¼ydÃ¼nÃ¼z":6077,"tÃ¼ydÃ¼k":6078,"onuza":6079,"piÅŁti":6080,"angudu":6081,"birleÅŁti":6082,"yetiÅŁti":6083,"hududu":6084,"hududun":6085,"Ġpasta":6086,"Ġkuvveti":6087,"dinamitin":6088,"tavukgÃ¶tÃ¼":6089,"ime":6090,"kÃ¶ÄŁretim":6091,"liyorlar":6092,"lkÃ¶ÄŁretim":6093,"ĠbalÄ±k":6094,"meti":6095,"andÄ±":6096,"Ġolduk":6097,"ĠolmadÄ±lar":6098,"ĠolmadÄ±m":6099,"ĠolmadÄ±nÄ±z":6100,"Ġoldular":6101,"kasÄ±nÄ±z":6102,"muru":6103,"yapÄ±ÅŁt":6104,"elley":6105,"dÃ¼rmedi":6106,"dÃ¼rdÃ¼":6107,"uza":6108,"uzu":6109,"uzdan":6110,"sten":6111,"sundu":6112,"sunmadÄ±":6113,"onda":6114,"Ã¶ptÃ¼":6115,"meyi":6116,"satmadÄ±":6117,"sattÄ±":6118,"ĠyaptÄ±n":6119,"ĠyaptÄ±nÄ±z":6120,"ĠyapmadÄ±n":6121,"ĠyapmadÄ±nÄ±z":6122,"ĠyaptÄ±lar":6123,"okulu":6124,"dilmedi":6125,"saydÄ±":6126,"geldi":6127,"gelmedi":6128,"ĠÃ§ekmeyecekler":6129,"ĠÃ§ekmezler":6130,"utandÄ±":6131,"bÃ¼ktÃ¼":6132,"gecikti":6133,"sinizin":6134,"sinizde":6135,"dÃ¼zdÃ¼":6136,"artmadÄ±":6137,"arttÄ±":6138,"bitmedi":6139,"aÃ§madÄ±":6140,"aÃ§tÄ±":6141,"takmadÄ±":6142,"iÃ§ti":6143,"tanÄ±dÄ±":6144,"yazdÄ±":6145,"yazmadÄ±":6146,"gÃ¶Ã§medi":6147,"gÃ¶Ã§tÃ¼":6148,"sÃ¼ndÃ¼":6149,"dinizden":6150,"lardÄ±k":6151,"gezmedi":6152,"sÃ¼zdÃ¼":6153,"sevmedi":6154,"dondurdu":6155,"kopmadÄ±":6156,"uyardÄ±":6157,"deÄŁiÅŁmedi":6158,"sermedi":6159,"kurtardÄ±":6160,"kurtarmadÄ±":6161,"Ġvermedi":6162,"gÃ¶tÃ¼rmedi":6163,"taÅŁmadÄ±":6164,"hastalanmadÄ±":6165,"ilklendirdi":6166,"dadanmadÄ±":6167,"ĠsÄ±kÄ±ÅŁt":6168,"tepti":6169,"oturmadÄ±":6170,"gerekti":6171,"yÄ±ÄŁdÄ±":6172,"atÄ±ÅŁtÄ±rdÄ±":6173,"bÃ¼ktÃ¼rmedi":6174,"bÃ¼ktÃ¼rdÃ¼":6175,"Ã§aldÄ±":6176,"Ã§almadÄ±":6177,"yoksullaÅŁtÄ±rdÄ±":6178,"sÃ¶kmedi":6179,"Ã¶lÃ§Ã¼ldÃ¼":6180,"sÃ¶vdÃ¼":6181,"kaÅŁÄ±dÄ±":6182,"kÄ±ymadÄ±":6183,"solumadÄ±":6184,"canlanmamadÄ±":6185,"eÄŁitti":6186,"Ä±sÄ±rdÄ±":6187,"sÃ¼rÃ¼ndÃ¼rmedi":6188,"saydÄ±rdÄ±":6189,"kÄ±rdÄ±rdÄ±":6190,"kirletti":6191,"kÃ¶pÃ¼rmedi":6192,"kÃ¶pÃ¼rdÃ¼":6193,"geciktirdi":6194,"geciktirmedi":6195,"ayÄ±rdÄ±":6196,"ayÄ±rmadÄ±":6197,"tÃ¼kÃ¼rdÃ¼":6198,"Ã¼ÅŁenmedi":6199,"kapattÄ±":6200,"utandÄ±rdÄ±":6201,"utandÄ±rmadÄ±":6202,"iyileÅŁtirmedi":6203,"kaÃ§Ä±rdÄ±":6204,"kaÃ§Ä±rmadÄ±":6205,"abac":6206,"tÃ¼kendi":6207,"dÃ¶ndÃ¼rmedi":6208,"uÄŁratmadÄ±":6209,"eÄŁlenmedi":6210,"ĠsÄ±kÄ±ÅŁmadÄ±":6211,"gÃ¼cendi":6212,"verdirtmedi":6213,"yendirtmedi":6214,"yendirtti":6215,"sosu":6216,"Ã¶lÃ§tÃ¼rtmedi":6217,"dÃ¼rttÃ¼":6218,"gidildi":6219,"kaynaÅŁtÄ±rtÄ±ldÄ±":6220,"sikildi":6221,"sikilmedi":6222,"kokmadÄ±":6223,"korkmadÄ±":6224,"elledi":6225,"yaÄŁlamadÄ±":6226,"bayÄ±lmadÄ±":6227,"demledi":6228,"benzedi":6229,"benzemedi":6230,"tÃ¼remedi":6231,"belden":6232,"kullanÄ±ldÄ±":6233,"katÄ±ldÄ±":6234,"atÄ±lmadÄ±":6235,"sattÄ±rttÄ±":6236,"sÃ¼rÃ¼dÃ¼":6237,"karÄ±ÅŁtÄ±rtmadÄ±":6238,"yaptÄ±rttÄ±":6239,"bÃ¼rÃ¼dÃ¼":6240,"tÃ¼tsÃ¼n":6241,"tÃ¼tsÃ¼s":6242,"deyimimiz":6243,"uygulamanÄ±z":6244,"numarala":6245,"numaralamanÄ±z":6246,"kasiden":6247,"Ġprogramla":6248,"pilavÄ±":6249,"maskaran":6250,"anjiy":6251,"ambulansÄ±nÄ±z":6252,"bataryan":6253,"Ġsineklerinden":6254,"Ġsineklerinde":6255,"Ġsineklerinin":6256,"tahdidi":6257,"giys":6258,"tohumun":6259,"tohumunuz":6260,"piskoposu":6261,"Ã§Ã¶zeltiniz":6262,"yalÄ±tÄ±mÄ±":6263,"satrancÄ±":6264,"patlamadÄ±":6265,"sakladÄ±":6266,"saklamadÄ±":6267,"aÄŁlamadÄ±":6268,"yuvarladÄ±":6269,"yuvarlamadÄ±":6270,"horladÄ±":6271,"Ġkural":6272,"Ġkuram":6273,"onuzdan":6274,"kÃ¢busu":6275,"kÃ¢busunuz":6276,"Ġkonferans":6277,"aynÅŁtaynyumunuz":6278,"Ġufuk":6279,"sindirimimiz":6280,"ĠÃ¶rtÃ¼":6281,"gÃ¼lÃ¼nÃ§leÅŁti":6282,"Ġfilm":6283,"coÅŁtu":6284,"lamayÄ±n":6285,"lamayÄ±z":6286,"ĠfÄ±rÃ§a":6287,"Ä±lacaÄŁÄ±m":6288,"Ä±lacaÄŁÄ±z":6289,"cÄ±lÄ±ÄŁ":6290,"culuÄŁ":6291,"moloj":6292,"lacaÄŁÄ±m":6293,"inmedi":6294,"anmadÄ±":6295,"yorumunuz":6296,"ĠmÄ±ymÄ±ÅŁlar":6297,"yaptÄ±":6298,"dadÄ±nÄ±z":6299,"Ã¼zmedi":6300,"uzun":6301,"ĠmÄ±ydÄ±lar":6302,"oldu":6303,"vardÄ±":6304,"ĠyaptÄ±k":6305,"ĠyaptÄ±m":6306,"ĠyapmadÄ±m":6307,"iydim":6308,"dildi":6309,"dilimimiz":6310,"asmadÄ±":6311,"saymadÄ±":6312,"ĠÃ§ekecekler":6313,"ĠÃ§ekiyorlar":6314,"utanmadÄ±":6315,"bÃ¼kmedi":6316,"kattÄ±":6317,"bayÄ±":6318,"sÄ±zdÄ±":6319,"sÄ±zmadÄ±":6320,"taktÄ±":6321,"canlandÄ±rmadÄ±":6322,"tanÄ±madÄ±":6323,"Ã¶ldÃ¼rttÃ¼":6324,"Ã¼yÃ¼":6325,"coÅŁmadÄ±":6326,"dinizi":6327,"sÃ¼zmedi":6328,"tacaÄŁÄ±z":6329,"Ã¶ÄŁretmedi":6330,"Ã¶ÄŁretti":6331,"sevdi":6332,"dÃ¼ÅŁÃ¼nmedi":6333,"dondurmadÄ±":6334,"uyarmadÄ±":6335,"uymadÄ±":6336,"serdi":6337,"aldÄ±nÄ±z":6338,"onardÄ±":6339,"tepmedi":6340,"kovdurmadÄ±":6341,"gerekmedi":6342,"atÄ±ÅŁtÄ±rmadÄ±":6343,"yetiÅŁmedi":6344,"Ġdikmedi":6345,"sÄ±vÄ±laÅŁtÄ±rdÄ±":6346,"pusmadÄ±":6347,"kaÅŁÄ±madÄ±":6348,"karadulu":6349,"yÄ±kamadÄ±":6350,"soludu":6351,"kapamadÄ±":6352,"dalmadÄ±":6353,"lamam":6354,"tutmadÄ±":6355,"sandÄ±":6356,"sanmadÄ±":6357,"eÄŁitmedi":6358,"yapÄ±ÅŁmadÄ±":6359,"yanlÄ±":6360,"sÃ¼rÃ¼ndÃ¼rdÃ¼":6361,"saydÄ±rmadÄ±":6362,"evlendi":6363,"tÃ¼kÃ¼rmedi":6364,"Ä°ngilizceleÅŁtirdi":6365,"abadin":6366,"TÃ¼rkÃ§eleÅŁtirmedi":6367,"tÃ¼kenmedi":6368,"unutmadÄ±":6369,"ettirdi":6370,"sÃ¼mÃ¼rmedi":6371,"dÃ¶ndÃ¼rdÃ¼":6372,"uÄŁrattÄ±":6373,"kurutmadÄ±":6374,"gÃ¼cenmedi":6375,"atÄ±ÅŁmadÄ±":6376,"birleÅŁmedi":6377,"delirdi":6378,"Ã§Ã¶kertmedi":6379,"Ã¶lÃ§tÃ¼rttÃ¼":6380,"dirildi":6381,"dÃ¼rtmedi":6382,"gidilmedi":6383,"seÃ§ildi":6384,"dÃ¼zeltmedi":6385,"kaynaÅŁtÄ±rtÄ±lmadÄ±":6386,"ĠaldÄ±":6387,"ĠalmadÄ±":6388,"bankÄ±":6389,"olayÄ±":6390,"ellemedi":6391,"vaden":6392,"vadeniz":6393,"bayÄ±ldÄ±":6394,"liÄŁe":6395,"liÄŁin":6396,"Ġhallerini":6397,"Ġhallerinde":6398,"Ġhallerinin":6399,"Ġhalini":6400,"Ġhaline":6401,"Ġhalinden":6402,"kullanÄ±lmadÄ±":6403,"kaynaÅŁtÄ±rÄ±lmadÄ±":6404,"kÄ±ÅŁkÄ±rtmadÄ±":6405,"yapÄ±lmadÄ±":6406,"ÅŁaÅŁÄ±rttÄ±":6407,"sattÄ±rtmadÄ±":6408,"karÄ±ÅŁtÄ±rttÄ±":6409,"benzerler":6410,"tÃ¼tsÃ¼nÃ¼z":6411,"evladÄ±nÄ±z":6412,"ĠprogramlamanÄ±z":6413,"beyt":6414,"beytiniz":6415,"hinterlandÄ±nÄ±z":6416,"boksunuz":6417,"skrotumun":6418,"skrotumunuz":6419,"albatrosu":6420,"hiss":6421,"borcu":6422,"hÃ¼lyan":6423,"Ġsinekleri":6424,"Ġsineklerini":6425,"peskÃ¼tanÄ±":6426,"Ã§Ã¶zelt":6427,"kaldÄ±racÄ±":6428,"Yahudin":6429,"ĠsineÄŁinin":6430,"ĠsineÄŁinde":6431,"aÄŁladÄ±":6432,"yalamadÄ±":6433,"horlamadÄ±":6434,"kanÄ±tladÄ±":6435,"kanÄ±tlamadÄ±":6436,"ĠÄ±ÅŁÄ±k":6437,"ĠÄ±ÅŁÄ±nÄ±n":6438,"onuzu":6439,"onuzun":6440,"onuzda":6441,"Ġkonferan":6442,"ekstremumunuz":6443,"Ġgrub":6444,"Ġgrup":6445,"Ġufk":6446,"angudunuz":6447,"atomunuz":6448,"Ã§evirimimiz":6449,"yoÄŁurdu":6450,"yoÄŁurdunuz":6451,"malumatÄ±nÄ±z":6452,"tuydu":6453,"tuyduk":6454,"Ġtuzak":6455,"Ã¶pÃ¼ÅŁtÃ¼y":6456,"asidi":6457,"Ġbitim":6458,"monarÅŁ":6459,"ĠfrekansÄ±nÄ±z":6460,"ĠaÄŁac":6461,"virgÃ¼lÃ¼nÃ¼z":6462,"leceÄŁiz":6463,"eÅŁt":6464,"tayÄ±":6465,"tasÄ±":6466,"yeye":6467,"yeyi":6468,"ĠaÄŁaÃ§":6469,"Ġkart":6470,"Ġdans":6471,"ĠkartÄ±n":6472,"Ä±ma":6473,"mana":6474,"lete":6475,"inmeyecekler":6476,"inmiyorlar":6477,"anmayacaklar":6478,"anmÄ±yorlar":6479,"anÄ±yorlar":6480,"anarlar":6481,"Ġoldun":6482,"Ġoldunuz":6483,"ĠolmadÄ±k":6484,"ĠolmadÄ±n":6485,"demeyecekler":6486,"demiyorlar":6487,"muÄŁ":6488,"armu":6489,"ÅŁtan":6490,"yapmadÄ±":6491,"yapmazlar":6492,"yapmÄ±ÅŁlar":6493,"yapacaklar":6494,"yaparlar":6495,"dÃ¼rmemiÅŁler":6496,"dÃ¼rÃ¼yorlar":6497,"dÃ¼rmÃ¼ÅŁler":6498,"dÃ¼rerler":6499,"Ã¼zmeyecekler":6500,"Ã¼zmezler":6501,"Ã¼zmÃ¼yorlar":6502,"Ã¼zerler":6503,"uzda":6504,"direy":6505,"diriyorlar":6506,"direrler":6507,"direyecekler":6508,"aÅŁmadÄ±":6509,"aÅŁmamÄ±ÅŁlar":6510,"aÅŁmazlar":6511,"aÅŁmayacaklar":6512,"aÅŁarlar":6513,"sunmayacaklar":6514,"sunmuyorlar":6515,"ondan":6516,"tanÄ±rlar":6517,"olmamÄ±ÅŁlar":6518,"olmayacaklar":6519,"Ã¶pmeyecekler":6520,"Ã¶pmezler":6521,"varmÄ±ÅŁlar":6522,"varÄ±yorlar":6523,"varÄ±rlar":6524,"satmamÄ±ÅŁlar":6525,"satÄ±yorlar":6526,"canlanmazlar":6527,"canlanmayacaklar":6528,"iydin":6529,"iydik":6530,"iydiniz":6531,"sÃ¼rÃ¼y":6532,"sÃ¼rÃ¼yecekler":6533,"dilmemiÅŁler":6534,"diliyorlar":6535,"asmazlar":6536,"asmayacaklar":6537,"asmÄ±yorlar":6538,"asmÄ±ÅŁlar":6539,"asacaklar":6540,"asarlar":6541,"hadi":6542,"kapÄ±yorlar":6543,"saymazlar":6544,"saymayacaklar":6545,"saymÄ±ÅŁlar":6546,"sayÄ±yorlar":6547,"gelmemiÅŁler":6548,"gelmezler":6549,"gelirler":6550,"ĠmuymuÅŁlar":6551,"ĠÃ§ektin":6552,"ĠÃ§ektik":6553,"ĠÃ§ekmediler":6554,"ĠÃ§ekmedim":6555,"ĠÃ§ekmedik":6556,"ĠÃ§ekmediniz":6557,"Ã§Ã¶kermedi":6558,"Ã§Ã¶kermemiÅŁler":6559,"Ã§Ã¶kermeyecekler":6560,"Ã§Ã¶kermezler":6561,"Ã§Ã¶kermiyorlar":6562,"utanmamÄ±ÅŁlar":6563,"utanmazlar":6564,"utanÄ±yorlar":6565,"utanacaklar":6566,"bÃ¼kmemiÅŁler":6567,"bÃ¼kmeyecekler":6568,"bÃ¼kmezler":6569,"bÃ¼kmÃ¼ÅŁler":6570,"bÃ¼kerler":6571,"gecikmemiÅŁler":6572,"gecikmeyecekler":6573,"gecikmiÅŁler":6574,"gecikmiyorlar":6575,"piÅŁmemiÅŁler":6576,"piÅŁmezler":6577,"piÅŁecekler":6578,"dÃ¼zmezler":6579,"dÃ¼zÃ¼yorlar":6580,"dÃ¼zmÃ¼ÅŁler":6581,"dÃ¼zerler":6582,"katmamÄ±ÅŁlar":6583,"katmayacaklar":6584,"artmamÄ±ÅŁlar":6585,"artmayacaklar":6586,"artmÄ±yorlar":6587,"artacaklar":6588,"bitmemiÅŁler":6589,"bitmeyecekler":6590,"bitmezler":6591,"bitecekler":6592,"bitmiyorlar":6593,"bitiyorlar":6594,"biterler":6595,"aÃ§mayacaklar":6596,"aÃ§Ä±yorlar":6597,"sÄ±zmÄ±yorlar":6598,"sÄ±zÄ±yorlar":6599,"sÄ±zacaklar":6600,"takmamÄ±ÅŁlar":6601,"takmÄ±yorlar":6602,"takmÄ±ÅŁlar":6603,"canlandÄ±rdÄ±":6604,"canlandÄ±rmayacaklar":6605,"canlandÄ±rÄ±yorlar":6606,"canlandÄ±racaklar":6607,"canlandÄ±rÄ±rlar":6608,"aldÄ±rmadÄ±":6609,"aldÄ±rmayacaklar":6610,"aldÄ±rmÄ±yorlar":6611,"aldÄ±rmÄ±ÅŁlar":6612,"aldÄ±racaklar":6613,"iÃ§medi":6614,"iÃ§ecekler":6615,"iÃ§miÅŁler":6616,"iÃ§erler":6617,"tanÄ±mayacaklar":6618,"Ã¶ldÃ¼rtmemiÅŁler":6619,"Ã¶ldÃ¼rtmezler":6620,"Ã¶ldÃ¼rtmÃ¼ÅŁler":6621,"Ġmuydular":6622,"yazmamÄ±ÅŁlar":6623,"yazmayacaklar":6624,"yazmÄ±yorlar":6625,"yazacaklar":6626,"gÃ¶Ã§ecekler":6627,"gÃ¶Ã§Ã¼yorlar":6628,"gÃ¶Ã§erler":6629,"sÃ¼nmedi":6630,"sÃ¼nmeyecekler":6631,"sÃ¼nerler":6632,"coÅŁmamÄ±ÅŁlar":6633,"coÅŁmazlar":6634,"coÅŁmayacaklar":6635,"coÅŁarlar":6636,"coÅŁmuyorlar":6637,"dinize":6638,"dinizin":6639,"dinizde":6640,"gezecekler":6641,"gezmiyorlar":6642,"geziyorlar":6643,"sÃ¼zmemiÅŁler":6644,"sÃ¼zmeyecekler":6645,"sÃ¼zecekler":6646,"Ã¶ÄŁretmemiÅŁler":6647,"Ã¶ÄŁretmeyecekler":6648,"Ã¶ÄŁretmezler":6649,"Ã¶ÄŁretmiyorlar":6650,"sevecekler":6651,"derler":6652,"sÃ¼smedi":6653,"sÃ¼smeyecekler":6654,"sÃ¼secekler":6655,"sÃ¼sÃ¼yorlar":6656,"sÃ¼serler":6657,"saptÄ±":6658,"sapmamÄ±ÅŁlar":6659,"sapmazlar":6660,"sapmÄ±yorlar":6661,"sapÄ±yorlar":6662,"saparlar":6663,"demliyorlar":6664,"benzey":6665,"dondurmayacaklar":6666,"donduracaklar":6667,"dondurmuyorlar":6668,"kopmamÄ±ÅŁlar":6669,"kopmazlar":6670,"kopmayacaklar":6671,"koparlar":6672,"uyarmamÄ±ÅŁlar":6673,"uyarmazlar":6674,"uyarÄ±yorlar":6675,"uyaracaklar":6676,"ulumamÄ±ÅŁlar":6677,"ulumazlar":6678,"uyduk":6679,"uydunuz":6680,"deÄŁiÅŁmeyecekler":6681,"deÄŁiÅŁmezler":6682,"sermemiÅŁler":6683,"sermeyecekler":6684,"sermiÅŁler":6685,"paylaÅŁmamÄ±ÅŁlar":6686,"paylaÅŁmayacaklar":6687,"paylaÅŁmÄ±yorlar":6688,"paylaÅŁmÄ±ÅŁlar":6689,"paylaÅŁacaklar":6690,"kurtarmamÄ±ÅŁlar":6691,"kurtarÄ±yorlar":6692,"kurtaracaklar":6693,"bÃ¼rÃ¼yorlar":6694,"Ġverdi":6695,"ĠvermemiÅŁler":6696,"Ġvermeyecekler":6697,"Ġvermezler":6698,"ĠvermiÅŁler":6699,"Ġveriyorlar":6700,"Ġverirler":6701,"gÃ¶tÃ¼rmemiÅŁler":6702,"gÃ¶tÃ¼recekler":6703,"gÃ¶tÃ¼rÃ¼yorlar":6704,"gÃ¶tÃ¼rmÃ¼yorlar":6705,"taÅŁmamÄ±ÅŁlar":6706,"taÅŁmayacaklar":6707,"taÅŁacaklar":6708,"onarmazlar":6709,"onarmÄ±yorlar":6710,"gebermiÅŁler":6711,"gebermiyorlar":6712,"geberiyorlar":6713,"geberirler":6714,"hastalandÄ±":6715,"hastalanmamÄ±ÅŁlar":6716,"hastalanÄ±yorlar":6717,"hastalanacaklar":6718,"ilklendirecekler":6719,"ilklendirmiyorlar":6720,"ilklendirirler":6721,"dadandÄ±":6722,"dadanmÄ±yorlar":6723,"dadanmÄ±ÅŁlar":6724,"dadanÄ±yorlar":6725,"dadanacaklar":6726,"tepmezler":6727,"tepmiÅŁler":6728,"oturmuyorlar":6729,"kovdurmamÄ±ÅŁlar":6730,"kovdurmayacaklar":6731,"kovdurmuyorlar":6732,"yalvardÄ±":6733,"yalvarÄ±rlar":6734,"gerekmemiÅŁler":6735,"gerekmezler":6736,"gerekecekler":6737,"gerekmiyorlar":6738,"yÄ±ÄŁmayacaklar":6739,"yÄ±ÄŁmÄ±ÅŁlar":6740,"yÄ±ÄŁÄ±yorlar":6741,"yÄ±ÄŁacaklar":6742,"atÄ±ÅŁtÄ±rmayacaklar":6743,"atÄ±ÅŁtÄ±rÄ±rlar":6744,"sÃ¼mÃ¼z":6745,"yetiÅŁmiÅŁler":6746,"ĠdikmemiÅŁler":6747,"Ġdikmezler":6748,"Ġdikecekler":6749,"ĠdikmiÅŁler":6750,"bÃ¼ktÃ¼rmemiÅŁler":6751,"bÃ¼ktÃ¼rÃ¼yorlar":6752,"Ã§almamÄ±ÅŁlar":6753,"Ã§almazlar":6754,"Ã§almÄ±yorlar":6755,"yoksullaÅŁtÄ±rÄ±rlar":6756,"Ã¶pÃ¼ÅŁmemiÅŁler":6757,"Ã¶pÃ¼ÅŁmezler":6758,"Ã¶pÃ¼ÅŁÃ¼yorlar":6759,"Ã¶pÃ¼ÅŁmÃ¼ÅŁler":6760,"sÄ±vÄ±laÅŁtÄ±rmadÄ±":6761,"sÄ±vÄ±laÅŁtÄ±rmÄ±ÅŁlar":6762,"sÄ±vÄ±laÅŁtÄ±rÄ±rlar":6763,"Ã¶ldÃ¼rtÃ¼lmedi":6764,"Ã¶ldÃ¼rtÃ¼lÃ¼y":6765,"Ã¶ldÃ¼rtÃ¼lÃ¼yorlar":6766,"sÃ¶kmeyecekler":6767,"sÃ¶kmÃ¼ÅŁler":6768,"Ã¶lÃ§Ã¼lmemiÅŁler":6769,"Ã¶lÃ§Ã¼lmeyecekler":6770,"Ã¶lÃ§Ã¼lmÃ¼ÅŁler":6771,"sÃ¶vmemiÅŁler":6772,"sÃ¶vÃ¼yorlar":6773,"sÃ¶vmÃ¼ÅŁler":6774,"pusmazlar":6775,"pusacaklar":6776,"pusarlar":6777,"pusmuyorlar":6778,"kaÅŁÄ±mamÄ±ÅŁlar":6779,"kaÅŁÄ±mayacaklar":6780,"kaÅŁÄ±mÄ±ÅŁlar":6781,"kaybolmuyorlar":6782,"yÄ±kamamÄ±ÅŁlar":6783,"yÄ±kamazlar":6784,"yÄ±kamÄ±yorlar":6785,"yÄ±kamÄ±ÅŁlar":6786,"kÄ±ydÄ±":6787,"solumuyorlar":6788,"kapadÄ±":6789,"kapamamÄ±ÅŁlar":6790,"kapamÄ±yorlar":6791,"kapamÄ±ÅŁlar":6792,"dalmazlar":6793,"tutmamÄ±ÅŁlar":6794,"tutarlar":6795,"sanmÄ±yorlar":6796,"canlanmamamÄ±ÅŁlar":6797,"canlanmamÄ±yorlar":6798,"Ã¶ldÃ¼rtÃ¼lmemezler":6799,"Ã¶ldÃ¼rtÃ¼lmemiyorlar":6800,"eÄŁitmezler":6801,"eÄŁitecekler":6802,"eÄŁitimimiz":6803,"yapÄ±ÅŁmamÄ±ÅŁlar":6804,"yapÄ±ÅŁÄ±rlar":6805,"daÄŁÄ±tmamÄ±ÅŁlar":6806,"daÄŁÄ±tmazlar":6807,"daÄŁÄ±tmÄ±yorlar":6808,"daÄŁÄ±tÄ±yorlar":6809,"daÄŁÄ±tacaklar":6810,"Ã¶ÄŁÃ¼tmedi":6811,"Ã¶ÄŁÃ¼ttÃ¼":6812,"Ã¶ÄŁÃ¼tmezler":6813,"Ã¶ÄŁÃ¼tÃ¼yorlar":6814,"Ã¶ÄŁÃ¼tmÃ¼ÅŁler":6815,"Ã¶ÄŁÃ¼tmÃ¼yorlar":6816,"Ä±sÄ±rmazlar":6817,"Ä±sÄ±rmayacaklar":6818,"Ä±sÄ±rÄ±yorlar":6819,"Ä±sÄ±rÄ±rlar":6820,"ĠaldÄ±rmadÄ±":6821,"ĠaldÄ±rmamÄ±ÅŁlar":6822,"ĠaldÄ±rmazlar":6823,"sÃ¼rÃ¼ndÃ¼recekler":6824,"sÃ¼rÃ¼ndÃ¼rÃ¼yorlar":6825,"seslendi":6826,"seslenecekler":6827,"sesleniyorlar":6828,"saydÄ±rmazlar":6829,"saydÄ±rmÄ±yorlar":6830,"saydÄ±rÄ±yorlar":6831,"kÄ±rdÄ±rmÄ±yorlar":6832,"kÄ±rdÄ±rÄ±yorlar":6833,"kÄ±rdÄ±racaklar":6834,"kirletmedi":6835,"kirletmemiÅŁler":6836,"kirletmeyecekler":6837,"kirletmezler":6838,"kirletecekler":6839,"kirletiyorlar":6840,"kÃ¶pÃ¼rmemiÅŁler":6841,"kÃ¶pÃ¼rmezler":6842,"kÃ¶pÃ¼rmÃ¼ÅŁler":6843,"evlenmedi":6844,"evlenmemiÅŁler":6845,"evlenecekler":6846,"evlenmiyorlar":6847,"geciktirmeyecekler":6848,"geciktirmiyorlar":6849,"geciktiriyorlar":6850,"ayÄ±rmÄ±yorlar":6851,"ayÄ±rmÄ±ÅŁlar":6852,"ayÄ±rÄ±rlar":6853,"tÃ¼kÃ¼rmÃ¼ÅŁler":6854,"tÃ¼kÃ¼rmÃ¼yorlar":6855,"saldÄ±rdÄ±":6856,"saldÄ±rmamÄ±ÅŁlar":6857,"saldÄ±rÄ±yorlar":6858,"saldÄ±racaklar":6859,"saldÄ±rÄ±rlar":6860,"Ã¼ÅŁenecekler":6861,"Ã¼ÅŁeniyorlar":6862,"boÅŁanmayacaklar":6863,"boÅŁanmÄ±ÅŁlar":6864,"aldatmÄ±yorlar":6865,"aldatÄ±rlar":6866,"kapatmamÄ±ÅŁlar":6867,"kapatmÄ±yorlar":6868,"utandÄ±rmamÄ±ÅŁlar":6869,"utandÄ±rmayacaklar":6870,"utandÄ±rmÄ±yorlar":6871,"utandÄ±rmÄ±ÅŁlar":6872,"utandÄ±rÄ±rlar":6873,"iyileÅŁtirmemiÅŁler":6874,"iyileÅŁtirmeyecekler":6875,"iyileÅŁtirmezler":6876,"iyileÅŁtirmiÅŁler":6877,"iyileÅŁtiriyorlar":6878,"Ä°ngilizceleÅŁtirmeyecekler":6879,"Ä°ngilizceleÅŁtirmezler":6880,"Ä°ngilizceleÅŁtirecekler":6881,"Ä°ngilizceleÅŁtirmiÅŁler":6882,"kaÃ§Ä±rmamÄ±ÅŁlar":6883,"kaÃ§Ä±rmazlar":6884,"kaÃ§Ä±rmayacaklar":6885,"kaÃ§Ä±rmÄ±yorlar":6886,"TÃ¼rkÃ§eleÅŁtirmeyecekler":6887,"TÃ¼rkÃ§eleÅŁtirmezler":6888,"TÃ¼rkÃ§eleÅŁtirmiyorlar":6889,"TÃ¼rkÃ§eleÅŁtiriyorlar":6890,"tÃ¼kenmeyecekler":6891,"tÃ¼kenmiÅŁler":6892,"unutmamÄ±ÅŁlar":6893,"unutmuyorlar":6894,"ettiriyorlar":6895,"ettirirler":6896,"sÃ¼mÃ¼rdÃ¼":6897,"sÃ¼mÃ¼rÃ¼yorlar":6898,"uÄŁratmayacaklar":6899,"uÄŁratacaklar":6900,"kurutmayacaklar":6901,"kurutacaklar":6902,"eÄŁlenmiyorlar":6903,"eÄŁlenirler":6904,"ĠsÄ±kÄ±ÅŁmazlar":6905,"ĠsÄ±kÄ±ÅŁmÄ±yorlar":6906,"ĠsÄ±kÄ±ÅŁmÄ±ÅŁlar":6907,"ĠsÄ±kÄ±ÅŁÄ±yorlar":6908,"ĠsÄ±kÄ±ÅŁÄ±rlar":6909,"gÃ¼cenmeyecekler":6910,"gÃ¼cenmezler":6911,"gÃ¼cenirler":6912,"gÃ¼lÃ¼nÃ§leÅŁmemiÅŁler":6913,"gÃ¼lÃ¼nÃ§leÅŁmeyecekler":6914,"gÃ¼lÃ¼nÃ§leÅŁecekler":6915,"gÃ¼lÃ¼nÃ§leÅŁmiÅŁler":6916,"gÃ¼lÃ¼nÃ§leÅŁiyorlar":6917,"gÃ¼lÃ¼nÃ§leÅŁirler":6918,"atÄ±ÅŁmazlar":6919,"atÄ±ÅŁmÄ±ÅŁlar":6920,"atÄ±ÅŁacaklar":6921,"bitirdi":6922,"bitirecekler":6923,"bitirmiÅŁler":6924,"bitiriyorlar":6925,"birleÅŁecekler":6926,"birleÅŁmiÅŁler":6927,"delirmemiÅŁler":6928,"delirmeyecekler":6929,"delirecekler":6930,"delirmiyorlar":6931,"deÄŁiÅŁtirmeyecekler":6932,"deÄŁiÅŁtirmiyorlar":6933,"tanÄ±tmÄ±ÅŁlar":6934,"verdirtmemiÅŁler":6935,"verdirtmiyorlar":6936,"verdirtiyorlar":6937,"Ã§Ã¶kertmezler":6938,"Ã§Ã¶kertmiÅŁler":6939,"yendirtmemiÅŁler":6940,"yendirtmeyecekler":6941,"yendirtmezler":6942,"yendirtiyorlar":6943,"sosunuz":6944,"Ã¶lÃ§tÃ¼rtÃ¼yorlar":6945,"dirilmedi":6946,"dirilmemiÅŁler":6947,"dirilmeyecekler":6948,"dirilmezler":6949,"diriliyorlar":6950,"dirilirler":6951,"dÃ¼rtmezler":6952,"dÃ¼rtÃ¼yorlar":6953,"dÃ¼rtmÃ¼yorlar":6954,"gidilmemiÅŁler":6955,"gidilmeyecekler":6956,"gidilmiÅŁler":6957,"gidilmiyorlar":6958,"gidiliyorlar":6959,"gidilirler":6960,"seÃ§ilmedi":6961,"seÃ§ilmemiÅŁler":6962,"seÃ§ilmeyecekler":6963,"seÃ§ilmiÅŁler":6964,"seÃ§iliyorlar":6965,"canlandÄ±rtÄ±lmamÄ±ÅŁlar":6966,"canlandÄ±rtÄ±lmÄ±ÅŁlar":6967,"canlandÄ±rtÄ±lÄ±rlar":6968,"dÃ¼zeltti":6969,"dÃ¼zeltmemiÅŁler":6970,"dÃ¼zeltmeyecekler":6971,"dÃ¼zeltmiyorlar":6972,"kaynaÅŁtÄ±rtÄ±lmamÄ±ÅŁlar":6973,"kaynaÅŁtÄ±rtÄ±lmazlar":6974,"kaynaÅŁtÄ±rtÄ±lmÄ±yorlar":6975,"kaynaÅŁtÄ±rtÄ±lÄ±yorlar":6976,"Ġgeldi":6977,"Ġgelmedi":6978,"ĠgelmemiÅŁler":6979,"Ġgelmezler":6980,"ĠalmamÄ±ÅŁlar":6981,"Ġalmazlar":6982,"boÅŁalmamÄ±ÅŁlar":6983,"boÅŁalmazlar":6984,"boÅŁalÄ±rlar":6985,"verilmedi":6986,"sÃ¼rÃ¼mÃ¼yorlar":6987,"sÃ¼rÃ¼mÃ¼ÅŁt":6988,"kokmayacaklar":6989,"kokmuyorlar":6990,"kalktÄ±":6991,"kalkmazlar":6992,"kalkmayacaklar":6993,"kalkmÄ±yorlar":6994,"kalkÄ±yorlar":6995,"korkmuyorlar":6996,"ellememiÅŁler":6997,"ellemeyecekler":6998,"ellemiyorlar":6999,"yaÄŁlamazlar":7000,"yaÄŁlamayacaklar":7001,"bayÄ±lmamÄ±ÅŁlar":7002,"bayÄ±lmazlar":7003,"bayÄ±lmÄ±yorlar":7004,"demlemeyecekler":7005,"demlemiyorlar":7006,"benzememiÅŁler":7007,"benzemezler":7008,"gÃ¼tmÃ¼yorlar":7009,"beldeniz":7010,"harcÄ±":7011,"ĠsayÄ±nÄ±n":7012,"ĠfÃ¼zenin":7013,"bazaltÄ±nÄ±z":7014,"Ġasimptotu":7015,"ĠasimptotlarÄ±ndan":7016,"ĠasimptotlarÄ±nÄ±":7017,"Ġasimptotunu":7018,"Ġasimptotundan":7019,"Ġhalleri":7020,"Ġhallerine":7021,"Ġhalinin":7022,"Ġhalinde":7023,"kÄ±rÄ±lmadÄ±":7024,"kÄ±rÄ±lmamÄ±ÅŁlar":7025,"kÄ±rÄ±lmazlar":7026,"kÄ±rÄ±lmayacaklar":7027,"kÄ±rÄ±lmÄ±yorlar":7028,"kullanÄ±lmazlar":7029,"kullanÄ±lmayacaklar":7030,"katÄ±lmamÄ±ÅŁlar":7031,"katÄ±lmÄ±yorlar":7032,"kÄ±ÅŁkÄ±rtmayacaklar":7033,"yapÄ±lmamÄ±ÅŁlar":7034,"yapÄ±lmÄ±yorlar":7035,"ĠsayÄ±larÄ±nda":7036,"ĠsayÄ±larÄ±nÄ±n":7037,"atÄ±lmamÄ±ÅŁlar":7038,"atÄ±lmazlar":7039,"anlatmadÄ±":7040,"anlattÄ±":7041,"anlatmazlar":7042,"ÅŁaÅŁÄ±rtmazlar":7043,"ÅŁaÅŁÄ±rtmayacaklar":7044,"ĠfÃ¼zelerin":7045,"ĠfÃ¼zelerinden":7046,"ĠfÃ¼zelerine":7047,"sattÄ±rtmamÄ±ÅŁlar":7048,"sattÄ±rtmayacaklar":7049,"sÃ¼rÃ¼memiÅŁler":7050,"karÄ±ÅŁtÄ±rtmÄ±yorlar":7051,"dilerler":7052,"yaptÄ±rtmazlar":7053,"ĠyazÄ±lÄ±mlarÄ±nda":7054,"bÃ¼rÃ¼meyecekler":7055,"bÃ¼rÃ¼mezler":7056,"Ġgezegenleri":7057,"ĠanahtarÄ±nÄ±n":7058,"ĠanahtarÄ±nÄ±":7059,"ĠanahtarÄ±na":7060,"olacaklar":7061,"tÃ¼tsÃ¼mÃ¼z":7062,"mantÄ±klÄ±y":7063,"Ġdilimin":7064,"bÃ¼rÃ¼mÃ¼ÅŁt":7065,"albatrosunuz":7066,"Ġsineklerine":7067,"ÅŁÄ±rÄ±ngan":7068,"deneyimimiz":7069,"piskoposunuz":7070,"kokarlar":7071,"ĠsineÄŁini":7072,"ĠsineÄŁine":7073,"yapÄ±lacaklar":7074,"kullanÄ±lÄ±yorlar":7075,"oturuyorlar":7076,"yaptÄ±rtÄ±yorlar":7077,"ÅŁaÅŁÄ±rtmÄ±ÅŁlar":7078,"yapÄ±lÄ±yorlar":7079,"uyacaklar":7080,"yalamÄ±ÅŁlar":7081,"kÄ±ÅŁkÄ±rtacaklar":7082,"kanÄ±tlÄ±yorlar":7083,"kovduruyorlar":7084,"sattÄ±rtÄ±yorlar":7085,"kaÅŁÄ±yorlar":7086,"atÄ±lÄ±yorlar":7087,"coÅŁmuÅŁlar":7088,"karÄ±ÅŁtÄ±rtmÄ±ÅŁlar":7089,"sayacaklar":7090,"unutuyorlar":7091,"oluyorlar":7092,"korkacaklar":7093,"sikilecekler":7094,"kullanÄ±lmÄ±ÅŁlar":7095,"sattÄ±rtacaklar":7096,"Ã§alacaklar":7097,"bÃ¼rÃ¼mÃ¼ÅŁler":7098,"atÄ±lmÄ±ÅŁlar":7099,"kaynaÅŁtÄ±rÄ±lÄ±yorlar":7100,"kaynaÅŁtÄ±rÄ±lmÄ±ÅŁlar":7101,"kopuyorlar":7102,"kayboluyorlar":7103,"tutuyorlar":7104,"aÄŁlamÄ±ÅŁlar":7105,"patlamamÄ±ÅŁlar":7106,"patlamayacaklar":7107,"patlamÄ±yorlar":7108,"kullanÄ±lacaklar":7109,"donduruyorlar":7110,"kaybolmuÅŁlar":7111,"boÅŁalacaklar":7112,"pusmuÅŁlar":7113,"olmuÅŁlar":7114,"saklamamÄ±ÅŁlar":7115,"saklamayacaklar":7116,"saklamÄ±yorlar":7117,"yumacaklar":7118,"dondurmuÅŁlar":7119,"sunmuÅŁlar":7120,"korkmuÅŁlar":7121,"yaladÄ±":7122,"yalamamÄ±ÅŁlar":7123,"yalamazlar":7124,"yalamayacaklar":7125,"uymuÅŁlar":7126,"horlamazlar":7127,"kÄ±rÄ±lÄ±rlar":7128,"katÄ±lÄ±rlar":7129,"yummuÅŁlar":7130,"gÃ¼derler":7131,"kanÄ±tlamamÄ±ÅŁlar":7132,"daÄŁÄ±tÄ±rlar":7133,"yendirtirler":7134,"kÄ±yarlar":7135,"Ã¶ldÃ¼rtÃ¼lÃ¼rler":7136,"ulurlar":7137,"bayÄ±lÄ±rlar":7138,"sÃ¶kerler":7139,"Ã§Ã¶kertirler":7140,"sattÄ±rtÄ±rlar":7141,"aÄŁlayacaklar":7142,"tanÄ±tÄ±rlar":7143,"demlerler":7144,"Ã¶lÃ§tÃ¼rtÃ¼rler":7145,"tÃ¼kÃ¼rÃ¼rler":7146,"ellerler":7147,"bÃ¼rÃ¼rler":7148,"Ã¶lÃ§Ã¼lÃ¼rler":7149,"uluyacaklar":7150,"kÃ¶pÃ¼rÃ¼rler":7151,"dÃ¼rterler":7152,"saklayacaklar":7153,"ÅŁaÅŁÄ±rtÄ±rlar":7154,"soluyacaklar":7155,"atÄ±lÄ±rlar":7156,"aÄŁÄ±dÄ±nÄ±z":7157,"horlayacaklar":7158,"dalarlar":7159,"kanÄ±tlarlar":7160,"bÃ¼ktÃ¼rÃ¼rler":7161,"yaÄŁlarlar":7162,"patlarlar":7163,"patlayacaklar":7164,"aÄŁlarlar":7165,"saklarlar":7166,"ĠyazÄ±lÄ±mÄ±nda":7167,"ĠyazÄ±lÄ±mÄ±ndan":7168,"ileceÄŁ":7169,"deÄŁiÅŁtirmezler":7170,"sÃ¶ÄŁÃ¼d":7171,"sÃ¶ÄŁÃ¼dÃ¼nÃ¼z":7172,"tulumunuz":7173,"malumatÄ±":7174,"tuydun":7175,"tuydum":7176,"ĠtuzaÄŁ":7177,"ĠkupÃ¼rÃ¼n":7178,"hududunuz":7179,"ĠkÃ¶prÃ¼":7180,"nazen":7181,"akvaryumunuz":7182,"ĠkuramÄ±n":7183,"ĠmÃ¼hendislik":7184,"ĠmÃ¼hendisliÄŁ":7185,"lamayÄ±nÄ±z":7186,"ĠyetmezliÄŁ":7187,"Ġcism":7188,"ÅŁahÄ±sÄ±nÄ±z":7189,"ĠdonanÄ±m":7190,"Ġkedin":7191,"dinamitiniz":7192,"tavukgÃ¶t":7193,"ofobiyi":7194,"leceÄŁim":7195,"abec":7196,"ilet":7197,"ĠgÃ¶":7198,"Ã¼se":7199,"lacaÄŁÄ±z":7200,"mete":7201,"Ä±nlÄ±ÄŁÄ±n":7202,"levi":7203,"inmezler":7204,"inecekler":7205,"inmiÅŁler":7206,"iniyorlar":7207,"anmamÄ±ÅŁlar":7208,"anmadÄ±lar":7209,"anmÄ±ÅŁlar":7210,"anacaklar":7211,"Ġolun":7212,"Ġolunuz":7213,"ĠolmuÅŁsun":7214,"ĠolmuÅŁum":7215,"Ġoldum":7216,"ĠolmadÄ±ydÄ±":7217,"ĠolmazdÄ±":7218,"ĠolmadÄ±ydÄ±k":7219,"ĠolmazdÄ±k":7220,"ĠolmamÄ±ÅŁsÄ±nÄ±z":7221,"ĠolmamÄ±ÅŁtÄ±n":7222,"ĠolmamÄ±ÅŁmÄ±ÅŁsÄ±nÄ±z":7223,"ĠolmamÄ±ÅŁmÄ±ÅŁsÄ±n":7224,"ĠolmayÄ±z":7225,"ĠolmamÄ±ÅŁtÄ±":7226,"ĠolmamÄ±ÅŁlarmÄ±ÅŁ":7227,"ĠolmayÄ±n":7228,"ĠolmamÄ±ÅŁÄ±m":7229,"ĠolmadÄ±ydÄ±nÄ±z":7230,"ĠolmamÄ±ÅŁÄ±z":7231,"ĠolmamÄ±ÅŁtÄ±m":7232,"ĠolmamÄ±ÅŁtÄ±nÄ±z":7233,"Ġolmam":7234,"ĠolmamÄ±ÅŁmÄ±ÅŁÄ±m":7235,"ĠolmuÅŁtu":7236,"ĠolmuÅŁtun":7237,"demezler":7238,"demiÅŁler":7239,"kacaÄŁÄ±m":7240,"mura":7241,"diÄŁ":7242,"yapmayacaklar":7243,"yapmÄ±yorlar":7244,"yapmadÄ±lar":7245,"yapÄ±yorlar":7246,"dadÄ±n":7247,"dÃ¼rmeyecekler":7248,"dÃ¼rmezler":7249,"dÃ¼recekler":7250,"Ã¼zmediler":7251,"Ã¼zdÃ¼":7252,"Ã¼zÃ¼yorlar":7253,"Ã¼zdÃ¼ler":7254,"aÅŁmÄ±ÅŁlar":7255,"aÅŁÄ±yorlar":7256,"aÅŁacaklar":7257,"sunmamÄ±ÅŁlar":7258,"sunmazlar":7259,"sunmadÄ±lar":7260,"sunacaklar":7261,"sunarlar":7262,"ona":7263,"tÃ¼rÃ¼yorlar":7264,"tÃ¼reyecekler":7265,"olmuyorlar":7266,"oldular":7267,"kartÄ±nÄ±z":7268,"Ã¶pmemiÅŁler":7269,"Ã¶pecekler":7270,"Ã¶pÃ¼yorlar":7271,"Ã¶pmÃ¼ÅŁler":7272,"Ã¶pmÃ¼yorlar":7273,"Ã¶perler":7274,"varmamÄ±ÅŁlar":7275,"varmazlar":7276,"varmÄ±yorlar":7277,"satmazlar":7278,"satmayacaklar":7279,"satmÄ±yorlar":7280,"Ġyapma":7281,"ĠyapÄ±nÄ±z":7282,"ĠyapmÄ±ÅŁsÄ±nÄ±z":7283,"ĠyapmÄ±ÅŁsÄ±n":7284,"ĠyapmÄ±ÅŁÄ±z":7285,"ĠyapmÄ±ÅŁÄ±m":7286,"ĠyapmadÄ±k":7287,"ĠyapmadÄ±ydÄ±m":7288,"ĠyapmamÄ±ÅŁsÄ±nÄ±z":7289,"ĠyapmamÄ±ÅŁtÄ±n":7290,"ĠyapmadÄ±ydÄ±n":7291,"ĠyapmazmÄ±ÅŁÄ±z":7292,"ĠyapmamÄ±ÅŁmÄ±ÅŁsÄ±nÄ±z":7293,"ĠyapmamÄ±ÅŁmÄ±ÅŁsÄ±n":7294,"ĠyapmamÄ±ÅŁtÄ±k":7295,"ĠyapmamÄ±ÅŁtÄ±":7296,"ĠyapmamÄ±ÅŁlarmÄ±ÅŁ":7297,"ĠyapmayÄ±n":7298,"ĠyapmayacakmÄ±ÅŁ":7299,"ĠyapmamÄ±ÅŁÄ±m":7300,"ĠyapmadÄ±ydÄ±nÄ±z":7301,"ĠyapmayacaÄŁÄ±m":7302,"ĠyapmayacakmÄ±ÅŁsÄ±nÄ±z":7303,"ĠyapmadÄ±lardÄ±":7304,"ĠyapmayacaksÄ±n":7305,"ĠyapmayacaklarmÄ±ÅŁ":7306,"ĠyapmamÄ±ÅŁtÄ±m":7307,"ĠyapmayacaktÄ±":7308,"ĠyapmazmÄ±ÅŁ":7309,"ĠyapmamÄ±ÅŁmÄ±ÅŁ":7310,"ĠyapmayacaksÄ±nÄ±z":7311,"ĠyapmayacaklardÄ±":7312,"ĠyapmayacaktÄ±nÄ±z":7313,"ĠyapmamÄ±ÅŁlardÄ±":7314,"ĠyapmazmÄ±ÅŁsÄ±n":7315,"ĠyapmamÄ±ÅŁsÄ±n":7316,"ĠyapmayacaÄŁÄ±z":7317,"ĠyapmayacakmÄ±ÅŁÄ±m":7318,"ĠyapmazsÄ±n":7319,"Ġyapmam":7320,"ĠyapmazlarmÄ±ÅŁ":7321,"ĠyapacaÄŁÄ±m":7322,"canlanmÄ±yorlar":7323,"sÃ¼rÃ¼yorlar":7324,"dilmeyecekler":7325,"dilmiyorlar":7326,"dildiler":7327,"dilbili":7328,"asmamÄ±ÅŁlar":7329,"asmadÄ±lar":7330,"asÄ±yorlar":7331,"asana":7332,"kaparlar":7333,"saymamÄ±ÅŁlar":7334,"saymÄ±yorlar":7335,"saydÄ±lar":7336,"gelmeyecekler":7337,"gelmiÅŁler":7338,"gelmediler":7339,"gelmiyorlar":7340,"ĠÃ§ektiler":7341,"Ã§Ã¶kerdi":7342,"Ã§Ã¶kerecekler":7343,"Ã§Ã¶kermiÅŁler":7344,"Ã§Ã¶kermediler":7345,"Ã§Ã¶keriyorlar":7346,"Ã§Ã¶kerdiler":7347,"Ã§Ã¶kerirler":7348,"utanmayacaklar":7349,"utanmÄ±yorlar":7350,"utanmadÄ±lar":7351,"utanmÄ±ÅŁlar":7352,"utandÄ±lar":7353,"utanÄ±rlar":7354,"bÃ¼kÃ¼yorlar":7355,"bÃ¼kmÃ¼yorlar":7356,"gecikmediler":7357,"gecikiyorlar":7358,"gecikirler":7359,"geciktiler":7360,"piÅŁmeyecekler":7361,"piÅŁmiyorlar":7362,"piÅŁiyorlar":7363,"piÅŁerler":7364,"dÃ¼zmemiÅŁler":7365,"dÃ¼zmeyecekler":7366,"dÃ¼zecekler":7367,"dÃ¼zdÃ¼ler":7368,"katmazlar":7369,"katmadÄ±lar":7370,"katmÄ±ÅŁlar":7371,"katacaklar":7372,"katarlar":7373,"artmÄ±ÅŁlar":7374,"artÄ±yorlar":7375,"artarlar":7376,"arttÄ±lar":7377,"yaratÄ±":7378,"bittiler":7379,"aÃ§mazlar":7380,"aÃ§madÄ±lar":7381,"aÃ§mÄ±ÅŁlar":7382,"aÃ§arlar":7383,"sÄ±zmazlar":7384,"sÄ±zmayacaklar":7385,"sÄ±zmadÄ±lar":7386,"sÄ±zmÄ±ÅŁlar":7387,"takmazlar":7388,"takmayacaklar":7389,"takmadÄ±lar":7390,"takÄ±yorlar":7391,"takacaklar":7392,"takarlar":7393,"taktÄ±lar":7394,"canlandÄ±rmazlar":7395,"canlandÄ±rmÄ±yorlar":7396,"canlandÄ±rmadÄ±lar":7397,"canlandÄ±rdÄ±lar":7398,"aldÄ±rmazlar":7399,"aldÄ±rmadÄ±lar":7400,"iÃ§memiÅŁler":7401,"iÃ§mezler":7402,"iÃ§mediler":7403,"iÃ§iyorlar":7404,"tanÄ±mamÄ±ÅŁlar":7405,"tanÄ±mazlar":7406,"tanÄ±mÄ±yorlar":7407,"tanÄ±mÄ±ÅŁlar":7408,"Ã¶ldÃ¼rtmeyecekler":7409,"Ã¶ldÃ¼rtÃ¼yorlar":7410,"Ã¶ldÃ¼rtmÃ¼yorlar":7411,"yalÄ±yorlar":7412,"kÃ¶peÄŁ":7413,"yazmazlar":7414,"yazmadÄ±lar":7415,"yazmÄ±ÅŁlar":7416,"yazÄ±yorlar":7417,"yazdÄ±lar":7418,"gÃ¶Ã§memiÅŁler":7419,"gÃ¶Ã§mezler":7420,"gÃ¶Ã§tÃ¼ler":7421,"sÃ¼nmemiÅŁler":7422,"sÃ¼nmezler":7423,"sÃ¼nmediler":7424,"sÃ¼nÃ¼yorlar":7425,"sÃ¼nmÃ¼ÅŁler":7426,"sÃ¼nmÃ¼yorlar":7427,"sÃ¼ndÃ¼ler":7428,"coÅŁmadÄ±lar":7429,"coÅŁacaklar":7430,"gezmemiÅŁler":7431,"gezmeyecekler":7432,"gezmezler":7433,"gezerler":7434,"sÃ¼zmezler":7435,"sÃ¼zmediler":7436,"sÃ¼zÃ¼yorlar":7437,"sÃ¼zmÃ¼yorlar":7438,"sÃ¼zerler":7439,"sÃ¼zdÃ¼ler":7440,"Ã¶ÄŁretecekler":7441,"Ã¶ÄŁretmiÅŁler":7442,"Ã¶ÄŁretiyorlar":7443,"Ã¶ÄŁretirler":7444,"Ã¶ÄŁrettiler":7445,"iÅŁte":7446,"sevmemiÅŁler":7447,"sevmeyecekler":7448,"sevmezler":7449,"sevmiÅŁler":7450,"sevmediler":7451,"sevmiyorlar":7452,"seviyorlar":7453,"dÃ¼ÅŁÃ¼nmemiÅŁler":7454,"dÃ¼ÅŁÃ¼nmeyecekler":7455,"dÃ¼ÅŁÃ¼nmezler":7456,"dÃ¼ÅŁÃ¼necekler":7457,"dÃ¼ÅŁÃ¼nmediler":7458,"dÃ¼ÅŁÃ¼nÃ¼yorlar":7459,"dÃ¼ÅŁÃ¼nmÃ¼yorlar":7460,"sÃ¼smemiÅŁler":7461,"sÃ¼smediler":7462,"sÃ¼smÃ¼ÅŁler":7463,"sÃ¼smÃ¼yorlar":7464,"sapmayacaklar":7465,"sapmadÄ±lar":7466,"sapmÄ±ÅŁlar":7467,"sapacaklar":7468,"saptÄ±lar":7469,"benziyorlar":7470,"benzeyecekler":7471,"dondurmamÄ±ÅŁlar":7472,"dondurmazlar":7473,"kopacaklar":7474,"kopmuyorlar":7475,"uyarmayacaklar":7476,"uyarmÄ±yorlar":7477,"uyarmadÄ±lar":7478,"uyarmÄ±ÅŁlar":7479,"uyardÄ±m":7480,"uyarÄ±rlar":7481,"ulumayacaklar":7482,"ulumadÄ±lar":7483,"uydun":7484,"uymamÄ±ÅŁlar":7485,"uymazlar":7486,"uymayacaklar":7487,"uymuyorlar":7488,"uydular":7489,"deÄŁiÅŁmemiÅŁler":7490,"deÄŁiÅŁmiÅŁler":7491,"deÄŁiÅŁmediler":7492,"deÄŁiÅŁmiyorlar":7493,"sermezler":7494,"serecekler":7495,"sermiyorlar":7496,"sererler":7497,"fesi":7498,"paylaÅŁmazlar":7499,"paylaÅŁÄ±yorlar":7500,"kurtarmazlar":7501,"kurtarmayacaklar":7502,"kurtarmÄ±yorlar":7503,"kurtarmÄ±ÅŁlar":7504,"kurtardÄ±lar":7505,"kurtarÄ±rlar":7506,"bÃ¼rÃ¼yecekler":7507,"Ġverecekler":7508,"gÃ¶tÃ¼rmeyecekler":7509,"gÃ¶tÃ¼rmediler":7510,"gÃ¶tÃ¼rmÃ¼ÅŁler":7511,"taÅŁmazlar":7512,"taÅŁmadÄ±lar":7513,"taÅŁÄ±yorlar":7514,"taÅŁarlar":7515,"onarmamÄ±ÅŁlar":7516,"onarmayacaklar":7517,"onarmÄ±ÅŁlar":7518,"onaracaklar":7519,"onardÄ±lar":7520,"onarÄ±rlar":7521,"gebermemiÅŁler":7522,"geberecekler":7523,"gebermediler":7524,"geberdiler":7525,"hastalanmazlar":7526,"hastalanmayacaklar":7527,"hastalanmadÄ±lar":7528,"hastalanmÄ±ÅŁlar":7529,"hastalandÄ±lar":7530,"hastalanÄ±rlar":7531,"ilklendirmemiÅŁler":7532,"ilklendirmeyecekler":7533,"ilklendirmezler":7534,"ilklendirmiÅŁler":7535,"ilklendirmediler":7536,"ilklendiriyorlar":7537,"ilklendirdiler":7538,"dadanmazlar":7539,"dadanmadÄ±lar":7540,"dadandÄ±lar":7541,"dadanÄ±rlar":7542,"tepmemiÅŁler":7543,"tepecekler":7544,"tepmediler":7545,"tepmiyorlar":7546,"tepiyorlar":7547,"teperler":7548,"oturmazlar":7549,"oturmadÄ±lar":7550,"oturacaklar":7551,"kovdurmazlar":7552,"kovduracaklar":7553,"yalvarmamÄ±ÅŁlar":7554,"yalvarmazlar":7555,"yalvarmÄ±yorlar":7556,"yalvarmÄ±ÅŁlar":7557,"yalvaracaklar":7558,"gerekmeyecekler":7559,"gerekmiÅŁler":7560,"gerekmediler":7561,"gerekiyorlar":7562,"gerekirler":7563,"dediy":7564,"yÄ±ÄŁmazlar":7565,"yÄ±ÄŁmadÄ±lar":7566,"yÄ±ÄŁarlar":7567,"atÄ±ÅŁtÄ±rmazlar":7568,"atÄ±ÅŁtÄ±rmÄ±yorlar":7569,"atÄ±ÅŁtÄ±rmadÄ±lar":7570,"atÄ±ÅŁtÄ±rmÄ±ÅŁlar":7571,"yetiÅŁmemiÅŁler":7572,"yetiÅŁmeyecekler":7573,"yetiÅŁmezler":7574,"yetiÅŁmediler":7575,"yetiÅŁmiyorlar":7576,"yetiÅŁiyorlar":7577,"yetiÅŁirler":7578,"Ġdikmeyecekler":7579,"Ġdikmediler":7580,"Ġdikmiyorlar":7581,"Ġdikiyorlar":7582,"Ġdikerler":7583,"bÃ¼ktÃ¼rmeyecekler":7584,"bÃ¼ktÃ¼recekler":7585,"bÃ¼ktÃ¼rmÃ¼ÅŁler":7586,"bÃ¼ktÃ¼rmÃ¼yorlar":7587,"Ã§almayacaklar":7588,"Ã§aldÄ±lar":7589,"yoksullaÅŁtÄ±rmamÄ±ÅŁlar":7590,"yoksullaÅŁtÄ±rmazlar":7591,"yoksullaÅŁtÄ±rmÄ±yorlar":7592,"yoksullaÅŁtÄ±rmadÄ±lar":7593,"yoksullaÅŁtÄ±rmÄ±ÅŁlar":7594,"yoksullaÅŁtÄ±rÄ±yorlar":7595,"Ã¶pÃ¼ÅŁmeyecekler":7596,"sidiÄŁ":7597,"sÄ±vÄ±laÅŁtÄ±rmamÄ±ÅŁlar":7598,"sÄ±vÄ±laÅŁtÄ±rmÄ±yorlar":7599,"sÄ±vÄ±laÅŁtÄ±rÄ±yorlar":7600,"sÄ±vÄ±laÅŁtÄ±racaklar":7601,"sÄ±vÄ±laÅŁtÄ±rdÄ±lar":7602,"Ã¶ldÃ¼rtÃ¼lmediler":7603,"Ã¶ldÃ¼rtÃ¼lÃ¼yecekler":7604,"sÃ¶kmemiÅŁler":7605,"sÃ¶kmezler":7606,"sÃ¶kecekler":7607,"sÃ¶kÃ¼yorlar":7608,"yummamÄ±ÅŁlar":7609,"yummazlar":7610,"yummayacaklar":7611,"Ã¶lÃ§Ã¼lÃ¼yorlar":7612,"Ã¶lÃ§Ã¼lmÃ¼yorlar":7613,"sÃ¶vmeyecekler":7614,"sÃ¶vmezler":7615,"pusmamÄ±ÅŁlar":7616,"pusmayacaklar":7617,"kaÅŁÄ±mazlar":7618,"kaÅŁÄ±mÄ±yorlar":7619,"kaÅŁÄ±madÄ±lar":7620,"kaÅŁÄ±dÄ±lar":7621,"kaybolmamÄ±ÅŁlar":7622,"kaybolmadÄ±lar":7623,"yÄ±kamayacaklar":7624,"kÄ±ymamÄ±ÅŁlar":7625,"kÄ±ymazlar":7626,"kÄ±ymayacaklar":7627,"kÄ±ymÄ±yorlar":7628,"kÄ±ymadÄ±lar":7629,"kÄ±ymÄ±ÅŁlar":7630,"solumazlar":7631,"solumayacaklar":7632,"kapamazlar":7633,"kapamayacaklar":7634,"kapadÄ±lar":7635,"dalmamÄ±ÅŁlar":7636,"dalmayacaklar":7637,"dalmÄ±ÅŁlar":7638,"tutmazlar":7639,"sandal":7640,"sanmamÄ±ÅŁlar":7641,"sanmazlar":7642,"sanmayacaklar":7643,"sanmadÄ±lar":7644,"sanmÄ±ÅŁlar":7645,"sanacaklar":7646,"canlanmamadÄ±lar":7647,"Ã¶ldÃ¼rtÃ¼lmemedi":7648,"Ã¶ldÃ¼rtÃ¼lmememiÅŁler":7649,"eÄŁitmemiÅŁler":7650,"eÄŁitmeyecekler":7651,"eÄŁitmiyorlar":7652,"eÄŁittiler":7653,"yapÄ±ÅŁmazlar":7654,"yapÄ±ÅŁmayacaklar":7655,"yapÄ±ÅŁmÄ±yorlar":7656,"yapÄ±ÅŁmÄ±ÅŁlar":7657,"yapÄ±ÅŁacaklar":7658,"daÄŁÄ±tmadÄ±":7659,"daÄŁÄ±tmadÄ±lar":7660,"daÄŁÄ±ttÄ±lar":7661,"Ã¶ÄŁÃ¼tmemiÅŁler":7662,"Ã¶ÄŁÃ¼tmeyecekler":7663,"Ã¶ÄŁÃ¼tecekler":7664,"Ã¶ÄŁÃ¼tmediler":7665,"Ã¶ÄŁÃ¼ttÃ¼ler":7666,"Ä±sÄ±rmÄ±yorlar":7667,"Ä±sÄ±rmadÄ±lar":7668,"Ä±sÄ±racaklar":7669,"Ä±sÄ±rdÄ±lar":7670,"ĠaldÄ±rmayacaklar":7671,"ĠaldÄ±rmÄ±ÅŁlar":7672,"ĠaldÄ±rÄ±yorlar":7673,"ĠaldÄ±racaklar":7674,"ĠaldÄ±rdÄ±lar":7675,"ĠaldÄ±rÄ±rlar":7676,"sÃ¼rÃ¼ndÃ¼rmemiÅŁler":7677,"sÃ¼rÃ¼ndÃ¼rmeyecekler":7678,"sÃ¼rÃ¼ndÃ¼rmÃ¼ÅŁler":7679,"sÃ¼rÃ¼ndÃ¼rdÃ¼ler":7680,"rime":7681,"seslenmeyecekler":7682,"seslenmezler":7683,"seslenmiÅŁler":7684,"seslendiler":7685,"seslenirler":7686,"saydÄ±rmamÄ±ÅŁlar":7687,"saydÄ±rmadÄ±lar":7688,"saydÄ±rmÄ±ÅŁlar":7689,"saydÄ±racaklar":7690,"saydÄ±rÄ±rlar":7691,"kÄ±rdÄ±rmamÄ±ÅŁlar":7692,"kÄ±rdÄ±rmadÄ±lar":7693,"kÄ±rdÄ±rmÄ±ÅŁlar":7694,"kÄ±rdÄ±rÄ±rlar":7695,"kirletmediler":7696,"kirletmiyorlar":7697,"kÃ¶pÃ¼rmeyecekler":7698,"kÃ¶pÃ¼rÃ¼yorlar":7699,"evlenmezler":7700,"evlenmiÅŁler":7701,"evleniyorlar":7702,"evlendiler":7703,"evlenirler":7704,"geciktirmemiÅŁler":7705,"geciktirmezler":7706,"geciktirecekler":7707,"geciktirmiÅŁler":7708,"geciktirdiler":7709,"ayÄ±rmazlar":7710,"ayÄ±rmayacaklar":7711,"ayÄ±rmadÄ±lar":7712,"ayÄ±rÄ±yorlar":7713,"ayÄ±racaklar":7714,"ayÄ±rdÄ±lar":7715,"tÃ¼kÃ¼rmemiÅŁler":7716,"tÃ¼kÃ¼rmeyecekler":7717,"tÃ¼kÃ¼rmezler":7718,"tÃ¼kÃ¼recekler":7719,"tÃ¼kÃ¼rÃ¼yorlar":7720,"tÃ¼kÃ¼rdÃ¼ler":7721,"saldÄ±rmazlar":7722,"saldÄ±rmayacaklar":7723,"saldÄ±rmadÄ±lar":7724,"saldÄ±rdÄ±lar":7725,"Ã¼ÅŁenmemiÅŁler":7726,"Ã¼ÅŁenmezler":7727,"Ã¼ÅŁenmiÅŁler":7728,"Ã¼ÅŁenmediler":7729,"Ã¼ÅŁenmiyorlar":7730,"Ã¼ÅŁendiler":7731,"boÅŁanmazlar":7732,"boÅŁanmÄ±yorlar":7733,"boÅŁanÄ±yorlar":7734,"boÅŁanacaklar":7735,"boÅŁandÄ±lar":7736,"boÅŁanÄ±rlar":7737,"aldatmadÄ±":7738,"aldatmazlar":7739,"aldatmayacaklar":7740,"aldatmÄ±ÅŁlar":7741,"aldatÄ±yorlar":7742,"aldatacaklar":7743,"aldattÄ±lar":7744,"kapatmÄ±ÅŁlar":7745,"kapatÄ±yorlar":7746,"kapatacaklar":7747,"utandÄ±rmazlar":7748,"iyileÅŁtirecekler":7749,"iyileÅŁtirmediler":7750,"iyileÅŁtirmiyorlar":7751,"Ä°ngilizceleÅŁtirmemiÅŁler":7752,"Ä°ngilizceleÅŁtirmiyorlar":7753,"Ä°ngilizceleÅŁtiriyorlar":7754,"Ä°ngilizceleÅŁtirirler":7755,"kaÃ§Ä±rÄ±yorlar":7756,"kaÃ§Ä±racaklar":7757,"kaÃ§Ä±rÄ±rlar":7758,"TÃ¼rkÃ§eleÅŁtirecekler":7759,"TÃ¼rkÃ§eleÅŁtirmiÅŁler":7760,"TÃ¼rkÃ§eleÅŁtirirler":7761,"tÃ¼kenmemiÅŁler":7762,"tÃ¼kenmezler":7763,"tÃ¼kenirler":7764,"unutmazlar":7765,"unutmayacaklar":7766,"unutmadÄ±lar":7767,"unutacaklar":7768,"ettirmedi":7769,"ettirmemiÅŁler":7770,"ettirmiyorlar":7771,"ettirdiler":7772,"sÃ¼mÃ¼rmemiÅŁler":7773,"sÃ¼mÃ¼rmeyecekler":7774,"sÃ¼mÃ¼rmezler":7775,"sÃ¼mÃ¼recekler":7776,"sÃ¼mÃ¼rmÃ¼ÅŁler":7777,"dÃ¶ndÃ¼rmemiÅŁler":7778,"dÃ¶ndÃ¼rmeyecekler":7779,"dÃ¶ndÃ¼recekler":7780,"dÃ¶ndÃ¼rdÃ¼ler":7781,"uÄŁratmazlar":7782,"uÄŁratmÄ±yorlar":7783,"uÄŁratmadÄ±lar":7784,"uÄŁratÄ±yorlar":7785,"uÄŁratÄ±rlar":7786,"uÄŁrattÄ±lar":7787,"kurutmamÄ±ÅŁlar":7788,"kurutmuyorlar":7789,"eÄŁlenmiÅŁler":7790,"eÄŁlenmediler":7791,"eÄŁleniyorlar":7792,"ĠsÄ±kÄ±ÅŁmamÄ±ÅŁlar":7793,"ĠsÄ±kÄ±ÅŁmayacaklar":7794,"ĠsÄ±kÄ±ÅŁmadÄ±lar":7795,"ĠsÄ±kÄ±ÅŁacaklar":7796,"gÃ¼cenmemiÅŁler":7797,"gÃ¼cenmiÅŁler":7798,"gÃ¼cenmiyorlar":7799,"gÃ¼ceniyorlar":7800,"gÃ¼lÃ¼nÃ§leÅŁmezler":7801,"gÃ¼lÃ¼nÃ§leÅŁmediler":7802,"atÄ±ÅŁmadÄ±lar":7803,"atÄ±ÅŁÄ±rlar":7804,"bitirmemiÅŁler":7805,"bitirmeyecekler":7806,"bitirmiyorlar":7807,"bitirdiler":7808,"bitirirler":7809,"birleÅŁmemiÅŁler":7810,"birleÅŁmeyecekler":7811,"birleÅŁmezler":7812,"birleÅŁmiyorlar":7813,"birleÅŁiyorlar":7814,"birleÅŁirler":7815,"delirmiÅŁler":7816,"delirirler":7817,"deÄŁiÅŁtirmemiÅŁler":7818,"deÄŁiÅŁtirecekler":7819,"deÄŁiÅŁtirmiÅŁler":7820,"deÄŁiÅŁtirmediler":7821,"deÄŁiÅŁtiriyorlar":7822,"deÄŁiÅŁtirdiler":7823,"deÄŁiÅŁtirirler":7824,"tanÄ±tmamÄ±ÅŁlar":7825,"tanÄ±tmazlar":7826,"tanÄ±tÄ±yorlar":7827,"tanÄ±tacaklar":7828,"verdirtmeyecekler":7829,"verdirtecekler":7830,"verdirtmiÅŁler":7831,"verdirtmediler":7832,"verdirttiler":7833,"Ã§Ã¶kertmemiÅŁler":7834,"Ã§Ã¶kertmeyecekler":7835,"Ã§Ã¶kertecekler":7836,"Ã§Ã¶kertmiyorlar":7837,"Ã§Ã¶kertiyorlar":7838,"Ã§Ã¶kerttiler":7839,"yendirtmiÅŁler":7840,"yendirtmediler":7841,"yendirtmiyorlar":7842,"yendirttiler":7843,"cacÄ±ÄŁ":7844,"Ã¶lÃ§tÃ¼rtmemiÅŁler":7845,"Ã¶lÃ§tÃ¼rtmeyecekler":7846,"Ã¶lÃ§tÃ¼rtmezler":7847,"Ã¶lÃ§tÃ¼rtmÃ¼yorlar":7848,"Ã¶lÃ§tÃ¼rttÃ¼ler":7849,"dirilmiyorlar":7850,"gÃ¼dÃ¼yorlar":7851,"dÃ¼rtmemiÅŁler":7852,"dÃ¼rtmeyecekler":7853,"dÃ¼rtmediler":7854,"dÃ¼rtmÃ¼ÅŁler":7855,"seÃ§ilmezler":7856,"seÃ§ilmiyorlar":7857,"seÃ§ildiler":7858,"seÃ§ilirler":7859,"canlandÄ±rtÄ±lmayacaklar":7860,"canlandÄ±rtÄ±lmÄ±yorlar":7861,"canlandÄ±rtÄ±lÄ±yorlar":7862,"dÃ¼zeltecekler":7863,"dÃ¼zeltmiÅŁler":7864,"dÃ¼zeltmediler":7865,"dÃ¼zelttiler":7866,"kaynaÅŁtÄ±rtÄ±lmayacaklar":7867,"kaynaÅŁtÄ±rtÄ±lmadÄ±lar":7868,"kaynaÅŁtÄ±rtÄ±lmÄ±ÅŁlar":7869,"kaynaÅŁtÄ±rtÄ±lÄ±rlar":7870,"Ġgelmeyecekler":7871,"Ġgelmediler":7872,"Ġgelmiyorlar":7873,"Ġgeldiler":7874,"Ġgelirler":7875,"Ġalmayacaklar":7876,"ĠalmÄ±yorlar":7877,"ĠalÄ±yorlar":7878,"ĠaldÄ±lar":7879,"sikilmemiÅŁler":7880,"sikilmeyecekler":7881,"sikilmezler":7882,"sikilmiÅŁler":7883,"sikilmiyorlar":7884,"sikiliyorlar":7885,"sikildiler":7886,"sikilirler":7887,"boÅŁaldÄ±":7888,"boÅŁalmayacaklar":7889,"boÅŁalmadÄ±lar":7890,"boÅŁalmÄ±ÅŁlar":7891,"boÅŁalÄ±yorlar":7892,"verilmeyecekler":7893,"veriliyorlar":7894,"verilirler":7895,"Ã§Ä±ÄŁÄ±":7896,"Ã§Ä±ÄŁÄ±n":7897,"kokmamÄ±ÅŁlar":7898,"kalktÄ±lar":7899,"korkmazlar":7900,"ellemezler":7901,"ellemiÅŁler":7902,"yaÄŁlamamÄ±ÅŁlar":7903,"yaÄŁlamÄ±yorlar":7904,"yaÄŁlamadÄ±lar":7905,"yaÄŁladÄ±lar":7906,"demlemiÅŁler":7907,"demlediler":7908,"benzemeyecekler":7909,"benzemiÅŁler":7910,"benzemediler":7911,"benzemiyorlar":7912,"benzediler":7913,"tÃ¼remeyecekler":7914,"tÃ¼remezler":7915,"tÃ¼remiÅŁler":7916,"tÃ¼remiyorlar":7917,"dirememiÅŁler":7918,"diremezler":7919,"diremiÅŁler":7920,"diremediler":7921,"diremiyorlar":7922,"kusmuÄŁ":7923,"gÃ¼ttÃ¼":7924,"gÃ¼tmeyecekler":7925,"gÃ¼tmezler":7926,"gÃ¼ttÃ¼ler":7927,"Ġoluyorum":7928,"ĠoluyorlarmÄ±ÅŁ":7929,"Ġoluyorduk":7930,"ĠoluyormuÅŁsunuz":7931,"ĠoluyormuÅŁum":7932,"Ġoluyordum":7933,"diyi":7934,"ĠyapmÄ±ÅŁmÄ±ÅŁ":7935,"ĠyapmÄ±ÅŁlarmÄ±ÅŁ":7936,"ĠyapmÄ±ÅŁtÄ±k":7937,"ĠyapmÄ±ÅŁmÄ±ÅŁsÄ±n":7938,"ĠyapmÄ±ÅŁmÄ±ÅŁÄ±z":7939,"ĠyapÄ±yorsun":7940,"ĠyapÄ±yordu":7941,"ĠyapÄ±yorsunuz":7942,"ĠyapÄ±yorlardÄ±":7943,"ĠyapÄ±yorlarmÄ±ÅŁ":7944,"ĠyapÄ±yordunuz":7945,"ĠyapÄ±yormuÅŁsunuz":7946,"ĠyapÄ±yormuÅŁuz":7947,"ĠolmuÅŁmuÅŁ":7948,"ĠolmuÅŁlarmÄ±ÅŁ":7949,"ĠolmuÅŁmuÅŁsun":7950,"ĠolmuÅŁmuÅŁsunuz":7951,"ĠolmuÅŁmuÅŁuz":7952,"ĠyapacakmÄ±ÅŁ":7953,"ĠyapacaktÄ±":7954,"ĠyapacaktÄ±m":7955,"ĠyapacakmÄ±ÅŁsÄ±nÄ±z":7956,"ĠyapacakmÄ±ÅŁÄ±m":7957,"Ġasimptotun":7958,"ĠasimptotlarÄ±":7959,"ĠasimptotlarÄ±nda":7960,"ĠasimptotlarÄ±na":7961,"Ġasimptotunun":7962,"Ġasimptotuna":7963,"Ġhallerinden":7964,"kullanÄ±lmamÄ±ÅŁlar":7965,"kullanÄ±ldÄ±lar":7966,"kaynaÅŁtÄ±rÄ±lmamÄ±ÅŁlar":7967,"kaynaÅŁtÄ±rÄ±lmazlar":7968,"kaynaÅŁtÄ±rÄ±lmÄ±yorlar":7969,"kaynaÅŁtÄ±rÄ±ldÄ±lar":7970,"katÄ±lmazlar":7971,"katÄ±lmayacaklar":7972,"katÄ±ldÄ±lar":7973,"kÄ±ÅŁkÄ±rtmamÄ±ÅŁlar":7974,"kÄ±ÅŁkÄ±rtmazlar":7975,"kÄ±ÅŁkÄ±rtmÄ±yorlar":7976,"kÄ±ÅŁkÄ±rttÄ±lar":7977,"yapÄ±lmazlar":7978,"yapÄ±lmayacaklar":7979,"yapÄ±ldÄ±lar":7980,"ĠolmazmÄ±ÅŁ":7981,"ĠolmazsÄ±n":7982,"ĠolmazsÄ±nÄ±z":7983,"ĠolmazmÄ±ÅŁsÄ±nÄ±z":7984,"ĠolmazmÄ±ÅŁsÄ±n":7985,"ĠolmazmÄ±ÅŁÄ±z":7986,"ĠolmazmÄ±ÅŁÄ±m":7987,"ĠsayÄ±larÄ±n":7988,"ĠsayÄ±larÄ±":7989,"ĠsayÄ±larÄ±na":7990,"atÄ±lmayacaklar":7991,"atÄ±lmadÄ±lar":7992,"atÄ±ldÄ±lar":7993,"anlatmamÄ±ÅŁlar":7994,"anlatmayacaklar":7995,"anlattÄ±lar":7996,"ÅŁaÅŁÄ±rtmamÄ±ÅŁlar":7997,"ÅŁaÅŁÄ±rtmÄ±yorlar":7998,"ÅŁaÅŁÄ±rtmadÄ±lar":7999,"ĠfÃ¼zelerini":8000,"ĠfÃ¼zelerinde":8001,"ĠfÃ¼zelerinin":8002,"sattÄ±rtmazlar":8003,"sattÄ±rtmÄ±yorlar":8004,"sÃ¼rÃ¼me":8005,"sÃ¼rÃ¼mediler":8006,"sÃ¼rÃ¼dÃ¼ler":8007,"karÄ±ÅŁtÄ±rtmamÄ±ÅŁlar":8008,"karÄ±ÅŁtÄ±rtmayacaklar":8009,"karÄ±ÅŁtÄ±rtmadÄ±lar":8010,"karÄ±ÅŁtÄ±rttÄ±lar":8011,"yÄ±kÄ±yorlar":8012,"ĠyazÄ±lÄ±mlarÄ±n":8013,"ĠyazÄ±lÄ±mlarÄ±nÄ±n":8014,"ĠyazÄ±lÄ±mlarÄ±nÄ±":8015,"ĠyazÄ±lÄ±mlarÄ±na":8016,"bÃ¼rÃ¼memiÅŁler":8017,"bÃ¼rÃ¼mediler":8018,"Ã§alarlar":8019,"Ġgezegeni":8020,"Ġgezegenin":8021,"Ġgezegende":8022,"Ġgezegenler":8023,"Ġgezegenden":8024,"Ġgezegenlerde":8025,"Ġgezegenlerden":8026,"ĠyaparmÄ±ÅŁ":8027,"ĠyaparsÄ±n":8028,"ĠyaparlarmÄ±ÅŁ":8029,"ĠyaparmÄ±ÅŁÄ±z":8030,"Ġolursun":8031,"Ġolurdun":8032,"Ġolursunuz":8033,"ĠolurlarmÄ±ÅŁ":8034,"Ġolurduk":8035,"Ġolurdunuz":8036,"ĠolurmuÅŁsunuz":8037,"ĠolurmuÅŁuz":8038,"inerler":8039,"ĠanahtarlarÄ±":8040,"ĠanahtarlarÄ±nda":8041,"ĠanahtarlarÄ±nÄ±n":8042,"ĠanahtarlarÄ±ndan":8043,"ĠanahtarlarÄ±nÄ±":8044,"ĠanahtarÄ±nda":8045,"dilecekler":8046,"sismoloj":8047,"Ġsonuna":8048,"Ġsonundan":8049,"ĠsÃ¼rÃ¼mÃ¼n":8050,"ĠsÃ¼rÃ¼mleri":8051,"ĠsÃ¼rÃ¼mlerini":8052,"ĠsÃ¼rÃ¼mlerine":8053,"ĠsÃ¼rÃ¼mÃ¼nÃ¼n":8054,"ĠsÃ¼rÃ¼mÃ¼nden":8055,"altÄ±na":8056,"altÄ±nÄ±n":8057,"altÄ±nda":8058,"fahiÅŁeliÄŁ":8059,"Ġdilim":8060,"mikro":8061,"kasideniz":8062,"seÃ§menin":8063,"bÃ¼rÃ¼mÃ¼yorlar":8064,"seyi":8065,"havucu":8066,"haps":8067,"seccaden":8068,"seccadeniz":8069,"Ġolmuyoruz":8070,"Ġolmuyorsun":8071,"Ġolmuyorsunuz":8072,"ĠolmuyorlardÄ±":8073,"ĠolmuyorlarmÄ±ÅŁ":8074,"Ġolmuyorduk":8075,"ĠolmuyormuÅŁsun":8076,"ĠolmuyormuÅŁsunuz":8077,"Ġolmuyordum":8078,"nohu":8079,"ĠyapmÄ±yormuÅŁ":8080,"ĠyapmÄ±yorum":8081,"ĠyapmÄ±yorlardÄ±":8082,"ĠyapmÄ±yorduk":8083,"ĠyapmÄ±yordunuz":8084,"ĠyapmÄ±yormuÅŁuz":8085,"ĠyapmÄ±yordum":8086,"yuvarlÄ±yorlar":8087,"ĠsineÄŁinden":8088,"sunuyorlar":8089,"kÄ±rÄ±lÄ±yorlar":8090,"yaptÄ±rtmÄ±ÅŁlar":8091,"dalacaklar":8092,"bayÄ±lacaklar":8093,"kÄ±yacaklar":8094,"korkuyorlar":8095,"diyoruz":8096,"diyorsun":8097,"diyorsunuz":8098,"diyorlarmÄ±ÅŁ":8099,"diyormuÅŁuz":8100,"anlatÄ±yorlar":8101,"karÄ±ÅŁtÄ±rtacaklar":8102,"atÄ±lacaklar":8103,"uluyorlar":8104,"bayÄ±lÄ±yorlar":8105,"Ġgelecekler":8106,"katÄ±lmÄ±ÅŁlar":8107,"patlÄ±yorlar":8108,"horluyorlar":8109,"kÄ±rÄ±lacaklar":8110,"kÄ±rÄ±lmÄ±ÅŁlar":8111,"verilecekler":8112,"ÅŁaÅŁÄ±rtÄ±yorlar":8113,"ĠkutularÄ±nda":8114,"ĠkutularÄ±ndan":8115,"ĠkutularÄ±nÄ±":8116,"Ġkutusunu":8117,"Ġkutusundan":8118,"Ġkutusuna":8119,"Ġkutusunda":8120,"Ġkutusunun":8121,"canlandÄ±rtÄ±lacaklar":8122,"coÅŁuyorlar":8123,"patlamadÄ±lar":8124,"soluyorlar":8125,"sayarlar":8126,"pusuyorlar":8127,"ĠtamlamalarÄ±":8128,"ĠtamlamalarÄ±nda":8129,"ĠtamlamalarÄ±nÄ±":8130,"ĠtamlamasÄ±nÄ±":8131,"ĠtamlamasÄ±na":8132,"ĠtamlamasÄ±nÄ±n":8133,"ĠtamlamasÄ±ndan":8134,"ĠtamlamasÄ±nda":8135,"yapÄ±lmÄ±ÅŁlar":8136,"kokacaklar":8137,"aÄŁlÄ±yorlar":8138,"kaynaÅŁtÄ±rtÄ±lacaklar":8139,"bayÄ±lmÄ±ÅŁlar":8140,"yaÄŁlÄ±yorlar":8141,"karÄ±ÅŁtÄ±rtÄ±yorlar":8142,"kokuyorlar":8143,"saklamazlar":8144,"yaÄŁlamÄ±ÅŁlar":8145,"kalkacaklar":8146,"anlatacaklar":8147,"kaybolacaklar":8148,"aÄŁlamamÄ±ÅŁlar":8149,"aÄŁlamazlar":8150,"aÄŁlamayacaklar":8151,"aÄŁlamÄ±yorlar":8152,"aÄŁlamadÄ±lar":8153,"kÄ±ÅŁkÄ±rtmÄ±ÅŁlar":8154,"ulumuÅŁlar":8155,"solumuÅŁlar":8156,"tutmuÅŁlar":8157,"kokmuÅŁlar":8158,"oturmuÅŁlar":8159,"yaladÄ±lar":8160,"yuvarlamazlar":8161,"yuvarlamÄ±yorlar":8162,"yuvarlamadÄ±lar":8163,"yuvarladÄ±lar":8164,"horlamayacaklar":8165,"horlamÄ±yorlar":8166,"horlamadÄ±lar":8167,"horladÄ±lar":8168,"unutmuÅŁlar":8169,"ĠdÃ¶rtgene":8170,"ĠdÃ¶rtgenler":8171,"ĠdÃ¶rtgenlerin":8172,"ĠdÃ¶rtgenlerde":8173,"yaptÄ±rtÄ±rlar":8174,"kanÄ±tlamazlar":8175,"kanÄ±tlamayacaklar":8176,"kanÄ±tlamÄ±yorlar":8177,"kanÄ±tladÄ±lar":8178,"yapÄ±lÄ±rlar":8179,"verdirtirler":8180,"yalayacaklar":8181,"kaÅŁÄ±rlar":8182,"yaÄŁlayacaklar":8183,"kapayacaklar":8184,"sÃ¼mÃ¼rÃ¼rler":8185,"severler":8186,"Ã¶ldÃ¼rtÃ¼rler":8187,"kÄ±ÅŁkÄ±rtÄ±rlar":8188,"yÄ±karlar":8189,"kalkarlar":8190,"yuvarlayacaklar":8191,"horlarlar":8192,"unuturlar":8193,"yumarlar":8194,"olurlar":8195,"dÃ¶ndÃ¼rÃ¼rler":8196,"Ã¶ÄŁÃ¼tÃ¼rler":8197,"dÃ¼zeltirler":8198,"kuruturlar":8199,"ĠÃ§ileÄŁini":8200,"ĠÃ§ileÄŁine":8201,"ĠÃ§ileÄŁinden":8202,"sÃ¶verler":8203,"dondururlar":8204,"Ã¶pÃ¼ÅŁÃ¼rler":8205,"solurlar":8206,"kullanÄ±lÄ±rlar":8207,"yalarlar":8208,"tanÄ±yacaklar":8209,"ĠÄ±ÅŁÄ±n":8210,"sÃ¶zdizimin":8211,"ĠyazÄ±lÄ±mÄ±nÄ±n":8212,"ÅŁarkÄ±cÄ±lÄ±ÄŁ":8213,"Ã§algÄ±cÄ±nÄ±n":8214,"Ã§algÄ±cÄ±nÄ±":8215,"Ã§algÄ±cÄ±nda":8216,"delirmezler":8217,"bitirmezler":8218,"tetrafob":8219,"oyunculuÄŁ":8220,"yÃ¼reÄŁ":8221,"ĠoldulardÄ±":8222,"bÃ¶cekbili":8223,"dayanÄ±klÄ±lÄ±ÄŁ":8224,"gÃ¼lÃ¼nÃ§leÅŁtiler":8225,"zorluÄŁ":8226,"ĠyazÄ±lÄ±mÄ±na":8227,"Ġyetmezlik":8228,"ĠsÄ±kÄ±ÅŁtÄ±lar":8229,"otofob":8230,"atÄ±ÅŁtÄ±lar":8231,"referansÄ±nÄ±z":8232,"ĠÃ§ilekleri":8233,"ĠÃ§ileklerinden":8234,"ĠÃ§ileklerini":8235,"ĠkÄ±rlangÄ±c":8236,"ĠkÄ±rlangÄ±Ã§":8237,"taÅŁtÄ±lar":8238,"Ġolduydun":8239,"Ġolduydum":8240,"ĠdurumlarÄ±":8241,"koptular":8242,"ofobinin":8243,"ofobiye":8244,"sÃ¼stÃ¼ler":8245,"Ġdurumunda":8246,"Ġdurumundan":8247,"pustular":8248,"demleyecekler":8249,"elleyecekler":8250,"coÅŁtular":8251,"ĠgÃ¶t":8252,"yaratÄ±ÄŁ":8253,"'d":8254,"aca":8255,"abÄ±":8256,"aÅŁtÄ±nÄ±z":8257,"aÅŁtÄ±n":8258,"aÅŁtÄ±k":8259,"balt":8260,"cayÄ±":8261,"dallarÄ±":8262,"daldÄ±n":8263,"daldÄ±nÄ±z":8264,"efesi":8265,"isin":8266,"isinden":8267,"isinin":8268,"isinde":8269,"isini":8270,"ole":8271,"oka":8272,"odaÄŁÄ±n":8273,"tize":8274,"Ġge":8275,"Ġala":8276,"ĠaldÄ±n":8277,"ÅŁallarÄ±":8278,"ÅŁalÄ±":8279,"yalamadÄ±n":8280,"yalamadÄ±nÄ±z":8281,"mamanÄ±n":8282,"Ä±nlÄ±ÄŁa":8283,"Ä±nlÄ±ÄŁÄ±":8284,"Ã§enin":8285,"Ã§aldÄ±n":8286,"indik":8287,"inmemiÅŁler":8288,"inmediler":8289,"ineri":8290,"indiler":8291,"inmedik":8292,"inmedin":8293,"inmediniz":8294,"anmazlar":8295,"anmadÄ±n":8296,"anÃ¼sÃ¼n":8297,"anÃ¼sÃ¼nÃ¼":8298,"mayalarÄ±nda":8299,"mayalarÄ±ndan":8300,"mayalarÄ±nÄ±":8301,"Ġolma":8302,"ĠolmuÅŁsunuz":8303,"ĠolmadÄ±ydÄ±m":8304,"ĠolmazdÄ±m":8305,"ĠolmadÄ±ydÄ±n":8306,"ĠolmamÄ±ÅŁtÄ±k":8307,"ĠolmadÄ±lardÄ±":8308,"ĠolmamÄ±ÅŁlardÄ±":8309,"ĠolmamÄ±ÅŁsÄ±n":8310,"ĠolmamÄ±ÅŁmÄ±ÅŁÄ±z":8311,"ĠolmuÅŁtuk":8312,"ĠolmuÅŁtunuz":8313,"ĠolmuÅŁtum":8314,"dedin":8315,"dedik":8316,"dediniz":8317,"dememiÅŁler":8318,"demediler":8319,"demedim":8320,"demedik":8321,"demediniz":8322,"kacaÄŁÄ±z":8323,"kasÄ±nÄ±":8324,"kazaÄŁ":8325,"kasÄ±na":8326,"kasÄ±nÄ±n":8327,"kasÄ±ndan":8328,"ateÅŁt":8329,"diyorum":8330,"dileceÄŁiz":8331,"dileceÄŁim":8332,"ecenin":8333,"ÅŁtayÄ±":8334,"yaptÄ±k":8335,"yaptÄ±nÄ±z":8336,"yapmamÄ±ÅŁlar":8337,"yapmadÄ±k":8338,"yapmadÄ±n":8339,"yapmadÄ±nÄ±z":8340,"yaptÄ±lar":8341,"ellerdi":8342,"elliyorlar":8343,"etlerin":8344,"etlerine":8345,"etinin":8346,"etine":8347,"Ã¼nlerin":8348,"Ã¼nleri":8349,"Ã¼nlerinden":8350,"Ã¼nlerini":8351,"Ã¼nlerinde":8352,"Ã¼nlerinin":8353,"dÃ¼rmediler":8354,"dÃ¼rmÃ¼yorlar":8355,"dÃ¼rdÃ¼m":8356,"dÃ¼rdÃ¼k":8357,"Ã¼zmemiÅŁler":8358,"Ã¼zecekler":8359,"Ã¼zmedim":8360,"Ã¼zmedik":8361,"Ã¼zmedin":8362,"Ã¼zdÃ¼n":8363,"Ã¼zmÃ¼ÅŁler":8364,"Ã¼zdÃ¼nÃ¼z":8365,"Ã¼zdÃ¼m":8366,"iÅŁlevi":8367,"aÄŁÄ±n":8368,"aÄŁlarÄ±nÄ±n":8369,"aÄŁlarÄ±nÄ±":8370,"aÄŁlarÄ±na":8371,"aÄŁÄ±nÄ±n":8372,"aÄŁÄ±nÄ±":8373,"aÄŁÄ±ndan":8374,"aÄŁÄ±nda":8375,"aÄŁlamadÄ±n":8376,"aÄŁlamadÄ±nÄ±z":8377,"aÅŁmÄ±yorlar":8378,"aÅŁmadÄ±lar":8379,"aÅŁmadÄ±k":8380,"aÅŁmadÄ±m":8381,"aÅŁmadÄ±nÄ±z":8382,"sunduk":8383,"sundunuz":8384,"sunmadÄ±m":8385,"sunmadÄ±n":8386,"sunmadÄ±nÄ±z":8387,"sununun":8388,"tanÄ±yorlar":8389,"tÃ¼rey":8390,"tÃ¼rerler":8391,"selamÄ±":8392,"oldun":8393,"oldunuz":8394,"olmazlar":8395,"olmadÄ±lar":8396,"olmadÄ±m":8397,"geminin":8398,"Ã¶ptÃ¼k":8399,"Ã¶pmediler":8400,"Ã¶pmedim":8401,"Ã¶pmedin":8402,"Ã¶ptÃ¼ler":8403,"Ã¶ptÃ¼n":8404,"vardÄ±nÄ±z":8405,"varmayacaklar":8406,"varmadÄ±lar":8407,"varacaklar":8408,"varmadÄ±k":8409,"varmadÄ±m":8410,"varmadÄ±n":8411,"varmadÄ±nÄ±z":8412,"vardÄ±lar":8413,"otun":8414,"otlarÄ±":8415,"otlarÄ±ndan":8416,"otlarÄ±nÄ±":8417,"otlarÄ±na":8418,"otuna":8419,"otundan":8420,"kayÄ±":8421,"sattÄ±k":8422,"sattÄ±nÄ±z":8423,"sattÄ±m":8424,"satmadÄ±lar":8425,"satacaklar":8426,"satmadÄ±k":8427,"satmadÄ±m":8428,"satmadÄ±n":8429,"satarlar":8430,"sattÄ±lar":8431,"ĠyapÄ±n":8432,"ĠyapmadÄ±ydÄ±":8433,"ĠyapmazdÄ±":8434,"ĠyapmadÄ±ydÄ±k":8435,"ĠyapmazdÄ±m":8436,"ĠyapmayÄ±z":8437,"ĠyapmayÄ±nÄ±z":8438,"ĠyapmamÄ±ÅŁÄ±z":8439,"ĠyapmayacaktÄ±k":8440,"ĠyapmazmÄ±ÅŁsÄ±nÄ±z":8441,"ĠyapmayacaktÄ±n":8442,"ĠyapmayacakmÄ±ÅŁsÄ±n":8443,"ĠyapmazmÄ±ÅŁÄ±m":8444,"ĠyapmazsÄ±nÄ±z":8445,"ĠyapmamÄ±ÅŁmÄ±ÅŁÄ±m":8446,"ĠyapmamÄ±ÅŁmÄ±ÅŁÄ±z":8447,"ĠyapmazlardÄ±":8448,"ĠyapmazdÄ±n":8449,"ĠyapacaÄŁÄ±z":8450,"ĠyaptÄ±ydÄ±m":8451,"ĠyaptÄ±ydÄ±n":8452,"ĠyaptÄ±ydÄ±k":8453,"ĠyaptÄ±ydÄ±nÄ±z":8454,"canlanmamÄ±ÅŁlar":8455,"canlanmadÄ±lar":8456,"canlanmadÄ±m":8457,"iydi":8458,"eÄŁr":8459,"birliÄŁi":8460,"dildin":8461,"dildik":8462,"dildiniz":8463,"dilmezler":8464,"dilmiÅŁler":8465,"dilmediler":8466,"dilmedim":8467,"dilmediniz":8468,"dilimine":8469,"mandallarÄ±":8470,"asayÄ±":8471,"asmadÄ±k":8472,"asmadÄ±m":8473,"asmadÄ±n":8474,"asmadÄ±nÄ±z":8475,"asasÄ±":8476,"hamÄ±zÄ±":8477,"hacÄ±lÄ±ÄŁ":8478,"kapÄ±nÄ±n":8479,"sayÄ±":8480,"saymadÄ±lar":8481,"saymadÄ±k":8482,"saymadÄ±m":8483,"saymadÄ±nÄ±z":8484,"saydÄ±m":8485,"yÄ±kay":8486,"cese":8487,"geldin":8488,"geldik":8489,"geldiniz":8490,"geldim":8491,"geliyorlar":8492,"gelmedik":8493,"gelmedin":8494,"gelmediniz":8495,"leÅŁi":8496,"leÅŁin":8497,"leÅŁleri":8498,"leÅŁlerinden":8499,"leÅŁlerine":8500,"leÅŁlerinde":8501,"leÅŁinin":8502,"leÅŁini":8503,"leÅŁinde":8504,"leÅŁine":8505,"leÅŁinden":8506,"ĠÃ§ekme":8507,"ĠÃ§ekmiÅŁsiniz":8508,"ĠÃ§ekmiÅŁiz":8509,"ĠÃ§ektiniz":8510,"ĠÃ§ektim":8511,"ĠÃ§ekmedin":8512,"ĠÃ§ekmemiÅŁim":8513,"ĠÃ§ekmemiÅŁmiÅŁsiniz":8514,"ĠÃ§ekmemiÅŁtim":8515,"ĠÃ§ekmemiÅŁtin":8516,"ĠÃ§ekmeyecektim":8517,"ĠÃ§ekmeyecekmiÅŁsin":8518,"ĠÃ§ekmediydi":8519,"ĠÃ§ekmediydik":8520,"ĠÃ§ekmemiÅŁmiÅŁsin":8521,"ĠÃ§ekmeyin":8522,"ĠÃ§ekmemiÅŁsin":8523,"ĠÃ§ekmediydim":8524,"ĠÃ§ekmezsiniz":8525,"ĠÃ§ekmezdin":8526,"ĠÃ§ekmezmiÅŁsin":8527,"ĠÃ§ekmemiÅŁsiniz":8528,"ĠÃ§ekmemiÅŁtiniz":8529,"ĠÃ§ekmeyeceÄŁiz":8530,"ĠÃ§ekmem":8531,"ĠÃ§ekmezmiÅŁsiniz":8532,"ĠÃ§ekmeyecektik":8533,"ĠÃ§ekmezdi":8534,"ĠÃ§ekmezdik":8535,"ĠÃ§ekmezlermiÅŁ":8536,"ĠÃ§ekmeyeceklerdi":8537,"ĠÃ§ekmeyecektiniz":8538,"ĠÃ§ekmedilerdi":8539,"ĠÃ§ekmemiÅŁmiÅŁim":8540,"ĠÃ§ekmeyeceÄŁim":8541,"ĠÃ§ekmemiÅŁiz":8542,"ĠÃ§ekmeyecekti":8543,"ĠÃ§ekmeyecekmiÅŁ":8544,"ĠÃ§ekmeyecekmiÅŁim":8545,"ĠÃ§ekmeyeceklermiÅŁ":8546,"ĠÃ§ekmezdiniz":8547,"ĠÃ§ekmezmiÅŁim":8548,"ĠÃ§ekmeyiniz":8549,"ĠÃ§ekmeyeceksiniz":8550,"ĠÃ§ekmezmiÅŁiz":8551,"ĠÃ§ekeceÄŁim":8552,"ĠÃ§ektiydi":8553,"ĠÃ§ektiydik":8554,"ĠÃ§ektiydiniz":8555,"ĠÃ§ektiydin":8556,"Ã§Ã¶kerdiniz":8557,"Ã§Ã¶kerdim":8558,"Ã§Ã¶kermedik":8559,"Ã§Ã¶kermedin":8560,"Ã§Ã¶kermediniz":8561,"utandÄ±n":8562,"utandÄ±nÄ±z":8563,"utanmadÄ±m":8564,"utandÄ±m":8565,"bÃ¼ktÃ¼k":8566,"bÃ¼kecekler":8567,"bÃ¼kmediler":8568,"bÃ¼kmedik":8569,"bÃ¼ktÃ¼ler":8570,"bÃ¼ktÃ¼n":8571,"bÃ¼ktÃ¼nÃ¼z":8572,"geciktin":8573,"geciktik":8574,"gecikmezler":8575,"gecikecekler":8576,"gecikmedim":8577,"gecikmedik":8578,"kaynaÅŁtÄ±rtÄ±":8579,"piÅŁmiÅŁler":8580,"piÅŁmediler":8581,"piÅŁmedin":8582,"dÃ¼zmediler":8583,"dÃ¼zmedim":8584,"dÃ¼zmedik":8585,"dÃ¼zmedin":8586,"dÃ¼zdÃ¼n":8587,"dÃ¼zmÃ¼yorlar":8588,"dÃ¼zdÃ¼nÃ¼z":8589,"dÃ¼zdÃ¼m":8590,"katÄ±n":8591,"katlarÄ±n":8592,"katlarÄ±":8593,"kattÄ±n":8594,"kattÄ±k":8595,"kattÄ±nÄ±z":8596,"katlarÄ±nÄ±":8597,"katlarÄ±na":8598,"katÄ±nÄ±n":8599,"katmÄ±yorlar":8600,"katÄ±nÄ±":8601,"katÄ±ndan":8602,"katÄ±nda":8603,"katÄ±yorlar":8604,"katmadÄ±k":8605,"katili":8606,"katmadÄ±m":8607,"katmadÄ±n":8608,"kattÄ±lar":8609,"arttÄ±m":8610,"artmadÄ±lar":8611,"artmadÄ±k":8612,"artmadÄ±m":8613,"artmadÄ±n":8614,"artmadÄ±nÄ±z":8615,"yaraÄŁÄ±":8616,"bittin":8617,"bittik":8618,"bittiniz":8619,"bitmiÅŁler":8620,"bitmediler":8621,"bitmedim":8622,"bitmedik":8623,"bitmediniz":8624,"bayÄ±n":8625,"baylarÄ±n":8626,"baylarÄ±":8627,"bayku":8628,"baylarÄ±nda":8629,"baylarÄ±nÄ±n":8630,"baylarÄ±na":8631,"bayÄ±ndan":8632,"bayÄ±na":8633,"avÄ±":8634,"avÄ±n":8635,"avlarÄ±n":8636,"avlarÄ±nda":8637,"avlarÄ±nÄ±":8638,"avlarÄ±na":8639,"avÄ±nÄ±n":8640,"avÄ±ndan":8641,"avÄ±na":8642,"avÄ±nda":8643,"keme":8644,"aÃ§tÄ±n":8645,"aÃ§tÄ±k":8646,"aÃ§tÄ±m":8647,"aÃ§mamÄ±ÅŁlar":8648,"aÃ§mÄ±yorlar":8649,"aÃ§acaklar":8650,"aÃ§madÄ±k":8651,"aÃ§madÄ±m":8652,"aÃ§tÄ±lar":8653,"sÄ±zdÄ±n":8654,"sÄ±zdÄ±nÄ±z":8655,"sÄ±zmamÄ±ÅŁlar":8656,"sÄ±zmadÄ±k":8657,"sÄ±zmadÄ±n":8658,"sÄ±zmadÄ±nÄ±z":8659,"sÄ±zdÄ±k":8660,"sÄ±zdÄ±lar":8661,"sÄ±zarlar":8662,"takÄ±n":8663,"taktÄ±nÄ±z":8664,"taktÄ±m":8665,"takÄ±nÄ±n":8666,"takmadÄ±k":8667,"takmadÄ±m":8668,"takmadÄ±nÄ±z":8669,"canlandÄ±rtÄ±":8670,"canlandÄ±rdÄ±nÄ±z":8671,"canlandÄ±rmÄ±ÅŁlar":8672,"canlandÄ±rmadÄ±k":8673,"canlandÄ±rmadÄ±nÄ±z":8674,"canlandÄ±rdÄ±m":8675,"canlandÄ±rdÄ±k":8676,"aldÄ±rdÄ±n":8677,"aldÄ±rdÄ±nÄ±z":8678,"aldÄ±rmamÄ±ÅŁlar":8679,"aldÄ±rÄ±yorlar":8680,"aldÄ±rmadÄ±k":8681,"aldÄ±rmadÄ±n":8682,"aldÄ±rdÄ±m":8683,"aldÄ±rdÄ±lar":8684,"iÃ§tin":8685,"iÃ§tim":8686,"iÃ§meyecekler":8687,"iÃ§miyorlar":8688,"iÃ§mediniz":8689,"saklamadÄ±n":8690,"saklamadÄ±nÄ±z":8691,"kullarÄ±n":8692,"kullarÄ±":8693,"kullarÄ±nda":8694,"kullarÄ±nÄ±n":8695,"kullarÄ±ndan":8696,"kullarÄ±na":8697,"kulunda":8698,"kuluna":8699,"kulunu":8700,"kulundan":8701,"tanÄ±dÄ±nÄ±z":8702,"tanÄ±madÄ±lar":8703,"tanÄ±madÄ±n":8704,"tanÄ±dÄ±m":8705,"tanÄ±dÄ±k":8706,"tanÄ±dÄ±lar":8707,"seÃ§ileceÄŁ":8708,"Ã¶ldÃ¼rttÃ¼k":8709,"Ã¶ldÃ¼rtecekler":8710,"Ã¶ldÃ¼rtmediler":8711,"Ã¶ldÃ¼rtmedim":8712,"Ã¶ldÃ¼rtmedik":8713,"Ã¶ldÃ¼rtmediniz":8714,"Ã¶ldÃ¼rttÃ¼ler":8715,"Ã¶ldÃ¼rttÃ¼n":8716,"Ã¶ldÃ¼rttÃ¼nÃ¼z":8717,"daÄŁÄ±nÄ±":8718,"yazdÄ±n":8719,"yazdÄ±nÄ±z":8720,"yazmadÄ±k":8721,"yazmadÄ±n":8722,"yaÄŁlamadÄ±nÄ±z":8723,"yaÄŁmuru":8724,"gÃ¶Ã§Ã¼":8725,"gÃ¶Ã§Ã¼n":8726,"gÃ¶Ã§lerin":8727,"gÃ¶Ã§leri":8728,"gÃ¶Ã§lerini":8729,"gÃ¶Ã§lerine":8730,"gÃ¶Ã§lerinde":8731,"gÃ¶Ã§lerinin":8732,"gÃ¶Ã§Ã¼nÃ¼z":8733,"gÃ¶Ã§meyecekler":8734,"gÃ¶Ã§medim":8735,"gÃ¶Ã§medin":8736,"gÃ¶Ã§tÃ¼m":8737,"gÃ¶Ã§mÃ¼ÅŁler":8738,"gÃ¶Ã§mÃ¼yorlar":8739,"gÃ¶Ã§Ã¼ne":8740,"gÃ¶Ã§Ã¼nÃ¼":8741,"gÃ¶Ã§tÃ¼n":8742,"sÃ¼necekler":8743,"sÃ¼nmedim":8744,"sÃ¼nmedik":8745,"sÃ¼nmedin":8746,"sÃ¼ndÃ¼n":8747,"sÃ¼ndÃ¼m":8748,"gerinin":8749,"gerileri":8750,"alanÄ±n":8751,"alanlarÄ±n":8752,"alanlarÄ±nÄ±n":8753,"alanlarÄ±ndan":8754,"alanlarÄ±nÄ±":8755,"alanlarÄ±na":8756,"alanÄ±nda":8757,"coÅŁmadÄ±k":8758,"coÅŁmadÄ±m":8759,"coÅŁmadÄ±n":8760,"coÅŁmadÄ±nÄ±z":8761,"gezdik":8762,"gezdiniz":8763,"gezdim":8764,"gezmiÅŁler":8765,"gezmediler":8766,"gezdiler":8767,"gezmedim":8768,"sÃ¼zmedin":8769,"sÃ¼zmediniz":8770,"sÃ¼zdÃ¼n":8771,"sÃ¼zmÃ¼ÅŁler":8772,"sÃ¼zdÃ¼k":8773,"tacaÄŁÄ±m":8774,"tabaÄŁ":8775,"taÅŁtÄ±nÄ±z":8776,"taÅŁtÄ±m":8777,"Ã¶ÄŁrettin":8778,"Ã¶ÄŁrettik":8779,"Ã¶ÄŁrettiniz":8780,"Ã¶ÄŁretmediler":8781,"Ã¶ÄŁretmedim":8782,"Ã¶ÄŁretmedin":8783,"iÅŁten":8784,"sevdin":8785,"sevdiniz":8786,"sevdim":8787,"sevdiler":8788,"sevmedim":8789,"sevmedik":8790,"derileri":8791,"dÃ¼ÅŁÃ¼nmedin":8792,"dÃ¼ÅŁÃ¼nmediniz":8793,"dÃ¼ÅŁÃ¼ndÃ¼n":8794,"dÃ¼ÅŁÃ¼ndÃ¼nÃ¼z":8795,"dÃ¼ÅŁÃ¼ndÃ¼k":8796,"dÃ¼ÅŁÃ¼ndÃ¼ler":8797,"makyajÄ±n":8798,"makyajlarÄ±n":8799,"makyajlarÄ±":8800,"makyajlarÄ±nda":8801,"makyajlarÄ±nÄ±n":8802,"makyajlarÄ±ndan":8803,"makyajlarÄ±nÄ±":8804,"makyajlarÄ±na":8805,"sikileceÄŁ":8806,"sÃ¼smezler":8807,"sÃ¼smedim":8808,"sÃ¼smedik":8809,"sÃ¼smedin":8810,"saptÄ±n":8811,"saptÄ±k":8812,"saptÄ±nÄ±z":8813,"saptÄ±m":8814,"sapmadÄ±k":8815,"sapmadÄ±nÄ±z":8816,"rakÄ±nÄ±n":8817,"benzeri":8818,"dondurdun":8819,"dondurdunuz":8820,"dondurdum":8821,"dondurmadÄ±lar":8822,"dondurmadÄ±k":8823,"dondurmadÄ±n":8824,"dondurmadÄ±nÄ±z":8825,"dondurdular":8826,"dondurmanÄ±n":8827,"kopmadÄ±k":8828,"kopmadÄ±m":8829,"kopmadÄ±n":8830,"kopmadÄ±nÄ±z":8831,"uyarlar":8832,"uyardÄ±n":8833,"uyardÄ±nÄ±z":8834,"uyarmÄ±ÅŁsÄ±nÄ±z":8835,"uyarmÄ±ÅŁÄ±m":8836,"uyarmadÄ±k":8837,"uyarmadÄ±n":8838,"uyardÄ±k":8839,"uludun":8840,"uluduk":8841,"uludum":8842,"ulumadÄ±k":8843,"ulumadÄ±m":8844,"ulumadÄ±n":8845,"ulumuyorlar":8846,"uyunuz":8847,"uydum":8848,"uymadÄ±lar":8849,"uymadÄ±k":8850,"uymadÄ±m":8851,"uymadÄ±nÄ±z":8852,"deÄŁiÅŁecekler":8853,"deÄŁiÅŁiyorlar":8854,"deÄŁiÅŁmedim":8855,"deÄŁiÅŁmedik":8856,"deÄŁiÅŁmedin":8857,"deÄŁiÅŁmediniz":8858,"deÄŁiÅŁirler":8859,"paylaÅŁtÄ±nÄ±z":8860,"paylaÅŁtÄ±n":8861,"paylaÅŁtÄ±m":8862,"paylaÅŁtÄ±k":8863,"serdin":8864,"serdiniz":8865,"serdim":8866,"sermediler":8867,"seriyorlar":8868,"serdiler":8869,"sermedim":8870,"sermedik":8871,"sermedin":8872,"sermediniz":8873,"sesi":8874,"paylaÅŁmadÄ±lar":8875,"paylaÅŁmadÄ±k":8876,"paylaÅŁmadÄ±m":8877,"paylaÅŁmadÄ±n":8878,"paylaÅŁmadÄ±nÄ±z":8879,"paylaÅŁÄ±rlar":8880,"kurtardÄ±n":8881,"kurtarmadÄ±lar":8882,"kurtarmadÄ±k":8883,"kurtarmadÄ±m":8884,"kurtardÄ±m":8885,"yuvarlamadÄ±n":8886,"bÃ¼rÃ¼y":8887,"Ġverdik":8888,"Ġverdiniz":8889,"Ġvermiyorlar":8890,"Ġverdiler":8891,"Ġvermedim":8892,"Ġvermedin":8893,"gÃ¶tÃ¼rmezler":8894,"gÃ¶tÃ¼rmedim":8895,"gÃ¶tÃ¼rmedik":8896,"gÃ¶tÃ¼rmedin":8897,"gÃ¶tÃ¼rdÃ¼n":8898,"gÃ¶tÃ¼rdÃ¼m":8899,"gÃ¶tÃ¼rdÃ¼ler":8900,"taÅŁmÄ±yorlar":8901,"taÅŁmÄ±ÅŁlar":8902,"taÅŁmadÄ±m":8903,"taÅŁmadÄ±n":8904,"horlamadÄ±n":8905,"horlamadÄ±nÄ±z":8906,"onardÄ±n":8907,"onardÄ±nÄ±z":8908,"onarmadÄ±lar":8909,"onarmadÄ±k":8910,"onarmadÄ±m":8911,"onarmadÄ±nÄ±z":8912,"onardÄ±m":8913,"geberdiniz":8914,"gebermeyecekler":8915,"gebermezler":8916,"gebermedim":8917,"gebermedik":8918,"gebermedin":8919,"gebermediniz":8920,"hastalandÄ±n":8921,"hastalanmÄ±yorlar":8922,"hastalanmadÄ±k":8923,"hastalanmadÄ±m":8924,"hastalanmadÄ±n":8925,"hastalanmadÄ±nÄ±z":8926,"hastalandÄ±m":8927,"hastalandÄ±k":8928,"ilklendirdik":8929,"ilklendirdiniz":8930,"ilklendirdim":8931,"ilklendirmedin":8932,"dadandÄ±nÄ±z":8933,"dadanmamÄ±ÅŁlar":8934,"dadanmayacaklar":8935,"dadanmadÄ±m":8936,"dadanmadÄ±nÄ±z":8937,"dadandÄ±m":8938,"dadandÄ±k":8939,"kanÄ±tlamadÄ±n":8940,"kanÄ±tlamadÄ±nÄ±z":8941,"teptim":8942,"tepmeyecekler":8943,"tepmedik":8944,"teptiler":8945,"oturdun":8946,"oturduk":8947,"oturmamÄ±ÅŁlar":8948,"oturdum":8949,"oturmayacaklar":8950,"oturmadÄ±k":8951,"oturmadÄ±m":8952,"oturdular":8953,"kovdurdun":8954,"kovdurdunuz":8955,"kovdurmadÄ±lar":8956,"kovdurmadÄ±m":8957,"kovdurmadÄ±nÄ±z":8958,"kovdurdular":8959,"yalvardÄ±n":8960,"yalvardÄ±nÄ±z":8961,"yalvarmayacaklar":8962,"yalvarmadÄ±lar":8963,"yalvarmadÄ±nÄ±z":8964,"yalvardÄ±m":8965,"yalvardÄ±k":8966,"yalvardÄ±lar":8967,"gerektin":8968,"gerektik":8969,"gerektim":8970,"gerekmedim":8971,"gerekmedik":8972,"gerekmedin":8973,"dedim":8974,"dediler":8975,"yÄ±ÄŁdÄ±n":8976,"yÄ±ÄŁmamÄ±ÅŁlar":8977,"yÄ±ÄŁmÄ±yorlar":8978,"yÄ±ÄŁmadÄ±k":8979,"yÄ±ÄŁmadÄ±n":8980,"yÄ±ÄŁdÄ±m":8981,"yÄ±ÄŁdÄ±k":8982,"yÄ±ÄŁdÄ±lar":8983,"atÄ±ÅŁtÄ±rdÄ±nÄ±z":8984,"atÄ±ÅŁtÄ±rmamÄ±ÅŁlar":8985,"atÄ±ÅŁtÄ±rÄ±yorlar":8986,"atÄ±ÅŁtÄ±racaklar":8987,"atÄ±ÅŁtÄ±rmadÄ±n":8988,"atÄ±ÅŁtÄ±rdÄ±m":8989,"atÄ±ÅŁtÄ±rdÄ±k":8990,"atÄ±ÅŁtÄ±rdÄ±lar":8991,"deÄŁiÅŁtin":8992,"deÄŁiÅŁtik":8993,"deÄŁiÅŁtim":8994,"deÄŁiÅŁtiler":8995,"yetiÅŁecekler":8996,"yetiÅŁmedim":8997,"yetiÅŁmedin":8998,"Ġdiktik":8999,"Ġdiktiniz":9000,"Ġdiktim":9001,"Ġdikmedik":9002,"Ġdikmedin":9003,"Ġdikmediniz":9004,"bÃ¼ktÃ¼rmediler":9005,"bÃ¼ktÃ¼rmedim":9006,"bÃ¼ktÃ¼rmedik":9007,"bÃ¼ktÃ¼rmediniz":9008,"bÃ¼ktÃ¼rdÃ¼nÃ¼z":9009,"bÃ¼ktÃ¼rdÃ¼m":9010,"bÃ¼ktÃ¼rdÃ¼k":9011,"bÃ¼ktÃ¼rdÃ¼ler":9012,"Ã§almÄ±ÅŁlar":9013,"Ã§alÄ±yorlar":9014,"Ã§almadÄ±nÄ±z":9015,"Ã§aldÄ±m":9016,"Ã§aldÄ±k":9017,"yoksullaÅŁtÄ±rmayacaklar":9018,"yoksullaÅŁtÄ±racaklar":9019,"yoksullaÅŁtÄ±rmadÄ±m":9020,"yoksullaÅŁtÄ±rmadÄ±n":9021,"yoksullaÅŁtÄ±rdÄ±m":9022,"yoksullaÅŁtÄ±rdÄ±k":9023,"yoksullaÅŁtÄ±rdÄ±lar":9024,"Ã¶pÃ¼ÅŁecekler":9025,"Ã¶pÃ¼ÅŁmedik":9026,"Ã¶pÃ¼ÅŁmedin":9027,"Ã¶pÃ¼ÅŁmÃ¼yorlar":9028,"sÄ±vÄ±laÅŁtÄ±rdÄ±n":9029,"sÄ±vÄ±laÅŁtÄ±rmayacaklar":9030,"sÄ±vÄ±laÅŁtÄ±rmadÄ±lar":9031,"sÄ±vÄ±laÅŁtÄ±rmadÄ±k":9032,"sÄ±vÄ±laÅŁtÄ±rmadÄ±n":9033,"sÄ±vÄ±laÅŁtÄ±rmadÄ±nÄ±z":9034,"sÄ±vÄ±laÅŁtÄ±rdÄ±m":9035,"sÄ±vÄ±laÅŁtÄ±rdÄ±k":9036,"Ã¶ldÃ¼rtÃ¼lmemiÅŁler":9037,"sÃ¶ktÃ¼k":9038,"sÃ¶ktÃ¼":9039,"sÃ¶kmediler":9040,"sÃ¶kmedim":9041,"sÃ¶kmedin":9042,"sÃ¶kmÃ¼yorlar":9043,"sÃ¶ktÃ¼ler":9044,"sÃ¶ktÃ¼n":9045,"yumduk":9046,"yumdunuz":9047,"yummadÄ±lar":9048,"yummadÄ±k":9049,"yummadÄ±n":9050,"yummadÄ±nÄ±z":9051,"yummuyorlar":9052,"yumdular":9053,"Ã¶lÃ§Ã¼lmedim":9054,"Ã¶lÃ§Ã¼lmedik":9055,"Ã¶lÃ§Ã¼ldÃ¼n":9056,"Ã¶lÃ§Ã¼ldÃ¼nÃ¼z":9057,"Ã¶lÃ§Ã¼ldÃ¼m":9058,"Ã¶lÃ§Ã¼ldÃ¼k":9059,"Ã¶lÃ§Ã¼ldÃ¼ler":9060,"sÃ¶vecekler":9061,"sÃ¶vmediler":9062,"sÃ¶vmedim":9063,"sÃ¶vmedik":9064,"sÃ¶vmediniz":9065,"sÃ¶vdÃ¼n":9066,"sÃ¶vdÃ¼nÃ¼z":9067,"sÃ¶vdÃ¼m":9068,"sÃ¶vdÃ¼k":9069,"pusmadÄ±lar":9070,"pusmadÄ±k":9071,"pusmadÄ±m":9072,"pusmadÄ±n":9073,"pusmadÄ±nÄ±z":9074,"kaÅŁÄ±dÄ±n":9075,"kaÅŁÄ±madÄ±m":9076,"kaÅŁÄ±madÄ±n":9077,"kaÅŁÄ±dÄ±m":9078,"kaÅŁÄ±dÄ±k":9079,"kaybolduk":9080,"kaybolmazlar":9081,"kayboldum":9082,"kaybolmayacaklar":9083,"kaybolmadÄ±k":9084,"kaybolmadÄ±n":9085,"kayboldular":9086,"yÄ±kadÄ±n":9087,"yÄ±kamadÄ±k":9088,"yÄ±kadÄ±m":9089,"yÄ±kadÄ±k":9090,"yÄ±kadÄ±lar":9091,"samuru":9092,"kÄ±ydÄ±nÄ±z":9093,"kÄ±yÄ±yorlar":9094,"kÄ±ymadÄ±k":9095,"kÄ±ymadÄ±n":9096,"kÄ±ydÄ±k":9097,"kÄ±ydÄ±lar":9098,"soludun":9099,"soluduk":9100,"soludunuz":9101,"solumamÄ±ÅŁlar":9102,"soludum":9103,"solumadÄ±k":9104,"solumadÄ±n":9105,"solumadÄ±nÄ±z":9106,"soludular":9107,"kapadÄ±n":9108,"kapamadÄ±k":9109,"kapamadÄ±m":9110,"kapamadÄ±n":9111,"kapamadÄ±nÄ±z":9112,"kapadÄ±m":9113,"kapadÄ±k":9114,"dalmÄ±yorlar":9115,"dalmadÄ±lar":9116,"dalÄ±yorlar":9117,"dalmadÄ±k":9118,"dalmadÄ±m":9119,"dalmadÄ±n":9120,"dalmadÄ±nÄ±z":9121,"daldÄ±m":9122,"daldÄ±k":9123,"daldÄ±lar":9124,"tutmayacaklar":9125,"tutmadÄ±lar":9126,"tutacaklar":9127,"tutmadÄ±k":9128,"tutmadÄ±m":9129,"tutmadÄ±n":9130,"tutmuyorlar":9131,"tuttunuz":9132,"tuttum":9133,"islerin":9134,"islerinden":9135,"islerini":9136,"islerine":9137,"islerinde":9138,"batÄ±nÄ±n":9139,"Ã§amuru":9140,"sandÄ±n":9141,"sanÄ±yorlar":9142,"sanmadÄ±k":9143,"sanmadÄ±n":9144,"sandÄ±m":9145,"sandÄ±lar":9146,"sanÄ±rlar":9147,"canlanmadÄ±n":9148,"canlanmadÄ±nÄ±z":9149,"canlanmamazlar":9150,"canlanmamayacaklar":9151,"canlanmamadÄ±nÄ±z":9152,"terliÄŁi":9153,"Ã¶ldÃ¼rtÃ¼lmedin":9154,"Ã¶ldÃ¼rtÃ¼lmedik":9155,"Ã¶ldÃ¼rtÃ¼lmemediler":9156,"Ã¶ldÃ¼rtÃ¼lmemedik":9157,"Ã¶ldÃ¼rtÃ¼lmemedin":9158,"ydÄ±lar":9159,"eÄŁittik":9160,"eÄŁittiniz":9161,"eÄŁittim":9162,"eÄŁitmiÅŁler":9163,"eÄŁitmediler":9164,"eÄŁitiyorlar":9165,"eÄŁitmediniz":9166,"eÄŁitirler":9167,"eÄŁitimi":9168,"yapÄ±ÅŁmadÄ±lar":9169,"yapÄ±ÅŁmadÄ±nÄ±z":9170,"daÄŁÄ±ttÄ±n":9171,"daÄŁÄ±ttÄ±k":9172,"daÄŁÄ±tmayacaklar":9173,"daÄŁÄ±tmÄ±ÅŁlar":9174,"daÄŁÄ±tmadÄ±k":9175,"daÄŁÄ±tmadÄ±n":9176,"daÄŁÄ±tmadÄ±nÄ±z":9177,"Ã¶ÄŁÃ¼tmedin":9178,"Ã¶ÄŁÃ¼tmediniz":9179,"Ã¶ÄŁÃ¼ttÃ¼m":9180,"Ã¶ÄŁÃ¼ttÃ¼nÃ¼z":9181,"Ä±sÄ±rdÄ±n":9182,"Ä±sÄ±rdÄ±nÄ±z":9183,"Ä±sÄ±rmamÄ±ÅŁlar":9184,"Ä±sÄ±rmÄ±ÅŁlar":9185,"Ä±sÄ±rmadÄ±k":9186,"Ä±sÄ±rmadÄ±n":9187,"Ä±sÄ±rmadÄ±nÄ±z":9188,"Ä±sÄ±rdÄ±m":9189,"Ä±sÄ±rdÄ±k":9190,"ĠaldÄ±rdÄ±nÄ±z":9191,"ĠaldÄ±rmÄ±yorlar":9192,"ĠaldÄ±rmadÄ±lar":9193,"ĠaldÄ±rmadÄ±k":9194,"ĠaldÄ±rmadÄ±m":9195,"ĠaldÄ±rmadÄ±nÄ±z":9196,"ĠaldÄ±rdÄ±m":9197,"ĠaldÄ±rdÄ±k":9198,"sÃ¼rÃ¼ndÃ¼rmezler":9199,"sÃ¼rÃ¼ndÃ¼rmediler":9200,"sÃ¼rÃ¼ndÃ¼rmedim":9201,"sÃ¼rÃ¼ndÃ¼rmedik":9202,"sÃ¼rÃ¼ndÃ¼rmedin":9203,"sÃ¼rÃ¼ndÃ¼rmediniz":9204,"sÃ¼rÃ¼ndÃ¼rdÃ¼n":9205,"sÃ¼rÃ¼ndÃ¼rmÃ¼yorlar":9206,"sÃ¼rÃ¼ndÃ¼rdÃ¼m":9207,"sÃ¼rÃ¼ndÃ¼rdÃ¼k":9208,"seslendik":9209,"seslendiniz":9210,"seslendim":9211,"seslenmemiÅŁler":9212,"seslenmediler":9213,"seslenmiyorlar":9214,"seslenmedim":9215,"seslenmedik":9216,"seslenmediniz":9217,"saydÄ±rdÄ±n":9218,"saydÄ±rdÄ±nÄ±z":9219,"saydÄ±rmadÄ±k":9220,"saydÄ±rmadÄ±m":9221,"saydÄ±rmadÄ±n":9222,"saydÄ±rmadÄ±nÄ±z":9223,"saydÄ±rdÄ±k":9224,"saydÄ±rdÄ±lar":9225,"kÄ±rdÄ±rdÄ±nÄ±z":9226,"kÄ±rdÄ±rmazlar":9227,"kÄ±rdÄ±rmayacaklar":9228,"kÄ±rdÄ±rmadÄ±k":9229,"kÄ±rdÄ±rmadÄ±n":9230,"kÄ±rdÄ±rdÄ±m":9231,"kÄ±rdÄ±rdÄ±k":9232,"kÄ±rdÄ±rdÄ±lar":9233,"kirlettin":9234,"kirlettik":9235,"kirlettiniz":9236,"kirletmiÅŁler":9237,"kirletmedim":9238,"kirletmedik":9239,"kirletmedin":9240,"kirletmediniz":9241,"kirletirler":9242,"kirlettiler":9243,"kÃ¶pÃ¼recekler":9244,"kÃ¶pÃ¼rmediler":9245,"kÃ¶pÃ¼rmedim":9246,"kÃ¶pÃ¼rmedik":9247,"kÃ¶pÃ¼rmedin":9248,"kÃ¶pÃ¼rmediniz":9249,"kÃ¶pÃ¼rdÃ¼n":9250,"kÃ¶pÃ¼rmÃ¼yorlar":9251,"kÃ¶pÃ¼rdÃ¼k":9252,"evlendin":9253,"evlendim":9254,"evlenmeyecekler":9255,"evlenmediler":9256,"evlenmedim":9257,"evlenmedik":9258,"evlenmediniz":9259,"geciktirdin":9260,"geciktirdik":9261,"geciktirmediler":9262,"geciktirmedim":9263,"geciktirmedin":9264,"geciktirmediniz":9265,"ayÄ±rdÄ±nÄ±z":9266,"ayÄ±rmamÄ±ÅŁlar":9267,"ayÄ±rmadÄ±k":9268,"ayÄ±rmadÄ±n":9269,"ayÄ±rdÄ±m":9270,"ayÄ±rdÄ±k":9271,"tÃ¼kÃ¼rmedim":9272,"tÃ¼kÃ¼rmedik":9273,"tÃ¼kÃ¼rdÃ¼n":9274,"tÃ¼kÃ¼rdÃ¼nÃ¼z":9275,"tÃ¼kÃ¼rdÃ¼m":9276,"saldÄ±rdÄ±n":9277,"saldÄ±rmÄ±yorlar":9278,"saldÄ±rmÄ±ÅŁlar":9279,"saldÄ±rmadÄ±k":9280,"saldÄ±rmadÄ±m":9281,"saldÄ±rmadÄ±n":9282,"saldÄ±rmadÄ±nÄ±z":9283,"saldÄ±rdÄ±k":9284,"Ã¼ÅŁendin":9285,"Ã¼ÅŁendik":9286,"Ã¼ÅŁendiniz":9287,"Ã¼ÅŁendim":9288,"Ã¼ÅŁenmeyecekler":9289,"Ã¼ÅŁenmedim":9290,"Ã¼ÅŁenirler":9291,"boÅŁandÄ±n":9292,"boÅŁanmadÄ±lar":9293,"boÅŁanmadÄ±k":9294,"boÅŁanmadÄ±n":9295,"boÅŁanmadÄ±nÄ±z":9296,"boÅŁandÄ±m":9297,"boÅŁandÄ±k":9298,"aldattÄ±n":9299,"aldattÄ±nÄ±z":9300,"aldatmamÄ±ÅŁlar":9301,"aldatmadÄ±lar":9302,"aldatmadÄ±k":9303,"aldatmadÄ±nÄ±z":9304,"kapattÄ±k":9305,"kapattÄ±nÄ±z":9306,"kapatmazlar":9307,"kapatmayacaklar":9308,"kapatmadÄ±lar":9309,"kapatmadÄ±m":9310,"kapatÄ±rlar":9311,"kapattÄ±lar":9312,"utandÄ±rdÄ±n":9313,"utandÄ±rdÄ±nÄ±z":9314,"utandÄ±rmadÄ±lar":9315,"utandÄ±rÄ±yorlar":9316,"utandÄ±racaklar":9317,"utandÄ±rmadÄ±k":9318,"utandÄ±rmadÄ±n":9319,"utandÄ±rdÄ±m":9320,"utandÄ±rdÄ±k":9321,"utandÄ±rdÄ±lar":9322,"iyileÅŁtirdin":9323,"iyileÅŁtirdiniz":9324,"iyileÅŁtirdiler":9325,"iyileÅŁtirmedim":9326,"iyileÅŁtirmedik":9327,"iyileÅŁtirmedin":9328,"iyileÅŁtirmediniz":9329,"iyileÅŁtirirler":9330,"Ä°ngilizceleÅŁtirdin":9331,"Ä°ngilizceleÅŁtirdik":9332,"Ä°ngilizceleÅŁtirdiniz":9333,"Ä°ngilizceleÅŁtirmediler":9334,"Ä°ngilizceleÅŁtirdiler":9335,"Ä°ngilizceleÅŁtirmedik":9336,"Ä°ngilizceleÅŁtirmediniz":9337,"kaÃ§Ä±rdÄ±nÄ±z":9338,"kaÃ§Ä±rmadÄ±lar":9339,"kaÃ§Ä±rmÄ±ÅŁlar":9340,"kaÃ§Ä±rmadÄ±k":9341,"kaÃ§Ä±rdÄ±m":9342,"kaÃ§Ä±rdÄ±k":9343,"kaÃ§Ä±rdÄ±lar":9344,"TÃ¼rkÃ§eleÅŁtirdik":9345,"TÃ¼rkÃ§eleÅŁtirdiniz":9346,"TÃ¼rkÃ§eleÅŁtirdim":9347,"TÃ¼rkÃ§eleÅŁtirmemiÅŁler":9348,"TÃ¼rkÃ§eleÅŁtirmediler":9349,"TÃ¼rkÃ§eleÅŁtirmedik":9350,"TÃ¼rkÃ§eleÅŁtirmedin":9351,"tÃ¼kendim":9352,"tÃ¼kenecekler":9353,"tÃ¼kenmediler":9354,"tÃ¼kenmiyorlar":9355,"tÃ¼kendiler":9356,"tÃ¼kenmedik":9357,"unutmadÄ±m":9358,"unutmadÄ±n":9359,"unutmadÄ±nÄ±z":9360,"unuttunuz":9361,"unuttun":9362,"ettirdin":9363,"ettirdik":9364,"ettirdiniz":9365,"ettirdim":9366,"ettirmezler":9367,"ettirecekler":9368,"ettirmedim":9369,"ettirmedik":9370,"sÃ¼mÃ¼rmedin":9371,"sÃ¼mÃ¼rmediniz":9372,"sÃ¼mÃ¼rdÃ¼n":9373,"sÃ¼mÃ¼rmÃ¼yorlar":9374,"sÃ¼mÃ¼rdÃ¼nÃ¼z":9375,"sÃ¼mÃ¼rdÃ¼m":9376,"sÃ¼mÃ¼rdÃ¼ler":9377,"dÃ¶ndÃ¼rmezler":9378,"dÃ¶ndÃ¼rmediler":9379,"dÃ¶ndÃ¼rmedim":9380,"dÃ¶ndÃ¼rÃ¼yorlar":9381,"dÃ¶ndÃ¼rmÃ¼ÅŁler":9382,"dÃ¶ndÃ¼rmÃ¼yorlar":9383,"dÃ¶ndÃ¼rdÃ¼nÃ¼z":9384,"uÄŁrattÄ±n":9385,"uÄŁrattÄ±nÄ±z":9386,"uÄŁrattÄ±m":9387,"uÄŁratmamÄ±ÅŁlar":9388,"uÄŁratmÄ±ÅŁlar":9389,"uÄŁratmadÄ±k":9390,"uÄŁratmadÄ±n":9391,"kurutmazlar":9392,"kurutmadÄ±k":9393,"kurutmadÄ±m":9394,"kuruttunuz":9395,"kuruttum":9396,"kuruttun":9397,"eÄŁlendin":9398,"eÄŁlendik":9399,"eÄŁlendiniz":9400,"eÄŁlenmeyecekler":9401,"eÄŁlenecekler":9402,"eÄŁlendiler":9403,"eÄŁlenmedik":9404,"eÄŁlenmedin":9405,"eÄŁlenmediniz":9406,"ĠsÄ±kÄ±ÅŁmadÄ±k":9407,"ĠsÄ±kÄ±ÅŁmadÄ±m":9408,"ĠsÄ±kÄ±ÅŁmadÄ±n":9409,"ĠsÄ±kÄ±ÅŁmadÄ±nÄ±z":9410,"gÃ¼cendin":9411,"gÃ¼cendik":9412,"gÃ¼cendiniz":9413,"gÃ¼cenecekler":9414,"gÃ¼cenmediler":9415,"gÃ¼cendiler":9416,"gÃ¼cenmedik":9417,"gÃ¼cenmedin":9418,"gÃ¼cenmediniz":9419,"gÃ¼lÃ¼nÃ§leÅŁmiyorlar":9420,"gÃ¼lÃ¼nÃ§leÅŁmedim":9421,"gÃ¼lÃ¼nÃ§leÅŁmediniz":9422,"kÃ¶mÃ¼":9423,"Ã¶zrÃ¼":9424,"atÄ±ÅŁmamÄ±ÅŁlar":9425,"atÄ±ÅŁmayacaklar":9426,"atÄ±ÅŁmadÄ±m":9427,"atÄ±ÅŁmadÄ±n":9428,"bitirdin":9429,"bitirdiniz":9430,"bitirdim":9431,"bitirmediler":9432,"bitirmedik":9433,"bitirmediniz":9434,"birleÅŁmediler":9435,"birleÅŁmedim":9436,"birleÅŁmedik":9437,"birleÅŁmediniz":9438,"delirdik":9439,"delirmediler":9440,"deliriyorlar":9441,"delirdiler":9442,"delirmedik":9443,"delirmedin":9444,"delirmediniz":9445,"menin":9446,"deÄŁiÅŁtirdim":9447,"deÄŁiÅŁtirmedim":9448,"deÄŁiÅŁtirmedik":9449,"deÄŁiÅŁtirmedin":9450,"deÄŁiÅŁtirmediniz":9451,"tanÄ±ttÄ±n":9452,"tanÄ±ttÄ±m":9453,"tanÄ±tmayacaklar":9454,"tanÄ±tmÄ±yorlar":9455,"tanÄ±tmadÄ±lar":9456,"tanÄ±tmadÄ±m":9457,"tanÄ±tmadÄ±nÄ±z":9458,"tanÄ±ttÄ±lar":9459,"verdirttin":9460,"verdirttim":9461,"verdirtmezler":9462,"verdirtmedin":9463,"verdirtmediniz":9464,"Ã§Ã¶kerttin":9465,"Ã§Ã¶kerttiniz":9466,"Ã§Ã¶kerttim":9467,"Ã§Ã¶kertmediler":9468,"Ã§Ã¶kertmedim":9469,"yendirttiniz":9470,"yendirttim":9471,"yendirtecekler":9472,"yendirtmedim":9473,"yendirtmedik":9474,"yendirtmedin":9475,"yendirtmediniz":9476,"caminin":9477,"sosunu":9478,"sosundan":9479,"sosuna":9480,"sosunun":9481,"Ã¶lÃ§tÃ¼rttÃ¼k":9482,"Ã¶lÃ§tÃ¼rtecekler":9483,"Ã¶lÃ§tÃ¼rtmediler":9484,"Ã¶lÃ§tÃ¼rtmedik":9485,"Ã¶lÃ§tÃ¼rtmedin":9486,"Ã¶lÃ§tÃ¼rttÃ¼m":9487,"Ã¶lÃ§tÃ¼rtmÃ¼ÅŁler":9488,"Ã¶lÃ§tÃ¼rttÃ¼n":9489,"Ã¶lÃ§tÃ¼rttÃ¼nÃ¼z":9490,"dirildin":9491,"dirildik":9492,"dirildiniz":9493,"dirildim":9494,"dirilmiÅŁler":9495,"dirilmediler":9496,"dirildiler":9497,"dirilmedim":9498,"dirilmedik":9499,"dÃ¼rttÃ¼k":9500,"dÃ¼rtmedim":9501,"dÃ¼rtmediniz":9502,"dÃ¼rttÃ¼m":9503,"dÃ¼rttÃ¼ler":9504,"gidildik":9505,"gidildiniz":9506,"gidildim":9507,"gidilmezler":9508,"gidildiler":9509,"gidilmedim":9510,"gidilmedin":9511,"seÃ§ildiniz":9512,"seÃ§ilmediler":9513,"seÃ§ilmedim":9514,"seÃ§ilmedik":9515,"seÃ§ilmediniz":9516,"canlandÄ±rtÄ±ldÄ±nÄ±z":9517,"canlandÄ±rtÄ±lmazlar":9518,"canlandÄ±rtÄ±lmadÄ±m":9519,"canlandÄ±rtÄ±lmadÄ±n":9520,"canlandÄ±rtÄ±lmadÄ±nÄ±z":9521,"canlandÄ±rtÄ±ldÄ±m":9522,"canlandÄ±rtÄ±ldÄ±k":9523,"dÃ¼zelttin":9524,"dÃ¼zelttiniz":9525,"dÃ¼zelttim":9526,"dÃ¼zeltmezler":9527,"dÃ¼zeltiyorlar":9528,"dÃ¼zeltmediniz":9529,"kaynaÅŁtÄ±rtÄ±ldÄ±n":9530,"kaynaÅŁtÄ±rtÄ±ldÄ±nÄ±z":9531,"kaynaÅŁtÄ±rtÄ±lmadÄ±k":9532,"kaynaÅŁtÄ±rtÄ±ldÄ±m":9533,"kaynaÅŁtÄ±rtÄ±ldÄ±lar":9534,"Ġgeldin":9535,"Ġgeldiniz":9536,"Ġgeldim":9537,"ĠgelmiÅŁler":9538,"Ġgeliyorlar":9539,"Ġgelmedim":9540,"Ġgelmedik":9541,"Ġgelmedin":9542,"Ġgelmediniz":9543,"ĠalmadÄ±lar":9544,"ĠalmÄ±ÅŁlar":9545,"ĠalmadÄ±m":9546,"ĠalmadÄ±n":9547,"ĠalmadÄ±nÄ±z":9548,"ĠalÄ±rlar":9549,"sikildin":9550,"sikildim":9551,"sikilmediler":9552,"sikilmedim":9553,"sikilmedik":9554,"boÅŁalmadÄ±m":9555,"boÅŁalmadÄ±nÄ±z":9556,"boÅŁaldÄ±m":9557,"boÅŁaldÄ±lar":9558,"olacaÄŁÄ±z":9559,"verildin":9560,"verildiniz":9561,"verildim":9562,"verilmemiÅŁler":9563,"verilmezler":9564,"verilmiÅŁler":9565,"verilmediler":9566,"verilmiyorlar":9567,"verildiler":9568,"verilmedim":9569,"verilmedin":9570,"Ã§Ä±ÄŁlarÄ±n":9571,"Ã§Ä±ÄŁlarÄ±":9572,"Ã§Ä±ÄŁlarÄ±nda":9573,"Ã§Ä±ÄŁlarÄ±nÄ±n":9574,"Ã§Ä±ÄŁlarÄ±ndan":9575,"Ã§Ä±ÄŁlarÄ±nÄ±":9576,"Ã§Ä±ÄŁlarÄ±na":9577,"Ã§Ä±ÄŁÄ±ndan":9578,"Ã§Ä±ÄŁÄ±na":9579,"Ã§Ä±ÄŁÄ±nda":9580,"yerleri":9581,"yerlerinden":9582,"yerlerini":9583,"yerlerine":9584,"yerlerinde":9585,"yerlerinin":9586,"yerinde":9587,"yerinden":9588,"fili":9589,"filmi":9590,"filin":9591,"fillerin":9592,"fillerinden":9593,"fillerini":9594,"fillerinde":9595,"filinin":9596,"filini":9597,"filinde":9598,"filine":9599,"filinden":9600,"filmin":9601,"filminden":9602,"filmini":9603,"filminin":9604,"filmine":9605,"sÃ¼rÃ¼mÃ¼":9606,"sÃ¼rÃ¼mleri":9607,"sÃ¼rÃ¼mlerini":9608,"sÃ¼rÃ¼mlerine":9609,"sÃ¼rÃ¼mlerinin":9610,"sÃ¼rÃ¼mÃ¼nÃ¼n":9611,"sÃ¼rÃ¼mÃ¼ne":9612,"sÃ¼rÃ¼mÃ¼nden":9613,"kokun":9614,"kokunuz":9615,"kokmazlar":9616,"kokmadÄ±lar":9617,"kokmadÄ±n":9618,"kokunun":9619,"koktunuz":9620,"koktum":9621,"koktun":9622,"kalktÄ±k":9623,"kalktÄ±m":9624,"kalkmamÄ±ÅŁlar":9625,"kalkmadÄ±lar":9626,"kalkmÄ±ÅŁlar":9627,"kalkmadÄ±m":9628,"kalkmadÄ±n":9629,"korkmamÄ±ÅŁlar":9630,"korkmadÄ±lar":9631,"korkmadÄ±k":9632,"korkmadÄ±nÄ±z":9633,"Ã§algÄ±larÄ±":9634,"Ã§algÄ±larÄ±nÄ±n":9635,"Ã§algÄ±larÄ±ndan":9636,"Ã§algÄ±larÄ±nÄ±":9637,"bardaÄŁÄ±":9638,"elledin":9639,"elledik":9640,"ellediniz":9641,"ellemediler":9642,"ellediler":9643,"ellemedim":9644,"ellemedik":9645,"ellemediniz":9646,"yaÄŁladÄ±n":9647,"yaÄŁladÄ±nÄ±z":9648,"yaÄŁlamadÄ±k":9649,"yaÄŁlamadÄ±m":9650,"yaÄŁladÄ±m":9651,"vadenin":9652,"bayÄ±ldÄ±n":9653,"bayÄ±ldÄ±nÄ±z":9654,"bayÄ±lmayacaklar":9655,"bayÄ±lmadÄ±lar":9656,"bayÄ±lmadÄ±k":9657,"bayÄ±lmadÄ±m":9658,"bayÄ±lmadÄ±n":9659,"bayÄ±lmadÄ±nÄ±z":9660,"bayÄ±ldÄ±k":9661,"bayÄ±ldÄ±lar":9662,"mumyanÄ±n":9663,"demledin":9664,"demlediniz":9665,"demledim":9666,"demlememiÅŁler":9667,"demlemedik":9668,"demlemedin":9669,"demlemediniz":9670,"benzedin":9671,"benzedik":9672,"benzediniz":9673,"benzemedim":9674,"benzemedin":9675,"tÃ¼redik":9676,"tÃ¼rediniz":9677,"tÃ¼redim":9678,"tÃ¼rememiÅŁler":9679,"tÃ¼remediler":9680,"tÃ¼remedim":9681,"tÃ¼remedik":9682,"tÃ¼remedin":9683,"tÃ¼remediniz":9684,"diredin":9685,"diredim":9686,"diremedim":9687,"diremedik":9688,"diremedin":9689,"kÃ¼Ã§Ã¼kler":9690,"kusmanÄ±n":9691,"gÃ¼tmemiÅŁler":9692,"gÃ¼tmediler":9693,"gÃ¼tmedik":9694,"gÃ¼ttÃ¼m":9695,"gÃ¼tmÃ¼ÅŁler":9696,"gÃ¼ttÃ¼n":9697,"gÃ¼ttÃ¼nÃ¼z":9698,"adsÄ±zlar":9699,"beldenin":9700,"efsunu":9701,"efenin":9702,"kuÅŁun":9703,"kuÅŁlarÄ±n":9704,"kuÅŁlarÄ±nda":9705,"kuÅŁlarÄ±nÄ±n":9706,"kuÅŁlarÄ±ndan":9707,"kuÅŁlarÄ±na":9708,"kuÅŁunun":9709,"kuÅŁunda":9710,"kuÅŁuna":9711,"kuÅŁundan":9712,"kÄ±lÄ±":9713,"kÄ±llarÄ±n":9714,"kÄ±llarÄ±":9715,"kÄ±llarÄ±ndan":9716,"kÄ±llarÄ±nÄ±":9717,"kÄ±llarÄ±na":9718,"kÄ±lÄ±nÄ±n":9719,"kÄ±lÄ±ndan":9720,"kÄ±lÄ±na":9721,"akÄ±ÅŁÄ±":9722,"akÄ±ÅŁÄ±n":9723,"akÄ±ÅŁlarÄ±":9724,"akÄ±ÅŁlarÄ±nda":9725,"akÄ±ÅŁlarÄ±nÄ±":9726,"akÄ±ÅŁlarÄ±na":9727,"akÄ±ÅŁÄ±nÄ±n":9728,"akÄ±ÅŁÄ±ndan":9729,"akÄ±ÅŁÄ±na":9730,"akÄ±ÅŁÄ±nda":9731,"tenin":9732,"tenlerin":9733,"tenleri":9734,"tenlerini":9735,"tenlerine":9736,"tenlerinin":9737,"teninin":9738,"teninde":9739,"tenine":9740,"olayÄ±n":9741,"olaylarÄ±":9742,"olaylarÄ±nda":9743,"olaylarÄ±ndan":9744,"olaylarÄ±nÄ±":9745,"olaylarÄ±na":9746,"olayÄ±nÄ±n":9747,"olayÄ±nÄ±":9748,"olayÄ±nda":9749,"pedinin":9750,"sÄ±nÄ±rÄ±":9751,"sÄ±nÄ±rÄ±n":9752,"sÄ±nÄ±rlarÄ±":9753,"sÄ±nÄ±rlarÄ±ndan":9754,"sÄ±nÄ±rlarÄ±nÄ±":9755,"sÄ±nÄ±rlarÄ±na":9756,"sÄ±nÄ±rÄ±nÄ±n":9757,"sÄ±nÄ±rÄ±nÄ±":9758,"sÄ±nÄ±rÄ±na":9759,"sÄ±nÄ±rÄ±nda":9760,"aynanÄ±n":9761,"seÃ§melerinden":9762,"seÃ§melerini":9763,"seÃ§melerinde":9764,"seÃ§melerinin":9765,"blogu":9766,"blogun":9767,"bloglarÄ±":9768,"bloglarÄ±nda":9769,"bloglarÄ±nÄ±n":9770,"bloglarÄ±nÄ±":9771,"bloglarÄ±na":9772,"blogunun":9773,"blogunda":9774,"bloguna":9775,"blogunu":9776,"blogundan":9777,"bakiri":9778,"bakirin":9779,"bakirlerin":9780,"bakirleri":9781,"bakirlerinden":9782,"bakirlerini":9783,"bakirlerine":9784,"bakirinin":9785,"bakirini":9786,"bakirinden":9787,"Ġoluyoruz":9788,"Ġoluyorsun":9789,"Ġoluyordu":9790,"Ġoluyordun":9791,"Ġoluyorsunuz":9792,"ĠoluyorlardÄ±":9793,"ĠoluyormuÅŁsun":9794,"Ġoluyordunuz":9795,"ĠoluyormuÅŁuz":9796,"diyecekler":9797,"otomobili":9798,"otomobilin":9799,"otomobilleri":9800,"otomobillerinden":9801,"otomobillerini":9802,"otomobillerine":9803,"otomobillerinin":9804,"otomobilinde":9805,"otomobilinden":9806,"ĠsayÄ±nÄ±z":9807,"ĠsayÄ±mÄ±z":9808,"ĠsayÄ±nÄ±":9809,"ĠsayÄ±ndan":9810,"ĠsayÄ±na":9811,"ĠsayÄ±nda":9812,"ĠsayÄ±nÄ±zda":9813,"ĠsayÄ±nÄ±zÄ±":9814,"ĠsayÄ±nÄ±za":9815,"ĠsayÄ±nÄ±zdan":9816,"ĠsayÄ±mÄ±zdan":9817,"ĠsayÄ±mÄ±za":9818,"sÃ¶zcÃ¼nÃ¼n":9819,"ĠyazÄ±lÄ±ma":9820,"kavmi":9821,"kavmin":9822,"kavunu":9823,"kavminde":9824,"kavmini":9825,"kardeÅŁt":9826,"ecelerin":9827,"eceleri":9828,"ecelerinden":9829,"ecelerini":9830,"ecelerinin":9831,"dulun":9832,"dullarÄ±n":9833,"dullarÄ±ndan":9834,"dullarÄ±nÄ±":9835,"dulunun":9836,"dulunda":9837,"duluna":9838,"poplarÄ±n":9839,"poplarÄ±":9840,"poplarÄ±nda":9841,"poplarÄ±ndan":9842,"poplarÄ±na":9843,"popunun":9844,"popunda":9845,"popuna":9846,"poponun":9847,"cezvey":9848,"efelerin":9849,"efeleri":9850,"efelerini":9851,"efelerine":9852,"efelerinde":9853,"efelerinin":9854,"hatanÄ±n":9855,"ĠyapmÄ±ÅŁtÄ±":9856,"ĠyapmÄ±ÅŁlardÄ±":9857,"ĠyapmÄ±ÅŁtÄ±n":9858,"ĠyapmÄ±ÅŁtÄ±nÄ±z":9859,"ĠyapmÄ±ÅŁtÄ±m":9860,"ĠyapmÄ±ÅŁmÄ±ÅŁsÄ±nÄ±z":9861,"ĠyapmÄ±ÅŁmÄ±ÅŁÄ±m":9862,"ĠyapÄ±yormuÅŁ":9863,"ĠyapÄ±yoruz":9864,"ĠyapÄ±yorduk":9865,"ĠyapÄ±yormuÅŁsun":9866,"ĠyapÄ±yormuÅŁum":9867,"ĠyapÄ±yordum":9868,"ĠfÃ¼zeniz":9869,"ĠfÃ¼zeye":9870,"ĠfÃ¼zenize":9871,"ĠfÃ¼zeyi":9872,"ĠfÃ¼zende":9873,"ĠfÃ¼zene":9874,"ĠfÃ¼zenizin":9875,"ĠfÃ¼zenizi":9876,"ĠolmuÅŁlardÄ±":9877,"ĠolmuÅŁmuÅŁum":9878,"aynalarÄ±n":9879,"aynalarÄ±":9880,"aynalarÄ±nda":9881,"aynalarÄ±ndan":9882,"aynalarÄ±nÄ±":9883,"ĠyapacaksÄ±n":9884,"ĠyapacaksÄ±nÄ±z":9885,"ĠyapacaklardÄ±":9886,"ĠyapacaklarmÄ±ÅŁ":9887,"ĠyapacaktÄ±n":9888,"ĠyapacaktÄ±k":9889,"ĠyapacaktÄ±nÄ±z":9890,"ĠyapacakmÄ±ÅŁsÄ±n":9891,"ĠyapacakmÄ±ÅŁÄ±z":9892,"mandalÄ±":9893,"mandallarÄ±nda":9894,"mandallarÄ±nÄ±n":9895,"mandallarÄ±nÄ±":9896,"mandallarÄ±na":9897,"mandalÄ±nÄ±":9898,"mandalÄ±ndan":9899,"mandalÄ±na":9900,"mandalÄ±nda":9901,"diskolarÄ±n":9902,"diskolarÄ±":9903,"diskolarÄ±nda":9904,"diskolarÄ±nÄ±n":9905,"diskolarÄ±ndan":9906,"Ã§arÄ±":9907,"Ã§arÄ±n":9908,"Ã§arlarÄ±n":9909,"Ã§arlarÄ±nÄ±n":9910,"Ã§arlarÄ±ndan":9911,"Ã§arlarÄ±nÄ±":9912,"Ã§arÄ±nÄ±":9913,"Ã§arÄ±ndan":9914,"Ã§arÄ±na":9915,"Ã§arÄ±nda":9916,"ĠasimptotlarÄ±nÄ±n":9917,"Ġasimptotunuz":9918,"Ġasimptotlarda":9919,"Ġasimptotumuz":9920,"ĠasimptotlarÄ±mÄ±zÄ±":9921,"ĠasimptotlarÄ±nÄ±zÄ±":9922,"ĠasimptotlarÄ±mÄ±zda":9923,"ĠasimptotlarÄ±mÄ±zÄ±n":9924,"ĠasimptotlarÄ±nÄ±zÄ±n":9925,"ĠasimptotlarÄ±mÄ±zdan":9926,"ĠasimptotlarÄ±nÄ±zda":9927,"Ġasimptotunda":9928,"Ġasimptotunuzun":9929,"Ġasimptotunuzu":9930,"Ġasimptotunuzda":9931,"Ġasimptotumuza":9932,"Ġasimptotumuzun":9933,"Ġasimptotumuzu":9934,"Ġasimptotumuzda":9935,"Ġhalin":9936,"Ġhallerin":9937,"ĠhalÄ±nÄ±n":9938,"kÃ¶pÃ¼klerinden":9939,"kÃ¶pÃ¼klerini":9940,"kÃ¶pÃ¼klerine":9941,"kÃ¶pÃ¼klerinde":9942,"Ã§Ä±ÄŁÄ±rtkanÄ±n":9943,"Ã§Ä±ÄŁÄ±rtkanlarÄ±n":9944,"Ã§Ä±ÄŁÄ±rtkanlarÄ±nda":9945,"Ã§Ä±ÄŁÄ±rtkanlarÄ±ndan":9946,"Ã§Ä±ÄŁÄ±rtkanÄ±nÄ±n":9947,"Ã§Ä±ÄŁÄ±rtkanÄ±na":9948,"mamalarÄ±n":9949,"mamalarÄ±nda":9950,"mamalarÄ±nÄ±n":9951,"mamalarÄ±na":9952,"evcikleri":9953,"evciklerinden":9954,"evciklerini":9955,"evciklerine":9956,"evciklerinde":9957,"evciklerinin":9958,"aleti":9959,"aletin":9960,"aletlerin":9961,"aletleri":9962,"aletlerinden":9963,"aletlerine":9964,"aletinde":9965,"aletine":9966,"Ã§apanÄ±n":9967,"gÃ¼dÃ¼mlerin":9968,"gÃ¼dÃ¼mleri":9969,"gÃ¼dÃ¼mlerinde":9970,"gÃ¼dÃ¼mlerinin":9971,"kÄ±rÄ±ldÄ±n":9972,"kÄ±rÄ±lmadÄ±lar":9973,"kÄ±rÄ±lmadÄ±k":9974,"kÄ±rÄ±lmadÄ±m":9975,"kÄ±rÄ±lmadÄ±n":9976,"kÄ±rÄ±lmadÄ±nÄ±z":9977,"kÄ±rÄ±ldÄ±m":9978,"kÄ±rÄ±ldÄ±k":9979,"kÄ±rÄ±ldÄ±lar":9980,"birliklerin":9981,"birlikleri":9982,"birliklerini":9983,"birliklerine":9984,"birliklerinde":9985,"birliklerinin":9986,"kutunun":9987,"altlarÄ±nda":9988,"altlarÄ±nÄ±n":9989,"altlarÄ±ndan":9990,"kullanÄ±lmÄ±yorlar":9991,"kullanÄ±lmadÄ±lar":9992,"kullanÄ±lmadÄ±m":9993,"kullanÄ±lmadÄ±n":9994,"kullanÄ±lmadÄ±nÄ±z":9995,"kullanÄ±ldÄ±k":9996,"kaynaÅŁtÄ±rÄ±ldÄ±n":9997,"kaynaÅŁtÄ±rÄ±ldÄ±nÄ±z":9998,"kaynaÅŁtÄ±rÄ±lmayacaklar":9999,"kaynaÅŁtÄ±rÄ±lmadÄ±k":10000,"kaynaÅŁtÄ±rÄ±lmadÄ±m":10001,"kaynaÅŁtÄ±rÄ±lmadÄ±n":10002,"kaynaÅŁtÄ±rÄ±lmadÄ±nÄ±z":10003,"katÄ±ldÄ±nÄ±z":10004,"katÄ±lmadÄ±k":10005,"katÄ±lmadÄ±nÄ±z":10006,"katÄ±ldÄ±m":10007,"kÄ±ÅŁkÄ±rttÄ±n":10008,"kÄ±ÅŁkÄ±rttÄ±nÄ±z":10009,"kÄ±ÅŁkÄ±rtmadÄ±k":10010,"kÄ±ÅŁkÄ±rtmadÄ±n":10011,"kÄ±ÅŁkÄ±rtmadÄ±nÄ±z":10012,"yapÄ±lmadÄ±lar":10013,"yapÄ±lmadÄ±k":10014,"yapÄ±lmadÄ±n":10015,"yapÄ±ldÄ±k":10016,"ĠolmazÄ±":10017,"ĠolmazlarÄ±":10018,"ĠolmazlarmÄ±ÅŁ":10019,"ĠolmazdÄ±n":10020,"ĠolmazlarÄ±ndan":10021,"ĠolmazlarÄ±nÄ±":10022,"ĠolmazdÄ±nÄ±z":10023,"ĠolmazÄ±nÄ±n":10024,"ĠolmazÄ±nÄ±":10025,"ĠolmazÄ±ndan":10026,"ĠolmazÄ±na":10027,"ĠolmazÄ±nda":10028,"ĠsayÄ±ya":10029,"ĠsayÄ±da":10030,"ĠsayÄ±dan":10031,"ĠsayÄ±yÄ±":10032,"ĠsayÄ±larÄ±ndan":10033,"ĠsayÄ±larÄ±nÄ±":10034,"ĠsayÄ±lardan":10035,"ĠsayÄ±lara":10036,"ĠsayÄ±larÄ±mÄ±za":10037,"ĠsayÄ±larÄ±mÄ±zÄ±":10038,"ĠsayÄ±larÄ±mÄ±zda":10039,"ĠsayÄ±larÄ±mÄ±zÄ±n":10040,"ĠsayÄ±larÄ±nÄ±za":10041,"ĠsayÄ±larÄ±nÄ±zÄ±n":10042,"ĠsayÄ±larÄ±mÄ±zdan":10043,"ĠsayÄ±larÄ±nÄ±zda":10044,"ĠsayÄ±larÄ±nÄ±zdan":10045,"ĠsayÄ±sÄ±na":10046,"ĠsayÄ±sÄ±nÄ±n":10047,"Ã¶nemlerin":10048,"Ã¶nemleri":10049,"Ã¶nemlerinden":10050,"Ã¶nemlerini":10051,"Ã¶nemlerinin":10052,"atÄ±ldÄ±n":10053,"atÄ±ldÄ±nÄ±z":10054,"atÄ±lmÄ±yorlar":10055,"atÄ±lmadÄ±k":10056,"atÄ±lmadÄ±m":10057,"atÄ±lmadÄ±n":10058,"atÄ±lmadÄ±nÄ±z":10059,"atÄ±ldÄ±m":10060,"anlattÄ±n":10061,"anlattÄ±k":10062,"anlattÄ±nÄ±z":10063,"anlattÄ±m":10064,"anlatmÄ±yorlar":10065,"anlatmadÄ±k":10066,"anlatmadÄ±m":10067,"anlatmadÄ±n":10068,"anlatmadÄ±nÄ±z":10069,"ÅŁaÅŁÄ±rttÄ±k":10070,"ÅŁaÅŁÄ±rttÄ±nÄ±z":10071,"ÅŁaÅŁÄ±rttÄ±m":10072,"ÅŁaÅŁÄ±rtmadÄ±k":10073,"ÅŁaÅŁÄ±rtmadÄ±nÄ±z":10074,"ÅŁaÅŁÄ±rttÄ±lar":10075,"ĠfÃ¼zede":10076,"ĠfÃ¼zeler":10077,"ĠfÃ¼zeleriniz":10078,"ĠfÃ¼zesi":10079,"ĠfÃ¼zeleri":10080,"ĠfÃ¼zelere":10081,"ĠfÃ¼zelerde":10082,"ĠfÃ¼zelerinizden":10083,"ĠfÃ¼zelerinizin":10084,"ĠfÃ¼zelerimizin":10085,"ĠfÃ¼zelerinizde":10086,"ĠfÃ¼zelerinize":10087,"ĠfÃ¼zelerimizi":10088,"ĠfÃ¼zesine":10089,"ĠfÃ¼zemize":10090,"ĠfÃ¼zemizin":10091,"ĠfÃ¼zemizde":10092,"kaslarÄ±":10093,"kaslarÄ±nda":10094,"kaslarÄ±nÄ±n":10095,"kaslarÄ±ndan":10096,"kaslarÄ±na":10097,"atÄ±ÅŁtÄ±nÄ±z":10098,"atÄ±ÅŁtÄ±n":10099,"atÄ±ÅŁtÄ±m":10100,"atÄ±ÅŁtÄ±k":10101,"sattÄ±rttÄ±n":10102,"sattÄ±rttÄ±k":10103,"sattÄ±rttÄ±nÄ±z":10104,"sattÄ±rttÄ±m":10105,"sattÄ±rtmadÄ±lar":10106,"sattÄ±rtmadÄ±k":10107,"sattÄ±rtmadÄ±n":10108,"sattÄ±rtmadÄ±nÄ±z":10109,"kÄ±rÄ±klarÄ±n":10110,"kÄ±rÄ±klarÄ±":10111,"kÄ±rÄ±klarÄ±nÄ±n":10112,"kÄ±rÄ±klarÄ±ndan":10113,"kÄ±rÄ±klarÄ±nÄ±":10114,"kÄ±rÄ±klarÄ±na":10115,"inciri":10116,"incirin":10117,"incirlerin":10118,"incirleri":10119,"incirlerinden":10120,"incirlerinde":10121,"incirlerinin":10122,"incirinin":10123,"incirini":10124,"incirinde":10125,"sÃ¼rÃ¼meyecekler":10126,"sÃ¼rÃ¼mezler":10127,"sÃ¼rÃ¼medim":10128,"sÃ¼rÃ¼medik":10129,"sÃ¼rÃ¼medin":10130,"sÃ¼rÃ¼mediniz":10131,"sÃ¼rÃ¼dÃ¼nÃ¼z":10132,"sÃ¼rÃ¼dÃ¼m":10133,"karÄ±ÅŁtÄ±rttÄ±k":10134,"karÄ±ÅŁtÄ±rttÄ±nÄ±z":10135,"karÄ±ÅŁtÄ±rttÄ±m":10136,"karÄ±ÅŁtÄ±rtmazlar":10137,"derleyicilerin":10138,"derleyicilerinden":10139,"derleyicilerini":10140,"kutularÄ±n":10141,"kutularÄ±":10142,"kutularÄ±nÄ±n":10143,"kutularÄ±ndan":10144,"kutularÄ±nÄ±":10145,"yaptÄ±rttÄ±nÄ±z":10146,"yaptÄ±rttÄ±m":10147,"yaptÄ±rtmamÄ±ÅŁlar":10148,"yaptÄ±rtmayacaklar":10149,"yaptÄ±rtmÄ±yorlar":10150,"yaptÄ±rtmadÄ±lar":10151,"yaptÄ±rtmadÄ±m":10152,"yaptÄ±rtmadÄ±n":10153,"yaptÄ±rtmadÄ±nÄ±z":10154,"yaptÄ±rttÄ±lar":10155,"ĠyazÄ±lÄ±mlar":10156,"ĠyazÄ±lÄ±mda":10157,"ĠyazÄ±lÄ±mdan":10158,"ĠyazÄ±lÄ±mlarÄ±":10159,"ĠyazÄ±lÄ±mlarÄ±mÄ±z":10160,"ĠyazÄ±lÄ±mlarÄ±nÄ±z":10161,"ĠyazÄ±lÄ±mlarÄ±ndan":10162,"ĠyazÄ±lÄ±mlardan":10163,"ĠyazÄ±lÄ±mlarÄ±mÄ±zÄ±":10164,"ĠyazÄ±lÄ±mlarÄ±nÄ±zÄ±":10165,"ĠyazÄ±lÄ±mlarÄ±nÄ±za":10166,"ĠyazÄ±lÄ±mlarÄ±nÄ±zÄ±n":10167,"ĠyazÄ±lÄ±mlarÄ±mÄ±zdan":10168,"ĠyazÄ±lÄ±mlarÄ±nÄ±zdan":10169,"bÃ¼rÃ¼medim":10170,"bÃ¼rÃ¼medik":10171,"bÃ¼rÃ¼medin":10172,"bÃ¼rÃ¼mediniz":10173,"bÃ¼rÃ¼dÃ¼n":10174,"bÃ¼rÃ¼dÃ¼m":10175,"acÄ±n":10176,"acÄ±nÄ±n":10177,"Ġgezegene":10178,"Ġgezegenlerin":10179,"Ġgezegenlerinden":10180,"Ġgezegenlerini":10181,"Ġgezegenlerine":10182,"Ġgezegenlerinde":10183,"Ġgezegenlerinin":10184,"Ġgezegeninin":10185,"Ġgezegenini":10186,"Ġgezegeninde":10187,"Ġgezegeninden":10188,"benzerin":10189,"benzerlerin":10190,"benzerlerinden":10191,"benzerlerini":10192,"benzerlerine":10193,"benzerinin":10194,"benzerini":10195,"benzerinde":10196,"benzerine":10197,"ĠyaparÄ±z":10198,"ĠyaparsÄ±nÄ±z":10199,"ĠyaparlardÄ±":10200,"ĠyapardÄ±n":10201,"ĠyapardÄ±nÄ±z":10202,"ĠyaparmÄ±ÅŁsÄ±nÄ±z":10203,"ĠyaparmÄ±ÅŁsÄ±n":10204,"ĠyaparmÄ±ÅŁÄ±m":10205,"ĠyapardÄ±k":10206,"ĠÃ§ekiyormuÅŁ":10207,"ĠÃ§ekiyoruz":10208,"ĠÃ§ekiyordu":10209,"ĠÃ§ekiyorum":10210,"ĠÃ§ekiyordun":10211,"ĠÃ§ekiyorlarmÄ±ÅŁ":10212,"ĠÃ§ekiyormuÅŁsun":10213,"ĠÃ§ekiyormuÅŁuz":10214,"ĠÃ§ekiyormuÅŁum":10215,"ĠolurmuÅŁ":10216,"Ġoluruz":10217,"Ġolurum":10218,"ĠolurmuÅŁsun":10219,"Ġolurdum":10220,"oÄŁullarÄ±":10221,"oÄŁullarÄ±nda":10222,"oÄŁullarÄ±nÄ±n":10223,"oÄŁullarÄ±ndan":10224,"oÄŁullarÄ±na":10225,"gelecekler":10226,"ĠanahtarlarÄ±n":10227,"ĠanahtarÄ±ndan":10228,"umutsuzlar":10229,"ikizi":10230,"ikizin":10231,"ikizlerin":10232,"ikizleri":10233,"ikizlerinden":10234,"ikizlerine":10235,"ikizlerinin":10236,"ikizini":10237,"ikizinde":10238,"ikizine":10239,"ikizinden":10240,"tÃ¼ts":10241,"tÃ¼tÃ¼nÃ¼n":10242,"ĠÃ§ekeceksiniz":10243,"ĠÃ§ekecekti":10244,"ĠÃ§ekecekmiÅŁsiniz":10245,"ĠÃ§ekecekmiÅŁim":10246,"ĠÃ§ekecektin":10247,"ĠÃ§ekeceklermiÅŁ":10248,"ĠÃ§ekecektik":10249,"ĠÃ§ekecektim":10250,"bahtsÄ±zlar":10251,"abajurlarÄ±n":10252,"abajurlarÄ±nÄ±n":10253,"abajurlarÄ±ndan":10254,"abajurlarÄ±nÄ±":10255,"abajurlarÄ±na":10256,"abajurunda":10257,"abajuruna":10258,"abajurunu":10259,"abajurculuÄŁ":10260,"sunularÄ±na":10261,"yalanÄ±":10262,"yalanlarÄ±":10263,"yalanlarÄ±nda":10264,"yalanlarÄ±nÄ±n":10265,"yalanlarÄ±ndan":10266,"yalanlarÄ±na":10267,"yalanÄ±nÄ±n":10268,"yalanÄ±nÄ±":10269,"yalanÄ±na":10270,"yalanÄ±nda":10271,"koordinatÄ±":10272,"Ġsonun":10273,"ĠsonlarÄ±n":10274,"ĠsonlarÄ±nÄ±n":10275,"ĠsonlarÄ±nÄ±":10276,"ĠsonlarÄ±na":10277,"Ġsonunun":10278,"Ġsonunda":10279,"Ġsonunu":10280,"ĠsÃ¼rÃ¼mlerin":10281,"ĠsÃ¼rÃ¼mlerinden":10282,"ĠsÃ¼rÃ¼mlerinde":10283,"ĠsÃ¼rÃ¼mlerinin":10284,"ĠsÃ¼rÃ¼mÃ¼ne":10285,"ĠsÃ¼rÃ¼mÃ¼nde":10286,"masalÄ±":10287,"masallarÄ±n":10288,"masallarÄ±nda":10289,"masallarÄ±nÄ±n":10290,"masallarÄ±na":10291,"masalÄ±nÄ±n":10292,"masalÄ±nÄ±":10293,"masalÄ±na":10294,"masalÄ±nda":10295,"altÄ±nÄ±":10296,"altÄ±nlarÄ±n":10297,"altÄ±ndan":10298,"altÄ±nlarÄ±":10299,"altÄ±nlarÄ±nda":10300,"altÄ±nlarÄ±nÄ±":10301,"altÄ±nlarÄ±na":10302,"altÄ±nÄ±nÄ±n":10303,"altÄ±nÄ±nÄ±":10304,"altÄ±nÄ±ndan":10305,"altÄ±nÄ±nda":10306,"koordinatlarÄ±":10307,"koordinatlarÄ±nda":10308,"koordinatlarÄ±nÄ±n":10309,"koordinatlarÄ±na":10310,"koordinatÄ±nÄ±n":10311,"koordinatÄ±nÄ±":10312,"koordinatÄ±na":10313,"koordinatÄ±nda":10314,"ĠÃ§ekmiÅŁlerdi":10315,"ĠÃ§ekmiÅŁti":10316,"ĠÃ§ekmiÅŁmiÅŁim":10317,"ĠÃ§ekmiÅŁtik":10318,"ĠÃ§ekmiÅŁtiniz":10319,"ĠÃ§ekmiÅŁtim":10320,"soslarÄ±n":10321,"soslarÄ±":10322,"soslarÄ±nÄ±n":10323,"soslarÄ±nÄ±":10324,"soslarÄ±na":10325,"dÃ¼ÅŁÃ¼nceliler":10326,"coÅŁkusuzlar":10327,"yorgunlar":10328,"yorgunmuÅŁ":10329,"freni":10330,"frenin":10331,"frenlerin":10332,"frenleri":10333,"frenlerinden":10334,"frenlerini":10335,"frenlerine":10336,"frenlerinde":10337,"freninin":10338,"freninde":10339,"frenine":10340,"freninden":10341,"sÃ¼lÃ¼sÃ¼nÃ¼":10342,"yangÄ±nÄ±":10343,"deyimi":10344,"deyimine":10345,"Ã¼renin":10346,"yÄ±ldÄ±zÄ±":10347,"yÄ±ldÄ±zÄ±n":10348,"yÄ±ldÄ±zlarÄ±n":10349,"yÄ±ldÄ±zlarÄ±nda":10350,"yÄ±ldÄ±zlarÄ±ndan":10351,"yÄ±ldÄ±zÄ±nÄ±":10352,"yÄ±ldÄ±zÄ±na":10353,"cenazenin":10354,"kastanyeti":10355,"kastanyetin":10356,"kastanyetlerin":10357,"kastanyetlerinden":10358,"kastanyetlerini":10359,"kastanyetlerine":10360,"kastanyetlerinde":10361,"kastanyetlerinin":10362,"kastanyetinin":10363,"kastanyetini":10364,"kastanyetine":10365,"kastanyetinden":10366,"hÄ±zlÄ±y":10367,"hÄ±zlÄ±lar":10368,"sunucularÄ±ndan":10369,"sunucularÄ±nÄ±":10370,"geÃ§miÅŁin":10371,"geÃ§miÅŁlerin":10372,"geÃ§miÅŁleri":10373,"geÃ§miÅŁlerinden":10374,"geÃ§miÅŁlerini":10375,"geÃ§miÅŁlerine":10376,"geÃ§miÅŁlerinde":10377,"geÃ§miÅŁlerinin":10378,"geÃ§miÅŁinin":10379,"geÃ§miÅŁini":10380,"geÃ§miÅŁine":10381,"coÅŁkulular":10382,"moteli":10383,"motelin":10384,"motelleri":10385,"motellerinden":10386,"motellerini":10387,"motellerine":10388,"motellerinde":10389,"motellerinin":10390,"motelinin":10391,"motelini":10392,"motelinde":10393,"moteline":10394,"huninin":10395,"hunileri":10396,"masalarÄ±n":10397,"masalarÄ±":10398,"masalarÄ±nda":10399,"masalarÄ±nÄ±n":10400,"masalarÄ±ndan":10401,"masalarÄ±na":10402,"Ã¼relerinden":10403,"Ã¼relerini":10404,"Ã¼relerine":10405,"Ã¼relerinde":10406,"Ã¼relerinin":10407,"gideri":10408,"giderlerinden":10409,"giderlerini":10410,"giderlerine":10411,"giderlerinde":10412,"giderinin":10413,"giderini":10414,"giderinde":10415,"giderine":10416,"giderinden":10417,"seksiler":10418,"anasonun":10419,"anasonlarÄ±n":10420,"anasonlarÄ±":10421,"anasonlarÄ±nda":10422,"anasonlarÄ±nÄ±n":10423,"anasonlarÄ±ndan":10424,"anasonlarÄ±nÄ±":10425,"anasonlarÄ±na":10426,"anasonunun":10427,"anasonunda":10428,"anasonuna":10429,"anasonundan":10430,"huzuru":10431,"huzurun":10432,"huzurlarÄ±n":10433,"huzurlarÄ±":10434,"huzurlarÄ±nda":10435,"huzurlarÄ±nÄ±n":10436,"huzurlarÄ±nÄ±":10437,"huzurlarÄ±na":10438,"huzurunun":10439,"huzurunda":10440,"huzuruna":10441,"huzurundan":10442,"malamozu":10443,"malamozun":10444,"malamozlarÄ±n":10445,"malamozlarÄ±":10446,"malamozlarÄ±nÄ±n":10447,"malamozlarÄ±nÄ±":10448,"malamozunun":10449,"malamozunda":10450,"malamozuna":10451,"malamozunu":10452,"Ġdili":10453,"Ġdilleri":10454,"Ġdillerinden":10455,"Ġdillerini":10456,"Ġdillerine":10457,"Ġdillerinde":10458,"Ġdillerinin":10459,"Ġdilini":10460,"Ġdilinde":10461,"Ġdiline":10462,"cevizi":10463,"cevizlerin":10464,"cevizleri":10465,"cevizlerini":10466,"cevizlerine":10467,"cevizlerinin":10468,"cevizine":10469,"cevizinden":10470,"portakalÄ±n":10471,"portakallarÄ±n":10472,"portakallarÄ±nÄ±n":10473,"portakalÄ±nÄ±n":10474,"portakalÄ±nÄ±":10475,"portakalÄ±ndan":10476,"portakalÄ±na":10477,"portakalÄ±nda":10478,"basÄ±":10479,"hurinin":10480,"hurileri":10481,"ĠbaÄŁÄ±":10482,"ĠbaÄŁlarÄ±n":10483,"ĠbaÄŁlarÄ±":10484,"ĠbaÄŁlarÄ±nda":10485,"ĠbaÄŁlarÄ±nÄ±n":10486,"ĠbaÄŁlarÄ±ndan":10487,"ĠbaÄŁlarÄ±nÄ±":10488,"ĠbaÄŁÄ±nÄ±":10489,"ĠbaÄŁÄ±ndan":10490,"ĠbaÄŁÄ±na":10491,"ĠbaÄŁÄ±nda":10492,"Ġdizileri":10493,"Ã§Ä±tÄ±":10494,"Ã§Ä±tÄ±n":10495,"Ã§Ä±tlarÄ±n":10496,"Ã§Ä±tlarÄ±":10497,"Ã§Ä±tlarÄ±nda":10498,"Ã§Ä±tlarÄ±ndan":10499,"Ã§Ä±tlarÄ±nÄ±":10500,"Ã§Ä±tlarÄ±na":10501,"Ã§Ä±tÄ±nÄ±n":10502,"Ã§Ä±tÄ±ndan":10503,"Ã§Ä±tÄ±na":10504,"hamsteri":10505,"patronu":10506,"patronun":10507,"patronlarÄ±n":10508,"patronlarÄ±":10509,"patronlarÄ±nda":10510,"patronlarÄ±nÄ±n":10511,"patronlarÄ±nÄ±":10512,"patronlarÄ±na":10513,"patronunun":10514,"patronuna":10515,"tutulmanÄ±n":10516,"sansarÄ±":10517,"sansarÄ±n":10518,"sansarlarÄ±n":10519,"sansarlarÄ±nda":10520,"sansarlarÄ±nÄ±n":10521,"sansarlarÄ±ndan":10522,"sansarlarÄ±nÄ±":10523,"sansarlarÄ±na":10524,"sansarÄ±nÄ±n":10525,"sansarÄ±nÄ±":10526,"sansarÄ±ndan":10527,"sansarÄ±na":10528,"sansarÄ±nda":10529,"filozofun":10530,"filozoflarÄ±n":10531,"filozoflarÄ±":10532,"filozoflarÄ±nda":10533,"filozoflarÄ±nÄ±n":10534,"filozoflarÄ±nÄ±":10535,"filozofunun":10536,"filozofuna":10537,"filozofunu":10538,"filozofundan":10539,"doktrini":10540,"lezyonun":10541,"lezyonlarÄ±":10542,"lezyonlarÄ±nda":10543,"lezyonlarÄ±nÄ±n":10544,"lezyonlarÄ±ndan":10545,"lezyonlarÄ±nÄ±":10546,"lezyonunda":10547,"lezyonuna":10548,"lezyonunu":10549,"lezyonundan":10550,"saÄŁrÄ±nÄ±n":10551,"parÃ§alanmanÄ±n":10552,"treni":10553,"trenleri":10554,"trenlerinden":10555,"trenlerini":10556,"trenlerinin":10557,"treninin":10558,"trenini":10559,"trenine":10560,"zÄ±rtgeli":10561,"zÄ±rtgelin":10562,"zÄ±rtgellerin":10563,"zÄ±rtgelleri":10564,"zÄ±rtgellerinden":10565,"zÄ±rtgellerini":10566,"zÄ±rtgellerine":10567,"zÄ±rtgellerinde":10568,"zÄ±rtgellerinin":10569,"zÄ±rtgelinin":10570,"zÄ±rtgelini":10571,"zÄ±rtgelinde":10572,"zÄ±rtgelinden":10573,"Ã¼rÃ¼nÃ¼":10574,"Ã¼rÃ¼nlerin":10575,"Ã¼rÃ¼nleri":10576,"Ã¼rÃ¼nlerinden":10577,"Ã¼rÃ¼nlerine":10578,"Ã¼rÃ¼nlerinde":10579,"Ã¼rÃ¼nlerinin":10580,"Ã¼rÃ¼nÃ¼nÃ¼":10581,"Ã¼rÃ¼nÃ¼nde":10582,"ateÅŁi":10583,"ateÅŁlerin":10584,"ateÅŁleri":10585,"ateÅŁlerinden":10586,"ateÅŁlerini":10587,"ateÅŁlerine":10588,"ateÅŁlerinde":10589,"ateÅŁlerinin":10590,"ateÅŁinin":10591,"ateÅŁini":10592,"ateÅŁinde":10593,"ateÅŁine":10594,"kolalarÄ±":10595,"kolalarÄ±nda":10596,"kolalarÄ±nÄ±n":10597,"kolalarÄ±nÄ±":10598,"kolalarÄ±na":10599,"tandÄ±rÄ±":10600,"tandÄ±rlarÄ±n":10601,"tandÄ±rlarÄ±":10602,"tandÄ±rlarÄ±nda":10603,"tandÄ±rlarÄ±nÄ±n":10604,"tandÄ±rlarÄ±ndan":10605,"tandÄ±rlarÄ±nÄ±":10606,"tandÄ±rÄ±nÄ±n":10607,"tandÄ±rÄ±nÄ±":10608,"tandÄ±rÄ±ndan":10609,"cemaati":10610,"cemaatleri":10611,"cemaatlerinden":10612,"cemaatlerini":10613,"cemaatlerine":10614,"cemaatlerinde":10615,"cemaatlerinin":10616,"cemaatini":10617,"cemaatinde":10618,"cemaatine":10619,"cemaatinden":10620,"mÃ¼stahdemi":10621,"motorini":10622,"bandajÄ±":10623,"bandajÄ±n":10624,"bandajlarÄ±":10625,"bandajlarÄ±nda":10626,"bandajlarÄ±nÄ±n":10627,"bandajlarÄ±ndan":10628,"bandajlarÄ±nÄ±":10629,"bandajlarÄ±na":10630,"bandajÄ±nÄ±":10631,"bandajÄ±na":10632,"bandajÄ±nda":10633,"Musevinin":10634,"Musevileri":10635,"vampiri":10636,"vampirin":10637,"vampirlerin":10638,"vampirleri":10639,"vampirlerinden":10640,"vampirlerine":10641,"vampirlerinde":10642,"vampirlerinin":10643,"vampirinde":10644,"ĠsÄ±nÄ±fÄ±":10645,"ĠsÄ±nÄ±flarÄ±n":10646,"ĠsÄ±nÄ±flarÄ±":10647,"ĠsÄ±nÄ±flarÄ±nÄ±n":10648,"ĠsÄ±nÄ±flarÄ±ndan":10649,"ĠsÄ±nÄ±flarÄ±nÄ±":10650,"ĠsÄ±nÄ±flarÄ±na":10651,"ĠsÄ±nÄ±fÄ±nÄ±":10652,"ĠsÄ±nÄ±fÄ±ndan":10653,"ĠsÄ±nÄ±fÄ±na":10654,"izolasyonu":10655,"izolasyonun":10656,"izolasyonlarÄ±n":10657,"izolasyonlarÄ±":10658,"izolasyonlarÄ±nÄ±n":10659,"izolasyonlarÄ±ndan":10660,"izolasyonlarÄ±nÄ±":10661,"izolasyonunun":10662,"izolasyonunda":10663,"izolasyonuna":10664,"izolasyonunu":10665,"ĠhaÃ§Ä±":10666,"alyanÄ±":10667,"alyanlarÄ±n":10668,"alyanlarÄ±":10669,"alyanlarÄ±nÄ±n":10670,"alyanlarÄ±ndan":10671,"alyanlarÄ±nÄ±":10672,"alyanÄ±nÄ±n":10673,"alyanÄ±nÄ±":10674,"alyanÄ±ndan":10675,"alyanÄ±na":10676,"alyanÄ±nda":10677,"kemanÄ±":10678,"kemanlarÄ±n":10679,"kemanlarÄ±":10680,"kemanlarÄ±ndan":10681,"kemanlarÄ±nÄ±":10682,"kemanlarÄ±na":10683,"kemanÄ±nÄ±n":10684,"kemanÄ±nÄ±":10685,"kemanÄ±ndan":10686,"kemanÄ±na":10687,"kemanÄ±nda":10688,"eÅŁofmanÄ±":10689,"eÅŁofmanÄ±n":10690,"eÅŁofmanlarÄ±n":10691,"eÅŁofmanlarÄ±ndan":10692,"eÅŁofmanlarÄ±na":10693,"eÅŁofmanÄ±nÄ±":10694,"eÅŁofmanÄ±ndan":10695,"eÅŁofmanÄ±na":10696,"kÃ¼rkleri":10697,"kÃ¼rklerinden":10698,"kÃ¼rklerini":10699,"kÃ¼rkÃ¼nÃ¼n":10700,"kÃ¼rkenin":10701,"kÃ¼rkÃ¼ne":10702,"ÅŁafaÄŁÄ±":10703,"mÄ±sÄ±rÄ±":10704,"mÄ±sÄ±rÄ±n":10705,"mÄ±sÄ±rlarÄ±n":10706,"mÄ±sÄ±rlarÄ±nda":10707,"mÄ±sÄ±rlarÄ±nÄ±n":10708,"mÄ±sÄ±rlarÄ±nÄ±":10709,"mÄ±sÄ±rlarÄ±na":10710,"mÄ±sÄ±rÄ±nÄ±n":10711,"mÄ±sÄ±rÄ±ndan":10712,"mÄ±sÄ±rÄ±na":10713,"kasidenin":10714,"elmalarÄ±n":10715,"elmalarÄ±":10716,"elmalarÄ±nda":10717,"elmalarÄ±nÄ±":10718,"ongunu":10719,"ongunlarÄ±n":10720,"ongunlarÄ±":10721,"ongunlarÄ±nda":10722,"ongunlarÄ±nÄ±n":10723,"ongunlarÄ±ndan":10724,"ongunlarÄ±na":10725,"ongununda":10726,"ongununa":10727,"ongununu":10728,"ongunundan":10729,"hamÄ±zlarÄ±n":10730,"hamÄ±zlarÄ±":10731,"hamÄ±zlarÄ±nda":10732,"hamÄ±zlarÄ±ndan":10733,"hamÄ±zÄ±nÄ±n":10734,"hamÄ±zÄ±nÄ±":10735,"hamÄ±zÄ±ndan":10736,"hamÄ±zÄ±na":10737,"hamÄ±zÄ±nda":10738,"Ġsorunun":10739,"kÄ±yameti":10740,"gÃ¼rzÃ¼n":10741,"gÃ¼rzleri":10742,"gÃ¼rzlerinden":10743,"gÃ¼rzlerini":10744,"gÃ¼rzlerine":10745,"gÃ¼rzlerinde":10746,"gÃ¼rzÃ¼nÃ¼n":10747,"gÃ¼rzÃ¼ne":10748,"gÃ¼rzÃ¼nÃ¼":10749,"gÃ¼rzÃ¼nde":10750,"gÃ¼rzÃ¼nden":10751,"omletin":10752,"omletlerin":10753,"omletleri":10754,"omletlerini":10755,"omletlerine":10756,"omletlerinde":10757,"omletlerinin":10758,"omletini":10759,"omletinde":10760,"omletine":10761,"omletinden":10762,"ÅŁuuru":10763,"ÅŁuurun":10764,"ÅŁuurlarÄ±nda":10765,"ÅŁuurlarÄ±ndan":10766,"ÅŁuurlarÄ±nÄ±":10767,"ÅŁuurunda":10768,"ÅŁuuruna":10769,"ÅŁuurundan":10770,"girdabÄ±":10771,"vapurun":10772,"vapurlarÄ±n":10773,"vapurlarÄ±nda":10774,"vapurlarÄ±nÄ±n":10775,"vapurlarÄ±ndan":10776,"vapurlarÄ±nÄ±":10777,"vapurlarÄ±na":10778,"vapurunun":10779,"vapurunda":10780,"vapuruna":10781,"vapurundan":10782,"vaziyeti":10783,"vaziyetin":10784,"vaziyetlerin":10785,"vaziyetlerini":10786,"vaziyetlerine":10787,"vaziyetlerinde":10788,"vaziyetlerinin":10789,"vaziyetini":10790,"vaziyetine":10791,"vaziyetinden":10792,"anafazÄ±":10793,"anafazlarÄ±n":10794,"anafazlarÄ±":10795,"anafazlarÄ±ndan":10796,"anafazlarÄ±nÄ±":10797,"anafazlarÄ±na":10798,"anafazÄ±nÄ±":10799,"anafazÄ±ndan":10800,"anafazÄ±na":10801,"anafazÄ±nda":10802,"Ġkedilerinden":10803,"Ġkedilerini":10804,"Ġkedilerine":10805,"Ġkedilerinin":10806,"seÃ§meni":10807,"seÃ§menleri":10808,"seÃ§menlerinde":10809,"seÃ§menlerinin":10810,"seÃ§meninin":10811,"seÃ§menini":10812,"seÃ§meninden":10813,"kefiri":10814,"kefirleri":10815,"kefirlerinden":10816,"kefirlerine":10817,"kefirlerinde":10818,"kefirlerinin":10819,"kefirinin":10820,"kefirini":10821,"kefirinde":10822,"kefirine":10823,"kefirinden":10824,"aÄŁaÃ§kakanÄ±":10825,"aÄŁaÃ§kakanÄ±n":10826,"aÄŁaÃ§kakanlarÄ±n":10827,"aÄŁaÃ§kakanlarÄ±":10828,"aÄŁaÃ§kakanlarÄ±nda":10829,"aÄŁaÃ§kakanlarÄ±nÄ±n":10830,"aÄŁaÃ§kakanlarÄ±ndan":10831,"aÄŁaÃ§kakanlarÄ±nÄ±":10832,"aÄŁaÃ§kakanlarÄ±na":10833,"aÄŁaÃ§kakanÄ±nÄ±n":10834,"aÄŁaÃ§kakanÄ±ndan":10835,"aÄŁaÃ§kakanÄ±na":10836,"aÄŁaÃ§kakanÄ±nda":10837,"Ġintegralleri":10838,"Ġintegrallerinden":10839,"Ġintegrallerini":10840,"Ġintegrallerinde":10841,"Ġintegralinin":10842,"Ġintegralini":10843,"Ġintegralinde":10844,"Ġintegralinden":10845,"burnu":10846,"fakirin":10847,"fakirlerin":10848,"fakirleri":10849,"fakirlerinden":10850,"fakirlerini":10851,"fakirlerine":10852,"fakirlerinde":10853,"fakirlerinin":10854,"fakirini":10855,"fakirinde":10856,"fakirine":10857,"paÅŁanÄ±n":10858,"prensin":10859,"prensinden":10860,"prensi":10861,"prensine":10862,"prensinin":10863,"prensinde":10864,"Ã§avuÅŁu":10865,"anketi":10866,"anketlerin":10867,"anketleri":10868,"anketlerine":10869,"anketlerinde":10870,"anketlerinin":10871,"anketinin":10872,"anketini":10873,"anketinde":10874,"anketine":10875,"anketinden":10876,"kalÄ±bÄ±":10877,"dilberi":10878,"dilberin":10879,"dilberlerin":10880,"dilberleri":10881,"dilberlerini":10882,"dilberlerinin":10883,"dilberinin":10884,"dilberini":10885,"dilberinde":10886,"dilberine":10887,"dilberinden":10888,"kaplanlarÄ±nÄ±n":10889,"kaplanlarÄ±na":10890,"kaplanÄ±nÄ±n":10891,"kaplanÄ±ndan":10892,"nefretin":10893,"nefretlerin":10894,"nefretleri":10895,"nefretlerini":10896,"nefretlerine":10897,"nefretlerinde":10898,"nefretlerinin":10899,"nefretinin":10900,"nefretini":10901,"nefretinde":10902,"nefretinden":10903,"kantini":10904,"kantinin":10905,"kantinleri":10906,"kantinlerinden":10907,"kantinlerini":10908,"kantinlerine":10909,"kantinlerinde":10910,"kantinlerinin":10911,"kantinini":10912,"kantininde":10913,"Ġsaati":10914,"Ġsaatlerin":10915,"Ġsaatleri":10916,"Ġsaatlerine":10917,"Ġsaatlerinde":10918,"Ġsaatlerinin":10919,"Ġsaatinin":10920,"Ġsaatinde":10921,"Ġsaatine":10922,"Ġsaatinden":10923,"sakÄ±zÄ±":10924,"sakÄ±zÄ±n":10925,"sakÄ±zlarÄ±n":10926,"sakÄ±zlarÄ±nda":10927,"sakÄ±zlarÄ±nÄ±n":10928,"sakÄ±zlarÄ±ndan":10929,"sakÄ±zlarÄ±na":10930,"sakÄ±zÄ±nÄ±":10931,"sakÄ±zÄ±ndan":10932,"sakÄ±zÄ±nda":10933,"Ã§adÄ±rÄ±n":10934,"Ã§adÄ±rlarÄ±n":10935,"Ã§adÄ±rlarÄ±":10936,"Ã§adÄ±rlarÄ±nda":10937,"Ã§adÄ±rlarÄ±nÄ±n":10938,"Ã§adÄ±rlarÄ±nÄ±":10939,"Ã§adÄ±rlarÄ±na":10940,"Ã§adÄ±rÄ±nÄ±n":10941,"Ã§adÄ±rÄ±na":10942,"ruju":10943,"rujun":10944,"rujlarÄ±n":10945,"rujlarÄ±":10946,"rujlarÄ±nda":10947,"rujlarÄ±nÄ±n":10948,"rujlarÄ±ndan":10949,"rujunda":10950,"rujuna":10951,"baÅŁrahi":10952,"karakolu":10953,"karakolun":10954,"karakollarÄ±n":10955,"karakollarÄ±":10956,"karakollarÄ±nÄ±n":10957,"karakollarÄ±ndan":10958,"karakollarÄ±nÄ±":10959,"karakolunun":10960,"karakolunda":10961,"karakoluna":10962,"karakolundan":10963,"kÃ¶ygÃ¶Ã§Ã¼renlerin":10964,"kÃ¶ygÃ¶Ã§Ã¼renlerini":10965,"kÃ¶ygÃ¶Ã§Ã¼renlerinde":10966,"kÃ¶ygÃ¶Ã§Ã¼renlerinin":10967,"kÃ¶ygÃ¶Ã§Ã¼reninin":10968,"kÃ¶ygÃ¶Ã§Ã¼renini":10969,"kÃ¶ygÃ¶Ã§Ã¼reninde":10970,"kÃ¶ygÃ¶Ã§Ã¼renine":10971,"dinozorlarÄ±n":10972,"dinozorlarÄ±nda":10973,"dinozorlarÄ±nÄ±n":10974,"dinozorlarÄ±na":10975,"dinozorunda":10976,"dinozoruna":10977,"dinozorundan":10978,"sÃ¼spansuvarÄ±":10979,"sÃ¼spansuvarlarÄ±":10980,"sÃ¼spansuvarlarÄ±nda":10981,"sÃ¼spansuvarlarÄ±nÄ±n":10982,"sÃ¼spansuvarlarÄ±nÄ±":10983,"sÃ¼spansuvarlarÄ±na":10984,"sÃ¼spansuvarÄ±nÄ±n":10985,"sÃ¼spansuvarÄ±nÄ±":10986,"sÃ¼spansuvarÄ±na":10987,"sÃ¼spansuvarÄ±nda":10988,"alameti":10989,"keyi":10990,"dÃ¼ÅŁmanÄ±":10991,"dÃ¼ÅŁmanÄ±n":10992,"dÃ¼ÅŁmanlarÄ±n":10993,"dÃ¼ÅŁmanlarÄ±":10994,"dÃ¼ÅŁmanlarÄ±nda":10995,"dÃ¼ÅŁmanlarÄ±nÄ±n":10996,"dÃ¼ÅŁmanlarÄ±nÄ±":10997,"dÃ¼ÅŁmanÄ±nÄ±n":10998,"dÃ¼ÅŁmanÄ±nÄ±":10999,"dÃ¼ÅŁmanÄ±ndan":11000,"dÃ¼ÅŁmanÄ±nda":11001,"kÃ¶mÃ¼n":11002,"kÃ¶mleri":11003,"kÃ¶mlerine":11004,"kÃ¶mlerinde":11005,"kÃ¶mlerinin":11006,"kÃ¶mÃ¼nÃ¼n":11007,"kÃ¶mÃ¼ne":11008,"kÃ¶mÃ¼nÃ¼":11009,"kÃ¶mÃ¼nde":11010,"pedleri":11011,"pedlerini":11012,"pedlerine":11013,"pedlerinde":11014,"pedlerinin":11015,"ĠhaÃ§Ä±n":11016,"ĠhaÃ§larÄ±nda":11017,"ĠhaÃ§larÄ±na":11018,"ĠhaÃ§Ä±nÄ±n":11019,"ĠhaÃ§Ä±nÄ±":11020,"ĠhaÃ§Ä±ndan":11021,"ĠhaÃ§Ä±na":11022,"ĠhaÃ§Ä±nda":11023,"beyti":11024,"idarenin":11025,"teklifi":11026,"karidesinden":11027,"karidesi":11028,"karidesinde":11029,"karidesini":11030,"ĠÃ§ekermiÅŁ":11031,"ĠÃ§ekerdi":11032,"ĠÃ§ekeriz":11033,"ĠÃ§ekersin":11034,"ĠÃ§ekersiniz":11035,"ĠÃ§ekerdin":11036,"ĠÃ§ekerdiniz":11037,"ĠÃ§ekerlerdi":11038,"ĠÃ§ekermiÅŁsiniz":11039,"ĠÃ§ekermiÅŁim":11040,"ĠÃ§ekermiÅŁiz":11041,"ĠÃ§ekerlermiÅŁ":11042,"ĠÃ§ekerdim":11043,"evreni":11044,"evrenlerin":11045,"evrenlerinden":11046,"evrenlerini":11047,"evrenlerine":11048,"evrenlerinde":11049,"evreninin":11050,"evrenini":11051,"evreninde":11052,"evrenine":11053,"baytarÄ±":11054,"baytarÄ±n":11055,"baytarlarÄ±n":11056,"baytarlarÄ±nÄ±n":11057,"baytarlarÄ±ndan":11058,"baytarÄ±nÄ±n":11059,"baytarÄ±ndan":11060,"baytarÄ±nda":11061,"cihazÄ±":11062,"cihazÄ±n":11063,"cihazlarÄ±n":11064,"cihazlarÄ±nda":11065,"cihazlarÄ±nÄ±n":11066,"cihazlarÄ±nÄ±":11067,"cihazÄ±nÄ±n":11068,"cihazÄ±na":11069,"maydanozu":11070,"maydanozlarÄ±n":11071,"maydanozlarÄ±":11072,"maydanozlarÄ±nda":11073,"maydanozlarÄ±nÄ±n":11074,"maydanozlarÄ±na":11075,"maydanozunun":11076,"maydanozunu":11077,"maydanozundan":11078,"Ġfikri":11079,"efsunlarÄ±n":11080,"efsunlarÄ±":11081,"efsunlarÄ±nda":11082,"efsunlarÄ±nÄ±n":11083,"efsunlarÄ±na":11084,"efsununun":11085,"efsununda":11086,"efsununu":11087,"efsunundan":11088,"kardeÅŁi":11089,"kardeÅŁlerin":11090,"kardeÅŁleri":11091,"kardeÅŁlerinden":11092,"kardeÅŁlerini":11093,"kardeÅŁlerine":11094,"kardeÅŁlerinin":11095,"kardeÅŁinin":11096,"kardeÅŁini":11097,"kardeÅŁinde":11098,"kardeÅŁine":11099,"sinematografÄ±":11100,"sinematograflarÄ±":11101,"sinematograflarÄ±nÄ±n":11102,"sinematograflarÄ±ndan":11103,"sinematografÄ±nÄ±n":11104,"sinematografÄ±ndan":11105,"sinematografÄ±na":11106,"sinematografÄ±nda":11107,"aynasÄ±zÄ±":11108,"aynasÄ±zlarÄ±n":11109,"aynasÄ±zlarÄ±nda":11110,"aynasÄ±zlarÄ±nÄ±n":11111,"aynasÄ±zlarÄ±nÄ±":11112,"aynasÄ±zlarÄ±na":11113,"aynasÄ±zÄ±nÄ±n":11114,"aynasÄ±zÄ±nÄ±":11115,"aynasÄ±zÄ±ndan":11116,"aynasÄ±zÄ±na":11117,"aynasÄ±zÄ±nda":11118,"Ã¼Ã§Ã¼zÃ¼":11119,"Ã¼Ã§Ã¼zlerin":11120,"Ã¼Ã§Ã¼zleri":11121,"Ã¼Ã§Ã¼zlerinden":11122,"Ã¼Ã§Ã¼zlerini":11123,"Ã¼Ã§Ã¼zlerine":11124,"Ã¼Ã§Ã¼zlerinde":11125,"Ã¼Ã§Ã¼zlerinin":11126,"Ã¼Ã§Ã¼zÃ¼nÃ¼":11127,"Ã¼Ã§Ã¼zÃ¼nde":11128,"Ã¼Ã§Ã¼zÃ¼nden":11129,"Ã¼mitliler":11130,"fotoÄŁrafÄ±":11131,"fotoÄŁrafÄ±n":11132,"fotoÄŁraflarÄ±nda":11133,"fotoÄŁraflarÄ±nÄ±n":11134,"fotoÄŁraflarÄ±ndan":11135,"fotoÄŁrafÄ±nÄ±n":11136,"fotoÄŁrafÄ±ndan":11137,"fotoÄŁrafÄ±na":11138,"fotoÄŁrafÄ±nda":11139,"jokeyin":11140,"jokeylerin":11141,"jokeyleri":11142,"jokeylerinden":11143,"jokeylerine":11144,"jokeylerinin":11145,"ÅŁifonyerin":11146,"ÅŁifonyerlerin":11147,"ÅŁifonyerlerinden":11148,"ÅŁifonyerlerine":11149,"ÅŁifonyerlerinin":11150,"ÅŁifonyerinin":11151,"ÅŁifonyerini":11152,"ÅŁifonyerinde":11153,"ÅŁifonyerine":11154,"kozmonotu":11155,"kozmonotlarÄ±n":11156,"kozmonotlarÄ±":11157,"kozmonotlarÄ±nda":11158,"kozmonotlarÄ±ndan":11159,"kozmonotlarÄ±nÄ±":11160,"kozmonotlarÄ±na":11161,"kozmonotunun":11162,"kozmonotunda":11163,"kozmonotuna":11164,"kozmonotunu":11165,"kisti":11166,"kistin":11167,"kistlerin":11168,"kistleri":11169,"kistlerinden":11170,"kistlerini":11171,"kistlerine":11172,"kistlerinde":11173,"kistinin":11174,"kistini":11175,"kistinde":11176,"kistine":11177,"masallarÄ±":11178,"katilin":11179,"katilleri":11180,"katillerinden":11181,"katillerini":11182,"katillerine":11183,"katillerinde":11184,"katillerinin":11185,"katilinin":11186,"katilini":11187,"katilinde":11188,"katiline":11189,"kirmenin":11190,"kirmenlerin":11191,"kirmenleri":11192,"kirmenlerine":11193,"kirmenlerinde":11194,"kirmenlerinin":11195,"kirmeninin":11196,"kirmenini":11197,"kirmeninden":11198,"yaÄŁmurlarÄ±n":11199,"yaÄŁmurlarÄ±nda":11200,"yaÄŁmurlarÄ±nÄ±n":11201,"yaÄŁmurlarÄ±ndan":11202,"yaÄŁmurlarÄ±nÄ±":11203,"yaÄŁmurlarÄ±na":11204,"yaÄŁmuruna":11205,"yaÄŁmurunu":11206,"samurun":11207,"samurlarÄ±":11208,"samurlarÄ±nda":11209,"samurlarÄ±nÄ±n":11210,"samurlarÄ±ndan":11211,"samurlarÄ±nÄ±":11212,"samurunun":11213,"rimelin":11214,"rimellerin":11215,"rimellerinden":11216,"rimellerini":11217,"rimellerine":11218,"rimeline":11219,"rimelinden":11220,"ĠÅŁoku":11221,"ĠÅŁoklarÄ±n":11222,"ĠÅŁoklarÄ±":11223,"ĠÅŁoklarÄ±nÄ±n":11224,"ĠÅŁoklarÄ±na":11225,"ĠÅŁokunun":11226,"ĠÅŁokuna":11227,"ĠÅŁokundan":11228,"Ġiskeleti":11229,"uygulamalarÄ±n":11230,"uygulamalarÄ±":11231,"uygulamalarÄ±nda":11232,"uygulamalarÄ±nÄ±n":11233,"uygulamalarÄ±ndan":11234,"uygulamalarÄ±na":11235,"gizemliler":11236,"Ã§avuÅŁlarÄ±n":11237,"Ã§avuÅŁlarÄ±":11238,"Ã§avuÅŁlarÄ±nÄ±n":11239,"Ã§avuÅŁlarÄ±ndan":11240,"Ã§avuÅŁlarÄ±na":11241,"Ã§avuÅŁunun":11242,"Ã§avuÅŁunda":11243,"Ã§avuÅŁunu":11244,"Ã§avuÅŁundan":11245,"akrobatÄ±":11246,"akrobatÄ±n":11247,"akrobatlarÄ±n":11248,"akrobatlarÄ±":11249,"akrobatlarÄ±nda":11250,"akrobatlarÄ±nÄ±n":11251,"akrobatlarÄ±ndan":11252,"akrobatÄ±nÄ±":11253,"akrobatÄ±ndan":11254,"strÃ¼ktÃ¼rÃ¼":11255,"strÃ¼ktÃ¼rÃ¼n":11256,"strÃ¼ktÃ¼rlerin":11257,"strÃ¼ktÃ¼rleri":11258,"strÃ¼ktÃ¼rlerinden":11259,"strÃ¼ktÃ¼rlerini":11260,"strÃ¼ktÃ¼rlerinde":11261,"strÃ¼ktÃ¼rlerinin":11262,"strÃ¼ktÃ¼rÃ¼ne":11263,"strÃ¼ktÃ¼rÃ¼nÃ¼":11264,"strÃ¼ktÃ¼rÃ¼nden":11265,"istirahatÄ±n":11266,"istirahatlarÄ±n":11267,"istirahatlarÄ±nda":11268,"istirahatlarÄ±nÄ±n":11269,"istirahatlarÄ±nÄ±":11270,"istirahatlarÄ±na":11271,"istirahatÄ±nÄ±n":11272,"istirahatÄ±ndan":11273,"istirahatÄ±na":11274,"evcikkÄ±ranÄ±":11275,"evcikkÄ±ranÄ±n":11276,"evcikkÄ±ranlarÄ±n":11277,"evcikkÄ±ranlarÄ±nda":11278,"evcikkÄ±ranlarÄ±nÄ±n":11279,"evcikkÄ±ranlarÄ±ndan":11280,"evcikkÄ±ranlarÄ±nÄ±":11281,"evcikkÄ±ranÄ±nÄ±n":11282,"evcikkÄ±ranÄ±nÄ±":11283,"evcikkÄ±ranÄ±nda":11284,"irkeyeli":11285,"irkeyelin":11286,"irkeyellerin":11287,"irkeyelleri":11288,"irkeyellerinden":11289,"irkeyellerine":11290,"irkeyellerinin":11291,"irkeyelinin":11292,"irkeyelini":11293,"irkeyelinde":11294,"boksundan":11295,"poleni":11296,"polenlerinden":11297,"polenlerini":11298,"polenlerine":11299,"poleninde":11300,"poleninden":11301,"yutaÄŁÄ±":11302,"Ã§akallarÄ±":11303,"eniÅŁtenin":11304,"sebebi":11305,"mezuniyetlerin":11306,"mezuniyetleri":11307,"mezuniyetlerini":11308,"mezuniyetlerine":11309,"mezuniyetlerinde":11310,"mezuniyetinin":11311,"mezuniyetinden":11312,"karnelerin":11313,"karneleri":11314,"karnelerinden":11315,"karnelerini":11316,"karnelerine":11317,"karnelerinde":11318,"karnelerinin":11319,"sÃ¼rgÃ¼nÃ¼":11320,"sÃ¼rgÃ¼nlerin":11321,"sÃ¼rgÃ¼nleri":11322,"sÃ¼rgÃ¼nlerinden":11323,"sÃ¼rgÃ¼nlerini":11324,"sÃ¼rgÃ¼nlerine":11325,"sÃ¼rgÃ¼nlerinin":11326,"sÃ¼rgÃ¼nÃ¼ne":11327,"sÃ¼rgÃ¼nÃ¼nÃ¼":11328,"sÃ¼rgÃ¼nÃ¼nden":11329,"dikdÃ¶rtgeni":11330,"dikdÃ¶rtgenin":11331,"dikdÃ¶rtgenlerin":11332,"dikdÃ¶rtgenlerinden":11333,"dikdÃ¶rtgenlerini":11334,"dikdÃ¶rtgenlerinde":11335,"dikdÃ¶rtgenlerinin":11336,"dikdÃ¶rtgeninin":11337,"dikdÃ¶rtgenini":11338,"dikdÃ¶rtgeninden":11339,"radarÄ±":11340,"radarlarÄ±n":11341,"radarlarÄ±":11342,"radarlarÄ±nda":11343,"radarlarÄ±nÄ±n":11344,"radarlarÄ±nÄ±":11345,"radarÄ±nÄ±n":11346,"radarÄ±nÄ±":11347,"radarÄ±ndan":11348,"radarÄ±na":11349,"karadulun":11350,"karadullarÄ±n":11351,"karadullarÄ±ndan":11352,"karadullarÄ±nÄ±":11353,"karadullarÄ±na":11354,"karadulunun":11355,"karadulunda":11356,"karaduluna":11357,"karadulunu":11358,"karadulundan":11359,"papirÃ¼sÃ¼nÃ¼":11360,"papirÃ¼sÃ¼ne":11361,"papirÃ¼sÃ¼nÃ¼n":11362,"papyonlarÄ±nÄ±n":11363,"papyonlarÄ±ndan":11364,"papyonlarÄ±nÄ±":11365,"papyonlarÄ±na":11366,"papyonunun":11367,"papyonunda":11368,"papyonuna":11369,"kravatÄ±":11370,"garsonu":11371,"garsonlarÄ±ndan":11372,"garsonlarÄ±na":11373,"garsonunda":11374,"garsonuna":11375,"garsonunu":11376,"ÅŁarkÄ±n":11377,"ÅŁarklarÄ±":11378,"ÅŁarklarÄ±nda":11379,"ÅŁarklarÄ±ndan":11380,"ÅŁarklarÄ±nÄ±":11381,"ÅŁarklarÄ±na":11382,"ÅŁarkÄ±nÄ±n":11383,"ÅŁarkÄ±nÄ±":11384,"ÅŁarkÄ±ndan":11385,"ÅŁarkÄ±na":11386,"ÅŁarkÄ±nda":11387,"cenazelerin":11388,"cenazelerinden":11389,"cenazelerini":11390,"cenazelerine":11391,"cenazelerinde":11392,"cenazelerinin":11393,"haÅŁefelerin":11394,"haÅŁefeleri":11395,"haÅŁefelerini":11396,"haÅŁefelerine":11397,"haÅŁefelerinde":11398,"haÅŁefelerinin":11399,"uÃ§urtmalarÄ±n":11400,"uÃ§urtmalarÄ±":11401,"uÃ§urtmalarÄ±nÄ±n":11402,"uÃ§urtmalarÄ±ndan":11403,"uÃ§urtmalarÄ±nÄ±":11404,"uÃ§urtmalarÄ±na":11405,"Ã§alÄ±ÅŁmalarÄ±n":11406,"Ã§alÄ±ÅŁmalarÄ±":11407,"Ã§alÄ±ÅŁmalarÄ±ndan":11408,"Ã§alÄ±ÅŁmalarÄ±nÄ±":11409,"planeti":11410,"planetin":11411,"planetlerinden":11412,"planetinin":11413,"planetini":11414,"planetinde":11415,"planetine":11416,"planetinden":11417,"marangozu":11418,"marangozlarÄ±":11419,"marangozlarÄ±nÄ±":11420,"marangozlarÄ±na":11421,"marangozunun":11422,"marangozunu":11423,"marangozundan":11424,"albatrosun":11425,"albatrosundan":11426,"albatrosuna":11427,"albatrosunda":11428,"albatrosunun":11429,"ambulansÄ±n":11430,"ambulansÄ±na":11431,"ambulansÄ±ndan":11432,"hissin":11433,"hislerin":11434,"hissinden":11435,"hisleri":11436,"hislerinden":11437,"hislerini":11438,"hislerinde":11439,"hissinin":11440,"hissini":11441,"koyun":11442,"koylarÄ±":11443,"koylarÄ±ndan":11444,"koylarÄ±nÄ±":11445,"koylarÄ±na":11446,"koyunda":11447,"koyuna":11448,"koyunu":11449,"Ã§amurun":11450,"Ã§amurlarÄ±nÄ±n":11451,"Ã§amurlarÄ±ndan":11452,"Ã§amurlarÄ±nÄ±":11453,"Ã§amurlarÄ±na":11454,"Ã§amurunun":11455,"Ã§amuruna":11456,"Ã§amurundan":11457,"Ã§algÄ±cÄ±mÄ±z":11458,"Ã§algÄ±cÄ±larÄ±nda":11459,"Ã§algÄ±cÄ±larÄ±ndan":11460,"Ã§algÄ±cÄ±mÄ±zÄ±":11461,"Ã§algÄ±cÄ±mÄ±zÄ±n":11462,"Ã§algÄ±cÄ±mÄ±zdan":11463,"Ã§algÄ±cÄ±mÄ±za":11464,"Ã§algÄ±cÄ±mÄ±zda":11465,"blogcularÄ±":11466,"blogcularÄ±nda":11467,"blogcularÄ±nÄ±n":11468,"blogcularÄ±ndan":11469,"blogcularÄ±nÄ±":11470,"blogcularÄ±na":11471,"dÃ¼ldÃ¼lÃ¼":11472,"dÃ¼ldÃ¼llerin":11473,"dÃ¼ldÃ¼lleri":11474,"dÃ¼ldÃ¼llerinde":11475,"dÃ¼ldÃ¼llerinin":11476,"dÃ¼ldÃ¼lÃ¼ne":11477,"dÃ¼ldÃ¼lÃ¼nÃ¼":11478,"dÃ¼ldÃ¼lÃ¼nde":11479,"dÃ¼ldÃ¼lÃ¼nden":11480,"hatÄ±rÄ±":11481,"hatÄ±rÄ±n":11482,"hatÄ±rlarÄ±n":11483,"hatÄ±rlarÄ±nda":11484,"hatÄ±rlarÄ±nÄ±n":11485,"hatÄ±rÄ±nÄ±":11486,"hatÄ±rÄ±ndan":11487,"hatÄ±rÄ±na":11488,"hatÄ±rÄ±nda":11489,"yangÄ±nlarÄ±n":11490,"yangÄ±nlarÄ±":11491,"yangÄ±nlarÄ±nda":11492,"yangÄ±nlarÄ±nÄ±n":11493,"yangÄ±nlarÄ±ndan":11494,"yangÄ±nlarÄ±nÄ±":11495,"parÃ§alanmalarÄ±n":11496,"parÃ§alanmalarÄ±":11497,"parÃ§alanmalarÄ±nÄ±n":11498,"parÃ§alanmalarÄ±ndan":11499,"parÃ§alanmalarÄ±nÄ±":11500,"parÃ§alanmalarÄ±na":11501,"teklifleri":11502,"tekliflerinden":11503,"tekliflerine":11504,"tekliflerinin":11505,"teklifinin":11506,"teklifini":11507,"teklifine":11508,"Ġiskeletin":11509,"Ġiskeletlerin":11510,"Ġiskeletleri":11511,"Ġiskeletlerinden":11512,"Ġiskeletlerinin":11513,"Ġiskeletinin":11514,"Ġiskeletini":11515,"Ġiskeletinde":11516,"Ġiskeletine":11517,"valizi":11518,"valizin":11519,"valizlerinden":11520,"valizlerini":11521,"valizlerinde":11522,"valizinin":11523,"valizine":11524,"valizinden":11525,"albÃ¼mÃ¼n":11526,"albÃ¼mleri":11527,"albÃ¼mlerinden":11528,"albÃ¼mlerini":11529,"albÃ¼mlerinin":11530,"albÃ¼mÃ¼ne":11531,"albÃ¼mÃ¼nÃ¼":11532,"albÃ¼mÃ¼nden":11533,"dublÃ¶rÃ¼":11534,"dublÃ¶rlerin":11535,"dublÃ¶rlerinden":11536,"dublÃ¶rlerine":11537,"dublÃ¶rlerinin":11538,"dublÃ¶rÃ¼ne":11539,"dublÃ¶rÃ¼nde":11540,"dublÃ¶rÃ¼nden":11541,"reaktÃ¶rÃ¼n":11542,"reaktÃ¶rleri":11543,"reaktÃ¶rlerini":11544,"reaktÃ¶rlerine":11545,"reaktÃ¶rÃ¼nÃ¼":11546,"reaktÃ¶rÃ¼nde":11547,"reaktÃ¶rÃ¼nden":11548,"iftitahÄ±":11549,"iftitahÄ±n":11550,"iftitahlarÄ±":11551,
[...]
