{"<s>":0,"<pad>":1,"</s>":2,"<unk>":3,"<mask>":4,"tag":5,"!":6,"\"":7,"#":8,"$":9,"%":10,"&":11,"'":12,"(":13,")":14,"*":15,"+":16,",":17,"-":18,".":19,"/":20,"0":21,"1":22,"2":23,"3":24,"4":25,"5":26,"6":27,"7":28,"8":29,"9":30,":":31,";":32,"<":33,"=":34,">":35,"?":36,"@":37,"A":38,"B":39,"C":40,"D":41,"E":42,"F":43,"G":44,"H":45,"I":46,"J":47,"K":48,"L":49,"M":50,"N":51,"O":52,"P":53,"Q":54,"R":55,"S":56,"T":57,"U":58,"V":59,"W":60,"X":61,"Y":62,"Z":63,"[":64,"\\":65,"]":66,"^":67,"_":68,"`":69,"a":70,"b":71,"c":72,"d":73,"e":74,"f":75,"g":76,"h":77,"i":78,"j":79,"k":80,"l":81,"m":82,"n":83,"o":84,"p":85,"q":86,"r":87,"s":88,"t":89,"u":90,"v":91,"w":92,"x":93,"y":94,"z":95,"{":96,"|":97,"}":98,"~":99,"¡":100,"¢":101,"£":102,"¤":103,"¥":104,"¦":105,"§":106,"¨":107,"©":108,"ª":109,"«":110,"¬":111,"®":112,"¯":113,"°":114,"±":115,"²":116,"³":117,"´":118,"µ":119,"¶":120,"·":121,"¸":122,"¹":123,"º":124,"»":125,"¼":126,"½":127,"¾":128,"¿":129,"À":130,"Á":131,"Â":132,"Ã":133,"Ä":134,"Å":135,"Æ":136,"Ç":137,"È":138,"É":139,"Ê":140,"Ë":141,"Ì":142,"Í":143,"Î":144,"Ï":145,"Ð":146,"Ñ":147,"Ò":148,"Ó":149,"Ô":150,"Õ":151,"Ö":152,"×":153,"Ø":154,"Ù":155,"Ú":156,"Û":157,"Ü":158,"Ý":159,"Þ":160,"ß":161,"à":162,"á":163,"â":164,"ã":165,"ä":166,"å":167,"æ":168,"ç":169,"è":170,"é":171,"ê":172,"ë":173,"ì":174,"í":175,"î":176,"ï":177,"ð":178,"ñ":179,"ò":180,"ó":181,"ô":182,"õ":183,"ö":184,"÷":185,"ø":186,"ù":187,"ú":188,"û":189,"ü":190,"ý":191,"þ":192,"ÿ":193,"Ā":194,"ā":195,"Ă":196,"ă":197,"Ą":198,"ą":199,"Ć":200,"ć":201,"Ĉ":202,"ĉ":203,"Ċ":204,"ċ":205,"Č":206,"č":207,"Ď":208,"ď":209,"Đ":210,"đ":211,"Ē":212,"ē":213,"Ĕ":214,"ĕ":215,"Ė":216,"ė":217,"Ę":218,"ę":219,"Ě":220,"ě":221,"Ĝ":222,"ĝ":223,"Ğ":224,"ğ":225,"Ġ":226,"ġ":227,"Ģ":228,"ģ":229,"Ĥ":230,"ĥ":231,"Ħ":232,"ħ":233,"Ĩ":234,"ĩ":235,"Ī":236,"ī":237,"Ĭ":238,"ĭ":239,"Į":240,"į":241,"İ":242,"ı":243,"Ĳ":244,"ĳ":245,"Ĵ":246,"ĵ":247,"Ķ":248,"ķ":249,"ĸ":250,"Ĺ":251,"ĺ":252,"Ļ":253,"ļ":254,"Ľ":255,"ľ":256,"Ŀ":257,"ŀ":258,"Ł":259,"ł":260,"Ń":261,"Ä±":262,"ak":263,"ÅŁ":264,"mÄ±":265,"Ã¼":266,"la":267,"me":268,"mak":269,"mek":270,"cak":271,"ya":272,"ma":273,"Ä±n":274,"Ġo":275,"mÄ±ÅŁ":276,"mi":277,"le":278,"Ä±r":279,"ĠmÄ±":280,"or":281,"Ã§":282,"in":283,"lar":284,"an":285,"Ä±z":286,"ir":287,"yor":288,"ĠmÄ±y":289,"Ã¶":290,"ÄŁ":291,"Ã¼r":292,"maya":293,"Ġol":294,"de":295,"mayacak":296,"ka":297,"lacak":298,"mu":299,"ek":300,"ler":301,"Ġolacak":302,"sÄ±n":303,"Ġolmayacak":304,"er":305,"miÅŁ":306,"at":307,"di":308,"al":309,"ar":310,"iz":311,"ec":312,"dÄ±":313,"ÅŁt":314,"ĠmÄ±ymÄ±ÅŁ":315,"un":316,"Ġmi":317,"en":318,"Ä±l":319,"il":320,"ecek":321,"dÄ±r":322,"ay":323,"Ä±m":324,"ik":325,"Ġmiy":326,"ur":327,"yap":328,"da":329,"el":330,"sÄ±nÄ±z":331,"et":332,"iniz":333,"Ä±yor":334,"Ã¼n":335,"larÄ±n":336,"tmak":337,"Ġmu":338,"lan":339,"Ã¼ÅŁ":340,"tmek":341,"Ã¼k":342,"dÃ¼r":343,"ÅŁtÄ±r":344,"Ã¼z":345,"muÅŁ":346,"ko":347,"uz":348,"acak":349,"iÅŁ":350,"dir":351,"st":352,"aÄŁ":353,"dan":354,"ĠmÄ±ydÄ±":355,"Ġmuy":356,"aÅŁ":357,"sun":358,"on":359,"tan":360,"den":361,"ul":362,"Ä±k":363,"Ä±ÅŁ":364,"Ä±lmak":365,"tÃ¼r":366,"len":367,"iyor":368,"se":369,"ol":370,"sin":371,"lerin":372,"du":373,"Ã¶l":374,"lamak":375,"can":376,"ge":377,"irmek":378,"mez":379,"larÄ±":380,"maz":381,"Ä±nÄ±z":382,"mÄ±z":383,"im":384,"mamÄ±ÅŁ":385,"gÃ¼":386,"kÄ±r":387,"miz":388,"kar":389,"dÄ±rmak":390,"tÄ±r":391,"Ã¼yor":392,"Ã¶p":393,"mey":394,"ver":395,"oÅŁ":396,"var":397,"um":398,"ot":399,"imiz":400,"mÄ±yor":401,"memiÅŁ":402,"kay":403,"sat":404,"Ã¶k":405,"leÅŁt":406,"Ġyap":407,"canlan":408,"ĠmiymiÅŁ":409,"Ã¼m":410,"iy":411,"ĠolacakmÄ±ÅŁ":412,"deÄŁ":413,"ĠolmayacakmÄ±ÅŁ":414,"meyecek":415,"eÄŁ":416,"it":417,"caÄŁ":418,"Ġolacaklar":419,"na":420,"Ġolmayacaklar":421,"gÃ¶":422,"sÃ¼r":423,"Ġmiydi":424,"ap":425,"Ã¼l":426,"bir":427,"mÃ¼ÅŁ":428,"Ä±t":429,"ok":430,"Ã¶ÄŁ":431,"dil":432,"man":433,"ĠmÄ±yd":434,"as":435,"ha":436,"ut":437,"tÃ¼k":438,"kap":439,"gec":440,"dur":441,"Ã§ek":442,"say":443,"yÄ±":444,"ce":445,"larÄ±mÄ±z":446,"gel":447,"larÄ±nÄ±z":448,"madÄ±":449,"Ã¶ker":450,"kur":451,"ĠmuymuÅŁ":452,"leÅŁ":453,"almak":454,"ĠÃ§ek":455,"Ã§Ã¶ker":456,"ne":457,"utan":458,"miyor":459,"Ã¶lÃ§":460,"ilmek":461,"bÃ¼k":462,"gecik":463,"boÅŁ":464,"kayna":465,"kaynaÅŁtÄ±r":466,"su":467,"siniz":468,"Ä±ÅŁtÄ±r":469,"piÅŁ":470,"li":471,"lerimiz":472,"op":473,"leriniz":474,"dÃ¼z":475,"Ã¶ldÃ¼r":476,"kat":477,"laÅŁtÄ±r":478,"ev":479,"te":480,"yu":481,"art":482,"Ã¼s":483,"dun":484,"din":485,"ĠmÄ±sÄ±n":486,"ĠmÄ±yÄ±m":487,"ah":488,"ĠmÄ±ymÄ±ÅŁÄ±z":489,"ĠmÄ±sÄ±nÄ±z":490,"ĠmÄ±ymÄ±ÅŁÄ±m":491,"ĠmÄ±yÄ±z":492,"ĠmÄ±ymÄ±ÅŁsÄ±nÄ±z":493,"dik":494,"gi":495,"ĠmÄ±ymÄ±ÅŁsÄ±n":496,"sunuz":497,"yar":498,"kan":499,"bit":500,"Ġs":501,"bay":502,"yet":503,"av":504,"ke":505,"aÃ§":506,"sÄ±z":507,"uyor":508,"dÃ¶":509,"emek":510,"tak":511,"aldÄ±rmak":512,"canlandÄ±r":513,"Ä±rmak":514,"medi":515,"dÃ¼rmek":516,"Ġolmak":517,"aldÄ±r":518,"Ã¼rmek":519,"lenmek":520,"Ġyapmak":521,"Ã§e":522,"atmak":523,"leÅŁtirmek":524,"Ä±ÅŁmak":525,"kmak":526,"anmak":527,"leÅŁtir":528,"enmek":529,"iÃ§":530,"tar":531,"utmak":532,"sak":533,"lÄ±":534,"kul":535,"tanÄ±":536,"ci":537,"yen":538,"seÃ§":539,"ret":540,"sÃ¶":541,"Ã¶ldÃ¼rt":542,"dÃ¼ÅŁ":543,"fe":544,"let":545,"yal":546,"kÄ±":547,"kir":548,"Ã¼y":549,"daÄŁ":550,"tÄ±":551,"Ä±s":552,"uÃ§":553,"caÄŁÄ±m":554,"kÃ¶p":555,"caÄŁÄ±z":556,"geÃ§":557,"Ġmuydu":558,"yaz":559,"yaÄŁ":560,"ste":561,"gÃ¶Ã§":562,"bol":563,"us":564,"sÃ¼n":565,"ber":566,"ger":567,"alan":568,"hast":569,"coÅŁ":570,"kor":571,"Ġt":572,"tir":573,"ayÄ±":574,"sÄ±":575,"kal":576,"ip":577,"diniz":578,"sul":579,"lardÄ±":580,"gez":581,"uÄŁ":582,"sÃ¼z":583,"ĠmÄ±ydÄ±m":584,"ta":585,"ĠmÄ±ydÄ±n":586,"ĠmÄ±ydÄ±k":587,"Ã¶ÄŁret":588,"ng":589,"iÅŁt":590,"sev":591,"der":592,"pat":593,"ĠmÄ±ydÄ±nÄ±z":594,"don":595,"dÃ¼ÅŁÃ¼n":596,"makya":597,"makyaj":598,"sik":599,"del":600,"sÃ¼s":601,"kullan":602,"Ġolmaya":603,"sinden":604,"ben":605,"sap":606,"gÃ¼l":607,"Ã¶ÄŁÃ¼":608,"rak":609,"Ã¼rk":610,"dem":611,"Ġola":612,"benz":613,"dondur":614,"kop":615,"uyar":616,"ulu":617,"irmez":618,"uy":619,"em":620,"ba":621,"deÄŁiÅŁ":622,"pay":623,"ÅŁÄ±":624,"payla":625,"ser":626,"ses":627,"larmÄ±ÅŁ":628,"iyi":629,"cÄ±":630,"fes":631,"yacak":632,"iliz":633,"paylaÅŁ":634,"kurtar":635,"nefes":636,"lik":637,"sÃ¼rÃ¼n":638,"yuvar":639,"bÃ¼r":640,"ilk":641,"kÄ±ÅŁ":642,"Ġver":643,"kÄ±ÅŁkÄ±r":644,"yaptÄ±r":645,"dirtmek":646,"gÃ¶tÃ¼r":647,"cart":648,"taÅŁ":649,"lemek":650,"tÄ±raÅŁ":651,"cartayÄ±":652,"hor":653,"ald":654,"onar":655,"piÅŁman":656,"°ng":657,"Ä°ng":658,"geber":659,"Ä°ngiliz":660,"gÃ¼lÃ¼n":661,"Ã¼ste":662,"ĠÃ§ekmek":663,"tÄ±lmak":664,"satÄ±n":665,"lendir":666,"hastalan":667,"ilklendir":668,"Ã¼stesinden":669,"dadan":670,"kanÄ±t":671,"ĠsÄ±k":672,"tep":673,"tirmek":674,"otur":675,"dilmek":676,"gelmek":677,"lamÄ±":678,"Ã¶lÃ§tÃ¼r":679,"tÄ±n":680,"Ã¼mek":681,"cÄ±z":682,"vdur":683,"ÅŁaÅŁ":684,"kovdur":685,"yalvar":686,"gerek":687,"Ä°ngilizce":688,"gÃ¼lÃ¼nÃ§":689,"cÄ±zlamÄ±":690,"ÅŁaÅŁÄ±r":691,"dedi":692,"yÄ±ÄŁ":693,"atÄ±ÅŁtÄ±r":694,"sattÄ±r":695,"sugeÃ§":696,"sugeÃ§irmez":697,"cu":698,"leÅŁmek":699,"TÃ¼rk":700,"sÃ¼m":701,"kaÃ§":702,"TÃ¼rkÃ§e":703,"vÄ±":704,"anla":705,"karÄ±ÅŁtÄ±r":706,"dÃ¶n":707,"allarÄ±":708,"uÄŁr":709,"Ġav":710,"oprak":711,"Ġtoprak":712,"ĠavuÃ§":713,"ey":714,"kodu":715,"sÄ±vÄ±":716,"dedikodu":717,"deÄŁiÅŁt":718,"yetiÅŁ":719,"nallarÄ±":720,"Ġdik":721,"itmek":722,"bÃ¼ktÃ¼r":723,"Ã§al":724,"yok":725,"sullaÅŁtÄ±r":726,"yoksullaÅŁtÄ±r":727,"Ã¶pÃ¼ÅŁ":728,"sol":729,"si":730,"gÃ¼c":731,"sÄ±vÄ±laÅŁtÄ±r":732,"Ã¶ldÃ¼rtÃ¼l":733,"dÃ¼zel":734,"tÄ±k":735,"sÃ¶k":736,"yum":737,"Ġm":738,"Ã¶lÃ§Ã¼l":739,"cek":740,"sÃ¶v":741,"ra":742,"mÃ¼yor":743,"pus":744,"kaÅŁÄ±":745,"dirt":746,"kaybol":747,"leri":748,"oz":749,"kara":750,"Ġmuydun":751,"muyor":752,"tÄ±l":753,"re":754,"yÄ±ka":755,"tÄ±nÄ±z":756,"Ä±mÄ±z":757,"ku":758,"sa":759,"ilik":760,"kÄ±y":761,"tÄ±m":762,"solu":763,"kapa":764,"lÄ±k":765,"dal":766,"larÄ±nda":767,"lama":768,"larÄ±nÄ±n":769,"dÄ±n":770,"larÄ±ndan":771,"Ã§Ä±":772,"be":773,"am":774,"larÄ±nÄ±":775,"ĠdeÄŁ":776,"lecek":777,"larÄ±na":778,"tut":779,"dÄ±nÄ±z":780,"is":781,"bat":782,"lerinden":783,"ĠdeÄŁil":784,"Ã§a":785,"lerini":786,"lerine":787,"san":788,"iyet":789,"lerinde":790,"mÄ±ÅŁsÄ±nÄ±z":791,"tr":792,"lerinin":793,"canlanma":794,"umu":795,"lerdi":796,"az":797,"ter":798,"mÄ±ÅŁsÄ±n":799,"mÄ±ÅŁÄ±z":800,"ley":801,"Ã¶r":802,"og":803,"bil":804,"mÄ±ÅŁÄ±m":805,"ĠmÃ¼y":806,"Ã¶ldÃ¼rtÃ¼lme":807,"Ġmiydin":808,"Ġmiydik":809,"Ġmiydim":810,"Ġmiydiniz":811,"lamÄ±ÅŁ":812,"oto":813,"gen":814,"tÃ¼":815,"ydÄ±":816,"Ä±lÄ±yor":817,"eÄŁit":818,"ru":819,"Ã§i":820,"yapÄ±ÅŁ":821,"Ä±lacak":822,"ĠolmayacakmÄ±ÅŁÄ±z":823,"ti":824,"ĠolmayacaklarmÄ±ÅŁ":825,"ĠolacakmÄ±ÅŁsÄ±n":826,"ĠolmayacaÄŁÄ±m":827,"ĠolacakmÄ±ÅŁÄ±m":828,"daÄŁÄ±":829,"ĠolmayacaÄŁÄ±z":830,"ĠolmayacakmÄ±ÅŁÄ±m":831,"ĠolacaklarmÄ±ÅŁ":832,"ĠolacaksÄ±n":833,"ĠolacakmÄ±ÅŁsÄ±nÄ±z":834,"ĠolacakmÄ±ÅŁÄ±z":835,"ĠolmayacakmÄ±ÅŁsÄ±nÄ±z":836,"daÄŁÄ±t":837,"ĠolacaÄŁÄ±m":838,"Ä±lmÄ±ÅŁ":839,"lek":840,"ĠolmayacaksÄ±nÄ±z":841,"ĠolacaÄŁÄ±z":842,"ĠolmayacakmÄ±ÅŁsÄ±n":843,"miÅŁsiniz":844,"Ã¼nÃ¼z":845,"inc":846,"miÅŁsin":847,"unuz":848,"ĠolmayacaksÄ±n":849,"ĠolacaksÄ±nÄ±z":850,"lu":851,"yon":852,"Ã¶ÄŁÃ¼t":853,"ye":854,"miÅŁim":855,"Ä±sÄ±r":856,"yan":857,"kÄ±rÄ±lmak":858,"miÅŁiz":859,"ren":860,"Ã¢":861,"may":862,"tin":863,"kÃ¼":864,"Ä±lÄ±r":865,"dirilmek":866,"gÃ¼tmek":867,"ĠaldÄ±rmak":868,"yapÄ±lmak":869,"bayÄ±lmak":870,"kurtarmak":871,"kaÅŁÄ±mak":872,"sermek":873,"paylaÅŁmak":874,"ĠaldÄ±r":875,"demek":876,"sapmak":877,"uyarmak":878,"ulumak":879,"yuvarlamak":880,"Ã§almak":881,"yapmak":882,"katÄ±lmak":883,"Ä±sÄ±rmak":884,"sÃ¼rÃ¼ndÃ¼r":885,"sÃ¼rÃ¼ndÃ¼rmek":886,"ri":887,"Ġf":888,"aÃ§mak":889,"seslen":890,"seslenmek":891,"Ġvermek":892,"kÄ±ÅŁkÄ±rtmak":893,"dalmak":894,"yalamak":895,"katmak":896,"saydÄ±rmak":897,"yendirtmek":898,"seÃ§ilmek":899,"yazmak":900,"sÃ¼smek":901,"gÃ¶tÃ¼rmek":902,"taÅŁmak":903,"ellemek":904,"kÄ±rdÄ±rmak":905,"Ã§Ã¶kertmek":906,"yaptÄ±rtmak":907,"letmek":908,"sunmak":909,"verdirtmek":910,"saydÄ±r":911,"kirletmek":912,"kÃ¶pÃ¼rmek":913,"horlamak":914,"kÄ±rdÄ±r":915,"tanÄ±tmak":916,"sÃ¼zmek":917,"demlemek":918,"canlandÄ±rmak":919,"utanmak":920,"geciktirmek":921,"canlandÄ±rtÄ±lmak":922,"kirlet":923,"kÃ¶pÃ¼r":924,"gebermek":925,"ayÄ±rmak":926,"tÃ¼remek":927,"bÃ¼kmek":928,"evlen":929,"evlenmek":930,"takmak":931,"gÃ¶Ã§mek":932,"Ã¶ÄŁretmek":933,"kullanÄ±lmak":934,"Ġgelmek":935,"geciktir":936,"gidilmek":937,"hastalanmak":938,"baÄŁ":939,"Ġalmak":940,"lermiÅŁ":941,"ayÄ±r":942,"tÃ¼kÃ¼rmek":943,"Ã¶ÄŁÃ¼tmek":944,"ilklendirmek":945,"kanÄ±tlamak":946,"ĠsÄ±kÄ±ÅŁmak":947,"Ã¶lÃ§Ã¼lmek":948,"saldÄ±rmak":949,"Ã¼ÅŁenmek":950,"saymak":951,"boÅŁanmak":952,"bÃ¼rÃ¼mek":953,"aldatmak":954,"sÃ¶kmek":955,"pusmak":956,"artmak":957,"tÃ¼kÃ¼r":958,"kapatmak":959,"kaynaÅŁtÄ±rtÄ±lmak":960,"yaÄŁlamak":961,"patlamak":962,"dadanmak":963,"tepmek":964,"oturmak":965,"bitmek":966,"saldÄ±r":967,"atÄ±lmak":968,"atÄ±ÅŁmak":969,"Ġmiyiz":970,"Ã¼ÅŁen":971,"Ã¶pmek":972,"boÅŁan":973,"sÄ±zmak":974,"kalkmak":975,"aldat":976,"onarmak":977,"Ã¶lÃ§tÃ¼rtmek":978,"yetiÅŁmek":979,"iÄŁ":980,"diremek":981,"asmak":982,"kapat":983,"utandÄ±rmak":984,"gezmek":985,"iyileÅŁtirmek":986,"kovdurmak":987,"yalvarmak":988,"gerekmek":989,"Ä°ngilizceleÅŁtirmek":990,"gÃ¼lÃ¼nÃ§leÅŁmek":991,"ÅŁaÅŁÄ±rtmak":992,"tÄ±yor":993,"Ã¼zmek":994,"Ã§Ã¶kermek":995,"iÃ§mek":996,"benzemek":997,"atÄ±ÅŁtÄ±rmak":998,"sattÄ±rtmak":999,"lÄ±yor":1000,"inmek":1001,"kokmak":1002,"aÅŁmak":1003,"utandÄ±r":1004,"dÃ¼ÅŁÃ¼nmek":1005,"iyileÅŁtir":1006,"Ä°ngilizceleÅŁtir":1007,"TÃ¼rkÃ§eleÅŁtirmek":1008,"Ã¶pÃ¼ÅŁmek":1009,"tÃ¼kenmek":1010,"bitirmek":1011,"dondurmak":1012,"kaÃ§Ä±r":1013,"kaÃ§Ä±rmak":1014,"daÄŁÄ±tmak":1015,"aba":1016,"unutmak":1017,"ettirmek":1018,"sÃ¼rÃ¼mek":1019,"dÃ¼zmek":1020,"kopmak":1021,"sÃ¼mÃ¼rmek":1022,"TÃ¼rkÃ§eleÅŁtir":1023,"anlatmak":1024,"karÄ±ÅŁtÄ±rtmak":1025,"dÃ¶ndÃ¼rmek":1026,"birleÅŁmek":1027,"tÃ¼ken":1028,"kaynaÅŁtÄ±rÄ±lmak":1029,"coÅŁmak":1030,"sikilmek":1031,"delirmek":1032,"uÄŁratmak":1033,"yÄ±kamak":1034,"unut":1035,"ettir":1036,"aÄŁlamak":1037,"olmak":1038,"varmak":1039,"boÅŁalmak":1040,"tanÄ±mak":1041,"sÃ¼mÃ¼r":1042,"dÃ¶ndÃ¼r":1043,"yummak":1044,"Ã¶ldÃ¼rtmek":1045,"korkmak":1046,"uÄŁrat":1047,"kurutmak":1048,"gecikmek":1049,"saklamak":1050,"deÄŁiÅŁmek":1051,"sal":1052,"yapÄ±ÅŁmak":1053,"piÅŁmek":1054,"uymak":1055,"Ġdikmek":1056,"dÃ¼rtmek":1057,"kurut":1058,"sÃ¼nmek":1059,"sevmek":1060,"bÃ¼ktÃ¼rmek":1061,"sÃ¶vmek":1062,"sanmak":1063,"tacak":1064,"yoksullaÅŁtÄ±rmak":1065,"kaybolmak":1066,"kÄ±ymak":1067,"ĠmiymiÅŁsiniz":1068,"eÄŁlen":1069,"eÄŁlenmek":1070,"yÄ±ÄŁmak":1071,"tmÄ±ÅŁ":1072,"siz":1073,"gÃ¼cenmek":1074,"sÄ±vÄ±laÅŁtÄ±rmak":1075,"canlanmamak":1076,"Ġmiyim":1077,"ĠsÄ±kÄ±ÅŁ":1078,"deÄŁiÅŁtirmek":1079,"gÃ¼cen":1080,"Ġh":1081,"ĠmiymiÅŁsin":1082,"solumak":1083,"Ã¶ldÃ¼rtÃ¼lmemek":1084,"verilmek":1085,"dÃ¼zeltmek":1086,"tutmak":1087,"ĠmiymiÅŁim":1088,"gÃ¼lÃ¼nÃ§leÅŁ":1089,"kÃ¶":1090,"Ã¶z":1091,"Ġmisiniz":1092,"ĠmiymiÅŁiz":1093,"atÄ±ÅŁ":1094,"Ġmisin":1095,"satmak":1096,"eÄŁitmek":1097,"kapamak":1098,"bitir":1099,"mur":1100,"birleÅŁ":1101,"delir":1102,"lardan":1103,"men":1104,"larda":1105,"tot":1106,"vi":1107,"lara":1108,"layacak":1109,"deÄŁiÅŁtir":1110,"tik":1111,"tanÄ±t":1112,"verdirt":1113,"Ã§Ã¶kert":1114,"yendirt":1115,"ca":1116,"so":1117,"duk":1118,"pap":1119,"muÅŁsun":1120,"Ġmuydum":1121,"Ã¶lÃ§tÃ¼rt":1122,"baÅŁ":1123,"eÅŁ":1124,"dunuz":1125,"of":1126,"lere":1127,"muÅŁsunuz":1128,"diril":1129,"gÃ¼d":1130,"met":1131,"dÃ¼rt":1132,"muÅŁuz":1133,"mediy":1134,"inin":1135,"muÅŁum":1136,"gidil":1137,"seÃ§il":1138,"Ġmuyduk":1139,"Ġmuydunuz":1140,"canlandÄ±rtÄ±l":1141,"ĠmuymuÅŁuz":1142,"if":1143,"lerde":1144,"dÃ¼zelt":1145,"kaynaÅŁtÄ±rtÄ±l":1146,"Ġgel":1147,"mamÄ±ÅŁlar":1148,"Ġal":1149,"kr":1150,"mazlar":1151,"ban":1152,"lerden":1153,"Ġmuyum":1154,"ĠmuymuÅŁsun":1155,"sikil":1156,"boÅŁal":1157,"Ġmuyuz":1158,"ola":1159,"ĠmuymuÅŁum":1160,"dum":1161,"cik":1162,"lÃ¼":1163,"ĠmuymuÅŁsunuz":1164,"sÃ¶z":1165,"Ġmusun":1166,"mayacaklar":1167,"veril":1168,"Ã§Ä±ÄŁ":1169,"ve":1170,"Ġmusunuz":1171,"umuz":1172,"gÃ¼r":1173,"ini":1174,"alÄ±":1175,"leyi":1176,"gÄ±":1177,"Ã¼c":1178,"bl":1179,"yer":1180,"akir":1181,"ad":1182,"af":1183,"ket":1184,"sil":1185,"dim":1186,"do":1187,"fil":1188,"sÃ¼rÃ¼m":1189,"kok":1190,"larÄ±mÄ±za":1191,"larÄ±mÄ±zÄ±":1192,"pan":1193,"Ä±nÄ±n":1194,"kalk":1195,"str":1196,"bi":1197,"mÃ¼":1198,"inde":1199,"tiniz":1200,"larÄ±nÄ±zÄ±":1201,"mo":1202,"ran":1203,"larÄ±mÄ±zda":1204,"larÄ±mÄ±zÄ±n":1205,"dar":1206,"dok":1207,"Ä±rt":1208,"larÄ±nÄ±za":1209,"larÄ±nÄ±zÄ±n":1210,"ĠmÃ¼yd":1211,"memiÅŁler":1212,"sizlik":1213,"gÃ¼n":1214,"pu":1215,"larÄ±mÄ±zdan":1216,"lilik":1217,"Ã¶n":1218,"kork":1219,"tim":1220,"larÄ±nÄ±zda":1221,"ine":1222,"lerimize":1223,"Ã§algÄ±":1224,"bar":1225,"bet":1226,"ucu":1227,"iki":1228,"larÄ±nÄ±zdan":1229,"meyecekler":1230,"lerinizden":1231,"oÄŁ":1232,"inden":1233,"madÄ±ydÄ±":1234,"lerimizden":1235,"elle":1236,"mÄ±yorlar":1237,"yaÄŁla":1238,"lerinizin":1239,"ilecek":1240,"va":1241,"lerimizin":1242,"leyici":1243,"Ä±nÄ±":1244,"bayÄ±l":1245,"Ä±ndan":1246,"lerimizde":1247,"min":1248,"mat":1249,"lerinizde":1250,"dak":1251,"mum":1252,"par":1253,"lerinizi":1254,"mezler":1255,"lerinize":1256,"Ä±na":1257,"mazdÄ±":1258,"bu":1259,"ist":1260,"lerimizi":1261,"eceÄŁ":1262,"madÄ±lar":1263,"diz":1264,"elik":1265,"demle":1266,"sen":1267,"Ä±nda":1268,"ize":1269,"benze":1270,"ken":1271,"tÃ¼re":1272,"dire":1273,"to":1274,"nem":1275,"sek":1276,"kÃ¼Ã§":1277,"kÃ¼Ã§Ã¼k":1278,"liÄŁ":1279,"pr":1280,"bÃ¼y":1281,"Ã¼mÃ¼z":1282,"ecekler":1283,"stan":1284,"kon":1285,"kus":1286,"gÃ¼t":1287,"luk":1288,"dis":1289,"adsÄ±z":1290,"bel":1291,"ĠÅŁ":1292,"diÅŁ":1293,"ef":1294,"har":1295,"om":1296,"kuÅŁ":1297,"kÄ±l":1298,"rat":1299,"akÄ±ÅŁ":1300,"raf":1301,"bÄ±":1302,"ten":1303,"olay":1304,"gun":1305,"mot":1306,"pe":1307,"sÄ±r":1308,"suz":1309,"muz":1310,"sÄ±nÄ±r":1311,"ide":1312,"siy":1313,"ayn":1314,"seÃ§me":1315,"bah":1316,"por":1317,"sar":1318,"blog":1319,"sÃ¼":1320,"leb":1321,"anas":1322,"bakir":1323,"pir":1324,"ikli":1325,"gat":1326,"cev":1327,"miÅŁler":1328,"Ä±lÄ±k":1329,"Ġoluyor":1330,"ez":1331,"lev":1332,"dev":1333,"diy":1334,"otomo":1335,"eziyet":1336,"mÄ±ÅŁlar":1337,"otomobil":1338,"yÄ±l":1339,"lez":1340,"Ä±yorlar":1341,"mediler":1342,"incil":1343,"dÃ¼":1344,"kedi":1345,"ag":1346,"Ġsay":1347,"Ġyaz":1348,"sÃ¶zc":1349,"ĠyazÄ±l":1350,"ekli":1351,"iliÄŁ":1352,"hip":1353,"ro":1354,"kav":1355,"acaklar":1356,"karak":1357,"karde":1358,"hiper":1359,"ven":1360,"sÄ±nÄ±":1361,"ker":1362,"vet":1363,"yav":1364,"ece":1365,"sine":1366,"dÃ¼l":1367,"kacak":1368,"dul":1369,"inter":1370,"koÅŁ":1371,"kef":1372,"totem":1373,"lÃ¼k":1374,"avu":1375,"gar":1376,"pop":1377,"lamÄ±yor":1378,"Ã§ok":1379,"miyorlar":1380,"kÃ¶y":1381,"eh":1382,"ÅŁer":1383,"cez":1384,"mÃ¼ÅŁt":1385,"siyon":1386,"ÅŁerbet":1387,"karaya":1388,"efe":1389,"ga":1390,"hat":1391,"kÄ±z":1392,"kÃ¢":1393,"yÃ¼k":1394,"Ġkaraya":1395,"gÃ¼ven":1396,"ĠyapmÄ±ÅŁ":1397,"ĠyapÄ±yor":1398,"mÃ¼ÅŁsÃ¼n":1399,"ĠfÃ¼z":1400,"ĠolmuÅŁ":1401,"ayna":1402,"daÅŁ":1403,"Ġyapacak":1404,"mandal":1405,"disko":1406,"ptot":1407,"Ġas":1408,"Ã§ar":1409,"mÄ±zÄ±":1410,"imptot":1411,"baz":1412,"Ġasimptot":1413,"viÅŁ":1414,"lem":1415,"eri":1416,"urt":1417,"Ġhal":1418,"lamamÄ±ÅŁ":1419,"Ã§Ä±k":1420,"kÃ¶pÃ¼k":1421,"Ã§Ä±ÄŁÄ±rt":1422,"Ã§Ä±ÄŁÄ±rtkan":1423,"ebe":1424,"mama":1425,"miyet":1426,"mit":1427,"evcik":1428,"bolcu":1429,"kerp":1430,"alet":1431,"madÄ±k":1432,"last":1433,"iyo":1434,"orum":1435,"ili":1436,"iyorlar":1437,"ÅŁak":1438,"Ã§ap":1439,"asa":1440,"gÃ¼dÃ¼m":1441,"pusu":1442,"faz":1443,"lak":1444,"cen":1445,"lim":1446,"lamayacak":1447,"kÄ±rÄ±l":1448,"birlik":1449,"cilik":1450,"kut":1451,"Ġsin":1452,"alt":1453,"ina":1454,"kullanÄ±l":1455,"kaynaÅŁtÄ±rÄ±l":1456,"katÄ±l":1457,"kÄ±ÅŁkÄ±rt":1458,"ÅŁÄ±r":1459,"ĠolacaktÄ±m":1460,"yapÄ±l":1461,"uyu":1462,"ÅŁÄ±k":1463,"lamaz":1464,"madÄ±y":1465,"Ġolmaz":1466,"imize":1467,"imizde":1468,"ĠolacaklardÄ±":1469,"madÄ±m":1470,"rep":1471,"ĠsayÄ±":1472,"inizden":1473,"madÄ±n":1474,"Ã¶nem":1475,"atÄ±l":1476,"yol":1477,"ĠolacaktÄ±n":1478,"anlat":1479,"yn":1480,"lÄ±ÄŁ":1481,"ÅŁaÅŁÄ±rt":1482,"ĠfÃ¼ze":1483,"egen":1484,"kas":1485,"ĠolmayacaktÄ±k":1486,"atÄ±":1487,"imizden":1488,"gezegen":1489,"ĠmÃ¼":1490,"imizin":1491,"madÄ±nÄ±z":1492,"ĠolmayacaktÄ±n":1493,"sattÄ±rt":1494,"ĠolmayacaktÄ±m":1495,"dÄ±m":1496,"duy":1497,"kÄ±rÄ±k":1498,"imizi":1499,"Ä±ÄŁ":1500,"dek":1501,"ĠolmayacaklardÄ±":1502,"incir":1503,"gu":1504,"Ä±ncak":1505,"ĠolacaktÄ±k":1506,"ĠolacaktÄ±nÄ±z":1507,"inizi":1508,"sÃ¼rÃ¼":1509,"karÄ±ÅŁtÄ±rt":1510,"derleyici":1511,"yÄ±k":1512,"ĠolmayacaktÄ±":1513,"ĠolmayacaktÄ±nÄ±z":1514,"diler":1515,"dÄ±k":1516,"unun":1517,"kutu":1518,"rt":1519,"ana":1520,"inize":1521,"dÃ¶rt":1522,"yaptÄ±rt":1523,"dÃ¶rtgen":1524,"saÄŁ":1525,"ĠyazÄ±lÄ±m":1526,"leme":1527,"ĠolacaktÄ±":1528,"bÃ¼rÃ¼":1529,"Ã§ilik":1530,"cel":1531,"inizde":1532,"inizin":1533,"Ã§alar":1534,"ac":1535,"oj":1536,"oloj":1537,"lam":1538,"ans":1539,"aÄŁaÃ§":1540,"medim":1541,"Ġgezegen":1542,"unda":1543,"benzer":1544,"laacak":1545,"Ġyapar":1546,"mut":1547,"Ä±nÄ±zÄ±n":1548,"medik":1549,"dÄ±lar":1550,"ĠÃ§ekiyor":1551,"bili":1552,"iste":1553,"Ġolur":1554,"una":1555,"Ä±nÄ±zda":1556,"oÄŁul":1557,"Ã¼Ã§":1558,"dÄ±ÅŁ":1559,"iye":1560,"unu":1561,"Ä±nÄ±zÄ±":1562,"meyeceÄŁ":1563,"medin":1564,"Ġan":1565,"iner":1566,"gelecek":1567,"ahtar":1568,"Ġanahtar":1569,"alacak":1570,"nek":1571,"son":1572,"tsuz":1573,"dilecek":1574,"dÄ±ydÄ±":1575,"undan":1576,"asan":1577,"umutsuz":1578,"bÃ¼yÃ¼":1579,"mediniz":1580,"ikiz":1581,"tÄ±lacak":1582,"eyecek":1583,"liyor":1584,"olacak":1585,"ÅŁap":1586,"Ä±nÄ±za":1587,"tÃ¼t":1588,"Ä±nÄ±zdan":1589,"ÅŁapka":1590,"ÅŁar":1591,"dÃ¼ÅŁÃ¼ncel":1592,"ynatÄ±":1593,"bec":1594,"ĠÃ§ekecek":1595,"rek":1596,"rtak":1597,"tsÄ±z":1598,"Ġkat":1599,"ĠkÃ¼Ã§Ã¼k":1600,"Ġortak":1601,"kulu":1602,"sis":1603,"bahtsÄ±z":1604,"nu":1605,"nen":1606,"Ã¼yecek":1607,"jur":1608,"yakÄ±ÅŁ":1609,"mer":1610,"Ä±klÄ±":1611,"abajur":1612,"becer":1613,"yakÄ±ÅŁÄ±klÄ±":1614,"mel":1615,"sunu":1616,"ite":1617,"daÄŁÄ±n":1618,"parÃ§":1619,"oloji":1620,"oley":1621,"voley":1622,"Ġis":1623,"yalan":1624,"ordin":1625,"koordin":1626,"Ġson":1627,"ral":1628,"ĠsÃ¼rÃ¼m":1629,"masal":1630,"Ä±rlar":1631,"altÄ±n":1632,"Ã¶lÃ¼m":1633,"Ä±mÄ±zdan":1634,"bal":1635,"fer":1636,"olmaz":1637,"ift":1638,"daÄŁÄ±nÄ±k":1639,"koordinat":1640,"ĠÃ§ekmiÅŁ":1641,"Ä±mÄ±zÄ±n":1642,"bÃ¼yÃ¼leyici":1643,"elek":1644,"tiz":1645,"Ġek":1646,"Ä±mÄ±":1647,"kam":1648,"arka":1649,"ayip":1650,"karma":1651,"coÅŁkus":1652,"ayÄ±f":1653,"Ä±mÄ±za":1654,"sos":1655,"acayip":1656,"dÃ¼ÅŁÃ¼nceli":1657,"elektr":1658,"coÅŁkusuz":1659,"ib":1660,"yorgun":1661,"ciÄŁ":1662,"fren":1663,"sÃ¼l":1664,"yang":1665,"yaban":1666,"dey":1667,"iÅŁlet":1668,"sto":1669,"evla":1670,"uluk":1671,"lÄ±ÅŁ":1672,"Ã¼ren":1673,"kastan":1674,"Ã¼yorlar":1675,"yuma":1676,"yanlÄ±ÅŁ":1677,"dÄ±z":1678,"hÄ±z":1679,"mantÄ±k":1680,"leti":1681,"uygu":1682,"portak":1683,"yÄ±ldÄ±z":1684,"cenaz":1685,"kastanyet":1686,"hÄ±zlÄ±":1687,"mantÄ±klÄ±":1688,"sunucu":1689,"geÃ§miÅŁ":1690,"coÅŁkulu":1691,"Ä±mÄ±zda":1692,"motel":1693,"becerikli":1694,"cÄ±k":1695,"fah":1696,"giz":1697,"hun":1698,"huz":1699,"haÅŁ":1700,"obi":1701,"vvet":1702,"Ã¼mit":1703,"masa":1704,"malam":1705,"irler":1706,"Ã¼re":1707,"hava":1708,"gider":1709,"yeten":1710,"uÃ§urt":1711,"kuvvet":1712,"trol":1713,"seksi":1714,"anason":1715,"fahiÅŁ":1716,"gizem":1717,"huzur":1718,"malamoz":1719,"Ġdil":1720,"ceviz":1721,"portakal":1722,"bas":1723,"hur":1724,"hey":1725,"kel":1726,"pem":1727,"ron":1728,"tÃ¼m":1729,"zÄ±rt":1730,"ĠbaÄŁ":1731,"Ġdiz":1732,"mikr":1733,"Ã§Ä±t":1734,"Ã¶pÃ¼c":1735,"ham":1736,"yalÄ±n":1737,"patron":1738,"Ã§alÄ±ÅŁ":1739,"ozof":1740,"Ä±mÄ±zÄ±":1741,"tutul":1742,"battan":1743,"sansar":1744,"filozof":1745,"doktr":1746,"lezyon":1747,"saÄŁr":1748,"parÃ§alan":1749,"heykel":1750,"pembe":1751,"ive":1752,"ipe":1753,"tren":1754,"banda":1755,"zÄ±rtgel":1756,"Mu":1757,"Tir":1758,"aiki":1759,"gl":1760,"hÃ¼r":1761,"iya":1762,"oynatÄ±":1763,"syon":1764,"vir":1765,"vam":1766,"ĠsÄ±nÄ±":1767,"ÅŁu":1768,"ÅŁah":1769,"maat":1770,"mara":1771,"yorda":1772,"Ã¼rÃ¼n":1773,"mus":1774,"ateÅŁ":1775,"izola":1776,"ikipe":1777,"kola":1778,"stah":1779,"tandÄ±r":1780,"sÃ¼rtÃ¼k":1781,"manive":1782,"cemaat":1783,"teor":1784,"ĠmÃ¼ymÃ¼ÅŁ":1785,"eÅŁof":1786,"mÃ¼stah":1787,"motor":1788,"numara":1789,"arkadaÅŁ":1790,"basket":1791,"bandaj":1792,"Musev":1793,"Tiran":1794,"vampir":1795,"ĠsÄ±nÄ±f":1796,"izolasyon":1797,"Ġha":1798,"alyan":1799,"ener":1800,"iyen":1801,"kele":1802,"keman":1803,"dalye":1804,"ikipedi":1805,"eÅŁofman":1806,"Bel":1807,"gir":1808,"grat":1809,"kak":1810,"kÃ¼rk":1811,"psik":1812,"vap":1813,"vaz":1814,"Ġin":1815,"ĠseÃ§me":1816,"ÅŁiÅŁ":1817,"ÅŁaf":1818,"mÄ±sÄ±r":1819,"malÄ±":1820,"anaf":1821,"kasi":1822,"elma":1823,"iÅŁken":1824,"iÅŁlem":1825,"dirtir":1826,"ster":1827,"ongun":1828,"birincil":1829,"hamÄ±z":1830,"negat":1831,"teg":1832,"Ã¼sÃ¼n":1833,"Ġsor":1834,"kÄ±ya":1835,"sosis":1836,"lÃ¼gat":1837,"gÃ¼rz":1838,"omlet":1839,"sÄ±nÄ±rlÄ±":1840,"Ã§oktan":1841,"gamalÄ±":1842,"aÄŁaÃ§kak":1843,"ÅŁuur":1844,"kelep":1845,"Belgrat":1846,"girda":1847,"vapur":1848,"vaziyet":1849,"Ġinteg":1850,"ĠseÃ§meli":1851,"anafaz":1852,"negatif":1853,"Ġkedi":1854,"Ä±nlÄ±k":1855,"irim":1856,"seÃ§men":1857,"kefir":1858,"aÄŁaÃ§kakan":1859,"Ġintegral":1860,"Kop":1861,"Lef":1862,"aat":1863,"bur":1864,"fret":1865,"fakir":1866,"hÃ¼k":1867,"kl":1868,"pÄ±r":1869,"paÅŁ":1870,"pren":1871,"rah":1872,"Ã»":1873,"ĠdÄ±":1874,"Ġpr":1875,"ĠgÃ¼dÃ¼m":1876,"ÅŁeh":1877,"mist":1878,"Ã§or":1879,"Ã§avu":1880,"anket":1881,"Ã¶m":1882,"kalÄ±":1883,"eket":1884,"ÅŁtayn":1885,"enha":1886,"semer":1887,"karÅŁ":1888,"ote":1889,"dilber":1890,"kaplan":1891,"nefret":1892,"suvar":1893,"dinoz":1894,"kantin":1895,"Ġsaat":1896,"sakÄ±z":1897,"uÃ§an":1898,"gÃ¶Ã§Ã¼ren":1899,"bermu":1900,"sÃ¼span":1901,"ram":1902,"sala":1903,"Ã§adÄ±r":1904,"ogram":1905,"ruj":1906,"baÅŁrah":1907,"gÃ¼neÅŁ":1908,"prote":1909,"hareket":1910,"aynÅŁtayn":1911,"porsu":1912,"karakol":1913,"kÃ¶ygÃ¶Ã§Ã¼ren":1914,"cezer":1915,"mutlu":1916,"istem":1917,"Kopenha":1918,"LefkoÅŁ":1919,"hÃ¼kÃ»":1920,"ĠdÄ±ÅŁÄ±":1921,"Ġprogram":1922,"ĠgÃ¼dÃ¼mlÃ¼":1923,"dinozor":1924,"sÃ¼spansuvar":1925,"ala":1926,"dÃ¼n":1927,"fi":1928,"sinin":1929,"key":1930,"dÃ¼ÅŁman":1931,"karadan":1932,"kÃ¶m":1933,"ped":1934,"ĠhaÃ§":1935,"Abu":1936,"Da":1937,"bey":1938,"fr":1939,"ft":1940,"far":1941,"foto":1942,"gri":1943,"hÄ±":1944,"hinter":1945,"ila":1946,"idar":1947,"jok":1948,"mon":1949,"pila":1950,"tekli":1951,"zmon":1952,"ĠDa":1953,"akro":1954,"ÅŁif":1955,"irah":1956,"ÄŁraf":1957,"muc":1958,"kozmon":1959,"danoz":1960,"onyer":1961,"karide":1962,"haz":1963,"Ã§ekme":1964,"ĠÃ§eker":1965,"evren":1966,"artÃ§Ä±":1967,"baytar":1968,"cihaz":1969,"koruyu":1970,"bÃ¼rÃ¼m":1971,"ograf":1972,"Ã§ift":1973,"maydanoz":1974,"Ġfik":1975,"baÄŁÄ±r":1976,"Ã¼cret":1977,"strÃ¼k":1978,"matograf":1979,"istirah":1980,"efsun":1981,"sÃ¶zcÃ¼l":1982,"kardeÅŁ":1983,"sinematograf":1984,"aynasÄ±z":1985,"evcikkÄ±r":1986,"Ã¼Ã§Ã¼z":1987,"Ã¼mitli":1988,"friz":1989,"fotoÄŁraf":1990,"hÄ±Ã§":1991,"hinterlan":1992,"jokey":1993,"ÅŁifonyer":1994,"kozmonot":1995,"br":1996,"kist":1997,"mas":1998,"irkey":1999,"katil":2000,"kirmen":2001,"yaÄŁmur":2002,"samur":2003,"gene":2004,"rimel":2005,"ĠÅŁok":2006,"Ġiske":2007,"uygulama":2008,"yetenekli":2009,"gizemli":2010,"Ã§avuÅŁ":2011,"akrobat":2012,"strÃ¼ktÃ¼r":2013,"istirahat":2014,"evcikkÄ±ran":2015,"irkeyel":2016,"bok":2017,"fra":2018,"gon":2019,"goz":2020,"msil":2021,"olen":2022,"plan":2023,"polen":2024,"sah":2025,"skr":2026,"val":2027,"yut":2028,"zur":2029,"zaÄŁ":2030,"ĠkÃ¶":2031,"akt":2032,"akka":2033,"maran":2034,"Ã§ak":2035,"Ã§ev":2036,"anj":2037,"ekst":2038,"alb":2039,"albat":2040,"uniyet":2041,"eniÅŁt":2042,"ayakka":2043,"ikincil":2044,"sey":2045,"sebe":2046,"sinde":2047,"dubl":2048,"mezuniyet":2049,"karne":2050,"gÃ¶m":2051,"sÃ¼rgÃ¼n":2052,"Ã¶ÄŁren":2053,"hav":2054,"temsil":2055,"dikdÃ¶rtgen":2056,"Ġsan":2057,"iÃ§li":2058,"cib":2059,"embr":2060,"radar":2061,"karadul":2062,"reakt":2063,"ambu":2064,"Ã¶rÃ¼m":2065,"salÃ§al":2066,"vide":2067,"papir":2068,"papyon":2069,"krav":2070,"garson":2071,"ÅŁark":2072,"olmazsa":2073,"iftit":2074,"elektrikli":2075,"cenaze":2076,"haÅŁefe":2077,"uÃ§urtma":2078,"Ã§alÄ±ÅŁma":2079,"frag":2080,"gond":2081,"planet":2082,"skrot":2083,"ĠkÃ¶f":2084,"marangoz":2085,"ekstre":2086,"albatro":2087,"ayakkabÄ±":2088,"ambulan":2089,"his":2090,"Ġde":2091,"koy":2092,"Ã§amur":2093,"doma":2094,"Ã§algÄ±cÄ±":2095,"blogcu":2096,"dÃ¼ldÃ¼l":2097,"hatÄ±r":2098,"yangÄ±n":2099,"parÃ§alanma":2100,"teklif":2101,"Ġiskelet":2102,"valiz":2103,"albÃ¼m":2104,"dublÃ¶r":2105,"reaktÃ¶r":2106,"iftitah":2107,"fragman":2108,"gondol":2109,"acÄ±":2110,"bor":2111,"bÃ¼z":2112,"fiÅŁ":2113,"foz":2114,"hap":2115,"hÃ¼l":2116,"jek":2117,"jon":2118,"jener":2119,"lon":2120,"lok":2121,"pip":2122,"tah":2123,"tyen":2124,"yoÄŁ":2125,"zir":2126,"Ä±st":2127,"akoz":2128,"ÅŁru":2129,"later":2130,"meÅŁru":2131,"mili":2132,"orfoz":2133,"destan":2134,"must":2135,"enjek":2136,"kolon":2137,"dirim":2138,"stÄ±r":2139,"start":2140,"onat":2141,"sini":2142,"kÄ±rmÄ±zÄ±":2143,"asyon":2144,"bitiÅŁ":2145,"dÃ¶v":2146,"Ä±span":2147,"gerz":2148,"Ġtah":2149,"Ã¶ÄŁretmen":2150,"bastÄ±r":2151,"batar":2152,"otob":2153,"vezir":2154,"gÃ¼ran":2155,"silin":2156,"strip":2157,"ĠÅŁar":2158,"sÃ¼tyen":2159,"karakter":2160,"kardelen":2161,"diskot":2162,"limonat":2163,"Ġsinek":2164,"ÅŁÄ±rÄ±n":2165,"karmaÅŁÄ±k":2166,"ibli":2167,"tutulma":2168,"iÅŁkence":2169,"figÃ¼ran":2170,"zaÄŁar":2171,"kravat":2172,"domate":2173,"jongl":2174,"jenerasyon":2175,"lokan":2176,"pipet":2177,"tahdi":2178,"Ä±stakoz":2179,"mustat":2180,"enjeksiyon":2181,"bÃ¶lÃ¼m":2182,"fok":2183,"ileri":2184,"Ã¼st":2185,"makta":2186,"mimiz":2187,"alya":2188,"giden":2189,"madÄ±ydÄ±k":2190,"konsey":2191,"belde":2192,"pusula":2193,"ÅŁapkacÄ±":2194,"oynatÄ±cÄ±":2195,"manivela":2196,"Ã§akal":2197,"meÅŁrubat":2198,"dÃ¶vÃ¼ÅŁ":2199,"silindir":2200,"striptiz":2201,"jonglÃ¶r":2202,"biyen":2203,"giy":2204,"iyar":2205,"kÃ¼r":2206,"pur":2207,"palya":2208,"sec":2209,"skÃ¼":2210,"tay":2211,"top":2212,"ziyar":2213,"Ġbir":2214,"ĠdeÄŁiÅŁ":2215,"yatay":2216,"masu":2217,"malu":2218,"mari":2219,"matik":2220,"mid":2221,"mimari":2222,"izlen":2223,"unmatik":2224,"eniz":2225,"kolek":2226,"iÅŁlev":2227,"deney":2228,"sinag":2229,"mazot":2230,"otuz":2231,"yumur":2232,"kanl":2233,"baykuÅŁ":2234,"Ã§edar":2235,"iÃ§gÃ¼d":2236,"tab":2237,"rad":2238,"refer":2239,"Ã¶zne":2240,"Ã¶zgÃ¼r":2241,"bank":2242,"yerel":2243,"dokunmatik":2244,"toh":2245,"peskÃ¼":2246,"ideal":2247,"lezbiyen":2248,"interfaz":2249,"ebedil":2250,"Ġekran":2251,"yabancÄ±":2252,"battaniye":2253,"doktrin":2254,"aikido":2255,"numaralama":2256,"pilav":2257,"genelev":2258,"Ġdesen":2259,"palyaÃ§":2260,"secca":2261,"ziyaret":2262,"ĠdeÄŁiÅŁken":2263,"masumiyet":2264,"koleksiyon":2265,"sinagog":2266,"bÃ¼st":2267,"gol":2268,"sÄ±na":2269,"koku":2270,"leyecek":2271,"bilgi":2272,"puan":2273,"diÅŁli":2274,"devir":2275,"viÅŁne":2276,"basketbolcu":2277,"TiranlÄ±":2278,"kaside":2279,"kelepÃ§e":2280,"hÃ¼kÃ»met":2281,"mustatil":2282,"kÃ¼rke":2283,"aj":2284,"gÄ±t":2285,"glÄ±":2286,"hri":2287,"kla":2288,"kru":2289,"pis":2290,"sbaÄŁ":2291,"tat":2292,"vur":2293,"zayÄ±f":2294,"Ġistem":2295,"Ġgiden":2296,"mil":2297,"Ã§Ä±r":2298,"Ã§im":2299,"Ã§Ã¶z":2300,"dÄ±y":2301,"aygÄ±t":2302,"tÃ¼rev":2303,"gelen":2304,"vern":2305,"okiya":2306,"avize":2307,"keleb":2308,"kehri":2309,"dÃ¼ÅŁey":2310,"hasta":2311,"sevg":2312,"derleme":2313,"kopo":2314,"simil":2315,"salon":2316,"baÅŁkan":2317,"baÅŁvur":2318,"baraj":2319,"yaÄŁlayÄ±":2320,"tosbaÄŁ":2321,"sarÄ±m":2322,"popo":2323,"evlat":2324,"saÄŁrÄ±":2325,"lÃ¼gatÃ§e":2326,"BelgratlÄ±":2327,"protesto":2328,"KopenhaglÄ±":2329,"anjiyo":2330,"klatr":2331,"kruv":2332,"piskopo":2333,"Ã§Ã¶zel":2334,"kehribar":2335,"pa":2336,"rÃ¼":2337,"tavu":2338,"ÄŁÃ¼n":2339,"Ġolmuyor":2340,"kÄ±Ã§":2341,"bede":2342,"mÃ¼ÅŁsÃ¼nÃ¼z":2343,"virgÃ¼l":2344,"ÅŁahÄ±s":2345,"motorin":2346,"Ġprogramlama":2347,"kruvasan":2348,"tavuk":2349,"car":2350,"con":2351,"ew":2352,"forum":2353,"han":2354,"hir":2355,"lol":2356,"liliÄŁ":2357,"no":2358,"ner":2359,"tor":2360,"zam":2361,"Ġli":2362,"mesul":2363,"Ã§ip":2364,"sÄ±nÄ±n":2365,"erap":2366,"mÄ±zÄ±n":2367,"karna":2368,"meyhan":2369,"oterap":2370,"aÃ§Ä±lÄ±r":2371,"yalÄ±t":2372,"kaldÄ±r":2373,"ipop":2374,"sihir":2375,"tutku":2376,"tÃ¼tÃ¼":2377,"abadi":2378,"sizliÄŁ":2379,"view":2380,"papaÄŁ":2381,"pancar":2382,"model":2383,"doktor":2384,"madÄ±ydÄ±m":2385,"bahar":2386,"anasÄ±z":2387,"yÄ±ldÄ±r":2388,"kefalet":2389,"birlikt":2390,"yolcu":2391,"psikoterap":2392,"kÄ±yamet":2393,"salata":2394,"Ã§ekmece":2395,"ĠkÃ¶fte":2396,"klatrat":2397,"bedevi":2398,"control":2399,"lolipop":2400,"noh":2401,"nergi":2402,"mesuliyet":2403,"karnabahar":2404,"sihirbaz":2405,"leÄŁ":2406,"gemi":2407,"gece":2408,"derece":2409,"cami":2410,"vade":2411,"bayÄ±lma":2412,"mumya":2413,"mazdÄ±m":2414,"otomobilci":2415,"hiperbol":2416,"kÄ±zan":2417,"duymama":2418,"huni":2419,"huri":2420,"mucize":2421,"koruyucu":2422,"sahi":2423,"hÃ¼lya":2424,"peskÃ¼tan":2425,"papaÄŁan":2426,"Yah":2427,"esen":2428,"imin":2429,"rop":2430,"vey":2431,"vikipedi":2432,"yÃ¼z":2433,"ĠyÃ¼k":2434,"akvar":2435,"ÅŁam":2436,"Ã§er":2437,"Ã¶re":2438,"kalama":2439,"diyet":2440,"iket":2441,"etiket":2442,"dut":2443,"satran":2444,"ahkÃ¢":2445,"dÃ¶ÅŁam":2446,"iÃ§yÃ¼z":2447,"kiriÅŁ":2448,"kullanma":2449,"emmiyet":2450,"Ġfrek":2451,"gÃ¼nahkÃ¢":2452,"parÃ§a":2453,"ehemmiyet":2454,"ebediyet":2455,"havadan":2456,"pÄ±rasa":2457,"paÅŁa":2458,"Ã§orba":2459,"bermuda":2460,"cezerye":2461,"fare":2462,"video":2463,"papirÃ¼s":2464,"ayakkabÄ±cÄ±":2465,"batarya":2466,"sahife":2467,"Yahu":2468,"ropdÃ¶ÅŁam":2469,"ĠyÃ¼ksek":2470,"ropdÃ¶ÅŁamb":2471,"ÅŁal":2472,"meme":2473,"makina":2474,"dadÄ±":2475,"okul":2476,"dinleti":2477,"sakso":2478,"mayo":2479,"abacÄ±":2480,"mazdÄ±k":2481,"voleybolcu":2482,"sÃ¼lÃ¼s":2483,"Ġdizi":2484,"idare":2485,"zurna":2486,"laterna":2487,"kolonya":2488,"lokanta":2489,"nohut":2490,"vikipedist":2491,"kalamar":2492,"gÃ¼nahkÃ¢r":2493,"ropdÃ¶ÅŁambÄ±r":2494,"Zag":2495,"gÄ±nlÄ±k":2496,"hu":2497,"pÄ±":2498,"sorum":2499,"vis":2500,"Ã¼man":2501,"Ã¼vey":2502,"yasa":2503,"ĠoÄŁ":2504,"sÄ±ndan":2505,"enstr":2506,"eten":2507,"mamÄ±ÅŁsÄ±nÄ±z":2508,"mamÄ±ÅŁtÄ±n":2509,"Ã§eÃ§":2510,"amca":2511,"ĠhalÄ±":2512,"vida":2513,"bÃ¼yÃ¼c":2514,"veter":2515,"kerpeten":2516,"madÄ±ydÄ±n":2517,"balta":2518,"hamster":2519,"Ġsandalye":2520,"embriyo":2521,"Ġtahta":2522,"bastÄ±rma":2523,"Zagrep":2524,"sorumsuz":2525,"visk":2526,"enstrÃ¼man":2527,"tal":2528,"yÃ¶re":2529,"yorum":2530,"iÅŁÃ§i":2531,"mazmÄ±ÅŁÄ±z":2532,"mÄ±zdan":2533,"mamÄ±ÅŁmÄ±ÅŁsÄ±nÄ±z":2534,"mamÄ±ÅŁmÄ±ÅŁsÄ±n":2535,"manÄ±z":2536,"yarasa":2537,"Ã¼ye":2538,"dergi":2539,"yankÄ±":2540,"yavru":2541,"ÅŁaka":2542,"Musevi":2543,"iÅŁlemci":2544,"Ġsoru":2545,"sosisli":2546,"LefkoÅŁalÄ±":2547,"eniÅŁte":2548,"palyaÃ§o":2549,"seccade":2550,"enstrÃ¼mantal":2551,"alama":2552,"net":2553,"sÄ±nda":2554,"mamÄ±ÅŁtÄ±k":2555,"mÃ¼ÅŁler":2556,"sucu":2557,"yapÄ±ÅŁma":2558,"daÄŁÄ±tÄ±m":2559,"mayÄ±z":2560,"mayÄ±nÄ±z":2561,"metre":2562,"matla":2563,"kusma":2564,"sÄ±ralama":2565,"pirin":2566,"eziyetÃ§i":2567,"koÅŁucu":2568,"mandalina":2569,"teorem":2570,"semerci":2571,"ĠDabili":2572,"frizbi":2573,"cibin":2574,"milimetre":2575,"limonata":2576,"ÅŁÄ±rÄ±nga":2577,"veteriner":2578,"sucuk":2579,"muÅŁt":2580,"mamÄ±ÅŁtÄ±":2581,"mamÄ±ÅŁlarmÄ±ÅŁ":2582,"Ã¶rdek":2583,"mayÄ±n":2584,"bÄ±yÄ±k":2585,"ÅŁerbetÃ§i":2586,"Ã§apa":2587,"kasÄ±k":2588,"kamÃ§Ä±":2589,"iÅŁletme":2590,"yordam":2591,"karides":2592,"otobÃ¼s":2593,"puro":2594,"midye":2595,"izlence":2596,"yumurta":2597,"yo":2598,"Ġbel":2599,"orop":2600,"anÃ¼s":2601,"mayacakmÄ±ÅŁ":2602,"aÅŁÃ§Ä±":2603,"mamÄ±ÅŁÄ±m":2604,"karÄ±":2605,"memiÅŁim":2606,"ĠyapmÄ±yor":2607,"dina":2608,"kese":2609,"takÄ±":2610,"geri":2611,"dondurma":2612,"emlak":2613,"silgi":2614,"Ã§algÄ±Ã§":2615,"harÃ§":2616,"kavim":2617,"madÄ±ydÄ±nÄ±z":2618,"tÃ¼mce":2619,"Ã¶pÃ¼cÃ¼k":2620,"heykelcik":2621,"musluk":2622,"mÃ¼stahdem":2623,"ÅŁiÅŁlik":2624,"klorop":2625,"prens":2626,"Ġbirci":2627,"radyo":2628,"tatlÄ±":2629,"similya":2630,"yaÄŁlayÄ±cÄ±":2631,"Ġbellek":2632,"kloroplast":2633,"akrep":2634,"meta":2635,"lebi":2636,"mayacaÄŁÄ±m":2637,"mayacakmÄ±ÅŁsÄ±nÄ±z":2638,"ÅŁtÄ±":2639,"mazdÄ±nÄ±z":2640,"mamÄ±ÅŁÄ±z":2641,"kapÄ±":2642,"madÄ±lardÄ±":2643,"supap":2644,"ipek":2645,"uyru":2646,"ketÃ§ap":2647,"ikilem":2648,"leblebi":2649,"kavun":2650,"nene":2651,"deyim":2652,"ÅŁafak":2653,"girdap":2654,"kalÄ±p":2655,"baÅŁrahip":2656,"Ã¶ÄŁrenci":2657,"havuÃ§":2658,"Ã§imke":2659,"tosbaÄŁa":2660,"forumdaÅŁ":2661,"Ġliste":2662,"pirinÃ§":2663,"uyruk":2664,"fa":2665,"gaf":2666,"mayacaksÄ±n":2667,"mayacaklarmÄ±ÅŁ":2668,"mÄ±za":2669,"mamÄ±ÅŁtÄ±m":2670,"dÃ¶nem":2671,"rakÄ±":2672,"ofobi":2673,"daki":2674,"diÅŁlek":2675,"fahiÅŁe":2676,"mistik":2677,"karÅŁÄ±lÄ±k":2678,"porsuk":2679,"maskara":2680,"temsilcilik":2681,"tabiyet":2682,"metafaz":2683,"celik":2684,"eÃ§":2685,"sÃ¼k":2686,"tu":2687,"tul":2688,"mayacaktÄ±":2689,"mayacakmÄ±ÅŁÄ±z":2690,"alÄ±n":2691,"yapÄ±ncak":2692,"mazmÄ±ÅŁ":2693,"mÄ±zda":2694,"mamÄ±ÅŁmÄ±ÅŁ":2695,"kayak":2696,"gelinc":2697,"yarak":2698,"kireÃ§":2699,"sululuk":2700,"derviÅŁ":2701,"baÄŁcÄ±k":2702,"Ã¶zÃ¼r":2703,"Ã¶ncelik":2704,"yÃ¼ksÃ¼k":2705,"tÃ¼tsÃ¼":2706,"sÃ¼rtÃ¼klÃ¼k":2707,"Ã¶mÃ¼r":2708,"aynÅŁtaynyum":2709,"sebep":2710,"domates":2711,"meyhane":2712,"dakika":2713,"tulum":2714,"gelincik":2715,"plak":2716,"wiki":2717,"marat":2718,"mayacaktÄ±k":2719,"steri":2720,"tÃ¼rÃ¼":2721,"mazmÄ±ÅŁsÄ±nÄ±z":2722,"dildo":2723,"korse":2724,"batÄ±":2725,"salÄ±ncak":2726,"bardak":2727,"bakire":2728,"eziyetÃ§ilik":2729,"sÃ¶zcÃ¼":2730,"totemci":2731,"totemcilik":2732,"ÅŁehir":2733,"hareketlilik":2734,"Ã§iftlik":2735,"hinterlant":2736,"boks":2737,"skrotum":2738,"giysi":2739,"topoloji":2740,"baÅŁvuru":2741,"maraton":2742,"Ġderleyici":2743,"anÄ±z":2744,"mayacaksÄ±nÄ±z":2745,"mayacaklardÄ±":2746,"mayacaktÄ±n":2747,"mayacaktÄ±nÄ±z":2748,"kasap":2749,"aÅŁÄ±k":2750,"mamÄ±ÅŁlardÄ±":2751,"mamÄ±ÅŁtÄ±nÄ±z":2752,"kart":2753,"yuvarlÄ±yor":2754,"kuyu":2755,"terlik":2756,"Ã¢lim":2757,"alÄ±Ã§":2758,"kÄ±llÄ±k":2759,"yavÅŁak":2760,"cezve":2761,"Ġfikir":2762,"baÄŁÄ±rsak":2763,"sÃ¶zcÃ¼lÃ¼k":2764,"hÄ±Ã§kÄ±rÄ±k":2765,"Ã§evirim":2766,"gÃ¶mlek":2767,"salÃ§alÄ±k":2768,"borÃ§":2769,"iblis":2770,"Ġistemci":2771,"gaflet":2772,"bus":2773,"odak":2774,"Ã¼tÃ¼":2775,"mekik":2776,"Ã¶Ã§":2777,"alÄ±k":2778,"kokar":2779,"stop":2780,"aÄŁÄ±t":2781,"mazmÄ±ÅŁsÄ±n":2782,"mamÄ±ÅŁsÄ±n":2783,"memiÅŁlerdi":2784,"memiÅŁmiÅŁsiniz":2785,"memiÅŁlermiÅŁ":2786,"memiÅŁtim":2787,"gÃ¶steri":2788,"hastalÄ±k":2789,"otostop":2790,"kÃ¼tÃ¼k":2791,"sÃ¶zlÃ¼k":2792,"film":2793,"ucube":2794,"cevap":2795,"hata":2796,"kÃ¢bus":2797,"gÃ¼vensizlik":2798,"Ã§arpÄ±":2799,"ĠsineÄŁ":2800,"burun":2801,"beyit":2802,"albatros":2803,"diskotek":2804,"rÃ¼ya":2805,"dÃ¼y":2806,"gut":2807,"kili":2808,"sÃ¶ÄŁÃ¼t":2809,"site":2810,"angut":2811,"mayacaÄŁÄ±z":2812,"mayacakmÄ±ÅŁsÄ±n":2813,"mayacakmÄ±ÅŁÄ±m":2814,"mazmÄ±ÅŁÄ±m":2815,"memiÅŁtin":2816,"meyecektim":2817,"taraba":2818,"yengeÃ§":2819,"yenilik":2820,"seriyor":2821,"mÃ¼yorlar":2822,"eÄŁitim":2823,"yedek":2824,"kerpiÃ§":2825,"lastik":2826,"yutak":2827,"ekstremum":2828,"yoÄŁurt":2829,"vernik":2830,"sevgili":2831,"Yahudi":2832,"taÃ§":2833,"yapÄ±lacak":2834,"sunuyor":2835,"sindirim":2836,"mazsÄ±n":2837,"mazsÄ±nÄ±z":2838,"gÃ¼de":2839,"kÄ±rÄ±lÄ±yor":2840,"meyecekmiÅŁsin":2841,"dilim":2842,"yumuyor":2843,"dÃ¼ÅŁÃ¼nÃ¼yor":2844,"kullanÄ±lÄ±yor":2845,"oturuyor":2846,"unuzun":2847,"mediydi":2848,"mediydik":2849,"kedicik":2850,"kÄ±zlÄ±k":2851,"gÃ¼venlilik":2852,"bazalt":2853,"kuvvetsizlik":2854,"alamet":2855,"Ã¼cretsizlik":2856,"hapis":2857,"Ä±spanak":2858,"gerzek":2859,"kanlÄ±lÄ±k":2860,"ebedilik":2861,"Ã§Ä±rak":2862,"Ã§Ã¶zelti":2863,"kilise":2864,"ernek":2865,"memiÅŁmiÅŁsin":2866,"meyecektin":2867,"kÄ±ÅŁkÄ±rtÄ±yor":2868,"yaptÄ±rtÄ±yor":2869,"yaptÄ±rtmÄ±ÅŁ":2870,"ÅŁaÅŁÄ±rtmÄ±ÅŁ":2871,"betik":2872,"devin":2873,"kÃ¶ylÃ¼":2874,"Ã¶rÃ¼mcek":2875,"fiÅŁek":2876,"tahdit":2877,"malumat":2878,"deneyim":2879,"referans":2880,"tohum":2881,"kelebek":2882,"psikoterapi":2883,"nergis":2884,"Ã§erÃ§i":2885,"We":2886,"mam":2887,"Ã§elik":2888,"mayacaktÄ±m":2889,"yapÄ±lÄ±yor":2890,"dalacak":2891,"sinc":2892,"mazlarmÄ±ÅŁ":2893,"mamÄ±ÅŁmÄ±ÅŁÄ±m":2894,"meyin":2895,"memiÅŁsin":2896,"meyeceksin":2897,"meyecekmiÅŁsiniz":2898,"meyecekmiÅŁiz":2899,"bayÄ±lacak":2900,"kÄ±yacak":2901,"gÃ¶Ã§Ã¼yor":2902,"kaltak":2903,"sÃ¼zecek":2904,"deri":2905,"unuzu":2906,"unuzda":2907,"Ã¢ÅŁÄ±k":2908,"boÅŁanÄ±yor":2909,"mediydim":2910,"seÃ§iliyor":2911,"korkuyor":2912,"garp":2913,"ÅŁerbetÃ§ilik":2914,"arkadaÅŁlÄ±k":2915,"ambulans":2916,"ĠÅŁarap":2917,"iÃ§gÃ¼dÃ¼":2918,"sarÄ±msak":2919,"piskopos":2920,"Zagrepli":2921,"gÃ¼decek":2922,"devinim":2923,"Web":2924,"luÄŁ":2925,"uyacak":2926,"yalamÄ±ÅŁ":2927,"diyor":2928,"dirilecek":2929,"tÃ¼rÃ¼yor":2930,"mamÄ±ÅŁmÄ±ÅŁÄ±z":2931,"memiÅŁti":2932,"gecikecek":2933,"saklÄ±yor":2934,"uyaracak":2935,"kÄ±ÅŁkÄ±rtacak":2936,"yaptÄ±rtacak":2937,"kanÄ±tlÄ±yor":2938,"tepiyor":2939,"kovduruyor":2940,"anlatÄ±yor":2941,"karÄ±ÅŁtÄ±rtacak":2942,"Ã¶pÃ¼ÅŁÃ¼yor":2943,"bilim":2944,"kÃ¶pÃ¼rÃ¼yor":2945,"saldÄ±rÄ±yor":2946,"dÃ¶ndÃ¼recek":2947,"verdirtiyor":2948,"mediydiniz":2949,"Ã§Ä±ÄŁÄ±rtkanlÄ±k":2950,"mikrop":2951,"aygÄ±tÃ§Ä±k":2952,"yalÄ±tÄ±m":2953,"kaldÄ±raÃ§":2954,"controller":2955,"sincap":2956,"dÃ¼nÃ¼z":2957,"anÄ±yor":2958,"atÄ±lacak":2959,"uluyor":2960,"mezsiniz":2961,"mezdin":2962,"mezmiÅŁsin":2963,"mazlardÄ±":2964,"memiÅŁsiniz":2965,"memiÅŁtiniz":2966,"Ã¶lÃ§Ã¼":2967,"evlilik":2968,"bayÄ±lÄ±yor":2969,"sÃ¼zgeÃ§":2970,"sapÄ±yor":2971,"kurtarÄ±yor":2972,"taÅŁÄ±yor":2973,"geberiyor":2974,"ilklendirecek":2975,"gerekecek":2976,"gerekiyor":2977,"atÄ±ÅŁtÄ±racak":2978,"sattÄ±rtÄ±yor":2979,"Ġdikiyor":2980,"dalÄ±yor":2981,"kirletiyor":2982,"evlenmiÅŁ":2983,"aldatmÄ±ÅŁ":2984,"bitirecek":2985,"tanÄ±tacak":2986,"Ã§Ã¶kertiyor":2987,"yendirtiyor":2988,"meyeceÄŁiz":2989,"anasÄ±zlÄ±k":2990,"yÄ±ldÄ±rÄ±m":2991,"birliktelik":2992,"dinamit":2993,"luyor":2994,"Ġgelecek":2995,"mem":2996,"kaÅŁ":2997,"atÄ±lÄ±yor":2998,"yapÄ±yor":2999,"Ã¼zecek":3000,"aÅŁacak":3001,"mezmiÅŁsiniz":3002,"mÄ±yorsunuz":3003,"memiÅŁmiÅŁ":3004,"meyecektik":3005,"Ã§Ã¶kermiÅŁ":3006,"Ã§Ã¶keriyor":3007,"katÄ±lmÄ±ÅŁ":3008,"artacak":3009,"sÄ±zÄ±yor":3010,"seÃ§ilecek":3011,"coÅŁmuÅŁ":3012,"patlÄ±yor":3013,"Ġveriyor":3014,"horluyor":3015,"karÄ±ÅŁtÄ±rtmÄ±ÅŁ":3016,"sÃ¶kecek":3017,"sayacak":3018,"Ä±sÄ±racak":3019,"sÃ¼rÃ¼ndÃ¼rÃ¼yor":3020,"sesleniyor":3021,"kÄ±rdÄ±rmÄ±ÅŁ":3022,"ayÄ±racak":3023,"kapatÄ±yor":3024,"tÃ¼keniyor":3025,"unutuyor":3026,"sÃ¼mÃ¼rÃ¼yor":3027,"kurutacak":3028,"gÃ¼lÃ¼nÃ§leÅŁiyor":3029,"atÄ±ÅŁÄ±yor":3030,"yendirtecek":3031,"mediydin":3032,"dÃ¼zeltiyor":3033,"sikiliyor":3034,"mumluk":3035,"dizem":3036,"yÄ±kÄ±yor":3037,"akvaryum":3038,"satranÃ§":3039,"Ã¶lÃ§Ã¼lecek":3040,"pam":3041,"spam":3042,"Ġalacak":3043,"Ã§oÄŁul":3044,"arlar":3045,"dÃ¼rÃ¼yor":3046,"oluyor":3047,"mezmiÅŁ":3048,"mezdi":3049,"mezsin":3050,"mezdik":3051,"mezlerdi":3052,"mezlermiÅŁ":3053,"mazdÄ±n":3054,"memiÅŁtik":3055,"meyeceklerdi":3056,"meyecektiniz":3057,"asit":3058,"saymÄ±ÅŁ":3059,"utanmÄ±ÅŁ":3060,"utanÄ±yor":3061,"dÃ¼zÃ¼yor":3062,"katÄ±yor":3063,"bitiyor":3064,"medilerdi":3065,"korkacak":3066,"Ã¶ÄŁretiyor":3067,"sevecek":3068,"sikilecek":3069,"sÃ¼sÃ¼yor":3070,"kullanÄ±lmÄ±ÅŁ":3071,"sapacak":3072,"serecek":3073,"hastalanacak":3074,"kanÄ±tlamÄ±ÅŁ":3075,"yalvarÄ±yor":3076,"atÄ±ÅŁtÄ±rÄ±yor":3077,"sattÄ±rtacak":3078,"Ã§alacak":3079,"Ä±sÄ±rÄ±yor":3080,"aldatÄ±yor":3081,"ettiriyor":3082,"tanÄ±tmÄ±ÅŁ":3083,"Ã¶lÃ§tÃ¼rtÃ¼yor":3084,"diriliyor":3085,"gÃ¼dÃ¼yor":3086,"mÃ¼ÅŁteri":3087,"Ã¶nemsizlik":3088,"Ä±mÄ±n":3089,"bÃ¼rÃ¼mÃ¼ÅŁ":3090,"ehemmiyetlilik":3091,"bÃ¼yÃ¼cÃ¼":3092,"viski":3093,"erler":3094,"atÄ±lmÄ±ÅŁ":3095,"diriyor":3096,"sunacak":3097,"kÄ±rÄ±lacak":3098,"kÄ±rÄ±lmÄ±ÅŁ":3099,"verilecek":3100,"mÄ±yormuÅŁ":3101,"mÄ±yordu":3102,"mÄ±yorlarmÄ±ÅŁ":3103,"memiÅŁmiÅŁim":3104,"memiÅŁmiÅŁiz":3105,"sÃ¼rÃ¼yor":3106,"diliyor":3107,"asmÄ±ÅŁ":3108,"sayÄ±yor":3109,"kaynaÅŁtÄ±rÄ±lÄ±yor":3110,"kaynaÅŁtÄ±rÄ±lacak":3111,"kaynaÅŁtÄ±rÄ±lmÄ±ÅŁ":3112,"katÄ±lacak":3113,"canlandÄ±racak":3114,"yazÄ±yor":3115,"Ã¶ÄŁretmiÅŁ":3116,"kopuyor":3117,"uyarÄ±yor":3118,"paylaÅŁÄ±yor":3119,"paylaÅŁacak":3120,"bÃ¼rÃ¼yor":3121,"Ġverecek":3122,"taÅŁacak":3123,"onarmÄ±ÅŁ":3124,"hastalanÄ±yor":3125,"tepecek":3126,"ÅŁaÅŁÄ±rtÄ±yor":3127,"pusacak":3128,"kaÅŁÄ±mÄ±ÅŁ":3129,"kayboluyor":3130,"tutuyor":3131,"ĠaldÄ±racak":3132,"seslenecek":3133,"kÄ±rdÄ±rÄ±yor":3134,"geciktirmiÅŁ":3135,"geciktiriyor":3136,"kapatacak":3137,"tÃ¼kenmiÅŁ":3138,"atÄ±ÅŁacak":3139,"boÅŁalÄ±yor":3140,"meyeceÄŁim":3141,"esenlik":3142,"hudut":3143,"sorumsuzluk":3144,"dÃ¼m":3145,"Ġkutu":3146,"inmiÅŁ":3147,"yapmÄ±ÅŁ":3148,"Ã¼nÃ¼n":3149,"dÃ¼recek":3150,"aÄŁlamÄ±ÅŁ":3151,"mÄ±yordun":3152,"mÄ±yormuÅŁsun":3153,"memiÅŁiz":3154,"meyecekti":3155,"bÃ¼kecek":3156,"piÅŁiyor":3157,"dÃ¼zmÃ¼ÅŁ":3158,"katmÄ±ÅŁ":3159,"katacak":3160,"katÄ±lÄ±yor":3161,"baygÄ±nlÄ±k":3162,"aÃ§Ä±yor":3163,"takÄ±yor":3164,"canlandÄ±rtÄ±lacak":3165,"aldÄ±racak":3166,"yalÄ±yor":3167,"gÃ¶Ã§ecek":3168,"coÅŁuyor":3169,"Ġtam":3170,"Ã¶ÄŁretecek":3171,"patla":3172,"patlamÄ±ÅŁ":3173,"kullanÄ±lacak":3174,"benziyor":3175,"donduruyor":3176,"uyarmÄ±ÅŁ":3177,"yalvarmÄ±ÅŁ":3178,"Ã§almÄ±ÅŁ":3179,"yoksullaÅŁtÄ±rÄ±yor":3180,"soluyor":3181,"sÃ¶kÃ¼yor":3182,"kaybolmuÅŁ":3183,"sayar":3184,"daÄŁÄ±tÄ±yor":3185,"saldÄ±rmÄ±ÅŁ":3186,"utandÄ±rÄ±yor":3187,"unutacak":3188,"ettirmiÅŁ":3189,"uÄŁratÄ±yor":3190,"eÄŁleniyor":3191,"ĠsÄ±kÄ±ÅŁacak":3192,"birleÅŁecek":3193,"verdirtecek":3194,"seÃ§ilmiÅŁ":3195,"kalkmÄ±ÅŁ":3196,"ellemiÅŁ":3197,"pusuyor":3198,"Ġfrekans":3199,"ĠoÄŁul":3200,"Ġtamlama":3201,"inecek":3202,"atom":3203,"yapÄ±lmÄ±ÅŁ":3204,"elliyor":3205,"kokacak":3206,"aÄŁlÄ±yor":3207,"tanÄ±yor":3208,"Ã¶pmÃ¼ÅŁ":3209,"meyiz":3210,"mÄ±yorum":3211,"mÄ±yormuÅŁuz":3212,"kayb":3213,"meyecekmiÅŁ":3214,"meyecekmiÅŁim":3215,"meyeceklermiÅŁ":3216,"bÃ¼kÃ¼yor":3217,"boÅŁalacak":3218,"kaynaÅŁtÄ±rtÄ±lacak":3219,"artmÄ±ÅŁ":3220,"bayÄ±lmÄ±ÅŁ":3221,"aÃ§acak":3222,"canlandÄ±rmÄ±ÅŁ":3223,"canlandÄ±rÄ±yor":3224,"aldÄ±rmÄ±ÅŁ":3225,"yazmÄ±ÅŁ":3226,"yaÄŁlÄ±yor":3227,"sÃ¼zÃ¼yor":3228,"sÃ¼secek":3229,"sÃ¼smÃ¼ÅŁ":3230,"demliyor":3231,"sermiÅŁ":3232,"kurtaracak":3233,"ĠvermiÅŁ":3234,"taÅŁmÄ±ÅŁ":3235,"geberecek":3236,"tepmiÅŁ":3237,"yÄ±ÄŁmÄ±ÅŁ":3238,"anlatmÄ±ÅŁ":3239,"karÄ±ÅŁtÄ±rtÄ±yor":3240,"yetiÅŁmiÅŁ":3241,"bÃ¼ktÃ¼rÃ¼yor":3242,"sÄ±vÄ±laÅŁtÄ±rÄ±yor":3243,"sÃ¶vÃ¼yor":3244,"pusmuÅŁ":3245,"yÄ±kamÄ±ÅŁ":3246,"eÄŁitiyor":3247,"yapÄ±ÅŁÄ±yor":3248,"yapÄ±ÅŁacak":3249,"unuza":3250,"Ã¶ÄŁÃ¼tecek":3251,"ĠaldÄ±rmÄ±ÅŁ":3252,"ĠaldÄ±rÄ±yor":3253,"saydÄ±rmÄ±ÅŁ":3254,"saydÄ±rÄ±yor":3255,"kÃ¶pÃ¼recek":3256,"geciktirecek":3257,"Ä°ngilizceleÅŁtirmiÅŁ":3258,"TÃ¼rkÃ§eleÅŁtiriyor":3259,"uÄŁratacak":3260,"ĠsÄ±kÄ±ÅŁÄ±yor":3261,"Ã§Ã¶kertecek":3262,"gidilmiÅŁ":3263,"gidiliyor":3264,"kokuyor":3265,"uyuyor":3266,"kaÅŁÄ±yor":3267,"anacak":3268,"yapacak":3269,"olmuÅŁ":3270,"mezdiniz":3271,"mezmiÅŁim":3272,"Ã¶pecek":3273,"meyiniz":3274,"meyeceksiniz":3275,"bÃ¼kmÃ¼ÅŁ":3276,"artÄ±yor":3277,"iÃ§miÅŁ":3278,"iÃ§iyor":3279,"sakla":3280,"Ã¶ldÃ¼rtÃ¼yor":3281,"yazacak":3282,"yaÄŁlamÄ±ÅŁ":3283,"gÃ¶Ã§mÃ¼ÅŁ":3284,"kalkacak":3285,"gezecek":3286,"sapmÄ±ÅŁ":3287,"paylaÅŁmÄ±ÅŁ":3288,"gÃ¶tÃ¼rÃ¼yor":3289,"horlamÄ±ÅŁ":3290,"dadanacak":3291,"ÅŁaÅŁÄ±rtacak":3292,"sattÄ±rtmÄ±ÅŁ":3293,"anlatacak":3294,"yetiÅŁiyor":3295,"bÃ¼ktÃ¼recek":3296,"sÄ±vÄ±laÅŁtÄ±rmÄ±ÅŁ":3297,"Ã¶lÃ§Ã¼lmÃ¼ÅŁ":3298,"muyorlar":3299,"sanmÄ±ÅŁ":3300,"unuzdan":3301,"Ã¶ÄŁÃ¼tmÃ¼ÅŁ":3302,"Ä±sÄ±rmÄ±ÅŁ":3303,"sÃ¼rÃ¼ndÃ¼recek":3304,"seslenmiÅŁ":3305,"kÄ±rdÄ±racak":3306,"kÃ¶pÃ¼rmÃ¼ÅŁ":3307,"evleniyor":3308,"ayÄ±rmÄ±ÅŁ":3309,"tÃ¼kÃ¼recek":3310,"Ã¼ÅŁenmiÅŁ":3311,"boÅŁanmÄ±ÅŁ":3312,"utandÄ±racak":3313,"Ä°ngilizceleÅŁtirecek":3314,"kaÃ§Ä±rÄ±yor":3315,"kurutuyor":3316,"eÄŁlenmiÅŁ":3317,"atÄ±ÅŁmÄ±ÅŁ":3318,"verdirtmiÅŁ":3319,"dÃ¼rtecek":3320,"Ġgeliyor":3321,"verilmiÅŁ":3322,"veriliyor":3323,"ĠmÃ¼ydÃ¼nÃ¼z":3324,"benzemiÅŁ":3325,"yumacak":3326,"kaybolacak":3327,"iniyor":3328,"demiÅŁ":3329,"aÄŁla":3330,"aÅŁÄ±yor":3331,"mezmiÅŁiz":3332,"Ã¶pÃ¼yor":3333,"mÄ±yorsun":3334,"mÄ±yordunuz":3335,"Ã§Ã¶kerecek":3336,"gecikiyor":3337,"gidilecek":3338,"bitmiÅŁ":3339,"bitecek":3340,"sÄ±zacak":3341,"takacak":3342,"iÃ§ecek":3343,"sÃ¼zmÃ¼ÅŁ":3344,"donduracak":3345,"deÄŁiÅŁiyor":3346,"yuvarlamÄ±ÅŁ":3347,"kÄ±ÅŁkÄ±rtmÄ±ÅŁ":3348,"gÃ¶tÃ¼recek":3349,"kovdurmuÅŁ":3350,"kovduracak":3351,"yÄ±ÄŁacak":3352,"Ã§alÄ±yor":3353,"dalmÄ±ÅŁ":3354,"sanacak":3355,"yapÄ±ÅŁmÄ±ÅŁ":3356,"saydÄ±racak":3357,"ayÄ±rÄ±yor":3358,"aldatacak":3359,"iyileÅŁtirmiÅŁ":3360,"iyileÅŁtiriyor":3361,"Ä°ngilizceleÅŁtiriyor":3362,"kaÃ§Ä±rmÄ±ÅŁ":3363,"TÃ¼rkÃ§eleÅŁtirmiÅŁ":3364,"TÃ¼rkÃ§eleÅŁtirecek":3365,"gÃ¼lÃ¼nÃ§leÅŁmiÅŁ":3366,"delirecek":3367,"deÄŁiÅŁtirmiÅŁ":3368,"dirilmiÅŁ":3369,"dÃ¼rtÃ¼yor":3370,"dÃ¼zeltecek":3371,"kaynaÅŁtÄ±rtÄ±lÄ±yor":3372,"ĠalÄ±yor":3373,"sÃ¼rÃ¼mÃ¼ÅŁ":3374,"eceÄŁim":3375,"diremiÅŁ":3376,"gÃ¼tmÃ¼ÅŁ":3377,"tiy":3378,"yÃ¶n":3379,"enin":3380,"dÃ¼rmÃ¼ÅŁ":3381,"mezdim":3382,"varmÄ±ÅŁ":3383,"mÄ±yorduk":3384,"mÄ±yordum":3385,"asacak":3386,"geliyor":3387,"aÃ§mÄ±ÅŁ":3388,"sÃ¼necek":3389,"sÃ¼nÃ¼yor":3390,"gezmiÅŁ":3391,"seviyor":3392,"dÃ¼ÅŁÃ¼necek":3393,"dondurmuÅŁ":3394,"kopmuÅŁ":3395,"ulumuÅŁ":3396,"onarÄ±yor":3397,"hastalanmÄ±ÅŁ":3398,"ilklendiriyor":3399,"oturacak":3400,"yalvaracak":3401,"atÄ±ÅŁtÄ±rmÄ±ÅŁ":3402,"ĠdikmiÅŁ":3403,"Ġdikecek":3404,"Ã¶pÃ¼ÅŁecek":3405,"sÃ¶vecek":3406,"kÄ±yÄ±yor":3407,"solumuÅŁ":3408,"tutmuÅŁ":3409,"Ã¶ÄŁÃ¼tÃ¼yor":3410,"evlenecek":3411,"tÃ¼kÃ¼rÃ¼yor":3412,"ettirecek":3413,"sÃ¼mÃ¼recek":3414,"dÃ¶ndÃ¼rÃ¼yor":3415,"delirmiÅŁ":3416,"deÄŁiÅŁtirecek":3417,"tanÄ±tÄ±yor":3418,"Ã§Ã¶kertmiÅŁ":3419,"baÅŁÃ§Ä±k":3420,"canlandÄ±rtÄ±lÄ±yor":3421,"kokmuÅŁ":3422,"demlemiÅŁ":3423,"yÃ¶nel":3424,"dÃ¼k":3425,"mun":3426,"aÅŁmÄ±ÅŁ":3427,"sunmuÅŁ":3428,"mÄ±yoruz":3429,"mÄ±yormuÅŁsunuz":3430,"utanacak":3431,"sÄ±zmÄ±ÅŁ":3432,"gÃ¶tÃ¼rmÃ¼ÅŁ":3433,"dadanÄ±yor":3434,"oturmuÅŁ":3435,"yÄ±ÄŁÄ±yor":3436,"yetiÅŁecek":3437,"kapamÄ±ÅŁ":3438,"sanÄ±yor":3439,"eÄŁitecek":3440,"kirletecek":3441,"tÃ¼kÃ¼rmÃ¼ÅŁ":3442,"Ã¼ÅŁenecek":3443,"Ã¼ÅŁeniyor":3444,"iyileÅŁtirecek":3445,"kaÃ§Ä±racak":3446,"dÃ¶ndÃ¼rmÃ¼ÅŁ":3447,"eÄŁlenecek":3448,"gÃ¼ceniyor":3449,"bitirmiÅŁ":3450,"birleÅŁiyor":3451,"deÄŁiÅŁtiriyor":3452,"Ã¶lÃ§tÃ¼rtecek":3453,"canlandÄ±rtÄ±lmÄ±ÅŁ":3454,"ĠgelmiÅŁ":3455,"ĠalmÄ±ÅŁ":3456,"boÅŁalmÄ±ÅŁ":3457,"korkmuÅŁ":3458,"ĠÃ§i":3459,"yala":3460,"varÄ±yor":3461,"satmÄ±ÅŁ":3462,"asÄ±yor":3463,"piÅŁmiÅŁ":3464,"piÅŁecek":3465,"aldÄ±rÄ±yor":3466,"dernek":3467,"kopacak":3468,"uymuÅŁ":3469,"deÄŁiÅŁecek":3470,"kurtarmÄ±ÅŁ":3471,"yuvarla":3472,"ilklendirmiÅŁ":3473,"Ã¶pÃ¼ÅŁmÃ¼ÅŁ":3474,"sÄ±vÄ±laÅŁtÄ±racak":3475,"daÄŁÄ±tacak":3476,"sÃ¼rÃ¼ndÃ¼rmÃ¼ÅŁ":3477,"saldÄ±racak":3478,"kapatmÄ±ÅŁ":3479,"kurutmuÅŁ":3480,"gÃ¼cenmiÅŁ":3481,"gÃ¼cenecek":3482,"bitiriyor":3483,"deliriyor":3484,"Ã¶lÃ§tÃ¼rtmÃ¼ÅŁ":3485,"dÃ¼zeltmiÅŁ":3486,"kaynaÅŁtÄ±rtÄ±lmÄ±ÅŁ":3487,"sikilmiÅŁ":3488,"ĠmÃ¼ydÃ¼":3489,"ĠmÃ¼ydÃ¼m":3490,"Ã¼zÃ¼yor":3491,"varacak":3492,"mÄ±yormuÅŁum":3493,"gelmiÅŁ":3494,"takmÄ±ÅŁ":3495,"tanÄ±mÄ±ÅŁ":3496,"Ã¶ldÃ¼rtecek":3497,"coÅŁacak":3498,"geziyor":3499,"horla":3500,"gebermiÅŁ":3501,"dadanmÄ±ÅŁ":3502,"gerekmiÅŁ":3503,"Ã¶lÃ§Ã¼lÃ¼yor":3504,"sÃ¶vmÃ¼ÅŁ":3505,"tutacak":3506,"kirletmiÅŁ":3507,"utandÄ±rmÄ±ÅŁ":3508,"tÃ¼kenecek":3509,"unutmuÅŁ":3510,"sÃ¼mÃ¼rmÃ¼ÅŁ":3511,"uÄŁratmÄ±ÅŁ":3512,"ĠsÄ±kÄ±ÅŁmÄ±ÅŁ":3513,"birleÅŁmiÅŁ":3514,"yendirtmiÅŁ":3515,"kalkÄ±yor":3516,"rÄ±l":3517,"zincir":3518,"anmÄ±ÅŁ":3519,"ayrÄ±l":3520,"satacak":3521,"tam":3522,"sevmiÅŁ":3523,"deÄŁiÅŁmiÅŁ":3524,"onaracak":3525,"sÃ¶kmÃ¼ÅŁ":3526,"kÄ±ymÄ±ÅŁ":3527,"eÄŁitmiÅŁ":3528,"daÄŁÄ±tmÄ±ÅŁ":3529,"boÅŁanacak":3530,"dÃ¼rtmÃ¼ÅŁ":3531,"ĠmÃ¼ydÃ¼n":3532,"eceÄŁiz":3533,"deniz":3534,"kÄ±rÄ±lÄ±r":3535,"dÃ¼zecek":3536,"katÄ±lÄ±r":3537,"saklamÄ±ÅŁ":3538,"tÄ±lar":3539,"sÃ¼nmÃ¼ÅŁ":3540,"dÃ¼ÅŁÃ¼nmÃ¼ÅŁ":3541,"bÃ¼ktÃ¼rmÃ¼ÅŁ":3542,"yoksullaÅŁtÄ±rmÄ±ÅŁ":3543,"yummuÅŁ":3544,"tÃ¼remiÅŁ":3545,"ĠdÃ¶rtgen":3546,"Ã¼ne":3547,"Ã¼zmÃ¼ÅŁ":3548,"gÃ¼der":3549,"mÄ±yorlardÄ±":3550,"satÄ±yor":3551,"gecikmiÅŁ":3552,"Ã¶ldÃ¼rtmÃ¼ÅŁ":3553,"yaptÄ±rtÄ±r":3554,"kanÄ±tla":3555,"Ã¶ldÃ¼rtÃ¼lÃ¼yor":3556,"gÃ¼lÃ¼nÃ§leÅŁecek":3557,"umuza":3558,"ayrÄ±lma":3559,"dilmiÅŁ":3560,"yoksullaÅŁtÄ±racak":3561,"daÄŁÄ±tÄ±r":3562,"sÃ¼rÃ¼ndÃ¼rÃ¼r":3563,"umuzun":3564,"yapÄ±lÄ±r":3565,"Ã¼nÃ¼":3566,"mize":3567,"yendirtir":3568,"kÄ±yar":3569,"tÄ±ydÄ±":3570,"Ġverir":3571,"Ã¶ldÃ¼rtÃ¼lÃ¼r":3572,"umuzu":3573,"umuzda":3574,"umuzdan":3575,"Ã¼nde":3576,"ulur":3577,"kapÄ±yor":3578,"ĠÃ§ekmiyor":3579,"bayÄ±lÄ±r":3580,"Ä±sÄ±":3581,"ĠmÃ¼ydÃ¼k":3582,"sÃ¶ker":3583,"laÄŁ":3584,"Ä±lÄ±ÄŁ":3585,"mizin":3586,"verdirtir":3587,"Ã§Ã¶kertir":3588,"sattÄ±rtÄ±r":3589,"canlandÄ±rtÄ±lÄ±r":3590,"miniz":3591,"Ġbili":3592,"yalayacak":3593,"kaÅŁÄ±r":3594,"Ã¼zer":3595,"aÄŁlayacak":3596,"tÃ¼rer":3597,"mizden":3598,"canlanmamÄ±ÅŁ":3599,"dÃ¼zer":3600,"aÃ§ar":3601,"canlandÄ±rÄ±r":3602,"iÃ§er":3603,"tanÄ±tÄ±r":3604,"yaÄŁlayacak":3605,"korkar":3606,"demler":3607,"uyarÄ±r":3608,"teper":3609,"Ã¶lÃ§tÃ¼rtÃ¼r":3610,"kaÅŁÄ±yacak":3611,"kapayacak":3612,"saydÄ±rÄ±r":3613,"tÃ¼kÃ¼rÃ¼r":3614,"kaÃ§Ä±rÄ±r":3615,"sÃ¼mÃ¼rÃ¼r":3616,"ĠalÄ±r":3617,"diyecek":3618,"acaÄŁÄ±m":3619,"Ġdur":3620,"yapar":3621,"eller":3622,"aÅŁar":3623,"sever":3624,"mizde":3625,"asÄ±":3626,"miyorlarmÄ±ÅŁ":3627,"miyormuÅŁsunuz":3628,"Ã¶ldÃ¼rtÃ¼r":3629,"kopar":3630,"paylaÅŁÄ±r":3631,"bÃ¼rÃ¼r":3632,"kÄ±ÅŁkÄ±rtÄ±r":3633,"gÃ¶tÃ¼rÃ¼r":3634,"yoksullaÅŁtÄ±rÄ±r":3635,"Ã¶ldÃ¼rtÃ¼lmemiÅŁ":3636,"Ã¶lÃ§Ã¼lÃ¼r":3637,"kirletir":3638,"kapatÄ±r":3639,"eÄŁlenir":3640,"gidilir":3641,"kaynaÅŁtÄ±rtÄ±lÄ±r":3642,"Ġgelir":3643,"boÅŁalÄ±r":3644,"imi":3645,"anar":3646,"miyorlardÄ±":3647,"piÅŁer":3648,"takar":3649,"sapar":3650,"uluyacak":3651,"kurtarÄ±r":3652,"geberir":3653,"dadanÄ±r":3654,"kovdurur":3655,"karÄ±ÅŁtÄ±rtÄ±r":3656,"yetiÅŁir":3657,"seslenir":3658,"kÃ¶pÃ¼rÃ¼r":3659,"TÃ¼rkÃ§eleÅŁtirir":3660,"delirir":3661,"dirilir":3662,"acaÄŁÄ±z":3663,"Ã§iliÄŁ":3664,"elleyecek":3665,"Ã¼nden":3666,"dÃ¼rter":3667,"tanÄ±r":3668,"mizi":3669,"Ã¶per":3670,"sÃ¼rÃ¼r":3671,"yÄ±kar":3672,"gelir":3673,"miyorsunuz":3674,"Ġsite":3675,"saklayacak":3676,"yazar":3677,"gÃ¶Ã§er":3678,"sÃ¼ner":3679,"kalkar":3680,"sÃ¼zer":3681,"sÃ¼ser":3682,"yuvarlayacak":3683,"horlar":3684,"ÅŁaÅŁÄ±rtÄ±r":3685,"soluyacak":3686,"yapÄ±ÅŁÄ±r":3687,"ĠaldÄ±rÄ±r":3688,"evlenir":3689,"unutur":3690,"sikilir":3691,"yumar":3692,"mÄ±n":3693,"atÄ±lÄ±r":3694,"eliÄŁ":3695,"aÄŁÄ±":3696,"olur":3697,"kÄ±rÄ±ÄŁ":3698,"gelin":3699,"miyormuÅŁ":3700,"miyorsun":3701,"miyormuÅŁum":3702,"artar":3703,"aldÄ±rÄ±r":3704,"gezer":3705,"demleyecek":3706,"deÄŁiÅŁir":3707,"horlayacak":3708,"ilklendirir":3709,"oturur":3710,"atÄ±ÅŁtÄ±rÄ±r":3711,"anlatÄ±r":3712,"sanÄ±r":3713,"Ä±sÄ±rÄ±r":3714,"kÄ±rdÄ±rÄ±r":3715,"Ã¼ÅŁenir":3716,"boÅŁanÄ±r":3717,"iyileÅŁtirir":3718,"dÃ¶ndÃ¼rÃ¼r":3719,"uÄŁratÄ±r":3720,"atÄ±ÅŁÄ±r":3721,"seÃ§ilir":3722,"leyic":3723,"dÄ±ydÄ±m":3724,"dÄ±ydÄ±n":3725,"dÄ±ydÄ±nÄ±z":3726,"Ġad":3727,"Ġkon":3728,"demi":3729,"dÃ¼rer":3730,"direyecek":3731,"karan":3732,"veri":3733,"varÄ±r":3734,"canlanmÄ±yor":3735,"kapar":3736,"yÄ±lan":3737,"bÃ¼ker":3738,"biter":3739,"coÅŁar":3740,"Ã¶ÄŁretir":3741,"Ã¶ÄŁÃ¼tÃ¼r":3742,"yuvarlar":3743,"dÃ¼zeltir":3744,"pusar":3745,"yÄ±kayacak":3746,"tutar":3747,"geciktirir":3748,"saldÄ±rÄ±r":3749,"kurutur":3750,"ĠsÄ±kÄ±ÅŁÄ±r":3751,"birleÅŁir":3752,"ĠÃ§ileÄŁ":3753,"liy":3754,"Ä±za":3755,"dalar":3756,"sunar":3757,"satar":3758,"utanÄ±r":3759,"sÄ±zar":3760,"dÃ¼ÅŁÃ¼nÃ¼r":3761,"serer":3762,"kanÄ±tlar":3763,"kaybolur":3764,"umun":3765,"ayÄ±rÄ±r":3766,"utandÄ±rÄ±r":3767,"tÃ¼kenir":3768,"gÃ¼lÃ¼nÃ§leÅŁir":3769,"bitirir":3770,"dÄ±ydÄ±k":3771,"ciliÄŁ":3772,"hi":3773,"kek":3774,"ÅŁtay":3775,"direr":3776,"tÃ¼reyecek":3777,"Ã§Ã¶kerir":3778,"miyoruz":3779,"miyormuÅŁsun":3780,"sÃ¶ver":3781,"dondurur":3782,"bÃ¼rÃ¼yecek":3783,"onarÄ±r":3784,"hastalanÄ±r":3785,"kanÄ±tlayacak":3786,"yalvarÄ±r":3787,"bÃ¼ktÃ¼rÃ¼r":3788,"Ã¶pÃ¼ÅŁÃ¼r":3789,"solur":3790,"Ã¶ldÃ¼rtÃ¼lÃ¼yecek":3791,"eÄŁitir":3792,"ettirir":3793,"Ġhar":3794,"zincirleme":3795,"Ġbilimi":3796,"neÄŁ":3797,"Ã¼ÄŁ":3798,"dÄ±lardÄ±":3799,"miyorum":3800,"miyordun":3801,"gecikir":3802,"yaÄŁlar":3803,"patlar":3804,"patlayacak":3805,"kullanÄ±lÄ±r":3806,"benzeyecek":3807,"taÅŁar":3808,"Ã¢li":3809,"verilir":3810,"ceÄŁ":3811,"yalar":3812,"Ġyapmayacak":3813,"asar":3814,"miyordu":3815,"miyorduk":3816,"katar":3817,"gerekir":3818,"yÄ±ÄŁar":3819,"sÄ±vÄ±laÅŁtÄ±rÄ±r":3820,"alÄ±ÄŁ":3821,"Ã¼mÃ¼zÃ¼":3822,"ĠsineÄŁi":3823,"ab":3824,"Ä±ncaÄŁ":3825,"ĠolmamÄ±ÅŁ":3826,"miyormuÅŁuz":3827,"tanÄ±yacak":3828,"Ġdiker":3829,"Ã¼nÃ¼zÃ¼":3830,"Ã¼nÃ¼zden":3831,"Ä°ngilizceleÅŁtirir":3832,"gÃ¼cenir":3833,"Ã¼mÃ¼zÃ¼n":3834,"fon":3835,"vek":3836,"Ġb":3837,"ĠÄ±ÅŁ":3838,"Ġkur":3839,"Ġsu":3840,"irt":3841,"alfa":3842,"armut":3843,"ĠyapmamÄ±ÅŁ":3844,"kaynaÅŁtÄ±rÄ±lÄ±r":3845,"Ã¼nÃ¼zÃ¼n":3846,"kenar":3847,"Ã¼mÃ¼ze":3848,"Ã¼mÃ¼zden":3849,"konvek":3850,"belirt":3851,"muzun":3852,"Ġharf":3853,"konveks":3854,"tÃ¼y":3855,"izi":3856,"aÄŁlar":3857,"sundan":3858,"Ġyapmaz":3859,"sÃ¼rÃ¼yecek":3860,"miyordum":3861,"Ã¼sÃ¼nÃ¼z":3862,"saklar":3863,"ĠmÃ¼sÃ¼nÃ¼z":3864,"ĠmÃ¼ymÃ¼ÅŁsÃ¼nÃ¼z":3865,"Ã¼nÃ¼ze":3866,"aldatÄ±r":3867,"deÄŁiÅŁtirir":3868,"Ã¼mÃ¼zde":3869,"muzdan":3870,"yÃ¶nelme":3871,"bÃ¶":3872,"gal":3873,"Ġuz":3874,"Ġku":3875,"ĠÃ¼Ã§":3876,"layan":3877,"muk":3878,"suna":3879,"haf":3880,"sÃ¶zdiz":3881,"dÃ¼ler":3882,"ĠmÃ¼ymÃ¼ÅŁÃ¼z":3883,"tamlayan":3884,"karanlÄ±k":3885,"cÄ±lÄ±k":3886,"culuk":3887,"mÃ¼ÅŁÃ¼z":3888,"mÃ¼ÅŁÃ¼m":3889,"tÄ±y":3890,"ĠdeÄŁiller":3891,"ĠmÃ¼ymÃ¼ÅŁsÃ¼n":3892,"muzda":3893,"ĠmÃ¼ymÃ¼ÅŁÃ¼m":3894,"Ġkutusu":3895,"ĠtamlamasÄ±":3896,"aman":3897,"zaman":3898,"Ġte":3899,"sunda":3900,"ĠmÃ¼sÃ¼n":3901,"ĠÃ¼Ã§gen":3902,"Ã¼ÄŁÃ¼n":3903,"sunun":3904,"ĠmÃ¼yÃ¼m":3905,"tiler":3906,"liÄŁi":3907,"muza":3908,"Ġhali":3909,"voleybol":3910,"muÅŁtu":3911,"bek":3912,"anÄ±n":3913,"kasÄ±":3914,"dilerdi":3915,"onuz":3916,"canlanmayacak":3917,"miyordunuz":3918,"Ġsiste":3919,"derleyic":3920,"ĠmÃ¼yÃ¼z":3921,"Ã¼nÃ¼zde":3922,"lÃ¼ÄŁ":3923,"Ã§Ä±kma":3924,"moloji":3925,"Ä±zda":3926,"eker":3927,"muzu":3928,"ĠÃ§ileÄŁi":3929,"imimiz":3930,"ob":3931,"ĠgÃ¼r":3932,"dular":3933,"canlanmaz":3934,"diydi":3935,"diydik":3936,"Ä±zÄ±":3937,"Ä±zÄ±n":3938,"manÄ±n":3939,"ĠÃ§ekmez":3940,"bÃ¼kmÃ¼yor":3941,"saklamÄ±yor":3942,"ulumuyor":3943,"Ã¶ÄŁÃ¼tmÃ¼yor":3944,"kokmuyor":3945,"diydiniz":3946,"Ġdurumu":3947,"Ã¼ÅŁt":3948,"uluÄŁ":3949,"Ã¶ldÃ¼rtmÃ¼yor":3950,"kopmuyor":3951,"yuvarlamÄ±yor":3952,"gÃ¶tÃ¼rmÃ¼yor":3953,"horlamÄ±yor":3954,"horlamamÄ±ÅŁ":3955,"solumuyor":3956,"sÃ¼mÃ¼rmÃ¼yor":3957,"kurutmuyor":3958,"gÃ¼tmÃ¼yor":3959,"diydim":3960,"ĠyazÄ±lÄ±mÄ±n":3961,"ÅŁarkÄ±":3962,"ĠgÃ¼reÅŁ":3963,"cÄ±sÄ±":3964,"yalamamÄ±ÅŁ":3965,"yalamayacak":3966,"ansÄ±":3967,"dÃ¼rmÃ¼yor":3968,"sunmuyor":3969,"manda":3970,"ĠÃ§ekmeyecek":3971,"sÃ¼zmÃ¼yor":3972,"uymuyor":3973,"yuvarlamamÄ±ÅŁ":3974,"kanÄ±tlamÄ±yor":3975,"kovdurmuyor":3976,"kaybolmuyor":3977,"tÃ¼kÃ¼rmÃ¼yor":3978,"plaÄŁ":3979,"ÅŁi":3980,"metin":3981,"dede":3982,"izin":3983,"izden":3984,"Ã¼zmÃ¼yor":3985,"aÄŁlamÄ±yor":3986,"aÄŁlamamÄ±ÅŁ":3987,"Ã¶pmÃ¼yor":3988,"ĠmiymiÅŁler":3989,"Ġmiydiler":3990,"Ã¼sÃ¼":3991,"dondurmuyor":3992,"cÄ±ÄŁ":3993,"kanÄ±tlamamÄ±ÅŁ":3994,"eye":3995,"sÃ¶kmÃ¼yor":3996,"Ã¶lÃ§Ã¼lmÃ¼yor":3997,"sÃ¼rÃ¼ndÃ¼rmÃ¼yor":3998,"Ã¶lÃ§tÃ¼rtmÃ¼yor":3999,"korkmuyor":4000,"Ã§algÄ±c":4001,"minden":4002,"diydin":4003,"eziyetÃ§iliÄŁ":4004,"heykelciÄŁ":4005,"Ã¼cretsizliÄŁ":4006,"ada":4007,"ile":4008,"Ä±ÅŁtÄ±":4009,"yalamÄ±yor":4010,"Ä±zdan":4011,"kayaÄŁ":4012,"izde":4013,"olmuyor":4014,"gÃ¶Ã§mÃ¼yor":4015,"patlamÄ±yor":4016,"patlamamÄ±ÅŁ":4017,"yuvarlamaz":4018,"horlamayacak":4019,"kanÄ±tlamaz":4020,"oturmuyor":4021,"bÃ¼ktÃ¼rmÃ¼yor":4022,"yummuyor":4023,"sÃ¼rÃ¼mÃ¼yor":4024,"bÃ¼rÃ¼mÃ¼yor":4025,"Ã¶rÃ¼mceÄŁ":4026,"munuz":4027,"Ġsitesi":4028,"kasÄ±ÄŁ":4029,"cuÄŁ":4030,"dayÄ±f":4031,"tart":4032,"ĠpaylaÅŁ":4033,"ĠkuÅŁ":4034,"Ġsunucu":4035,"ĠWeb":4036,"yalamaz":4037,"kasa":4038,"kadÄ±n":4039,"kadayÄ±f":4040,"araÃ§":4041,"sinek":4042,"meyve":4043,"ĠÃ§ekmemiÅŁ":4044,"sucuÄŁ":4045,"evliliÄŁ":4046,"saklamaz":4047,"sÃ¼nmÃ¼yor":4048,"hastalÄ±ÄŁ":4049,"kalt":4050,"patlamayacak":4051,"delirmez":4052,"sÃ¼smÃ¼yor":4053,"basÄ±n":4054,"kanÄ±tlamayacak":4055,"pusmuyor":4056,"kÃ¶pÃ¼rmÃ¼yor":4057,"unutmuyor":4058,"dÃ¶ndÃ¼rmÃ¼yor":4059,"indek":4060,"minde":4061,"kediciÄŁ":4062,"kÄ±zlÄ±ÄŁ":4063,"kÃ¢bu":4064,"altdiz":4065,"Ã¶lÃ¼msÃ¼z":4066,"sosyal":4067,"musluÄŁ":4068,"arkadaÅŁlÄ±ÄŁ":4069,"hareketliliÄŁ":4070,"Ġkonfer":4071,"Ġsistemi":4072,"tartÄ±":4073,"ĠpaylaÅŁÄ±m":4074,"tav":4075,"Ã¶c":4076,"enden":4077,"aÄŁlamayacak":4078,"aÅŁÄ±ÄŁ":4079,"dÃ¼zmÃ¼yor":4080,"yaraÄŁ":4081,"bitirmez":4082,"saklamayacak":4083,"sululuÄŁ":4084,"yuvarlamayacak":4085,"horlamaz":4086,"deÄŁiÅŁtirmez":4087,"reÃ§":4088,"tÃ¼ler":4089,"dÃ¼rtmÃ¼yor":4090,"lÃ¼ÄŁÃ¼n":4091,"mini":4092,"mumluÄŁ":4093,"konu":4094,"kÄ±llÄ±ÄŁ":4095,"bÄ±yÄ±ÄŁ":4096,"mÃ¼ÅŁtÃ¼k":4097,"aynÅŁtaynyu":4098,"baÄŁÄ±rsaÄŁ":4099,"hÄ±Ã§kÄ±rÄ±ÄŁ":4100,"ekstremu":4101,"fiÅŁeÄŁ":4102,"gelinciÄŁ":4103,"tavuÄŁ":4104,"KÃ¼r":4105,"bom":4106,"fÃ¼z":4107,"gru":4108,"igu":4109,"jan":4110,"pla":4111,"peri":4112,"spa":4113,"tet":4114,"uc":4115,"uf":4116,"vaf":4117,"Ġka":4118,"Ġdal":4119,"ĠÃ§a":4120,"Ġpar":4121,"ĠkÄ±l":4122,"Ġyol":4123,"Ġvoleybol":4124,"Ġada":4125,"Ġgru":4126,"Ġuf":4127,"ÅŁiz":4128,"latÄ±":4129,"mekiÄŁ":4130,"maÅŁÄ±r":4131,"Ã§Ä±l":4132,"indi":4133,"ÄŁÃ¼s":4134,"deecek":4135,"atist":4136,"enize":4137,"ikÃ¢":4138,"Ã¼nsÃ¼z":4139,"dans":4140,"tanjan":4141,"sindir":4142,"dudak":4143,"kardan":4144,"gÃ¶ÄŁÃ¼s":4145,"kapak":4146,"evciÄŁ":4147,"tarÃ§":4148,"coÅŁmuyor":4149,"Ġtip":4150,"Ã¶ÄŁretim":4151,"patlama":4152,"patlamaz":4153,"emlaÄŁ":4154,"eyi":4155,"tutmuyor":4156,"otosto":4157,"kÃ¼tÃ¼":4158,"ĠhÃ¢li":4159,"ĠhikÃ¢":4160,"ofren":4161,"kral":4162,"elleÄŁ":4163,"minin":4164,"istatist":4165,"demleecek":4166,"sentak":4167,"diÅŁleÄŁ":4168,"harem":4169,"totemciliÄŁ":4170,"mÃ¼ÅŁtÃ¼n":4171,"Ã¶nemsizliÄŁ":4172,"sÃ¼rÃ¼ecek":4173,"melo":4174,"balÄ±k":4175,"Ġeksen":4176,"Ã¼reme":4177,"kuvvetsizliÄŁ":4178,"teore":4179,"mÃ¼stahde":4180,"mistiÄŁ":4181,"karÅŁÄ±lÄ±ÄŁ":4182,"porsuÄŁ":4183,"dÃ¼nya":4184,"gerzeÄŁ":4185,"ĠÅŁarab":4186,"demir":4187,"hikay":4188,"ĠbelleÄŁ":4189,"belirtili":4190,"sÃ¶zdizim":4191,"kaltaÄŁ":4192,"tartÄ±ÅŁtay":4193,"reÃ§el":4194,"bomba":4195,"plaj":4196,"tetraf":4197,"ĠdalÄ±ÅŁ":4198,"ĠÃ§amaÅŁÄ±r":4199,"ĠparlatÄ±":4200,"ÅŁizofren":4201,"ĠhikÃ¢ye":4202,"iÃ§e":4203,"nÄ±z":4204,"piÅŁt":4205,"ruÄŁ":4206,"sÃ¶ÄŁÃ¼":4207,"tulu":4208,"yun":4209,"Ġmasal":4210,"akre":4211,"Ã¼t":4212,"Ã¼me":4213,"angu":4214,"erneÄŁ":4215,"ato":4216,"atÄ±k":4217,"eni":4218,"ende":4219,"aÄŁlamaz":4220,"birleÅŁt":4221,"yaratÄ±k":4222,"kanto":4223,"saklamamÄ±ÅŁ":4224,"ipeÄŁ":4225,"sÃ¼zgec":4226,"dÃ¼ÅŁÃ¼nmÃ¼yor":4227,"uyruÄŁ":4228,"yuvarlaacak":4229,"horlaacak":4230,"Ã¶pÃ¼ÅŁmÃ¼yor":4231,"sÃ¶vmÃ¼yor":4232,"kaÅŁÄ±acak":4233,"canlanmaacak":4234,"Ã¶rdeÄŁ":4235,"baÄŁcÄ±ÄŁ":4236,"gÃ¼dÃ¼":4237,"ketÃ§a":4238,"Ã¶ncel":4239,"betiÄŁ":4240,"devini":4241,"yavÅŁ":4242,"garb":4243,"mÃ¼ÅŁtÃ¼":4244,"mÃ¼ÅŁtÃ¼m":4245,"yÃ¼ksÃ¼":4246,"lastiÄŁ":4247,"ÅŁiÅŁliÄŁ":4248,"ÅŁafaÄŁ":4249,"girdab":4250,"burn":4251,"ÅŁehr":4252,"Ã¶mr":4253,"Ã§iftliÄŁ":4254,"yutaÄŁ":4255,"Ã§evir":4256,"gÃ¶mleÄŁ":4257,"salÃ§alÄ±ÄŁ":4258,"yoÄŁur":4259,"maluma":4260,"aygÄ±tÃ§Ä±ÄŁ":4261,"kokarca":4262,"kadÄ±nlÄ±k":4263,"Ã¶lÃ¼msÃ¼zlÃ¼k":4264,"vaftiz":4265,"kraliÃ§e":4266,"bombacÄ±":4267,"Ã¶nceliÄŁ":4268,"DV":4269,"ast":4270,"ademi":4271,"bri":4272,"bift":4273,"drat":4274,"fak":4275,"gaz":4276,"jag":4277,"kim":4278,"kÃ¶r":4279,"ostr":4280,"oyun":4281,"pol":4282,"rme":4283,"tuy":4284,"uv":4285,"vrek":4286,"vuv":4287,"yak":4288,"yÃ¼r":4289,"yemek":4290,"Ġak":4291,"Ġya":4292,"Ġtar":4293,"Ġba":4294,"ĠÃ¶r":4295,"Ġkr":4296,"yacÄ±":4297,"marme":4298,"ĠoynatÄ±":4299,"orta":4300,"Ã§eliÄŁ":4301,"insan":4302,"ÄŁum":4303,"Ġoldu":4304,"kave":4305,"mukave":4306,"ekkek":4307,"digen":4308,"aret":4309,"ene":4310,"dayan":4311,"ete":4312,"uze":4313,"uzay":4314,"iÅŁaret":4315,"onay":4316,"Ä±kl":4317,"sinir":4318,"sinca":4319,"gedan":4320,"gevrek":4321,"sÃ¼rpr":4322,"birey":4323,"okrat":4324,"haÃ§a":4325,"supa":4326,"bayg":4327,"yetiÅŁt":4328,"kemer":4329,"dÃ¶ne":4330,"dÃ¶ten":4331,"saklaacak":4332,"yalnÄ±z":4333,"kirec":4334,"gergedan":4335,"Ġtuz":4336,"derneÄŁ":4337,"patlaacak":4338,"delto":4339,"sessiz":4340,"bÃ¼rokrat":4341,"kanÄ±tlaacak":4342,"kuma":4343,"terc":4344,"yedigen":4345,"salÄ±ncaÄŁ":4346,"ĠhÃ¼c":4347,"Ã¶zr":4348,"soy":4349,"eÅŁkenar":4350,"ofon":4351,"doÄŁum":4352,"bubi":4353,"tÃ¼reecek":4354,"bÃ¼yÃ¼k":4355,"pirinc":4356,"cevh":4357,"ÅŁerbetÃ§iliÄŁ":4358,"gÃ¼venliliÄŁ":4359,"Ġisim":4360,"iÅŁletim":4361,"mikrofon":4362,"klostr":4363,"pedofobi":4364,"Ġfikr":4365,"Ä±spanaÄŁ":4366,"diskoteÄŁ":4367,"enizin":4368,"kanlÄ±lÄ±ÄŁ":4369,"ebediliÄŁ":4370,"sarÄ±msaÄŁ":4371,"anasÄ±zlÄ±ÄŁ":4372,"birlikteliÄŁ":4373,"ehemmiyetliliÄŁ":4374,"fabri":4375,"tamlan":4376,"Ġkontrol":4377,"hidrat":4378,"fondÃ¶ten":4379,"Ġsuyu":4380,"bÃ¶cek":4381,"ĠuzayÄ±":4382,"Ġkup":4383,"kasab":4384,"konuÅŁtay":4385,"KÃ¼rt":4386,"iguana":4387,"Ġkafa":4388,"Ã§Ä±lgÄ±nlÄ±k":4389,"istatistik":4390,"melodi":4391,"DVD":4392,"biftekkek":4393,"gazete":4394,"jagu":4395,"kimyacÄ±":4396,"polis":4397,"vuvuze":4398,"yakut":4399,"Ġakademi":4400,"ĠyaÅŁ":4401,"Ġtarif":4402,"marmela":4403,"dayanÄ±kl":4404,"ĠhÃ¼cre":4405,"aile":4406,"bo":4407,"gan":4408,"ileti":4409,"odaÄŁ":4410,"yalaacak":4411,"Ã¶ne":4412,"aln":4413,"yapÄ±ncaÄŁ":4414,"karÄ±n":4415,"Ã¶pÃ¼ÅŁt":4416,"birliÄŁ":4417,"asi":4418,"ceva":4419,"dinlet":4420,"tanÄ±acak":4421,"yeniliÄŁ":4422,"uluacak":4423,"gÃ¼lÃ¼nÃ§leÅŁt":4424,"sidik":4425,"kapaacak":4426,"sandalye":4427,"yedeÄŁ":4428,"iÄŁde":4429,"pust":4430,"bardaÄŁ":4431,"ikile":4432,"kondo":4433,"kusmuk":4434,"diÅŁl":4435,"lebleb":4436,"otomobilc":4437,"mÃ¼ÅŁtÃ¼nÃ¼z":4438,"Ã§Ä±ÄŁÄ±rtkanlÄ±ÄŁ":4439,"kerpi":4440,"bÃ¼rÃ¼ecek":4441,"sonra":4442,"hamol":4443,"kolaÃ§":4444,"iÅŁlemc":4445,"sosisl":4446,"baÅŁrahib":4447,"kelebeÄŁ":4448,"esenliÄŁ":4449,"hudu":4450,"ĠoÄŁl":4451,"sorumsuzluÄŁ":4452,"gelinlik":4453,"ÅŁarkÄ±cÄ±lÄ±k":4454,"indeks":4455,"altdizin":4456,"fÃ¼ze":4457,"Ġadam":4458,"tanjant":4459,"kapakÃ§Ä±k":4460,"otostob":4461,"haremlik":4462,"hikaye":4463,"tetrafobi":4464,"yavÅŁaÄŁ":4465,"deltoi":4466,"soylu":4467,"cevher":4468,"fabrika":4469,"jaguar":4470,"vuvuzela":4471,"Ben":4472,"Nu":4473,"acen":4474,"baÃ§":4475,"hen":4476,"hindi":4477,"nlÄ±ÄŁ":4478,"oÅŁt":4479,"oda":4480,"paz":4481,"pom":4482,"rÃ":4483,"sel":4484,"skan":4485,"til":4486,"teÄŁ":4487,"yi":4488,"zak":4489,"zor":4490,"zdir":4491,"Ġma":4492,"Ġyu":4493,"Ġbit":4494,"ĠaÃ§":4495,"ĠkÃ¶p":4496,"Ġkam":4497,"Ġceviz":4498,"Ġkaplan":4499,"lefon":4500,"Ã§ay":4501,"kazak":4502,"atlam":4503,"Ä±msÄ±z":4504,"aÄŁlaacak":4505,"kÄ±rÄ±n":4506,"ĠyaptÄ±":4507,"naz":4508,"gÃ¶ster":4509,"sayrÃ":4510,"cep":4511,"teÅŁ":4512,"yargÄ±":4513,"saka":4514,"yengec":4515,"kÄ±skan":4516,"yazÄ±":4517,"gÃ¶Ã§men":4518,"korku":4519,"Ġtur":4520,"sÄ±cak":4521,"ÅŁÄ±ÄŁ":4522,"karaciÄŁ":4523,"bezdir":4524,"isim":4525,"ĠdeÄŁilmiÅŁ":4526,"ĠdeÄŁilmiÅŁsiniz":4527,"ĠdeÄŁilmiÅŁler":4528,"Ã¢l":4529,"Ã¢ÅŁÄ±ÄŁ":4530,"Ġfil":4531,"baÄŁÄ±msÄ±z":4532,"ĠhÃ¢l":4533,"menteÅŁ":4534,"som":4535,"Ã¶nce":4536,"Ã¶nyargÄ±":4537,"oÄŁl":4538,"elleecek":4539,"yaÄŁlaacak":4540,"benzeecek":4541,"direecek":4542,"sekiz":4543,"sÄ±rat":4544,"gÃ¼vensizliÄŁ":4545,"ynuz":4546,"ĠmÃ¼hen":4547,"asansÃ¶":4548,"ikizkenar":4549,"abajurculuk":4550,"sosyol":4551,"elektrik":4552,"sÃ¼lÃ¼k":4553,"kalÄ±b":4554,"semerc":4555,"temsilciliÄŁ":4556,"enizde":4557,"akvaryu":4558,"tuva":4559,"yÃ¶nelim":4560,"tÄ±ydÄ±m":4561,"Ġkura":4562,"galak":4563,"hafta":4564,"hafÄ±za":4565,"tÄ±ydÄ±n":4566,"Ġtelefon":4567,"dansÃ§Ä±":4568,"tarÃ§Ä±n":4569,"sÃ¶zdizimsel":4570,"ÅŁizofreni":4571,"akreb":4572,"ketÃ§ab":4573,"Ġbaba":4574,"insanlÄ±k":4575,"mukavemet":4576,"sincab":4577,"supab":4578,"baygnlÄ±ÄŁ":4579,"tercÃ¼me":4580,"tamlanan":4581,"boynuz":4582,"karÄ±nca":4583,"deltoid":4584,"Bengal":4585,"NusayrÃ":4586,"acent":4587,"hindistan":4588,"teÄŁet":4589,"Ġmad":4590,"Ã§aydan":4591,"atlambaÃ§":4592,"kÄ±skanÃ§":4593,"ĠmÃ¼hendis":4594,"NusayrÃ®":4595,"Vikipedi":4596,"coÅŁt":4597,"kip":4598,"tÃ¼n":4599,"Ġdel":4600,"lamanÄ±z":4601,"metaÅŁ":4602,"yamuk":4603,"deyn":4604,"erke":4605,"daÅŁÄ±":4606,"dÃ¼rÃ¼m":4607,"ĠyapmadÄ±":4608,"dilbilim":4609,"kanat":4610,"aÃ§lÄ±k":4611,"kÃ¶pek":4612,"sÃ¼nÃ¼z":4613,"serÃ§e":4614,"sac":4615,"ĠdeÄŁiliz":4616,"ĠdeÄŁilsiniz":4617,"ĠdeÄŁildik":4618,"ĠdeÄŁildiniz":4619,"ĠdeÄŁilmiÅŁsin":4620,"ĠdeÄŁilmiÅŁim":4621,"ĠdeÄŁildim":4622,"azÄ±nlÄ±k":4623,"terliÄŁ":4624,"silmetaÅŁ":4625,"ĠÅŁeker":4626,"sÃ¼st":4627,"bakirlik":4628,"ĠyazÄ±lÄ±mÄ±":4629,"kÃ¶yl":4630,"ĠanahtarÄ±":4631,"sismoloji":4632,"yÄ±ldÄ±zÄ±l":4633,"fahiÅŁelik":4634,"Ã¶ÄŁrenc":4635,"enizden":4636,"Ã§Ä±raÄŁ":4637,"verniÄŁ":4638,"sevgil":4639,"muÅŁtun":4640,"tÄ±ydÄ±k":4641,"abece":4642,"tÄ±ydÄ±nÄ±z":4643,"muÅŁtuk":4644,"Ġtipi":4645,"sentaks":4646,"kÃ¶rlÃ¼k":4647,"oyunculuk":4648,"yÃ¼rek":4649,"gevreklik":4650,"yalnÄ±zlÄ±k":4651,"kumaÅŁ":4652,"klostrofobi":4653,"bÃ¶cekbilim":4654,"marmelat":4655,"dayanÄ±klÄ±lÄ±k":4656,"cevab":4657,"kondom":4658,"pazÄ±":4659,"pompa":4660,"ĠaÃ§Ä±":4661,"kÄ±rÄ±ntÄ±":4662,"sekizgen":4663,"asansÃ¶r":4664,"Ġdelik":4665,"ami":4666,"ace":4667,"brek":4668,"fet":4669,"gÃ¶k":4670,"hec":4671,"hiy":4672,"monar":4673,"nÃ¼k":4674,"Ãĩ":4675,"ĠÃ§":4676,"Ġyet":4677,"Ġci":4678,"ĠsÄ±nÄ±r":4679,"Ġelma":4680,"Ġpa":4681,"akn":4682,"Ã¼ecek":4683,"mine":4684,"leot":4685,"Ã§at":4686,"ĠolmadÄ±":4687,"erog":4688,"arakn":4689,"izyon":4690,"ento":4691,"aÅŁÃ§":4692,"eÄŁri":4693,"sÃ¼re":4694,"mandan":4695,"asmayacak":4696,"asker":4697,"hacÄ±lÄ±k":4698,"gelmiyor":4699,"ĠÃ§ekti":4700,"telev":4701,"kemen":4702,"tac":4703,"derg":4704,"raket":4705,"babalÄ±k":4706,"kurtarmamÄ±ÅŁ":4707,"ilkÃ¶ÄŁretim":4708,"onarmaz":4709,"dadanmayacak":4710,"Ã¶ldÃ¼rtÃ¼lÃ¼ecek":4711,"lamay":4712,"bedev":4713,"ĠdeÄŁilim":4714,"ĠdeÄŁildin":4715,"bilg":4716,"daÄŁÄ±tmayacak":4717,"ĠaldÄ±rmÄ±yor":4718,"saydÄ±rmaz":4719,"evlenmez":4720,"evlenmeyecek":4721,"saldÄ±rmayacak":4722,"bitirmeyecek":4723,"yendirtmemiÅŁ":4724,"baÅŁÃ§Ä±ÄŁ":4725,"Ġgelmiyor":4726,"sikilmez":4727,"adok":4728,"paradok":4729,"demlemez":4730,"gÃ¼tmemiÅŁ":4731,"eziyetÃ§":4732,"dÃ¼ÄŁÃ¼n":4733,"totemc":4734,"Ġsonu":4735,"LefkoÅŁal":4736,"ĠDabil":4737,"frizb":4738,"sebeb":4739,"topoloj":4740,"muÅŁtunuz":4741,"dÃ¼ydÃ¼n":4742,"dÃ¼ydÃ¼m":4743,"umunuz":4744,"ĠbalÄ±ÄŁ":4745,"belirtme":4746,"bÃ¶brek":4747,"Ġuzay":4748,"Ġkumanda":4749,"Ġtest":4750,"bekleme":4751,"faks":4752,"ĠkupÃ¼r":4753,"kerpic":4754,"odacÄ±k":4755,"sÄ±caklÄ±k":4756,"karaciÄŁer":4757,"menteÅŁe":4758,"sosyolog":4759,"tuvalet":4760,"galaksi":4761,"acentelik":4762,"Ġmadde":4763,"Ã§aydanlÄ±k":4764,"amiral":4765,"acele":4766,"hiyerog":4767,"nÃ¼kleot":4768,"Ãĩin":4769,"ĠÃ§Ã¶l":4770,"Ġyetmez":4771,"Ġcis":4772,"ĠsÄ±nÄ±rlama":4773,"Ġpast":4774,"televizyon":4775,"hiyerogli":4776,"bra":4777,"tÃ¼nÃ¼z":4778,"demez":4779,"arÅŁi":4780,"yapmamÄ±ÅŁ":4781,"dÃ¼rmemiÅŁ":4782,"kobra":4783,"iÅŁÃ§":4784,"selam":4785,"dua":4786,"kartÄ±":4787,"varmamÄ±ÅŁ":4788,"manÄ±":4789,"gelmemiÅŁ":4790,"katmÄ±yor":4791,"sÄ±zmayacak":4792,"takmamÄ±ÅŁ":4793,"takmÄ±yor":4794,"aldÄ±rmayacak":4795,"iÃ§memiÅŁ":4796,"Ã¶ldÃ¼rtmez":4797,"Ã¶ldÃ¼rtmemiÅŁ":4798,"tÄ±lardÄ±":4799,"yazmayacak":4800,"sÃ¼nmez":4801,"sÃ¼ngÃ¼":4802,"Ã¶ÄŁretmiyor":4803,"sevmez":4804,"sevmiyor":4805,"uyarmamÄ±ÅŁ":4806,"ulumayacak":4807,"ulumaz":4808,"deÄŁiÅŁmez":4809,"sermemiÅŁ":4810,"kurtarmayacak":4811,"onarmÄ±yor":4812,"gebermeyecek":4813,"hastalanmayacak":4814,"dadanmaz":4815,"oturmamÄ±ÅŁ":4816,"Ã§almaz":4817,"yoksullaÅŁtÄ±rmayacak":4818,"Ã¶lÃ§Ã¼lmez":4819,"karalama":4820,"soluacak":4821,"dalmayacak":4822,"ĠdeÄŁildi":4823,"ĠdeÄŁilsin":4824,"ĠdeÄŁilmiÅŁiz":4825,"Ã¶ldÃ¼rtÃ¼lmememiÅŁ":4826,"Ã¶ÄŁÃ¼tmemiÅŁ":4827,"Ä±sÄ±rgan":4828,"yanÄ±n":4829,"sÃ¼rÃ¼ndÃ¼rmemiÅŁ":4830,"seslenmez":4831,"seslenmiyor":4832,"Ã¼ÅŁenmemiÅŁ":4833,"aldatmaz":4834,"kapatmaz":4835,"Ä°ngilizceleÅŁtirmeyecek":4836,"Ä°ngilizceleÅŁtirmiyor":4837,"TÃ¼rkÃ§eleÅŁtirmez":4838,"tÃ¼kenmez":4839,"ettirmez":4840,"eÄŁlenmiyor":4841,"atÄ±ÅŁmÄ±yor":4842,"bitirmiyor":4843,"birleÅŁmemiÅŁ":4844,"verdirtmiyor":4845,"yendirtmez":4846,"yendirtmiyor":4847,"cacÄ±k":4848,"dirilmez":4849,"canlandÄ±rtÄ±lmaz":4850,"kaynaÅŁtÄ±rtÄ±lmayacak":4851,"kaynaÅŁtÄ±rtÄ±lmÄ±yor":4852,"Ġalmayacak":4853,"boÅŁalmayacak":4854,"boÅŁalmÄ±yor":4855,"verilmez":4856,"alÄ±c":4857,"silg":4858,"kalkmayacak":4859,"bayÄ±lmayacak":4860,"bayÄ±lmÄ±yor":4861,"dize":4862,"tÃ¼rememiÅŁ":4863,"harc":4864,"ÅŁerbetÃ§":4865,"kullanÄ±lmayacak":4866,"kaynaÅŁtÄ±rÄ±lmaz":4867,"kaynaÅŁtÄ±rÄ±lmamÄ±ÅŁ":4868,"kÄ±ÅŁkÄ±rtmÄ±yor":4869,"anlatmÄ±yor":4870,"sattÄ±rtmaz":4871,"karÄ±ÅŁtÄ±rtmamÄ±ÅŁ":4872,"yaptÄ±rtmaz":4873,"kamÃ§":4874,"ÅŁahÄ±":4875,"sÃ¼rtÃ¼klÃ¼ÄŁ":4876,"Ã¼sÃ¼nÃ¼":4877,"enizi":4878,"Ġistemc":4879,"Ã§erÃ§":4880,"Ġfrekan":4881,"muÅŁtum":4882,"ĠÄ±ÅŁÄ±ÄŁ":4883,"sÃ¼rpriz":4884,"tilde":4885,"zorluk":4886,"Ġtura":4887,"bezdiri":4888,"baÄŁÄ±msÄ±zlÄ±k":4889,"kÄ±skanÃ§lÄ±k":4890,"kemenÃ§e":4891,"amirallik":4892,"boz":4893,"boÄŁ":4894,"nom":4895,"oan":4896,"set":4897,"wik":4898,"ĠaÄŁ":4899,"ĠkÄ±r":4900,"Ġdon":4901,"Ġkuvvet":4902,"ÅŁeker":4903,"madal":4904,"leoan":4905,"inmez":4906,"inmeyecek":4907,"andan":4908,"anmamÄ±ÅŁ":4909,"anmÄ±yor":4910,"ayran":4911,"yapmaz":4912,"langÄ±":4913,"aÅŁmÄ±yor":4914,"sunmayacak":4915,"sunmaz":4916,"sunmamÄ±ÅŁ":4917,"imboz":4918,"varmaz":4919,"varmÄ±yor":4920,"satmayacak":4921,"iter":4922,"gÃ¶bek":4923,"asmÄ±yor":4924,"hadis":4925,"saymamÄ±ÅŁ":4926,"ceset":4927,"gelmez":4928,"Ã§Ã¶kermemiÅŁ":4929,"utanmaz":4930,"bÃ¼kmez":4931,"bÃ¼kmemiÅŁ":4932,"bÃ¼key":4933,"gecikmiyor":4934,"katmamÄ±ÅŁ":4935,"teist":4936,"artmamÄ±ÅŁ":4937,"artmÄ±yor":4938,"sÄ±zmamÄ±ÅŁ":4939,"canlandÄ±rmaz":4940,"canlandÄ±rmÄ±yor":4941,"iÃ§mez":4942,"tanÄ±mÄ±yor":4943,"yazmaz":4944,"yaÄŁlÄ±":4945,"gÃ¶Ã§meyecek":4946,"sÃ¼nmemiÅŁ":4947,"coÅŁmayacak":4948,"korimboz":4949,"gezmeyecek":4950,"sÃ¼zmez":4951,"tabe":4952,"Ã¶ÄŁretmez":4953,"dÃ¼ÅŁÃ¼nmez":4954,"dÃ¼ÅŁÃ¼nmeyecek":4955,"sÃ¼smemiÅŁ":4956,"sÃ¼smeyecek":4957,"dondurmamÄ±ÅŁ":4958,"emsiy":4959,"deÄŁiÅŁmiyor":4960,"sermiyor":4961,"paylaÅŁmayacak":4962,"kurtarmÄ±yor":4963,"Ġvermiyor":4964,"gÃ¶tÃ¼rmeyecek":4965,"taÅŁmayacak":4966,"gebermez":4967,"gebermemiÅŁ":4968,"ilklendirmemiÅŁ":4969,"dadanmamÄ±ÅŁ":4970,"dadanmÄ±yor":4971,"ĠsÄ±kÄ±ÅŁtÄ±":4972,"tepmemiÅŁ":4973,"yalvarmaz":4974,"yalvarmamÄ±ÅŁ":4975,"yalvarmÄ±yor":4976,"gerekmiyor":4977,"atÄ±ÅŁtÄ±rmamÄ±ÅŁ":4978,"yetiÅŁmeyecek":4979,"bÃ¼ktÃ¼rmemiÅŁ":4980,"Ã§almamÄ±ÅŁ":4981,"yoksullaÅŁtÄ±rmamÄ±ÅŁ":4982,"sÃ¶kmez":4983,"Ã¶lÃ§Ã¼lmemiÅŁ":4984,"kaÅŁÄ±mayacak":4985,"kÄ±ymayacak":4986,"kapamayacak":4987,"kapamÄ±yor":4988,"dalmÄ±yor":4989,"trop":4990,"canlanmamayacak":4991,"otof":4992,"genofobi":4993,"eÄŁitmeyecek":4994,"yapÄ±ÅŁmayacak":4995,"yapÄ±ÅŁmÄ±yor":4996,"daÄŁÄ±tmÄ±yor":4997,"Ä±sÄ±rmaz":4998,"Ä±sÄ±rmamÄ±ÅŁ":4999,"ĠaldÄ±rmayacak":5000,"sÃ¼rÃ¼ndÃ¼rmez":5001,"sÃ¼rÃ¼ndÃ¼rmeyecek":5002,"ĠfÄ±r":5003,"saydÄ±rmayacak":5004,"kÄ±rdÄ±rmamÄ±ÅŁ":5005,"kirletmez":5006,"kÃ¶pÃ¼rmez":5007,"evlenmiyor":5008,"geciktirmemiÅŁ":5009,"ayÄ±rmayacak":5010,"ayÄ±rmÄ±yor":5011,"tÃ¼kÃ¼rmemiÅŁ":5012,"Ã¼ÅŁenmez":5013,"Ã¼ÅŁenmiyor":5014,"aldatmayacak":5015,"kapatmamÄ±ÅŁ":5016,"utandÄ±rmaz":5017,"utandÄ±rmamÄ±ÅŁ":5018,"unutmamÄ±ÅŁ":5019,"dÃ¶ndÃ¼rmeyecek":5020,"kurutmamÄ±ÅŁ":5021,"ĠsÄ±kÄ±ÅŁmamÄ±ÅŁ":5022,"atÄ±ÅŁmayacak":5023,"birleÅŁmez":5024,"birleÅŁmeyecek":5025,"deÄŁiÅŁtirmiyor":5026,"ofiter":5027,"dirilmemiÅŁ":5028,"dÃ¼rtmeyecek":5029,"canlandÄ±rtÄ±lmÄ±yor":5030,"dÃ¼zeltmiyor":5031,"Ġgelmez":5032,"Ġgelmeyecek":5033,"Ġalmaz":5034,"ĠalmamÄ±ÅŁ":5035,"boÅŁalmamÄ±ÅŁ":5036,"verilmeyecek":5037,"kokmayacak":5038,"panteist":5039,"kalkmaz":5040,"korkmaz":5041,"yaÄŁlamaz":5042,"demlemeyecek":5043,"benzemeyecek":5044,"tÃ¼remiyor":5045,"profiter":5046,"ĠÅŁemsiy":5047,"sarh":5048,"mÃ¼ÅŁter":5049,"kÄ±rÄ±lmaz":5050,"kÄ±rÄ±lmamÄ±ÅŁ":5051,"kullanÄ±lmaz":5052,"katÄ±lmÄ±yor":5053,"kÄ±ÅŁkÄ±rtmayacak":5054,"kÄ±ÅŁkÄ±rtmaz":5055,"kÄ±ÅŁkÄ±rtmamÄ±ÅŁ":5056,"yapÄ±lmaz":5057,"anlatmamÄ±ÅŁ":5058,"atÄ±ÅŁtÄ±":5059,"dÄ±ÅŁbÃ¼key":5060,"yalancÄ±":5061,"deyimin":5062,"mikrob":5063,"Ã¶pÃ¼cÃ¼ÄŁ":5064,"iyatr":5065,"virgÃ¼lÃ¼n":5066,"yordamÄ±n":5067,"psikiyatr":5068,"havuc":5069,"deneyimin":5070,"tabak":5071,"referan":5072,"bilgisayar":5073,"paleoan":5074,"Zagrepl":5075,"anÄ±zÄ±":5076,"anÄ±zdan":5077,"dÃ¼ydÃ¼nÃ¼z":5078,"dÃ¼ydÃ¼k":5079,"tiydi":5080,"ĠÃ§ilek":5081,"alfabe":5082,"ĠÃ¶rt":5083,"ĠkÃ¶pr":5084,"nazenin":5085,"ĠkuramÄ±":5086,"fetva":5087,"hecin":5088,"Ã§atlak":5089,"araknofobi":5090,"entomoloji":5091,"acelecilik":5092,"nÃ¼kleotit":5093,"hiyeroglif":5094,"arÅŁiv":5095,"ĠkÄ±rlangÄ±":5096,"Ġdonan":5097,"ÅŁekerpar":5098,"tabela":5099,"paleoantrop":5100,"aÅŁtÄ±":5101,"yÃ¶r":5102,"Ġke":5103,"Ġderleyic":5104,"Ä±la":5105,"Ä±ÅŁt":5106,"makin":5107,"masan":5108,"demiyor":5109,"altÄ±":5110,"yapmayacak":5111,"dÃ¼rmeyecek":5112,"Ã¼zmez":5113,"Ã¼zmemiÅŁ":5114,"Ã¼zmeyecek":5115,"aÅŁmamÄ±ÅŁ":5116,"olmayacak":5117,"olmamÄ±ÅŁ":5118,"satmaz":5119,"dilmeyecek":5120,"saymayacak":5121,"utanmayacak":5122,"bÃ¼kmeyecek":5123,"gecikmez":5124,"piÅŁmez":5125,"piÅŁmiyor":5126,"katmaz":5127,"artmayacak":5128,"artmaz":5129,"aÃ§mayacak":5130,"aÃ§maz":5131,"aÃ§mÄ±yor":5132,"aldÄ±rmÄ±yor":5133,"iÃ§meyecek":5134,"tara":5135,"sakson":5136,"tanÄ±maz":5137,"yazmÄ±yor":5138,"bolc":5139,"sÃ¼nmeyecek":5140,"coÅŁmaz":5141,"sÃ¼zmeyecek":5142,"taÅŁtÄ±":5143,"dÃ¼ÅŁÃ¼nmemiÅŁ":5144,"sÃ¼smez":5145,"sapmaz":5146,"sapmÄ±yor":5147,"dondurmayacak":5148,"uyarmaz":5149,"ulumamÄ±ÅŁ":5150,"uymaz":5151,"uymamÄ±ÅŁ":5152,"paylaÅŁtÄ±":5153,"paylaÅŁmÄ±yor":5154,"gÃ¶tÃ¼rmez":5155,"taÅŁmaz":5156,"taÅŁmÄ±yor":5157,"ilklendirmeyecek":5158,"tepmiyor":5159,"kovdurmaz":5160,"gerekmeyecek":5161,"yÄ±ÄŁmayacak":5162,"atÄ±ÅŁtÄ±rmÄ±yor":5163,"yetiÅŁmez":5164,"yetiÅŁmemiÅŁ":5165,"yetiÅŁmiyor":5166,"Ġdikmeyecek":5167,"bÃ¼ktÃ¼rmeyecek":5168,"Ã§alg":5169,"Ã§almayacak":5170,"sÄ±vÄ±laÅŁtÄ±rmayacak":5171,"sÄ±vÄ±laÅŁtÄ±rmaz":5172,"sÃ¶kmemiÅŁ":5173,"sÃ¶kmeyecek":5174,"yummaz":5175,"sÃ¶vmez":5176,"kaÅŁÄ±maz":5177,"kaÅŁÄ±mÄ±yor":5178,"kaybolmamÄ±ÅŁ":5179,"yÄ±kamayacak":5180,"yÄ±kamaz":5181,"kÄ±ymÄ±yor":5182,"solumaz":5183,"lamadÄ±n":5184,"lamadÄ±nÄ±z":5185,"ĠdeÄŁildiler":5186,"sanmaz":5187,"sanmamÄ±ÅŁ":5188,"canlanmamaz":5189,"canlanmamamÄ±ÅŁ":5190,"canlanmamÄ±yor":5191,"Ã¶ldÃ¼rtÃ¼lmemez":5192,"Ã¶ldÃ¼rtÃ¼lmemeyecek":5193,"eÄŁitmiyor":5194,"daÄŁÄ±tmaz":5195,"daÄŁÄ±tÄ±mÄ±n":5196,"Ä±sÄ±rmÄ±yor":5197,"ĠaldÄ±rmaz":5198,"ĠaldÄ±rmamÄ±ÅŁ":5199,"saydÄ±rmamÄ±ÅŁ":5200,"kÄ±rdÄ±rmÄ±yor":5201,"kirletmemiÅŁ":5202,"kÃ¶pÃ¼rmeyecek":5203,"ayÄ±rmaz":5204,"ayÄ±rmamÄ±ÅŁ":5205,"tÃ¼kÃ¼rmez":5206,"boÅŁanmayacak":5207,"aldatmamÄ±ÅŁ":5208,"utandÄ±rmayacak":5209,"utandÄ±rmÄ±yor":5210,"iyileÅŁtirmemiÅŁ":5211,"Ä°ngilizceleÅŁtirmemiÅŁ":5212,"kaÃ§Ä±rmayacak":5213,"kaÃ§Ä±rmamÄ±ÅŁ":5214,"TÃ¼rkÃ§eleÅŁtirmemiÅŁ":5215,"tÃ¼kenmemiÅŁ":5216,"tÃ¼kenmeyecek":5217,"tÃ¼kenmiyor":5218,"unutmayacak":5219,"ettirmemiÅŁ":5220,"ettirmeyecek":5221,"ettirmiyor":5222,"sÃ¼mÃ¼rmez":5223,"sÃ¼mÃ¼rmemiÅŁ":5224,"sÃ¼mÃ¼rmeyecek":5225,"uÄŁratmayacak":5226,"uÄŁratmaz":5227,"kurutmayacak":5228,"ĠsÄ±kÄ±ÅŁmayacak":5229,"ĠsÄ±kÄ±ÅŁmaz":5230,"ĠsÄ±kÄ±ÅŁmÄ±yor":5231,"gÃ¼cenmez":5232,"gÃ¼cenmemiÅŁ":5233,"gÃ¼cenmiyor":5234,"gÃ¼lÃ¼nÃ§leÅŁmemiÅŁ":5235,"gÃ¼lÃ¼nÃ§leÅŁmiyor":5236,"delirmemiÅŁ":5237,"delirmeyecek":5238,"delirmiyor":5239,"deÄŁiÅŁtirmeyecek":5240,"tanÄ±tmÄ±yor":5241,"verdirtmez":5242,"verdirtmemiÅŁ":5243,"verdirtmeyecek":5244,"Ã§Ã¶kertmez":5245,"Ã§Ã¶kertmiyor":5246,"Ã¶lÃ§tÃ¼rtmez":5247,"Ã¶lÃ§tÃ¼rtmemiÅŁ":5248,"dirilmeyecek":5249,"dÃ¼rtmemiÅŁ":5250,"gidilmemiÅŁ":5251,"gidilmiyor":5252,"seÃ§ilmez":5253,"seÃ§ilmeyecek":5254,"seÃ§ilmiyor":5255,"canlandÄ±rtÄ±lmayacak":5256,"kaynaÅŁtÄ±rtÄ±lmaz":5257,"ĠalmÄ±yor":5258,"sÃ¶zlÃ¼ÄŁ":5259,"verilmiyor":5260,"kokmaz":5261,"kalkmamÄ±ÅŁ":5262,"kalkmÄ±yor":5263,"korkmayacak":5264,"ellemez":5265,"yaÄŁlamayacak":5266,"bayÄ±lmaz":5267,"demlemiyor":5268,"benzemiyor":5269,"tÃ¼remeyecek":5270,"dirememiÅŁ":5271,"diremiyor":5272,"seks":5273,"gÃ¼tmez":5274,"yavr":5275,"pusulan":5276,"kÄ±rÄ±lmÄ±yor":5277,"kullanÄ±lmamÄ±ÅŁ":5278,"kullanÄ±lmÄ±yor":5279,"katÄ±lmayacak":5280,"yapÄ±lmamÄ±ÅŁ":5281,"yapÄ±lmÄ±yor":5282,"atÄ±lmayacak":5283,"anlatmayacak":5284,"ÅŁaÅŁÄ±rtmayacak":5285,"ÅŁaÅŁÄ±rtmaz":5286,"ÅŁaÅŁÄ±rtmÄ±yor":5287,"sattÄ±rtmÄ±yor":5288,"bÃ¼rÃ¼meyecek":5289,"bÃ¼yÃ¼leyic":5290,"ĠsÃ¼rÃ¼mÃ¼":5291,"basketbolc":5292,"Tiranl":5293,"Ġkedisi":5294,"sÃ¶zcÃ¼lÃ¼ÄŁ":5295,"borc":5296,"evlatlÄ±k":5297,"zammÄ±n":5298,"kaldÄ±rac":5299,"anÄ±za":5300,"dÃ¼ydÃ¼":5301,"imine":5302,"ĠkuÅŁu":5303,"Ġsunucusu":5304,"ĠkonferansÄ±":5305,"spamÄ±n":5306,"kÃ¼tÃ¼ÄŁ":5307,"yÃ¼ksÃ¼ÄŁ":5308,"Ã§evirimin":5309,"astÄ±":5310,"paradoks":5311,"nomofobi":5312,"profiterol":5313,"sarhoÅŁ":5314,"bÃ¼yÃ¼leyiciy":5315,"fuz":5316,"nÃ¼":5317,"yacaÄŁÄ±m":5318,"yacaÄŁÄ±z":5319,"Ġokulu":5320,"Ã§Ä±sÄ±":5321,"inmiyor":5322,"anÄ±":5323,"anmayacak":5324,"anmaz":5325,"irge":5326,"Ġolduy":5327,"demeyecek":5328,"yapmÄ±yor":5329,"dÃ¼rmez":5330,"aÅŁmayacak":5331,"onun":5332,"kartÄ±n":5333,"Ã¶pmez":5334,"Ã¶pmemiÅŁ":5335,"varmayacak":5336,"satmamÄ±ÅŁ":5337,"dilmez":5338,"dilmiyor":5339,"dilimin":5340,"asmaz":5341,"asmamÄ±ÅŁ":5342,"Ã§ekirge":5343,"saymaz":5344,"saymÄ±yor":5345,"gelmeyecek":5346,"Ã§Ã¶kermez":5347,"Ã§Ã¶kermeyecek":5348,"utanmamÄ±ÅŁ":5349,"utanmÄ±yor":5350,"gecikmemiÅŁ":5351,"gecikmeyecek":5352,"piÅŁmemiÅŁ":5353,"dinin":5354,"bitmemiÅŁ":5355,"aviz":5356,"kesen":5357,"aÃ§mamÄ±ÅŁ":5358,"takmayacak":5359,"aldÄ±rmamÄ±ÅŁ":5360,"iÃ§miyor":5361,"saksÄ±":5362,"kÃ¶pÃ¼ÄŁ":5363,"yazmamÄ±ÅŁ":5364,"gÃ¶Ã§mez":5365,"gÃ¶Ã§memiÅŁ":5366,"korsen":5367,"gezmez":5368,"gezmemiÅŁ":5369,"gezmiyor":5370,"Ã¶ÄŁretmemiÅŁ":5371,"derle":5372,"dondurmaz":5373,"kopmaz":5374,"kopmamÄ±ÅŁ":5375,"uyarmayacak":5376,"deÄŁiÅŁmeyecek":5377,"ĠvermemiÅŁ":5378,"Ġvermeyecek":5379,"taÅŁmamÄ±ÅŁ":5380,"gebermiyor":5381,"hastalanmaz":5382,"hastalanmÄ±yor":5383,"ilklendirmez":5384,"ilklendirmiyor":5385,"tepmeyecek":5386,"kovdurmayacak":5387,"kovdurmamÄ±ÅŁ":5388,"gerekmemiÅŁ":5389,"yÄ±ÄŁmamÄ±ÅŁ":5390,"atÄ±ÅŁtÄ±rmaz":5391,"Ġdikmez":5392,"ĠdikmemiÅŁ":5393,"Ã§almÄ±yor":5394,"Ã¶pÃ¼ÅŁmez":5395,"Ã¶pÃ¼ÅŁmemiÅŁ":5396,"Ã¶pÃ¼ÅŁmeyecek":5397,"sÄ±vÄ±laÅŁtÄ±rmamÄ±ÅŁ":5398,"yummamÄ±ÅŁ":5399,"Ã¶lÃ§Ã¼lmeyecek":5400,"pusmayacak":5401,"pusmaz":5402,"kaÅŁÄ±mamÄ±ÅŁ":5403,"kaybolmaz":5404,"yÄ±kaacak":5405,"kÄ±ymaz":5406,"kÄ±ymamÄ±ÅŁ":5407,"solumayacak":5408,"kapamamÄ±ÅŁ":5409,"dalmaz":5410,"amcan":5411,"tutmayacak":5412,"sanmayacak":5413,"sanmÄ±yor":5414,"Ã¶ldÃ¼rtÃ¼lmemiyor":5415,"eÄŁitmez":5416,"yapÄ±ÅŁmamÄ±ÅŁ":5417,"Ã¶ÄŁÃ¼tmez":5418,"yank":5419,"saydÄ±rmÄ±yor":5420,"kÄ±rdÄ±rmayacak":5421,"kÄ±rdÄ±rmaz":5422,"kirletmeyecek":5423,"kirletmiyor":5424,"kÃ¶pÃ¼rmemiÅŁ":5425,"geciktirmiyor":5426,"tÃ¼kÃ¼rmeyecek":5427,"saldÄ±rmaz":5428,"saldÄ±rmamÄ±ÅŁ":5429,"Ã¼ÅŁenmeyecek":5430,"boÅŁanmÄ±yor":5431,"aldatmÄ±yor":5432,"kapatmÄ±yor":5433,"iyileÅŁtirmeyecek":5434,"iyileÅŁtirmiyor":5435,"Ä°ngilizceleÅŁtirmez":5436,"kaÃ§Ä±rmaz":5437,"TÃ¼rkÃ§eleÅŁtirmiyor":5438,"uÄŁratmamÄ±ÅŁ":5439,"uÄŁratmÄ±yor":5440,"eÄŁlenmez":5441,"gÃ¼cenmeyecek":5442,"gÃ¼lÃ¼nÃ§leÅŁmeyecek":5443,"Ã¶znen":5444,"bitirmemiÅŁ":5445,"tanÄ±tmayacak":5446,"Ã§Ã¶kertmeyecek":5447,"Ã¶lÃ§tÃ¼rtmeyecek":5448,"dirilmiyor":5449,"dÃ¼rtmez":5450,"gidilmez":5451,"gidilmeyecek":5452,"seÃ§ilmemiÅŁ":5453,"canlandÄ±rtÄ±lmamÄ±ÅŁ":5454,"dÃ¼zeltmez":5455,"dÃ¼zeltmeyecek":5456,"ĠgelmemiÅŁ":5457,"sikilmemiÅŁ":5458,"sikilmiyor":5459,"kokmamÄ±ÅŁ":5460,"ellememiÅŁ":5461,"ellemeyecek":5462,"ellemiyor":5463,"yaÄŁlamamÄ±ÅŁ":5464,"yaÄŁlamÄ±yor":5465,"minize":5466,"benzemez":5467,"diremez":5468,"diremeyecek":5469,"gÃ¼tmeyecek":5470,"viÅŁnen":5471,"kÄ±rÄ±lmayacak":5472,"kaynaÅŁtÄ±rÄ±lmayacak":5473,"kaynaÅŁtÄ±rÄ±lmÄ±yor":5474,"katÄ±lmamÄ±ÅŁ":5475,"yapÄ±lmayacak":5476,"atÄ±lmaz":5477,"yolc":5478,"ÅŁaÅŁÄ±rtmamÄ±ÅŁ":5479,"sattÄ±rtmayacak":5480,"sÃ¼rÃ¼memiÅŁ":5481,"karÄ±ÅŁtÄ±rtmÄ±yor":5482,"yaptÄ±rtmamÄ±ÅŁ":5483,"yaptÄ±rtmÄ±yor":5484,"ÅŁapkac":5485,"yangÄ±nÄ±n":5486,"tÃ¼mcen":5487,"Ã¶pÃ¼cÃ¼ÄŁÃ¼n":5488,"aikidon":5489,"sÃ¼rtÃ¼klÃ¼ÄŁÃ¼n":5490,"Ã¼sÃ¼ne":5491,"Ã¼sÃ¼nde":5492,"Ã¼sÃ¼nÃ¼n":5493,"lÃ¼gatÃ§":5494,"Belgratl":5495,"Ã§orban":5496,"bermudan":5497,"cezeryen":5498,"Ġsandal":5499,"embriy":5500,"milime":5501,"mimize":5502,"mimizde":5503,"Ġbirc":5504,"radyon":5505,"yalÄ±tÄ±mÄ±n":5506,"satranc":5507,"manÄ±zÄ±":5508,"manÄ±zÄ±n":5509,"dinami":5510,"anÄ±zÄ±n":5511,"tiydik":5512,"tiydiniz":5513,"minizde":5514,"ĠkÄ±lÄ±":5515,"Ġyolu":5516,"Ġvoleybolu":5517,"Ġgrubu":5518,"sindirimin":5519,"Ġekseni":5520,"ĠdalÄ±ÅŁÃ§Ä±sÄ±":5521,"ĠÃ§amaÅŁÄ±rÄ±":5522,"ĠparlatÄ±cÄ±sÄ±":5523,"ĠhikÃ¢yesi":5524,"ĠmasalÄ±":5525,"ĠbalÄ±ÄŁÄ±":5526,"madalya":5527,"ĠÅŁemsiye":5528,"ÅŁekerpare":5529,"paleoantropoloji":5530,"nÃ¼fuz":5531,"dulu":5532,"iler":5533,"kil":5534,"kuy":5535,"sit":5536,"Ġbilim":5537,"mayon":5538,"anda":5539,"dememiÅŁ":5540,"ekliy":5541,"eneri":5542,"ikliy":5543,"yapÄ±ÅŁtÄ±":5544,"aÅŁmaz":5545,"denin":5546,"Ã¶pmeyecek":5547,"ĠyapÄ±yorlar":5548,"Ã§Ã¶kermiyor":5549,"dÃ¼zmez":5550,"dÃ¼zmemiÅŁ":5551,"katmayacak":5552,"yarÄ±ÅŁ":5553,"bitmez":5554,"bitmiyor":5555,"sÄ±zmaz":5556,"sÄ±zmÄ±yor":5557,"canlandÄ±rmayacak":5558,"canlandÄ±rmamÄ±ÅŁ":5559,"tanÄ±mayacak":5560,"tanÄ±mamÄ±ÅŁ":5561,"Ã¶ldÃ¼rtmeyecek":5562,"coÅŁmamÄ±ÅŁ":5563,"coÅŁkul":5564,"Ã¶ÄŁretmeyecek":5565,"derec":5566,"sapmamÄ±ÅŁ":5567,"kopmayacak":5568,"sermez":5569,"paylaÅŁmaz":5570,"Ġvermez":5571,"gÃ¶tÃ¼rmemiÅŁ":5572,"onarmayacak":5573,"onarmamÄ±ÅŁ":5574,"hastalanmamÄ±ÅŁ":5575,"oturmayacak":5576,"yalvarmayacak":5577,"yÄ±ÄŁmaz":5578,"bÃ¼ktÃ¼rmez":5579,"yoksullaÅŁtÄ±rmaz":5580,"sÄ±vÄ±laÅŁtÄ±rmÄ±yor":5581,"yummayacak":5582,"yÄ±kamamÄ±ÅŁ":5583,"yÄ±kamÄ±yor":5584,"solumamÄ±ÅŁ":5585,"dalmamÄ±ÅŁ":5586,"tutmaz":5587,"tutmamÄ±ÅŁ":5588,"eÄŁitimin":5589,"yapÄ±ÅŁmaz":5590,"Ġfeneri":5591,"seslenmemiÅŁ":5592,"seslenmeyecek":5593,"geciktirmez":5594,"geciktirmeyecek":5595,"boÅŁanmaz":5596,"boÅŁanmamÄ±ÅŁ":5597,"kapatmayacak":5598,"unutmaz":5599,"unuttu":5600,"dÃ¶ndÃ¼rmez":5601,"dÃ¶ndÃ¼rmemiÅŁ":5602,"gÃ¼lÃ¼nÃ§leÅŁmez":5603,"atÄ±ÅŁmaz":5604,"vidan":5605,"tanÄ±tmamÄ±ÅŁ":5606,"kaynaÅŁtÄ±rtÄ±lmamÄ±ÅŁ":5607,"boÅŁalmaz":5608,"bayÄ±lmamÄ±ÅŁ":5609,"demlememiÅŁ":5610,"benzememiÅŁ":5611,"tÃ¼remez":5612,"blogc":5613,"anasÄ±":5614,"Ġoluyorlar":5615,"dÃ¼lerdi":5616,"katÄ±lmaz":5617,"atÄ±lmÄ±yor":5618,"anlatmaz":5619,"lÄ±ÄŁa":5620,"duyma":5621,"karÄ±ÅŁtÄ±rtmayacak":5622,"bÃ¼rÃ¼mez":5623,"bÃ¼rÃ¼memiÅŁ":5624,"becerikliy":5625,"sunuc":5626,"haÅŁef":5627,"yetenekliy":5628,"gizemliy":5629,"battaniyen":5630,"manivelan":5631,"motorinin":5632,"Ã¼sÃ¼nden":5633,"kelepÃ§":5634,"pÄ±rasan":5635,"muciz":5636,"koruyuc":5637,"zurn":5638,"mimizi":5639,"izlencen":5640,"tavukgÃ¶":5641,"yÄ±ldÄ±rÄ±mÄ±n":5642,"manÄ±za":5643,"manÄ±zdan":5644,"anÄ±zda":5645,"tiydin":5646,"tiydim":5647,"denizanasÄ±":5648,"Ġdurum":5649,"voleybolc":5650,"Ġufku":5651,"sÃ¶ÄŁÃ¼dÃ¼n":5652,"malumatÄ±n":5653,"Ġkrizi":5654,"ĠtuzaÄŁÄ±":5655,"ĠkontrolÃ¼":5656,"Ġakademisi":5657,"Ġtarifi":5658,"ĠhÃ¼cresi":5659,"monarÅŁi":5660,"ĠkupÃ¼rÃ¼":5661,"ĠÄ±ÅŁÄ±ÄŁÄ±":5662,"boÄŁa":5663,"otofobi":5664,"milimetren":5665,"kilis":5666,"tunuz":5667,"vasÄ±":5668,"Ġdan":5669,"Ġarka":5670,"ĠarkadaÅŁ":5671,"ĠkartÄ±":5672,"Ġokul":5673,"inmemiÅŁ":5674,"ĠolmamÄ±ÅŁlar":5675,"Ġolmazlar":5676,"kolan":5677,"karnen":5678,"satmÄ±yor":5679,"ĠyapmamÄ±ÅŁlar":5680,"ĠyapmÄ±yorlar":5681,"Ġyapacaklar":5682,"oki":5683,"dilmemiÅŁ":5684,"dildon":5685,"piÅŁmeyecek":5686,"dÃ¼zmeyecek":5687,"yarasan":5688,"bitmeyecek":5689,"Ġsistem":5690,"Ã¼yecekler":5691,"kÃ¶pÃ¼ÄŁÃ¼n":5692,"sapmayacak":5693,"koptu":5694,"deÄŁiÅŁmemiÅŁ":5695,"sermeyecek":5696,"paylaÅŁmamÄ±ÅŁ":5697,"tepmez":5698,"oturmaz":5699,"yÄ±ÄŁmÄ±yor":5700,"atÄ±ÅŁtÄ±rmayacak":5701,"eyecekler":5702,"Ġdikmiyor":5703,"sÃ¶vmemiÅŁ":5704,"sÃ¶vmeyecek":5705,"pusmamÄ±ÅŁ":5706,"tutk":5707,"eÄŁitmemiÅŁ":5708,"daÄŁÄ±tmamÄ±ÅŁ":5709,"iyileÅŁtirmez":5710,"eÄŁlenmemiÅŁ":5711,"eÄŁlenmeyecek":5712,"atÄ±ÅŁmamÄ±ÅŁ":5713,"birleÅŁmiyor":5714,"deÄŁiÅŁtirmemiÅŁ":5715,"tanÄ±tmaz":5716,"Ã§Ã¶kertmemiÅŁ":5717,"yendirtmeyecek":5718,"ofob":5719,"sikilmeyecek":5720,"koktu":5721,"korktu":5722,"matlan":5723,"dakik":5724,"seksiy":5725,"diskon":5726,"sÄ±rala":5727,"kavunun":5728,"ĠolmuÅŁlar":5729,"mandalin":5730,"Ã§arp":5731,"bazaltÄ±n":5732,"atÄ±lmamÄ±ÅŁ":5733,"lÄ±ÄŁÄ±":5734,"lÄ±ÄŁÄ±n":5735,"duyduk":5736,"duydunuz":5737,"sÃ¼rÃ¼mez":5738,"sÃ¼rÃ¼meyecek":5739,"karÄ±ÅŁtÄ±rtmaz":5740,"yaptÄ±rtmayacak":5741,"Ġolurlar":5742,"dÃ¼ÅŁÃ¼nceliy":5743,"yakÄ±ÅŁÄ±klÄ±y":5744,"baltan":5745,"Ã¼mitliy":5746,"oynatÄ±c":5747,"salatan":5748,"protest":5749,"Kopenhagl":5750,"beytin":5751,"Ã§ekmecen":5752,"sÃ¶zcÃ¼lÃ¼ÄŁÃ¼n":5753,"cibinin":5754,"ayakkabÄ±c":5755,"tahdidin":5756,"tatl":5757,"Ã§imken":5758,"manÄ±zda":5759,"munun":5760,"minizi":5761,"minizin":5762,"ĠÄ±ÅŁÄ±nÄ±":5763,"sÃ¶zdizimi":5764,"aynÅŁtaynyumu":5765,"ekstremumu":5766,"ĠdalÄ±ÅŁÃ§Ä±":5767,"ĠparlatÄ±cÄ±":5768,"tulumu":5769,"atomu":5770,"yoÄŁurdun":5771,"ĠoynatÄ±cÄ±":5772,"ĠoynatÄ±cÄ±sÄ±":5773,"ĠyuvasÄ±":5774,"Ġbitimi":5775,"ĠkampÄ±":5776,"ĠkaplanÄ±":5777,"Ġtelefonu":5778,"ĠmÃ¼hendisliÄŁi":5779,"sÃ¼stÃ¼":5780,"ĠÃ¶rtÃ¼sÃ¼":5781,"taraban":5782,"derlemen":5783,"Ġsandalyen":5784,"coÅŁkuluy":5785,"ĠarkadaÅŁÄ±":5786,"tum":5787,"uk":5788,"yÄ±n":5789,"yÄ±nÄ±z":5790,"memen":5791,"leceÄŁ":5792,"altÄ±nÄ±z":5793,"ÅŁtÄ±nÄ±z":5794,"Ġyapmazlar":5795,"ĠyapmadÄ±lar":5796,"ĠyapmÄ±ÅŁlar":5797,"ĠÃ§ekmedi":5798,"takmaz":5799,"sÃ¼zmemiÅŁ":5800,"sevmemiÅŁ":5801,"sevmeyecek":5802,"uyarmÄ±yor":5803,"uymayacak":5804,"larmÄ±ÅŁÄ±z":5805,"larmÄ±ÅŁÄ±m":5806,"larmÄ±ÅŁsÄ±nÄ±z":5807,"kurtarmaz":5808,"gerekmez":5809,"yoksullaÅŁtÄ±rmÄ±yor":5810,"kapamaz":5811,"tuttu":5812,"tÃ¼lerdi":5813,"tilerdi":5814,"daÄŁÄ±tÄ±mÄ±":5815,"Ã¶ÄŁÃ¼tmeyecek":5816,"Ä±sÄ±rmayacak":5817,"Ġfener":5818,"evlenmemiÅŁ":5819,"saldÄ±rmÄ±yor":5820,"kaÃ§Ä±rmÄ±yor":5821,"TÃ¼rkÃ§eleÅŁtirmeyecek":5822,"kuruttu":5823,"dÃ¼zeltmemiÅŁ":5824,"sÃ¶zlÃ¼ÄŁÃ¼n":5825,"verilmemiÅŁ":5826,"cezven":5827,"sattÄ±rtmamÄ±ÅŁ":5828,"duydun":5829,"duydum":5830,"Ġyaparlar":5831,"iÅŁletmen":5832,"doktrinin":5833,"kÄ±yametin":5834,"alametin":5835,"hinterlandÄ±n":5836,"sahif":5837,"skrotumu":5838,"latern":5839,"mimizin":5840,"midyen":5841,"tohumu":5842,"yaÄŁlayÄ±c":5843,"Ġolmuyorlar":5844,"Ġlist":5845,"diyorlar":5846,"munda":5847,"denizana":5848,"minizden":5849,"Ġsuy":5850,"ĠgÃ¼reÅŁi":5851,"kÃ¼tÃ¼ÄŁÃ¼n":5852,"angudun":5853,"Ġkriz":5854,"Ã¶pÃ¼ÅŁtÃ¼":5855,"asidin":5856,"Ġcevizi":5857,"Ġfilmi":5858,"ĠelmasÄ±":5859,"ĠyetmezliÄŁi":5860,"ĠsÄ±nÄ±rlamasÄ±":5861,"ĠpastasÄ±":5862,"ĠaÄŁacÄ±":5863,"ĠkÃ¶prÃ¼sÃ¼":5864,"tun":5865,"Ã¼yen":5866,"maktan":5867,"yasan":5868,"Ã§oÄŁ":5869,"Ã§asÄ±":5870,"yorumu":5871,"yorumun":5872,"mayan":5873,"ÅŁta":5874,"ÅŁtÄ±n":5875,"ÅŁtÄ±m":5876,"ÅŁtÄ±k":5877,"Ġyapmayacaklar":5878,"ĠÃ§ekmemiÅŁler":5879,"sinize":5880,"sinizden":5881,"aldÄ±rmaz":5882,"uydu":5883,"larmÄ±ÅŁsÄ±n":5884,"oturdu":5885,"kovdurdu":5886,"kaybolmayacak":5887,"ydÄ±k":5888,"ydÄ±m":5889,"kurutmaz":5890,"ucuben":5891,"pedin":5892,"koÅŁuc":5893,"deyi":5894,"evladÄ±":5895,"evladÄ±n":5896,"Ġdilimi":5897,"yordamÄ±":5898,"iÅŁkencen":5899,"hÃ¼kÃ»metin":5900,"maskar":5901,"ĠkÃ¶ften":5902,"ambulansÄ±":5903,"ÅŁÄ±rÄ±ng":5904,"mimizden":5905,"yumurtan":5906,"similyan":5907,"zammÄ±":5908,"yÄ±ldÄ±rÄ±mÄ±":5909,"mundan":5910,"Ġdurumun":5911,"aÄŁÄ±dÄ±n":5912,"ĠkuralÄ±":5913,"tÃ¼ydÃ¼m":5914,"spamÄ±":5915,"yÃ¼ksÃ¼ÄŁÃ¼n":5916,"pustu":5917,"Ġyuva":5918,"Ġkamp":5919,"akvaryumu":5920,"ĠkumandasÄ±":5921,"Ġtesti":5922,"Ġcismi":5923,"ĠfÄ±rÃ§asÄ±":5924,"ĠkÄ±rlangÄ±cÄ±":5925,"ĠdonanÄ±mÄ±":5926,"ĠdansÄ±":5927,"okiyan":5928,"Ã§oÄŁulu":5929,"ydÄ±n":5930,"ydÄ±nÄ±z":5931,"demedi":5932,"koyu":5933,"sta":5934,"onu":5935,"olmadÄ±":5936,"Ã¶pmedi":5937,"meye":5938,"varmadÄ±":5939,"canlanmadÄ±":5940,"ĠÃ§ekmiÅŁler":5941,"ĠÃ§ekmiyorlar":5942,"gecikmedi":5943,"sinizi":5944,"piÅŁmedi":5945,"dÃ¼zmedi":5946,"katmadÄ±":5947,"bitti":5948,"aldÄ±rdÄ±":5949,"Ã¶ldÃ¼rtmedi":5950,"lardÄ±m":5951,"gezdi":5952,"tacÄ±":5953,"dÃ¼ÅŁÃ¼ndÃ¼":5954,"sapmadÄ±":5955,"demley":5956,"uludu":5957,"ulumadÄ±":5958,"paylaÅŁmadÄ±":5959,"gÃ¶tÃ¼rdÃ¼":5960,"aldÄ±n":5961,"onarmadÄ±":5962,"geberdi":5963,"gebermedi":5964,"ilklendirmedi":5965,"yalvarmadÄ±":5966,"yÄ±ÄŁmadÄ±":5967,"deÄŁiÅŁti":5968,"Ġdikti":5969,"yoksullaÅŁtÄ±rmadÄ±":5970,"Ã¶pÃ¼ÅŁmedi":5971,"yumdu":5972,"yummadÄ±":5973,"Ã¶lÃ§Ã¼lmedi":5974,"sÃ¶vmedi":5975,"kayboldu":5976,"kaybolmadÄ±":5977,"yÄ±kadÄ±":5978,"daldÄ±":5979,"daÄŁÄ±ttÄ±":5980,"Ä±sÄ±rmadÄ±":5981,"ĠaldÄ±rdÄ±":5982,"seslenmedi":5983,"kÄ±rdÄ±rmadÄ±":5984,"saldÄ±rmadÄ±":5985,"Ã¼ÅŁendi":5986,"boÅŁandÄ±":5987,"boÅŁanmadÄ±":5988,"aldattÄ±":5989,"kapatmadÄ±":5990,"iyileÅŁtirdi":5991,"Ä°ngilizceleÅŁtirmedi":5992,"TÃ¼rkÃ§eleÅŁtirdi":5993,"eÄŁlendi":5994,"gÃ¼lÃ¼nÃ§leÅŁmedi":5995,"bitirmedi":5996,"delirmedi":5997,"deÄŁiÅŁtirdi":5998,"deÄŁiÅŁtirmedi":5999,"tanÄ±tmadÄ±":6000,"tanÄ±ttÄ±":6001,"verdirtti":6002,"Ã§Ã¶kertti":6003,"canlandÄ±rtÄ±ldÄ±":6004,"canlandÄ±rtÄ±lmadÄ±":6005,"boÅŁalmadÄ±":6006,"verildi":6007,"alÄ±cÄ±":6008,"kalkmadÄ±":6009,"korkmamÄ±ÅŁ":6010,"yaÄŁladÄ±":6011,"mumyan":6012,"demlemedi":6013,"tÃ¼redi":6014,"diredi":6015,"diremedi":6016,"gÃ¼tmedi":6017,"pedi":6018,"bazaltÄ±":6019,"kÄ±rÄ±ldÄ±":6020,"kaynaÅŁtÄ±rÄ±ldÄ±":6021,"katÄ±lmadÄ±":6022,"kÄ±ÅŁkÄ±rttÄ±":6023,"yapÄ±ldÄ±":6024,"atÄ±ldÄ±":6025,"ÅŁaÅŁÄ±rtmadÄ±":6026,"duydu":6027,"sÃ¼rÃ¼medi":6028,"yaptÄ±rtmadÄ±":6029,"bÃ¼rÃ¼medi":6030,"uygula":6031,"ĠÃ§ekerler":6032,"hinterlandÄ±":6033,"boksu":6034,"kolonyan":6035,"Ġtahtan":6036,"lokantan":6037,"referansÄ±":6038,"Ã§Ã¶zeltin":6039,"rÃ¼yan":6040,"forumdaÅŁÄ±":6041,"ĠfrekansÄ±":6042,"patladÄ±":6043,"aÄŁÄ±dÄ±":6044,"tÃ¼ydÃ¼":6045,"tÃ¼ydÃ¼n":6046,"tÃ¼ydÃ¼nÃ¼z":6047,"tÃ¼ydÃ¼k":6048,"onuza":6049,"piÅŁti":6050,"angudu":6051,"birleÅŁti":6052,"yetiÅŁti":6053,"hududu":6054,"hududun":6055,"Ġpasta":6056,"Ġkuvveti":6057,"dinamitin":6058,"tavukgÃ¶tÃ¼":6059,"ime":6060,"kÃ¶ÄŁretim":6061,"liyorlar":6062,"lkÃ¶ÄŁretim":6063,"ĠbalÄ±k":6064,"meti":6065,"andÄ±":6066,"Ġolduk":6067,"ĠolmadÄ±lar":6068,"ĠolmadÄ±m":6069,"ĠolmadÄ±nÄ±z":6070,"Ġoldular":6071,"kasÄ±nÄ±z":6072,"muru":6073,"yapÄ±ÅŁt":6074,"elley":6075,"dÃ¼rmedi":6076,"dÃ¼rdÃ¼":6077,"uza":6078,"uzu":6079,"uzdan":6080,"sten":6081,"sundu":6082,"sunmadÄ±":6083,"onda":6084,"Ã¶ptÃ¼":6085,"meyi":6086,"satmadÄ±":6087,"sattÄ±":6088,"ĠyaptÄ±n":6089,"ĠyaptÄ±nÄ±z":6090,"ĠyapmadÄ±n":6091,"ĠyapmadÄ±nÄ±z":6092,"ĠyaptÄ±lar":6093,"okulu":6094,"dilmedi":6095,"saydÄ±":6096,"geldi":6097,"gelmedi":6098,"ĠÃ§ekmeyecekler":6099,"ĠÃ§ekmezler":6100,"utandÄ±":6101,"bÃ¼ktÃ¼":6102,"gecikti":6103,"sinizin":6104,"sinizde":6105,"dÃ¼zdÃ¼":6106,"artmadÄ±":6107,"arttÄ±":6108,"bitmedi":6109,"aÃ§madÄ±":6110,"aÃ§tÄ±":6111,"takmadÄ±":6112,"iÃ§ti":6113,"tanÄ±dÄ±":6114,"yazdÄ±":6115,"yazmadÄ±":6116,"gÃ¶Ã§medi":6117,"gÃ¶Ã§tÃ¼":6118,"sÃ¼ndÃ¼":6119,"dinizden":6120,"lardÄ±k":6121,"gezmedi":6122,"sÃ¼zdÃ¼":6123,"sevmedi":6124,"dondurdu":6125,"kopmadÄ±":6126,"uyardÄ±":6127,"deÄŁiÅŁmedi":6128,"sermedi":6129,"kurtardÄ±":6130,"kurtarmadÄ±":6131,"Ġvermedi":6132,"gÃ¶tÃ¼rmedi":6133,"taÅŁmadÄ±":6134,"hastalanmadÄ±":6135,"ilklendirdi":6136,"dadanmadÄ±":6137,"ĠsÄ±kÄ±ÅŁt":6138,"tepti":6139,"oturmadÄ±":6140,"gerekti":6141,"yÄ±ÄŁdÄ±":6142,"atÄ±ÅŁtÄ±rdÄ±":6143,"bÃ¼ktÃ¼rmedi":6144,"bÃ¼ktÃ¼rdÃ¼":6145,"Ã§aldÄ±":6146,"Ã§almadÄ±":6147,"yoksullaÅŁtÄ±rdÄ±":6148,"sÃ¶kmedi":6149,"Ã¶lÃ§Ã¼ldÃ¼":6150,"sÃ¶vdÃ¼":6151,"kaÅŁÄ±dÄ±":6152,"kÄ±ymadÄ±":6153,"solumadÄ±":6154,"canlanmamadÄ±":6155,"eÄŁitti":6156,"Ä±sÄ±rdÄ±":6157,"sÃ¼rÃ¼ndÃ¼rmedi":6158,"saydÄ±rdÄ±":6159,"kÄ±rdÄ±rdÄ±":6160,"kirletti":6161,"kÃ¶pÃ¼rmedi":6162,"kÃ¶pÃ¼rdÃ¼":6163,"geciktirdi":6164,"geciktirmedi":6165,"ayÄ±rdÄ±":6166,"ayÄ±rmadÄ±":6167,"tÃ¼kÃ¼rdÃ¼":6168,"Ã¼ÅŁenmedi":6169,"kapattÄ±":6170,"utandÄ±rdÄ±":6171,"utandÄ±rmadÄ±":6172,"iyileÅŁtirmedi":6173,"kaÃ§Ä±rdÄ±":6174,"kaÃ§Ä±rmadÄ±":6175,"abac":6176,"tÃ¼kendi":6177,"dÃ¶ndÃ¼rmedi":6178,"uÄŁratmadÄ±":6179,"eÄŁlenmedi":6180,"ĠsÄ±kÄ±ÅŁmadÄ±":6181,"gÃ¼cendi":6182,"verdirtmedi":6183,"yendirtmedi":6184,"yendirtti":6185,"sosu":6186,"Ã¶lÃ§tÃ¼rtmedi":6187,"dÃ¼rttÃ¼":6188,"gidildi":6189,"kaynaÅŁtÄ±rtÄ±ldÄ±":6190,"sikildi":6191,"sikilmedi":6192,"kokmadÄ±":6193,"korkmadÄ±":6194,"elledi":6195,"yaÄŁlamadÄ±":6196,"bayÄ±lmadÄ±":6197,"demledi":6198,"benzedi":6199,"benzemedi":6200,"tÃ¼remedi":6201,"belden":6202,"kullanÄ±ldÄ±":6203,"katÄ±ldÄ±":6204,"atÄ±lmadÄ±":6205,"sattÄ±rttÄ±":6206,"sÃ¼rÃ¼dÃ¼":6207,"karÄ±ÅŁtÄ±rtmadÄ±":6208,"yaptÄ±rttÄ±":6209,"bÃ¼rÃ¼dÃ¼":6210,"tÃ¼tsÃ¼n":6211,"tÃ¼tsÃ¼s":6212,"deyimimiz":6213,"uygulamanÄ±z":6214,"numarala":6215,"numaralamanÄ±z":6216,"kasiden":6217,"Ġprogramla":6218,"pilavÄ±":6219,"maskaran":6220,"anjiy":6221,"ambulansÄ±nÄ±z":6222,"bataryan":6223,"Ġsineklerinden":6224,"Ġsineklerinde":6225,"Ġsineklerinin":6226,"tahdidi":6227,"giys":6228,"tohumun":6229,"tohumunuz":6230,"piskoposu":6231,"Ã§Ã¶zeltiniz":6232,"yalÄ±tÄ±mÄ±":6233,"satrancÄ±":6234,"patlamadÄ±":6235,"sakladÄ±":6236,"saklamadÄ±":6237,"aÄŁlamadÄ±":6238,"yuvarladÄ±":6239,"yuvarlamadÄ±":6240,"horladÄ±":6241,"Ġkural":6242,"Ġkuram":6243,"onuzdan":6244,"kÃ¢busu":6245,"kÃ¢busunuz":6246,"Ġkonferans":6247,"aynÅŁtaynyumunuz":6248,"Ġufuk":6249,"sindirimimiz":6250,"ĠÃ¶rtÃ¼":6251,"gÃ¼lÃ¼nÃ§leÅŁti":6252,"Ġfilm":6253,"coÅŁtu":6254,"lamayÄ±n":6255,"lamayÄ±z":6256,"ĠfÄ±rÃ§a":6257,"Ä±lacaÄŁÄ±m":6258,"Ä±lacaÄŁÄ±z":6259,"cÄ±lÄ±ÄŁ":6260,"culuÄŁ":6261,"moloj":6262,"lacaÄŁÄ±m":6263,"inmedi":6264,"anmadÄ±":6265,"yorumunuz":6266,"ĠmÄ±ymÄ±ÅŁlar":6267,"yaptÄ±":6268,"dadÄ±nÄ±z":6269,"Ã¼zmedi":6270,"uzun":6271,"ĠmÄ±ydÄ±lar":6272,"oldu":6273,"vardÄ±":6274,"ĠyaptÄ±k":6275,"ĠyaptÄ±m":6276,"ĠyapmadÄ±m":6277,"iydim":6278,"dildi":6279,"dilimimiz":6280,"asmadÄ±":6281,"saymadÄ±":6282,"ĠÃ§ekecekler":6283,"ĠÃ§ekiyorlar":6284,"utanmadÄ±":6285,"bÃ¼kmedi":6286,"kattÄ±":6287,"bayÄ±":6288,"sÄ±zdÄ±":6289,"sÄ±zmadÄ±":6290,"taktÄ±":6291,"canlandÄ±rmadÄ±":6292,"tanÄ±madÄ±":6293,"Ã¶ldÃ¼rttÃ¼":6294,"Ã¼yÃ¼":6295,"coÅŁmadÄ±":6296,"dinizi":6297,"sÃ¼zmedi":6298,"tacaÄŁÄ±z":6299,"Ã¶ÄŁretmedi":6300,"Ã¶ÄŁretti":6301,"sevdi":6302,"dÃ¼ÅŁÃ¼nmedi":6303,"dondurmadÄ±":6304,"uyarmadÄ±":6305,"uymadÄ±":6306,"serdi":6307,"aldÄ±nÄ±z":6308,"onardÄ±":6309,"tepmedi":6310,"kovdurmadÄ±":6311,"gerekmedi":6312,"atÄ±ÅŁtÄ±rmadÄ±":6313,"yetiÅŁmedi":6314,"Ġdikmedi":6315,"sÄ±vÄ±laÅŁtÄ±rdÄ±":6316,"pusmadÄ±":6317,"kaÅŁÄ±madÄ±":6318,"karadulu":6319,"yÄ±kamadÄ±":6320,"soludu":6321,"kapamadÄ±":6322,"dalmadÄ±":6323,"lamam":6324,"tutmadÄ±":6325,"sandÄ±":6326,"sanmadÄ±":6327,"eÄŁitmedi":6328,"yapÄ±ÅŁmadÄ±":6329,"yanlÄ±":6330,"sÃ¼rÃ¼ndÃ¼rdÃ¼":6331,"saydÄ±rmadÄ±":6332,"evlendi":6333,"tÃ¼kÃ¼rmedi":6334,"Ä°ngilizceleÅŁtirdi":6335,"abadin":6336,"TÃ¼rkÃ§eleÅŁtirmedi":6337,"tÃ¼kenmedi":6338,"unutmadÄ±":6339,"ettirdi":6340,"sÃ¼mÃ¼rmedi":6341,"dÃ¶ndÃ¼rdÃ¼":6342,"uÄŁrattÄ±":6343,"kurutmadÄ±":6344,"gÃ¼cenmedi":6345,"atÄ±ÅŁmadÄ±":6346,"birleÅŁmedi":6347,"delirdi":6348,"Ã§Ã¶kertmedi":6349,"Ã¶lÃ§tÃ¼rttÃ¼":6350,"dirildi":6351,"dÃ¼rtmedi":6352,"gidilmedi":6353,"seÃ§ildi":6354,"dÃ¼zeltmedi":6355,"kaynaÅŁtÄ±rtÄ±lmadÄ±":6356,"ĠaldÄ±":6357,"ĠalmadÄ±":6358,"bankÄ±":6359,"olayÄ±":6360,"ellemedi":6361,"vaden":6362,"vadeniz":6363,"bayÄ±ldÄ±":6364,"liÄŁe":6365,"liÄŁin":6366,"Ġhallerini":6367,"Ġhallerinde":6368,"Ġhallerinin":6369,"Ġhalini":6370,"Ġhaline":6371,"Ġhalinden":6372,"kullanÄ±lmadÄ±":6373,"kaynaÅŁtÄ±rÄ±lmadÄ±":6374,"kÄ±ÅŁkÄ±rtmadÄ±":6375,"yapÄ±lmadÄ±":6376,"ÅŁaÅŁÄ±rttÄ±":6377,"sattÄ±rtmadÄ±":6378,"karÄ±ÅŁtÄ±rttÄ±":6379,"benzerler":6380,"tÃ¼tsÃ¼nÃ¼z":6381,"evladÄ±nÄ±z":6382,"ĠprogramlamanÄ±z":6383,"beyt":6384,"beytiniz":6385,"hinterlandÄ±nÄ±z":6386,"boksunuz":6387,"skrotumun":6388,"skrotumunuz":6389,"albatrosu":6390,"hiss":6391,"borcu":6392,"hÃ¼lyan":6393,"Ġsinekleri":6394,"Ġsineklerini":6395,"peskÃ¼tanÄ±":6396,"Ã§Ã¶zelt":6397,"kaldÄ±racÄ±":6398,"Yahudin":6399,"ĠsineÄŁinin":6400,"ĠsineÄŁinde":6401,"aÄŁladÄ±":6402,"yalamadÄ±":6403,"horlamadÄ±":6404,"kanÄ±tladÄ±":6405,"kanÄ±tlamadÄ±":6406,"ĠÄ±ÅŁÄ±k":6407,"ĠÄ±ÅŁÄ±nÄ±n":6408,"onuzu":6409,"onuzun":6410,"onuzda":6411,"Ġkonferan":6412,"ekstremumunuz":6413,"Ġgrub":6414,"Ġgrup":6415,"Ġufk":6416,"angudunuz":6417,"atomunuz":6418,"Ã§evirimimiz":6419,"yoÄŁurdu":6420,"yoÄŁurdunuz":6421,"malumatÄ±nÄ±z":6422,"tuydu":6423,"tuyduk":6424,"Ġtuzak":6425,"Ã¶pÃ¼ÅŁtÃ¼y":6426,"asidi":6427,"Ġbitim":6428,"monarÅŁ":6429,"ĠfrekansÄ±nÄ±z":6430,"ĠaÄŁac":6431,"virgÃ¼lÃ¼nÃ¼z":6432,"leceÄŁiz":6433,"eÅŁt":6434,"tayÄ±":6435,"tasÄ±":6436,"yeye":6437,"yeyi":6438,"ĠaÄŁaÃ§":6439,"Ġkart":6440,"Ġdans":6441,"ĠkartÄ±n":6442,"Ä±ma":6443,"mana":6444,"lete":6445,"inmeyecekler":6446,"inmiyorlar":6447,"anmayacaklar":6448,"anmÄ±yorlar":6449,"anÄ±yorlar":6450,"anarlar":6451,"Ġoldun":6452,"Ġoldunuz":6453,"ĠolmadÄ±k":6454,"ĠolmadÄ±n":6455,"demeyecekler":6456,"demiyorlar":6457,"muÄŁ":6458,"armu":6459,"ÅŁtan":6460,"yapmadÄ±":6461,"yapmazlar":6462,"yapmÄ±ÅŁlar":6463,"yapacaklar":6464,"yaparlar":6465,"dÃ¼rmemiÅŁler":6466,"dÃ¼rÃ¼yorlar":6467,"dÃ¼rmÃ¼ÅŁler":6468,"dÃ¼rerler":6469,"Ã¼zmeyecekler":6470,"Ã¼zmezler":6471,"Ã¼zmÃ¼yorlar":6472,"Ã¼zerler":6473,"uzda":6474,"direy":6475,"diriyorlar":6476,"direrler":6477,"direyecekler":6478,"aÅŁmadÄ±":6479,"aÅŁmamÄ±ÅŁlar":6480,"aÅŁmazlar":6481,"aÅŁmayacaklar":6482,"aÅŁarlar":6483,"sunmayacaklar":6484,"sunmuyorlar":6485,"ondan":6486,"tanÄ±rlar":6487,"olmamÄ±ÅŁlar":6488,"olmayacaklar":6489,"Ã¶pmeyecekler":6490,"Ã¶pmezler":6491,"varmÄ±ÅŁlar":6492,"varÄ±yorlar":6493,"varÄ±rlar":6494,"satmamÄ±ÅŁlar":6495,"satÄ±yorlar":6496,"canlanmazlar":6497,"canlanmayacaklar":6498,"iydin":6499,"iydik":6500,"iydiniz":6501,"sÃ¼rÃ¼y":6502,"sÃ¼rÃ¼yecekler":6503,"dilmemiÅŁler":6504,"diliyorlar":6505,"asmazlar":6506,"asmayacaklar":6507,"asmÄ±yorlar":6508,"asmÄ±ÅŁlar":6509,"asacaklar":6510,"asarlar":6511,"hadi":6512,"kapÄ±yorlar":6513,"saymazlar":6514,"saymayacaklar":6515,"saymÄ±ÅŁlar":6516,"sayÄ±yorlar":6517,"gelmemiÅŁler":6518,"gelmezler":6519,"gelirler":6520,"ĠmuymuÅŁlar":6521,"ĠÃ§ektin":6522,"ĠÃ§ektik":6523,"ĠÃ§ekmediler":6524,"ĠÃ§ekmedim":6525,"ĠÃ§ekmedik":6526,"ĠÃ§ekmediniz":6527,"Ã§Ã¶kermedi":6528,"Ã§Ã¶kermemiÅŁler":6529,"Ã§Ã¶kermeyecekler":6530,"Ã§Ã¶kermezler":6531,"Ã§Ã¶kermiyorlar":6532,"utanmamÄ±ÅŁlar":6533,"utanmazlar":6534,"utanÄ±yorlar":6535,"utanacaklar":6536,"bÃ¼kmemiÅŁler":6537,"bÃ¼kmeyecekler":6538,"bÃ¼kmezler":6539,"bÃ¼kmÃ¼ÅŁler":6540,"bÃ¼kerler":6541,"gecikmemiÅŁler":6542,"gecikmeyecekler":6543,"gecikmiÅŁler":6544,"gecikmiyorlar":6545,"piÅŁmemiÅŁler":6546,"piÅŁmezler":6547,"piÅŁecekler":6548,"dÃ¼zmezler":6549,"dÃ¼zÃ¼yorlar":6550,"dÃ¼zmÃ¼ÅŁler":6551,"dÃ¼zerler":6552,"katmamÄ±ÅŁlar":6553,"katmayacaklar":6554,"artmamÄ±ÅŁlar":6555,"artmayacaklar":6556,"artmÄ±yorlar":6557,"artacaklar":6558,"bitmemiÅŁler":6559,"bitmeyecekler":6560,"bitmezler":6561,"bitecekler":6562,"bitmiyorlar":6563,"bitiyorlar":6564,"biterler":6565,"aÃ§mayacaklar":6566,"aÃ§Ä±yorlar":6567,"sÄ±zmÄ±yorlar":6568,"sÄ±zÄ±yorlar":6569,"sÄ±zacaklar":6570,"takmamÄ±ÅŁlar":6571,"takmÄ±yorlar":6572,"takmÄ±ÅŁlar":6573,"canlandÄ±rdÄ±":6574,"canlandÄ±rmayacaklar":6575,"canlandÄ±rÄ±yorlar":6576,"canlandÄ±racaklar":6577,"canlandÄ±rÄ±rlar":6578,"aldÄ±rmadÄ±":6579,"aldÄ±rmayacaklar":6580,"aldÄ±rmÄ±yorlar":6581,"aldÄ±rmÄ±ÅŁlar":6582,"aldÄ±racaklar":6583,"iÃ§medi":6584,"iÃ§ecekler":6585,"iÃ§miÅŁler":6586,"iÃ§erler":6587,"tanÄ±mayacaklar":6588,"Ã¶ldÃ¼rtmemiÅŁler":6589,"Ã¶ldÃ¼rtmezler":6590,"Ã¶ldÃ¼rtmÃ¼ÅŁler":6591,"Ġmuydular":6592,"yazmamÄ±ÅŁlar":6593,"yazmayacaklar":6594,"yazmÄ±yorlar":6595,"yazacaklar":6596,"gÃ¶Ã§ecekler":6597,"gÃ¶Ã§Ã¼yorlar":6598,"gÃ¶Ã§erler":6599,"sÃ¼nmedi":6600,"sÃ¼nmeyecekler":6601,"sÃ¼nerler":6602,"coÅŁmamÄ±ÅŁlar":6603,"coÅŁmazlar":6604,"coÅŁmayacaklar":6605,"coÅŁarlar":6606,"coÅŁmuyorlar":6607,"dinize":6608,"dinizin":6609,"dinizde":6610,"gezecekler":6611,"gezmiyorlar":6612,"geziyorlar":6613,"sÃ¼zmemiÅŁler":6614,"sÃ¼zmeyecekler":6615,"sÃ¼zecekler":6616,"Ã¶ÄŁretmemiÅŁler":6617,"Ã¶ÄŁretmeyecekler":6618,"Ã¶ÄŁretmezler":6619,"Ã¶ÄŁretmiyorlar":6620,"sevecekler":6621,"derler":6622,"sÃ¼smedi":6623,"sÃ¼smeyecekler":6624,"sÃ¼secekler":6625,"sÃ¼sÃ¼yorlar":6626,"sÃ¼serler":6627,"saptÄ±":6628,"sapmamÄ±ÅŁlar":6629,"sapmazlar":6630,"sapmÄ±yorlar":6631,"sapÄ±yorlar":6632,"saparlar":6633,"demliyorlar":6634,"benzey":6635,"dondurmayacaklar":6636,"donduracaklar":6637,"dondurmuyorlar":6638,"kopmamÄ±ÅŁlar":6639,"kopmazlar":6640,"kopmayacaklar":6641,"koparlar":6642,"uyarmamÄ±ÅŁlar":6643,"uyarmazlar":6644,"uyarÄ±yorlar":6645,"uyaracaklar":6646,"ulumamÄ±ÅŁlar":6647,"ulumazlar":6648,"uyduk":6649,"uydunuz":6650,"deÄŁiÅŁmeyecekler":6651,"deÄŁiÅŁmezler":6652,"sermemiÅŁler":6653,"sermeyecekler":6654,"sermiÅŁler":6655,"paylaÅŁmamÄ±ÅŁlar":6656,"paylaÅŁmayacaklar":6657,"paylaÅŁmÄ±yorlar":6658,"paylaÅŁmÄ±ÅŁlar":6659,"paylaÅŁacaklar":6660,"kurtarmamÄ±ÅŁlar":6661,"kurtarÄ±yorlar":6662,"kurtaracaklar":6663,"bÃ¼rÃ¼yorlar":6664,"Ġverdi":6665,"ĠvermemiÅŁler":6666,"Ġvermeyecekler":6667,"Ġvermezler":6668,"ĠvermiÅŁler":6669,"Ġveriyorlar":6670,"Ġverirler":6671,"gÃ¶tÃ¼rmemiÅŁler":6672,"gÃ¶tÃ¼recekler":6673,"gÃ¶tÃ¼rÃ¼yorlar":6674,"gÃ¶tÃ¼rmÃ¼yorlar":6675,"taÅŁmamÄ±ÅŁlar":6676,"taÅŁmayacaklar":6677,"taÅŁacaklar":6678,"onarmazlar":6679,"onarmÄ±yorlar":6680,"gebermiÅŁler":6681,"gebermiyorlar":6682,"geberiyorlar":6683,"geberirler":6684,"hastalandÄ±":6685,"hastalanmamÄ±ÅŁlar":6686,"hastalanÄ±yorlar":6687,"hastalanacaklar":6688,"ilklendirecekler":6689,"ilklendirmiyorlar":6690,"ilklendirirler":6691,"dadandÄ±":6692,"dadanmÄ±yorlar":6693,"dadanmÄ±ÅŁlar":6694,"dadanÄ±yorlar":6695,"dadanacaklar":6696,"tepmezler":6697,"tepmiÅŁler":6698,"oturmuyorlar":6699,"kovdurmamÄ±ÅŁlar":6700,"kovdurmayacaklar":6701,"kovdurmuyorlar":6702,"yalvardÄ±":6703,"yalvarÄ±rlar":6704,"gerekmemiÅŁler":6705,"gerekmezler":6706,"gerekecekler":6707,"gerekmiyorlar":6708,"yÄ±ÄŁmayacaklar":6709,"yÄ±ÄŁmÄ±ÅŁlar":6710,"yÄ±ÄŁÄ±yorlar":6711,"yÄ±ÄŁacaklar":6712,"atÄ±ÅŁtÄ±rmayacaklar":6713,"atÄ±ÅŁtÄ±rÄ±rlar":6714,"sÃ¼mÃ¼z":6715,"yetiÅŁmiÅŁler":6716,"ĠdikmemiÅŁler":6717,"Ġdikmezler":6718,"Ġdikecekler":6719,"ĠdikmiÅŁler":6720,"bÃ¼ktÃ¼rmemiÅŁler":6721,"bÃ¼ktÃ¼rÃ¼yorlar":6722,"Ã§almamÄ±ÅŁlar":6723,"Ã§almazlar":6724,"Ã§almÄ±yorlar":6725,"yoksullaÅŁtÄ±rÄ±rlar":6726,"Ã¶pÃ¼ÅŁmemiÅŁler":6727,"Ã¶pÃ¼ÅŁmezler":6728,"Ã¶pÃ¼ÅŁÃ¼yorlar":6729,"Ã¶pÃ¼ÅŁmÃ¼ÅŁler":6730,"sÄ±vÄ±laÅŁtÄ±rmadÄ±":6731,"sÄ±vÄ±laÅŁtÄ±rmÄ±ÅŁlar":6732,"sÄ±vÄ±laÅŁtÄ±rÄ±rlar":6733,"Ã¶ldÃ¼rtÃ¼lmedi":6734,"Ã¶ldÃ¼rtÃ¼lÃ¼y":6735,"Ã¶ldÃ¼rtÃ¼lÃ¼yorlar":6736,"sÃ¶kmeyecekler":6737,"sÃ¶kmÃ¼ÅŁler":6738,"Ã¶lÃ§Ã¼lmemiÅŁler":6739,"Ã¶lÃ§Ã¼lmeyecekler":6740,"Ã¶lÃ§Ã¼lmÃ¼ÅŁler":6741,"sÃ¶vmemiÅŁler":6742,"sÃ¶vÃ¼yorlar":6743,"sÃ¶vmÃ¼ÅŁler":6744,"pusmazlar":6745,"pusacaklar":6746,"pusarlar":6747,"pusmuyorlar":6748,"kaÅŁÄ±mamÄ±ÅŁlar":6749,"kaÅŁÄ±mayacaklar":6750,"kaÅŁÄ±mÄ±ÅŁlar":6751,"kaybolmuyorlar":6752,"yÄ±kamamÄ±ÅŁlar":6753,"yÄ±kamazlar":6754,"yÄ±kamÄ±yorlar":6755,"yÄ±kamÄ±ÅŁlar":6756,"kÄ±ydÄ±":6757,"solumuyorlar":6758,"kapadÄ±":6759,"kapamamÄ±ÅŁlar":6760,"kapamÄ±yorlar":6761,"kapamÄ±ÅŁlar":6762,"dalmazlar":6763,"tutmamÄ±ÅŁlar":6764,"tutarlar":6765,"sanmÄ±yorlar":6766,"canlanmamamÄ±ÅŁlar":6767,"canlanmamÄ±yorlar":6768,"Ã¶ldÃ¼rtÃ¼lmemezler":6769,"Ã¶ldÃ¼rtÃ¼lmemiyorlar":6770,"eÄŁitmezler":6771,"eÄŁitecekler":6772,"eÄŁitimimiz":6773,"yapÄ±ÅŁmamÄ±ÅŁlar":6774,"yapÄ±ÅŁÄ±rlar":6775,"daÄŁÄ±tmamÄ±ÅŁlar":6776,"daÄŁÄ±tmazlar":6777,"daÄŁÄ±tmÄ±yorlar":6778,"daÄŁÄ±tÄ±yorlar":6779,"daÄŁÄ±tacaklar":6780,"Ã¶ÄŁÃ¼tmedi":6781,"Ã¶ÄŁÃ¼ttÃ¼":6782,"Ã¶ÄŁÃ¼tmezler":6783,"Ã¶ÄŁÃ¼tÃ¼yorlar":6784,"Ã¶ÄŁÃ¼tmÃ¼ÅŁler":6785,"Ã¶ÄŁÃ¼tmÃ¼yorlar":6786,"Ä±sÄ±rmazlar":6787,"Ä±sÄ±rmayacaklar":6788,"Ä±sÄ±rÄ±yorlar":6789,"Ä±sÄ±rÄ±rlar":6790,"ĠaldÄ±rmadÄ±":6791,"ĠaldÄ±rmamÄ±ÅŁlar":6792,"ĠaldÄ±rmazlar":6793,"sÃ¼rÃ¼ndÃ¼recekler":6794,"sÃ¼rÃ¼ndÃ¼rÃ¼yorlar":6795,"seslendi":6796,"seslenecekler":6797,"sesleniyorlar":6798,"saydÄ±rmazlar":6799,"saydÄ±rmÄ±yorlar":6800,"saydÄ±rÄ±yorlar":6801,"kÄ±rdÄ±rmÄ±yorlar":6802,"kÄ±rdÄ±rÄ±yorlar":6803,"kÄ±rdÄ±racaklar":6804,"kirletmedi":6805,"kirletmemiÅŁler":6806,"kirletmeyecekler":6807,"kirletmezler":6808,"kirletecekler":6809,"kirletiyorlar":6810,"kÃ¶pÃ¼rmemiÅŁler":6811,"kÃ¶pÃ¼rmezler":6812,"kÃ¶pÃ¼rmÃ¼ÅŁler":6813,"evlenmedi":6814,"evlenmemiÅŁler":6815,"evlenecekler":6816,"evlenmiyorlar":6817,"geciktirmeyecekler":6818,"geciktirmiyorlar":6819,"geciktiriyorlar":6820,"ayÄ±rmÄ±yorlar":6821,"ayÄ±rmÄ±ÅŁlar":6822,"ayÄ±rÄ±rlar":6823,"tÃ¼kÃ¼rmÃ¼ÅŁler":6824,"tÃ¼kÃ¼rmÃ¼yorlar":6825,"saldÄ±rdÄ±":6826,"saldÄ±rmamÄ±ÅŁlar":6827,"saldÄ±rÄ±yorlar":6828,"saldÄ±racaklar":6829,"saldÄ±rÄ±rlar":6830,"Ã¼ÅŁenecekler":6831,"Ã¼ÅŁeniyorlar":6832,"boÅŁanmayacaklar":6833,"boÅŁanmÄ±ÅŁlar":6834,"aldatmÄ±yorlar":6835,"aldatÄ±rlar":6836,"kapatmamÄ±ÅŁlar":6837,"kapatmÄ±yorlar":6838,"utandÄ±rmamÄ±ÅŁlar":6839,"utandÄ±rmayacaklar":6840,"utandÄ±rmÄ±yorlar":6841,"utandÄ±rmÄ±ÅŁlar":6842,"utandÄ±rÄ±rlar":6843,"iyileÅŁtirmemiÅŁler":6844,"iyileÅŁtirmeyecekler":6845,"iyileÅŁtirmezler":6846,"iyileÅŁtirmiÅŁler":6847,"iyileÅŁtiriyorlar":6848,"Ä°ngilizceleÅŁtirmeyecekler":6849,"Ä°ngilizceleÅŁtirmezler":6850,"Ä°ngilizceleÅŁtirecekler":6851,"Ä°ngilizceleÅŁtirmiÅŁler":6852,"kaÃ§Ä±rmamÄ±ÅŁlar":6853,"kaÃ§Ä±rmazlar":6854,"kaÃ§Ä±rmayacaklar":6855,"kaÃ§Ä±rmÄ±yorlar":6856,"TÃ¼rkÃ§eleÅŁtirmeyecekler":6857,"TÃ¼rkÃ§eleÅŁtirmezler":6858,"TÃ¼rkÃ§eleÅŁtirmiyorlar":6859,"TÃ¼rkÃ§eleÅŁtiriyorlar":6860,"tÃ¼kenmeyecekler":6861,"tÃ¼kenmiÅŁler":6862,"unutmamÄ±ÅŁlar":6863,"unutmuyorlar":6864,"ettiriyorlar":6865,"ettirirler":6866,"sÃ¼mÃ¼rdÃ¼":6867,"sÃ¼mÃ¼rÃ¼yorlar":6868,"uÄŁratmayacaklar":6869,"uÄŁratacaklar":6870,"kurutmayacaklar":6871,"kurutacaklar":6872,"eÄŁlenmiyorlar":6873,"eÄŁlenirler":6874,"ĠsÄ±kÄ±ÅŁmazlar":6875,"ĠsÄ±kÄ±ÅŁmÄ±yorlar":6876,"ĠsÄ±kÄ±ÅŁmÄ±ÅŁlar":6877,"ĠsÄ±kÄ±ÅŁÄ±yorlar":6878,"ĠsÄ±kÄ±ÅŁÄ±rlar":6879,"gÃ¼cenmeyecekler":6880,"gÃ¼cenmezler":6881,"gÃ¼cenirler":6882,"gÃ¼lÃ¼nÃ§leÅŁmemiÅŁler":6883,"gÃ¼lÃ¼nÃ§leÅŁmeyecekler":6884,"gÃ¼lÃ¼nÃ§leÅŁecekler":6885,"gÃ¼lÃ¼nÃ§leÅŁmiÅŁler":6886,"gÃ¼lÃ¼nÃ§leÅŁiyorlar":6887,"gÃ¼lÃ¼nÃ§leÅŁirler":6888,"atÄ±ÅŁmazlar":6889,"atÄ±ÅŁmÄ±ÅŁlar":6890,"atÄ±ÅŁacaklar":6891,"bitirdi":6892,"bitirecekler":6893,"bitirmiÅŁler":6894,"bitiriyorlar":6895,"birleÅŁecekler":6896,"birleÅŁmiÅŁler":6897,"delirmemiÅŁler":6898,"delirmeyecekler":6899,"delirecekler":6900,"delirmiyorlar":6901,"deÄŁiÅŁtirmeyecekler":6902,"deÄŁiÅŁtirmiyorlar":6903,"tanÄ±tmÄ±ÅŁlar":6904,"verdirtmemiÅŁler":6905,"verdirtmiyorlar":6906,"verdirtiyorlar":6907,"Ã§Ã¶kertmezler":6908,"Ã§Ã¶kertmiÅŁler":6909,"yendirtmemiÅŁler":6910,"yendirtmeyecekler":6911,"yendirtmezler":6912,"yendirtiyorlar":6913,"sosunuz":6914,"Ã¶lÃ§tÃ¼rtÃ¼yorlar":6915,"dirilmedi":6916,"dirilmemiÅŁler":6917,"dirilmeyecekler":6918,"dirilmezler":6919,"diriliyorlar":6920,"dirilirler":6921,"dÃ¼rtmezler":6922,"dÃ¼rtÃ¼yorlar":6923,"dÃ¼rtmÃ¼yorlar":6924,"gidilmemiÅŁler":6925,"gidilmeyecekler":6926,"gidilmiÅŁler":6927,"gidilmiyorlar":6928,"gidiliyorlar":6929,"gidilirler":6930,"seÃ§ilmedi":6931,"seÃ§ilmemiÅŁler":6932,"seÃ§ilmeyecekler":6933,"seÃ§ilmiÅŁler":6934,"seÃ§iliyorlar":6935,"canlandÄ±rtÄ±lmamÄ±ÅŁlar":6936,"canlandÄ±rtÄ±lmÄ±ÅŁlar":6937,"canlandÄ±rtÄ±lÄ±rlar":6938,"dÃ¼zeltti":6939,"dÃ¼zeltmemiÅŁler":6940,"dÃ¼zeltmeyecekler":6941,"dÃ¼zeltmiyorlar":6942,"kaynaÅŁtÄ±rtÄ±lmamÄ±ÅŁlar":6943,"kaynaÅŁtÄ±rtÄ±lmazlar":6944,"kaynaÅŁtÄ±rtÄ±lmÄ±yorlar":6945,"kaynaÅŁtÄ±rtÄ±lÄ±yorlar":6946,"Ġgeldi":6947,"Ġgelmedi":6948,"ĠgelmemiÅŁler":6949,"Ġgelmezler":6950,"ĠalmamÄ±ÅŁlar":6951,"Ġalmazlar":6952,"boÅŁalmamÄ±ÅŁlar":6953,"boÅŁalmazlar":6954,"boÅŁalÄ±rlar":6955,"verilmedi":6956,"sÃ¼rÃ¼mÃ¼yorlar":6957,"sÃ¼rÃ¼mÃ¼ÅŁt":6958,"kokmayacaklar":6959,"kokmuyorlar":6960,"kalktÄ±":6961,"kalkmazlar":6962,"kalkmayacaklar":6963,"kalkmÄ±yorlar":6964,"kalkÄ±yorlar":6965,"korkmuyorlar":6966,"ellememiÅŁler":6967,"ellemeyecekler":6968,"ellemiyorlar":6969,"yaÄŁlamazlar":6970,"yaÄŁlamayacaklar":6971,"bayÄ±lmamÄ±ÅŁlar":6972,"bayÄ±lmazlar":6973,"bayÄ±lmÄ±yorlar":6974,"demlemeyecekler":6975,"demlemiyorlar":6976,"benzememiÅŁler":6977,"benzemezler":6978,"gÃ¼tmÃ¼yorlar":6979,"beldeniz":6980,"harcÄ±":6981,"ĠsayÄ±nÄ±n":6982,"ĠfÃ¼zenin":6983,"bazaltÄ±nÄ±z":6984,"Ġasimptotu":6985,"ĠasimptotlarÄ±ndan":6986,"ĠasimptotlarÄ±nÄ±":6987,"Ġasimptotunu":6988,"Ġasimptotundan":6989,"Ġhalleri":6990,"Ġhallerine":6991,"Ġhalinin":6992,"Ġhalinde":6993,"kÄ±rÄ±lmadÄ±":6994,"kÄ±rÄ±lmamÄ±ÅŁlar":6995,"kÄ±rÄ±lmazlar":6996,"kÄ±rÄ±lmayacaklar":6997,"kÄ±rÄ±lmÄ±yorlar":6998,"kullanÄ±lmazlar":6999,"kullanÄ±lmayacaklar":7000,"katÄ±lmamÄ±ÅŁlar":7001,"katÄ±lmÄ±yorlar":7002,"kÄ±ÅŁkÄ±rtmayacaklar":7003,"yapÄ±lmamÄ±ÅŁlar":7004,"yapÄ±lmÄ±yorlar":7005,"ĠsayÄ±larÄ±nda":7006,"ĠsayÄ±larÄ±nÄ±n":7007,"atÄ±lmamÄ±ÅŁlar":7008,"atÄ±lmazlar":7009,"anlatmadÄ±":7010,"anlattÄ±":7011,"anlatmazlar":7012,"ÅŁaÅŁÄ±rtmazlar":7013,"ÅŁaÅŁÄ±rtmayacaklar":7014,"ĠfÃ¼zelerin":7015,"ĠfÃ¼zelerinden":7016,"ĠfÃ¼zelerine":7017,"sattÄ±rtmamÄ±ÅŁlar":7018,"sattÄ±rtmayacaklar":7019,"sÃ¼rÃ¼memiÅŁler":7020,"karÄ±ÅŁtÄ±rtmÄ±yorlar":7021,"dilerler":7022,"yaptÄ±rtmazlar":7023,"ĠyazÄ±lÄ±mlarÄ±nda":7024,"bÃ¼rÃ¼meyecekler":7025,"bÃ¼rÃ¼mezler":7026,"Ġgezegenleri":7027,"ĠanahtarÄ±nÄ±n":7028,"ĠanahtarÄ±nÄ±":7029,"ĠanahtarÄ±na":7030,"olacaklar":7031,"tÃ¼tsÃ¼mÃ¼z":7032,"mantÄ±klÄ±y":7033,"Ġdilimin":7034,"bÃ¼rÃ¼mÃ¼ÅŁt":7035,"albatrosunuz":7036,"Ġsineklerine":7037,"ÅŁÄ±rÄ±ngan":7038,"deneyimimiz":7039,"piskoposunuz":7040,"kokarlar":7041,"ĠsineÄŁini":7042,"ĠsineÄŁine":7043,"yapÄ±lacaklar":7044,"kullanÄ±lÄ±yorlar":7045,"oturuyorlar":7046,"yaptÄ±rtÄ±yorlar":7047,"ÅŁaÅŁÄ±rtmÄ±ÅŁlar":7048,"yapÄ±lÄ±yorlar":7049,"uyacaklar":7050,"yalamÄ±ÅŁlar":7051,"kÄ±ÅŁkÄ±rtacaklar":7052,"kanÄ±tlÄ±yorlar":7053,"kovduruyorlar":7054,"sattÄ±rtÄ±yorlar":7055,"kaÅŁÄ±yorlar":7056,"atÄ±lÄ±yorlar":7057,"coÅŁmuÅŁlar":7058,"karÄ±ÅŁtÄ±rtmÄ±ÅŁlar":7059,"sayacaklar":7060,"unutuyorlar":7061,"oluyorlar":7062,"korkacaklar":7063,"sikilecekler":7064,"kullanÄ±lmÄ±ÅŁlar":7065,"sattÄ±rtacaklar":7066,"Ã§alacaklar":7067,"bÃ¼rÃ¼mÃ¼ÅŁler":7068,"atÄ±lmÄ±ÅŁlar":7069,"kaynaÅŁtÄ±rÄ±lÄ±yorlar":7070,"kaynaÅŁtÄ±rÄ±lmÄ±ÅŁlar":7071,"kopuyorlar":7072,"kayboluyorlar":7073,"tutuyorlar":7074,"aÄŁlamÄ±ÅŁlar":7075,"patlamamÄ±ÅŁlar":7076,"patlamayacaklar":7077,"patlamÄ±yorlar":7078,"kullanÄ±lacaklar":7079,"donduruyorlar":7080,"kaybolmuÅŁlar":7081,"boÅŁalacaklar":7082,"pusmuÅŁlar":7083,"olmuÅŁlar":7084,"saklamamÄ±ÅŁlar":7085,"saklamayacaklar":7086,"saklamÄ±yorlar":7087,"yumacaklar":7088,"dondurmuÅŁlar":7089,"sunmuÅŁlar":7090,"korkmuÅŁlar":7091,"yaladÄ±":7092,"yalamamÄ±ÅŁlar":7093,"yalamazlar":7094,"yalamayacaklar":7095,"uymuÅŁlar":7096,"horlamazlar":7097,"kÄ±rÄ±lÄ±rlar":7098,"katÄ±lÄ±rlar":7099,"yummuÅŁlar":7100,"gÃ¼derler":7101,"kanÄ±tlamamÄ±ÅŁlar":7102,"daÄŁÄ±tÄ±rlar":7103,"yendirtirler":7104,"kÄ±yarlar":7105,"Ã¶ldÃ¼rtÃ¼lÃ¼rler":7106,"ulurlar":7107,"bayÄ±lÄ±rlar":7108,"sÃ¶kerler":7109,"Ã§Ã¶kertirler":7110,"sattÄ±rtÄ±rlar":7111,"aÄŁlayacaklar":7112,"tanÄ±tÄ±rlar":7113,"demlerler":7114,"Ã¶lÃ§tÃ¼rtÃ¼rler":7115,"tÃ¼kÃ¼rÃ¼rler":7116,"ellerler":7117,"bÃ¼rÃ¼rler":7118,"Ã¶lÃ§Ã¼lÃ¼rler":7119,"uluyacaklar":7120,"kÃ¶pÃ¼rÃ¼rler":7121,"dÃ¼rterler":7122,"saklayacaklar":7123,"ÅŁaÅŁÄ±rtÄ±rlar":7124,"soluyacaklar":7125,"atÄ±lÄ±rlar":7126,"aÄŁÄ±dÄ±nÄ±z":7127,"horlayacaklar":7128,"dalarlar":7129,"kanÄ±tlarlar":7130,"bÃ¼ktÃ¼rÃ¼rler":7131,"yaÄŁlarlar":7132,"patlarlar":7133,"patlayacaklar":7134,"aÄŁlarlar":7135,"saklarlar":7136,"ĠyazÄ±lÄ±mÄ±nda":7137,"ĠyazÄ±lÄ±mÄ±ndan":7138,"ileceÄŁ":7139,"deÄŁiÅŁtirmezler":7140,"sÃ¶ÄŁÃ¼d":7141,"sÃ¶ÄŁÃ¼dÃ¼nÃ¼z":7142,"tulumunuz":7143,"malumatÄ±":7144,"tuydun":7145,"tuydum":7146,"ĠtuzaÄŁ":7147,"ĠkupÃ¼rÃ¼n":7148,"hududunuz":7149,"ĠkÃ¶prÃ¼":7150,"nazen":7151,"akvaryumunuz":7152,"ĠkuramÄ±n":7153,"ĠmÃ¼hendislik":7154,"ĠmÃ¼hendisliÄŁ":7155,"lamayÄ±nÄ±z":7156,"ĠyetmezliÄŁ":7157,"Ġcism":7158,"ÅŁahÄ±sÄ±nÄ±z":7159,"ĠdonanÄ±m":7160,"Ġkedin":7161,"dinamitiniz":7162,"tavukgÃ¶t":7163,"ofobiyi":7164,"leceÄŁim":7165,"abec":7166,"ilet":7167,"ĠgÃ¶":7168,"Ã¼se":7169,"lacaÄŁÄ±z":7170,"mete":7171,"Ä±nlÄ±ÄŁÄ±n":7172,"levi":7173,"inmezler":7174,"inecekler":7175,"inmiÅŁler":7176,"iniyorlar":7177,"anmamÄ±ÅŁlar":7178,"anmadÄ±lar":7179,"anmÄ±ÅŁlar":7180,"anacaklar":7181,"Ġolun":7182,"Ġolunuz":7183,"ĠolmuÅŁsun":7184,"ĠolmuÅŁum":7185,"Ġoldum":7186,"ĠolmadÄ±ydÄ±":7187,"ĠolmazdÄ±":7188,"ĠolmadÄ±ydÄ±k":7189,"ĠolmazdÄ±k":7190,"ĠolmamÄ±ÅŁsÄ±nÄ±z":7191,"ĠolmamÄ±ÅŁtÄ±n":7192,"ĠolmamÄ±ÅŁmÄ±ÅŁsÄ±nÄ±z":7193,"ĠolmamÄ±ÅŁmÄ±ÅŁsÄ±n":7194,"ĠolmayÄ±z":7195,"ĠolmamÄ±ÅŁtÄ±":7196,"ĠolmamÄ±ÅŁlarmÄ±ÅŁ":7197,"ĠolmayÄ±n":7198,"ĠolmamÄ±ÅŁÄ±m":7199,"ĠolmadÄ±ydÄ±nÄ±z":7200,"ĠolmamÄ±ÅŁÄ±z":7201,"ĠolmamÄ±ÅŁtÄ±m":7202,"ĠolmamÄ±ÅŁtÄ±nÄ±z":7203,"Ġolmam":7204,"ĠolmamÄ±ÅŁmÄ±ÅŁÄ±m":7205,"ĠolmuÅŁtu":7206,"ĠolmuÅŁtun":7207,"demezler":7208,"demiÅŁler":7209,"kacaÄŁÄ±m":7210,"mura":7211,"diÄŁ":7212,"yapmayacaklar":7213,"yapmÄ±yorlar":7214,"yapmadÄ±lar":7215,"yapÄ±yorlar":7216,"dadÄ±n":7217,"dÃ¼rmeyecekler":7218,"dÃ¼rmezler":7219,"dÃ¼recekler":7220,"Ã¼zmediler":7221,"Ã¼zdÃ¼":7222,"Ã¼zÃ¼yorlar":7223,"Ã¼zdÃ¼ler":7224,"aÅŁmÄ±ÅŁlar":7225,"aÅŁÄ±yorlar":7226,"aÅŁacaklar":7227,"sunmamÄ±ÅŁlar":7228,"sunmazlar":7229,"sunmadÄ±lar":7230,"sunacaklar":7231,"sunarlar":7232,"ona":7233,"tÃ¼rÃ¼yorlar":7234,"tÃ¼reyecekler":7235,"olmuyorlar":7236,"oldular":7237,"kartÄ±nÄ±z":7238,"Ã¶pmemiÅŁler":7239,"Ã¶pecekler":7240,"Ã¶pÃ¼yorlar":7241,"Ã¶pmÃ¼ÅŁler":7242,"Ã¶pmÃ¼yorlar":7243,"Ã¶perler":7244,"varmamÄ±ÅŁlar":7245,"varmazlar":7246,"varmÄ±yorlar":7247,"satmazlar":7248,"satmayacaklar":7249,"satmÄ±yorlar":7250,"Ġyapma":7251,"ĠyapÄ±nÄ±z":7252,"ĠyapmÄ±ÅŁsÄ±nÄ±z":7253,"ĠyapmÄ±ÅŁsÄ±n":7254,"ĠyapmÄ±ÅŁÄ±z":7255,"ĠyapmÄ±ÅŁÄ±m":7256,"ĠyapmadÄ±k":7257,"ĠyapmadÄ±ydÄ±m":7258,"ĠyapmamÄ±ÅŁsÄ±nÄ±z":7259,"ĠyapmamÄ±ÅŁtÄ±n":7260,"ĠyapmadÄ±ydÄ±n":7261,"ĠyapmazmÄ±ÅŁÄ±z":7262,"ĠyapmamÄ±ÅŁmÄ±ÅŁsÄ±nÄ±z":7263,"ĠyapmamÄ±ÅŁmÄ±ÅŁsÄ±n":7264,"ĠyapmamÄ±ÅŁtÄ±k":7265,"ĠyapmamÄ±ÅŁtÄ±":7266,"ĠyapmamÄ±ÅŁlarmÄ±ÅŁ":7267,"ĠyapmayÄ±n":7268,"ĠyapmayacakmÄ±ÅŁ":7269,"ĠyapmamÄ±ÅŁÄ±m":7270,"ĠyapmadÄ±ydÄ±nÄ±z":7271,"ĠyapmayacaÄŁÄ±m":7272,"ĠyapmayacakmÄ±ÅŁsÄ±nÄ±z":7273,"ĠyapmadÄ±lardÄ±":7274,"ĠyapmayacaksÄ±n":7275,"ĠyapmayacaklarmÄ±ÅŁ":7276,"ĠyapmamÄ±ÅŁtÄ±m":7277,"ĠyapmayacaktÄ±":7278,"ĠyapmazmÄ±ÅŁ":7279,"ĠyapmamÄ±ÅŁmÄ±ÅŁ":7280,"ĠyapmayacaksÄ±nÄ±z":7281,"ĠyapmayacaklardÄ±":7282,"ĠyapmayacaktÄ±nÄ±z":7283,"ĠyapmamÄ±ÅŁlardÄ±":7284,"ĠyapmazmÄ±ÅŁsÄ±n":7285,"ĠyapmamÄ±ÅŁsÄ±n":7286,"ĠyapmayacaÄŁÄ±z":7287,"ĠyapmayacakmÄ±ÅŁÄ±m":7288,"ĠyapmazsÄ±n":7289,"Ġyapmam":7290,"ĠyapmazlarmÄ±ÅŁ":7291,"ĠyapacaÄŁÄ±m":7292,"canlanmÄ±yorlar":7293,"sÃ¼rÃ¼yorlar":7294,"dilmeyecekler":7295,"dilmiyorlar":7296,"dildiler":7297,"dilbili":7298,"asmamÄ±ÅŁlar":7299,"asmadÄ±lar":7300,"asÄ±yorlar":7301,"asana":7302,"kaparlar":7303,"saymamÄ±ÅŁlar":7304,"saymÄ±yorlar":7305,"saydÄ±lar":7306,"gelmeyecekler":7307,"gelmiÅŁler":7308,"gelmediler":7309,"gelmiyorlar":7310,"ĠÃ§ektiler":7311,"Ã§Ã¶kerdi":7312,"Ã§Ã¶kerecekler":7313,"Ã§Ã¶kermiÅŁler":7314,"Ã§Ã¶kermediler":7315,"Ã§Ã¶keriyorlar":7316,"Ã§Ã¶kerdiler":7317,"Ã§Ã¶kerirler":7318,"utanmayacaklar":7319,"utanmÄ±yorlar":7320,"utanmadÄ±lar":7321,"utanmÄ±ÅŁlar":7322,"utandÄ±lar":7323,"utanÄ±rlar":7324,"bÃ¼kÃ¼yorlar":7325,"bÃ¼kmÃ¼yorlar":7326,"gecikmediler":7327,"gecikiyorlar":7328,"gecikirler":7329,"geciktiler":7330,"piÅŁmeyecekler":7331,"piÅŁmiyorlar":7332,"piÅŁiyorlar":7333,"piÅŁerler":7334,"dÃ¼zmemiÅŁler":7335,"dÃ¼zmeyecekler":7336,"dÃ¼zecekler":7337,"dÃ¼zdÃ¼ler":7338,"katmazlar":7339,"katmadÄ±lar":7340,"katmÄ±ÅŁlar":7341,"katacaklar":7342,"katarlar":7343,"artmÄ±ÅŁlar":7344,"artÄ±yorlar":7345,"artarlar":7346,"arttÄ±lar":7347,"yaratÄ±":7348,"bittiler":7349,"aÃ§mazlar":7350,"aÃ§madÄ±lar":7351,"aÃ§mÄ±ÅŁlar":7352,"aÃ§arlar":7353,"sÄ±zmazlar":7354,"sÄ±zmayacaklar":7355,"sÄ±zmadÄ±lar":7356,"sÄ±zmÄ±ÅŁlar":7357,"takmazlar":7358,"takmayacaklar":7359,"takmadÄ±lar":7360,"takÄ±yorlar":7361,"takacaklar":7362,"takarlar":7363,"taktÄ±lar":7364,"canlandÄ±rmazlar":7365,"canlandÄ±rmÄ±yorlar":7366,"canlandÄ±rmadÄ±lar":7367,"canlandÄ±rdÄ±lar":7368,"aldÄ±rmazlar":7369,"aldÄ±rmadÄ±lar":7370,"iÃ§memiÅŁler":7371,"iÃ§mezler":7372,"iÃ§mediler":7373,"iÃ§iyorlar":7374,"tanÄ±mamÄ±ÅŁlar":7375,"tanÄ±mazlar":7376,"tanÄ±mÄ±yorlar":7377,"tanÄ±mÄ±ÅŁlar":7378,"Ã¶ldÃ¼rtmeyecekler":7379,"Ã¶ldÃ¼rtÃ¼yorlar":7380,"Ã¶ldÃ¼rtmÃ¼yorlar":7381,"yalÄ±yorlar":7382,"kÃ¶peÄŁ":7383,"yazmazlar":7384,"yazmadÄ±lar":7385,"yazmÄ±ÅŁlar":7386,"yazÄ±yorlar":7387,"yazdÄ±lar":7388,"gÃ¶Ã§memiÅŁler":7389,"gÃ¶Ã§mezler":7390,"gÃ¶Ã§tÃ¼ler":7391,"sÃ¼nmemiÅŁler":7392,"sÃ¼nmezler":7393,"sÃ¼nmediler":7394,"sÃ¼nÃ¼yorlar":7395,"sÃ¼nmÃ¼ÅŁler":7396,"sÃ¼nmÃ¼yorlar":7397,"sÃ¼ndÃ¼ler":7398,"coÅŁmadÄ±lar":7399,"coÅŁacaklar":7400,"gezmemiÅŁler":7401,"gezmeyecekler":7402,"gezmezler":7403,"gezerler":7404,"sÃ¼zmezler":7405,"sÃ¼zmediler":7406,"sÃ¼zÃ¼yorlar":7407,"sÃ¼zmÃ¼yorlar":7408,"sÃ¼zerler":7409,"sÃ¼zdÃ¼ler":7410,"Ã¶ÄŁretecekler":7411,"Ã¶ÄŁretmiÅŁler":7412,"Ã¶ÄŁretiyorlar":7413,"Ã¶ÄŁretirler":7414,"Ã¶ÄŁrettiler":7415,"iÅŁte":7416,"sevmemiÅŁler":7417,"sevmeyecekler":7418,"sevmezler":7419,"sevmiÅŁler":7420,"sevmediler":7421,"sevmiyorlar":7422,"seviyorlar":7423,"dÃ¼ÅŁÃ¼nmemiÅŁler":7424,"dÃ¼ÅŁÃ¼nmeyecekler":7425,"dÃ¼ÅŁÃ¼nmezler":7426,"dÃ¼ÅŁÃ¼necekler":7427,"dÃ¼ÅŁÃ¼nmediler":7428,"dÃ¼ÅŁÃ¼nÃ¼yorlar":7429,"dÃ¼ÅŁÃ¼nmÃ¼yorlar":7430,"sÃ¼smemiÅŁler":7431,"sÃ¼smediler":7432,"sÃ¼smÃ¼ÅŁler":7433,"sÃ¼smÃ¼yorlar":7434,"sapmayacaklar":7435,"sapmadÄ±lar":7436,"sapmÄ±ÅŁlar":7437,"sapacaklar":7438,"saptÄ±lar":7439,"benziyorlar":7440,"benzeyecekler":7441,"dondurmamÄ±ÅŁlar":7442,"dondurmazlar":7443,"kopacaklar":7444,"kopmuyorlar":7445,"uyarmayacaklar":7446,"uyarmÄ±yorlar":7447,"uyarmadÄ±lar":7448,"uyarmÄ±ÅŁlar":7449,"uyardÄ±m":7450,"uyarÄ±rlar":7451,"ulumayacaklar":7452,"ulumadÄ±lar":7453,"uydun":7454,"uymamÄ±ÅŁlar":7455,"uymazlar":7456,"uymayacaklar":7457,"uymuyorlar":7458,"uydular":7459,"deÄŁiÅŁmemiÅŁler":7460,"deÄŁiÅŁmiÅŁler":7461,"deÄŁiÅŁmediler":7462,"deÄŁiÅŁmiyorlar":7463,"sermezler":7464,"serecekler":7465,"sermiyorlar":7466,"sererler":7467,"fesi":7468,"paylaÅŁmazlar":7469,"paylaÅŁÄ±yorlar":7470,"kurtarmazlar":7471,"kurtarmayacaklar":7472,"kurtarmÄ±yorlar":7473,"kurtarmÄ±ÅŁlar":7474,"kurtardÄ±lar":7475,"kurtarÄ±rlar":7476,"bÃ¼rÃ¼yecekler":7477,"Ġverecekler":7478,"gÃ¶tÃ¼rmeyecekler":7479,"gÃ¶tÃ¼rmediler":7480,"gÃ¶tÃ¼rmÃ¼ÅŁler":7481,"taÅŁmazlar":7482,"taÅŁmadÄ±lar":7483,"taÅŁÄ±yorlar":7484,"taÅŁarlar":7485,"onarmamÄ±ÅŁlar":7486,"onarmayacaklar":7487,"onarmÄ±ÅŁlar":7488,"onaracaklar":7489,"onardÄ±lar":7490,"onarÄ±rlar":7491,"gebermemiÅŁler":7492,"geberecekler":7493,"gebermediler":7494,"geberdiler":7495,"hastalanmazlar":7496,"hastalanmayacaklar":7497,"hastalanmadÄ±lar":7498,"hastalanmÄ±ÅŁlar":7499,"hastalandÄ±lar":7500,"hastalanÄ±rlar":7501,"ilklendirmemiÅŁler":7502,"ilklendirmeyecekler":7503,"ilklendirmezler":7504,"ilklendirmiÅŁler":7505,"ilklendirmediler":7506,"ilklendiriyorlar":7507,"ilklendirdiler":7508,"dadanmazlar":7509,"dadanmadÄ±lar":7510,"dadandÄ±lar":7511,"dadanÄ±rlar":7512,"tepmemiÅŁler":7513,"tepecekler":7514,"tepmediler":7515,"tepmiyorlar":7516,"tepiyorlar":7517,"teperler":7518,"oturmazlar":7519,"oturmadÄ±lar":7520,"oturacaklar":7521,"kovdurmazlar":7522,"kovduracaklar":7523,"yalvarmamÄ±ÅŁlar":7524,"yalvarmazlar":7525,"yalvarmÄ±yorlar":7526,"yalvarmÄ±ÅŁlar":7527,"yalvaracaklar":7528,"gerekmeyecekler":7529,"gerekmiÅŁler":7530,"gerekmediler":7531,"gerekiyorlar":7532,"gerekirler":7533,"dediy":7534,"yÄ±ÄŁmazlar":7535,"yÄ±ÄŁmadÄ±lar":7536,"yÄ±ÄŁarlar":7537,"atÄ±ÅŁtÄ±rmazlar":7538,"atÄ±ÅŁtÄ±rmÄ±yorlar":7539,"atÄ±ÅŁtÄ±rmadÄ±lar":7540,"atÄ±ÅŁtÄ±rmÄ±ÅŁlar":7541,"yetiÅŁmemiÅŁler":7542,"yetiÅŁmeyecekler":7543,"yetiÅŁmezler":7544,"yetiÅŁmediler":7545,"yetiÅŁmiyorlar":7546,"yetiÅŁiyorlar":7547,"yetiÅŁirler":7548,"Ġdikmeyecekler":7549,"Ġdikmediler":7550,"Ġdikmiyorlar":7551,"Ġdikiyorlar":7552,"Ġdikerler":7553,"bÃ¼ktÃ¼rmeyecekler":7554,"bÃ¼ktÃ¼recekler":7555,"bÃ¼ktÃ¼rmÃ¼ÅŁler":7556,"bÃ¼ktÃ¼rmÃ¼yorlar":7557,"Ã§almayacaklar":7558,"Ã§aldÄ±lar":7559,"yoksullaÅŁtÄ±rmamÄ±ÅŁlar":7560,"yoksullaÅŁtÄ±rmazlar":7561,"yoksullaÅŁtÄ±rmÄ±yorlar":7562,"yoksullaÅŁtÄ±rmadÄ±lar":7563,"yoksullaÅŁtÄ±rmÄ±ÅŁlar":7564,"yoksullaÅŁtÄ±rÄ±yorlar":7565,"Ã¶pÃ¼ÅŁmeyecekler":7566,"sidiÄŁ":7567,"sÄ±vÄ±laÅŁtÄ±rmamÄ±ÅŁlar":7568,"sÄ±vÄ±laÅŁtÄ±rmÄ±yorlar":7569,"sÄ±vÄ±laÅŁtÄ±rÄ±yorlar":7570,"sÄ±vÄ±laÅŁtÄ±racaklar":7571,"sÄ±vÄ±laÅŁtÄ±rdÄ±lar":7572,"Ã¶ldÃ¼rtÃ¼lmediler":7573,"Ã¶ldÃ¼rtÃ¼lÃ¼yecekler":7574,"sÃ¶kmemiÅŁler":7575,"sÃ¶kmezler":7576,"sÃ¶kecekler":7577,"sÃ¶kÃ¼yorlar":7578,"yummamÄ±ÅŁlar":7579,"yummazlar":7580,"yummayacaklar":7581,"Ã¶lÃ§Ã¼lÃ¼yorlar":7582,"Ã¶lÃ§Ã¼lmÃ¼yorlar":7583,"sÃ¶vmeyecekler":7584,"sÃ¶vmezler":7585,"pusmamÄ±ÅŁlar":7586,"pusmayacaklar":7587,"kaÅŁÄ±mazlar":7588,"kaÅŁÄ±mÄ±yorlar":7589,"kaÅŁÄ±madÄ±lar":7590,"kaÅŁÄ±dÄ±lar":7591,"kaybolmamÄ±ÅŁlar":7592,"kaybolmadÄ±lar":7593,"yÄ±kamayacaklar":7594,"kÄ±ymamÄ±ÅŁlar":7595,"kÄ±ymazlar":7596,"kÄ±ymayacaklar":7597,"kÄ±ymÄ±yorlar":7598,"kÄ±ymadÄ±lar":7599,"kÄ±ymÄ±ÅŁlar":7600,"solumazlar":7601,"solumayacaklar":7602,"kapamazlar":7603,"kapamayacaklar":7604,"kapadÄ±lar":7605,"dalmamÄ±ÅŁlar":7606,"dalmayacaklar":7607,"dalmÄ±ÅŁlar":7608,"tutmazlar":7609,"sandal":7610,"sanmamÄ±ÅŁlar":7611,"sanmazlar":7612,"sanmayacaklar":7613,"sanmadÄ±lar":7614,"sanmÄ±ÅŁlar":7615,"sanacaklar":7616,"canlanmamadÄ±lar":7617,"Ã¶ldÃ¼rtÃ¼lmemedi":7618,"Ã¶ldÃ¼rtÃ¼lmememiÅŁler":7619,"eÄŁitmemiÅŁler":7620,"eÄŁitmeyecekler":7621,"eÄŁitmiyorlar":7622,"eÄŁittiler":7623,"yapÄ±ÅŁmazlar":7624,"yapÄ±ÅŁmayacaklar":7625,"yapÄ±ÅŁmÄ±yorlar":7626,"yapÄ±ÅŁmÄ±ÅŁlar":7627,"yapÄ±ÅŁacaklar":7628,"daÄŁÄ±tmadÄ±":7629,"daÄŁÄ±tmadÄ±lar":7630,"daÄŁÄ±ttÄ±lar":7631,"Ã¶ÄŁÃ¼tmemiÅŁler":7632,"Ã¶ÄŁÃ¼tmeyecekler":7633,"Ã¶ÄŁÃ¼tecekler":7634,"Ã¶ÄŁÃ¼tmediler":7635,"Ã¶ÄŁÃ¼ttÃ¼ler":7636,"Ä±sÄ±rmÄ±yorlar":7637,"Ä±sÄ±rmadÄ±lar":7638,"Ä±sÄ±racaklar":7639,"Ä±sÄ±rdÄ±lar":7640,"ĠaldÄ±rmayacaklar":7641,"ĠaldÄ±rmÄ±ÅŁlar":7642,"ĠaldÄ±rÄ±yorlar":7643,"ĠaldÄ±racaklar":7644,"ĠaldÄ±rdÄ±lar":7645,"ĠaldÄ±rÄ±rlar":7646,"sÃ¼rÃ¼ndÃ¼rmemiÅŁler":7647,"sÃ¼rÃ¼ndÃ¼rmeyecekler":7648,"sÃ¼rÃ¼ndÃ¼rmÃ¼ÅŁler":7649,"sÃ¼rÃ¼ndÃ¼rdÃ¼ler":7650,"rime":7651,"seslenmeyecekler":7652,"seslenmezler":7653,"seslenmiÅŁler":7654,"seslendiler":7655,"seslenirler":7656,"saydÄ±rmamÄ±ÅŁlar":7657,"saydÄ±rmadÄ±lar":7658,"saydÄ±rmÄ±ÅŁlar":7659,"saydÄ±racaklar":7660,"saydÄ±rÄ±rlar":7661,"kÄ±rdÄ±rmamÄ±ÅŁlar":7662,"kÄ±rdÄ±rmadÄ±lar":7663,"kÄ±rdÄ±rmÄ±ÅŁlar":7664,"kÄ±rdÄ±rÄ±rlar":7665,"kirletmediler":7666,"kirletmiyorlar":7667,"kÃ¶pÃ¼rmeyecekler":7668,"kÃ¶pÃ¼rÃ¼yorlar":7669,"evlenmezler":7670,"evlenmiÅŁler":7671,"evleniyorlar":7672,"evlendiler":7673,"evlenirler":7674,"geciktirmemiÅŁler":7675,"geciktirmezler":7676,"geciktirecekler":7677,"geciktirmiÅŁler":7678,"geciktirdiler":7679,"ayÄ±rmazlar":7680,"ayÄ±rmayacaklar":7681,"ayÄ±rmadÄ±lar":7682,"ayÄ±rÄ±yorlar":7683,"ayÄ±racaklar":7684,"ayÄ±rdÄ±lar":7685,"tÃ¼kÃ¼rmemiÅŁler":7686,"tÃ¼kÃ¼rmeyecekler":7687,"tÃ¼kÃ¼rmezler":7688,"tÃ¼kÃ¼recekler":7689,"tÃ¼kÃ¼rÃ¼yorlar":7690,"tÃ¼kÃ¼rdÃ¼ler":7691,"saldÄ±rmazlar":7692,"saldÄ±rmayacaklar":7693,"saldÄ±rmadÄ±lar":7694,"saldÄ±rdÄ±lar":7695,"Ã¼ÅŁenmemiÅŁler":7696,"Ã¼ÅŁenmezler":7697,"Ã¼ÅŁenmiÅŁler":7698,"Ã¼ÅŁenmediler":7699,"Ã¼ÅŁenmiyorlar":7700,"Ã¼ÅŁendiler":7701,"boÅŁanmazlar":7702,"boÅŁanmÄ±yorlar":7703,"boÅŁanÄ±yorlar":7704,"boÅŁanacaklar":7705,"boÅŁandÄ±lar":7706,"boÅŁanÄ±rlar":7707,"aldatmadÄ±":7708,"aldatmazlar":7709,"aldatmayacaklar":7710,"aldatmÄ±ÅŁlar":7711,"aldatÄ±yorlar":7712,"aldatacaklar":7713,"aldattÄ±lar":7714,"kapatmÄ±ÅŁlar":7715,"kapatÄ±yorlar":7716,"kapatacaklar":7717,"utandÄ±rmazlar":7718,"iyileÅŁtirecekler":7719,"iyileÅŁtirmediler":7720,"iyileÅŁtirmiyorlar":7721,"Ä°ngilizceleÅŁtirmemiÅŁler":7722,"Ä°ngilizceleÅŁtirmiyorlar":7723,"Ä°ngilizceleÅŁtiriyorlar":7724,"Ä°ngilizceleÅŁtirirler":7725,"kaÃ§Ä±rÄ±yorlar":7726,"kaÃ§Ä±racaklar":7727,"kaÃ§Ä±rÄ±rlar":7728,"TÃ¼rkÃ§eleÅŁtirecekler":7729,"TÃ¼rkÃ§eleÅŁtirmiÅŁler":7730,"TÃ¼rkÃ§eleÅŁtirirler":7731,"tÃ¼kenmemiÅŁler":7732,"tÃ¼kenmezler":7733,"tÃ¼kenirler":7734,"unutmazlar":7735,"unutmayacaklar":7736,"unutmadÄ±lar":7737,"unutacaklar":7738,"ettirmedi":7739,"ettirmemiÅŁler":7740,"ettirmiyorlar":7741,"ettirdiler":7742,"sÃ¼mÃ¼rmemiÅŁler":7743,"sÃ¼mÃ¼rmeyecekler":7744,"sÃ¼mÃ¼rmezler":7745,"sÃ¼mÃ¼recekler":7746,"sÃ¼mÃ¼rmÃ¼ÅŁler":7747,"dÃ¶ndÃ¼rmemiÅŁler":7748,"dÃ¶ndÃ¼rmeyecekler":7749,"dÃ¶ndÃ¼recekler":7750,"dÃ¶ndÃ¼rdÃ¼ler":7751,"uÄŁratmazlar":7752,"uÄŁratmÄ±yorlar":7753,"uÄŁratmadÄ±lar":7754,"uÄŁratÄ±yorlar":7755,"uÄŁratÄ±rlar":7756,"uÄŁrattÄ±lar":7757,"kurutmamÄ±ÅŁlar":7758,"kurutmuyorlar":7759,"eÄŁlenmiÅŁler":7760,"eÄŁlenmediler":7761,"eÄŁleniyorlar":7762,"ĠsÄ±kÄ±ÅŁmamÄ±ÅŁlar":7763,"ĠsÄ±kÄ±ÅŁmayacaklar":7764,"ĠsÄ±kÄ±ÅŁmadÄ±lar":7765,"ĠsÄ±kÄ±ÅŁacaklar":7766,"gÃ¼cenmemiÅŁler":7767,"gÃ¼cenmiÅŁler":7768,"gÃ¼cenmiyorlar":7769,"gÃ¼ceniyorlar":7770,"gÃ¼lÃ¼nÃ§leÅŁmezler":7771,"gÃ¼lÃ¼nÃ§leÅŁmediler":7772,"atÄ±ÅŁmadÄ±lar":7773,"atÄ±ÅŁÄ±rlar":7774,"bitirmemiÅŁler":7775,"bitirmeyecekler":7776,"bitirmiyorlar":7777,"bitirdiler":7778,"bitirirler":7779,"birleÅŁmemiÅŁler":7780,"birleÅŁmeyecekler":7781,"birleÅŁmezler":7782,"birleÅŁmiyorlar":7783,"birleÅŁiyorlar":7784,"birleÅŁirler":7785,"delirmiÅŁler":7786,"delirirler":7787,"deÄŁiÅŁtirmemiÅŁler":7788,"deÄŁiÅŁtirecekler":7789,"deÄŁiÅŁtirmiÅŁler":7790,"deÄŁiÅŁtirmediler":7791,"deÄŁiÅŁtiriyorlar":7792,"deÄŁiÅŁtirdiler":7793,"deÄŁiÅŁtirirler":7794,"tanÄ±tmamÄ±ÅŁlar":7795,"tanÄ±tmazlar":7796,"tanÄ±tÄ±yorlar":7797,"tanÄ±tacaklar":7798,"verdirtmeyecekler":7799,"verdirtecekler":7800,"verdirtmiÅŁler":7801,"verdirtmediler":7802,"verdirttiler":7803,"Ã§Ã¶kertmemiÅŁler":7804,"Ã§Ã¶kertmeyecekler":7805,"Ã§Ã¶kertecekler":7806,"Ã§Ã¶kertmiyorlar":7807,"Ã§Ã¶kertiyorlar":7808,"Ã§Ã¶kerttiler":7809,"yendirtmiÅŁler":7810,"yendirtmediler":7811,"yendirtmiyorlar":7812,"yendirttiler":7813,"cacÄ±ÄŁ":7814,"Ã¶lÃ§tÃ¼rtmemiÅŁler":7815,"Ã¶lÃ§tÃ¼rtmeyecekler":7816,"Ã¶lÃ§tÃ¼rtmezler":7817,"Ã¶lÃ§tÃ¼rtmÃ¼yorlar":7818,"Ã¶lÃ§tÃ¼rttÃ¼ler":7819,"dirilmiyorlar":7820,"gÃ¼dÃ¼yorlar":7821,"dÃ¼rtmemiÅŁler":7822,"dÃ¼rtmeyecekler":7823,"dÃ¼rtmediler":7824,"dÃ¼rtmÃ¼ÅŁler":7825,"seÃ§ilmezler":7826,"seÃ§ilmiyorlar":7827,"seÃ§ildiler":7828,"seÃ§ilirler":7829,"canlandÄ±rtÄ±lmayacaklar":7830,"canlandÄ±rtÄ±lmÄ±yorlar":7831,"canlandÄ±rtÄ±lÄ±yorlar":7832,"dÃ¼zeltecekler":7833,"dÃ¼zeltmiÅŁler":7834,"dÃ¼zeltmediler":7835,"dÃ¼zelttiler":7836,"kaynaÅŁtÄ±rtÄ±lmayacaklar":7837,"kaynaÅŁtÄ±rtÄ±lmadÄ±lar":7838,"kaynaÅŁtÄ±rtÄ±lmÄ±ÅŁlar":7839,"kaynaÅŁtÄ±rtÄ±lÄ±rlar":7840,"Ġgelmeyecekler":7841,"Ġgelmediler":7842,"Ġgelmiyorlar":7843,"Ġgeldiler":7844,"Ġgelirler":7845,"Ġalmayacaklar":7846,"ĠalmÄ±yorlar":7847,"ĠalÄ±yorlar":7848,"ĠaldÄ±lar":7849,"sikilmemiÅŁler":7850,"sikilmeyecekler":7851,"sikilmezler":7852,"sikilmiÅŁler":7853,"sikilmiyorlar":7854,"sikiliyorlar":7855,"sikildiler":7856,"sikilirler":7857,"boÅŁaldÄ±":7858,"boÅŁalmayacaklar":7859,"boÅŁalmadÄ±lar":7860,"boÅŁalmÄ±ÅŁlar":7861,"boÅŁalÄ±yorlar":7862,"verilmeyecekler":7863,"veriliyorlar":7864,"verilirler":7865,"Ã§Ä±ÄŁÄ±":7866,"Ã§Ä±ÄŁÄ±n":7867,"kokmamÄ±ÅŁlar":7868,"kalktÄ±lar":7869,"korkmazlar":7870,"ellemezler":7871,"ellemiÅŁler":7872,"yaÄŁlamamÄ±ÅŁlar":7873,"yaÄŁlamÄ±yorlar":7874,"yaÄŁlamadÄ±lar":7875,"yaÄŁladÄ±lar":7876,"demlemiÅŁler":7877,"demlediler":7878,"benzemeyecekler":7879,"benzemiÅŁler":7880,"benzemediler":7881,"benzemiyorlar":7882,"benzediler":7883,"tÃ¼remeyecekler":7884,"tÃ¼remezler":7885,"tÃ¼remiÅŁler":7886,"tÃ¼remiyorlar":7887,"dirememiÅŁler":7888,"diremezler":7889,"diremiÅŁler":7890,"diremediler":7891,"diremiyorlar":7892,"kusmuÄŁ":7893,"gÃ¼ttÃ¼":7894,"gÃ¼tmeyecekler":7895,"gÃ¼tmezler":7896,"gÃ¼ttÃ¼ler":7897,"Ġoluyorum":7898,"ĠoluyorlarmÄ±ÅŁ":7899,"Ġoluyorduk":7900,"ĠoluyormuÅŁsunuz":7901,"ĠoluyormuÅŁum":7902,"Ġoluyordum":7903,"diyi":7904,"ĠyapmÄ±ÅŁmÄ±ÅŁ":7905,"ĠyapmÄ±ÅŁlarmÄ±ÅŁ":7906,"ĠyapmÄ±ÅŁtÄ±k":7907,"ĠyapmÄ±ÅŁmÄ±ÅŁsÄ±n":7908,"ĠyapmÄ±ÅŁmÄ±ÅŁÄ±z":7909,"ĠyapÄ±yorsun":7910,"ĠyapÄ±yordu":7911,"ĠyapÄ±yorsunuz":7912,"ĠyapÄ±yorlardÄ±":7913,"ĠyapÄ±yorlarmÄ±ÅŁ":7914,"ĠyapÄ±yordunuz":7915,"ĠyapÄ±yormuÅŁsunuz":7916,"ĠyapÄ±yormuÅŁuz":7917,"ĠolmuÅŁmuÅŁ":7918,"ĠolmuÅŁlarmÄ±ÅŁ":7919,"ĠolmuÅŁmuÅŁsun":7920,"ĠolmuÅŁmuÅŁsunuz":7921,"ĠolmuÅŁmuÅŁuz":7922,"ĠyapacakmÄ±ÅŁ":7923,"ĠyapacaktÄ±":7924,"ĠyapacaktÄ±m":7925,"ĠyapacakmÄ±ÅŁsÄ±nÄ±z":7926,"ĠyapacakmÄ±ÅŁÄ±m":7927,"Ġasimptotun":7928,"ĠasimptotlarÄ±":7929,"ĠasimptotlarÄ±nda":7930,"ĠasimptotlarÄ±na":7931,"Ġasimptotunun":7932,"Ġasimptotuna":7933,"Ġhallerinden":7934,"kullanÄ±lmamÄ±ÅŁlar":7935,"kullanÄ±ldÄ±lar":7936,"kaynaÅŁtÄ±rÄ±lmamÄ±ÅŁlar":7937,"kaynaÅŁtÄ±rÄ±lmazlar":7938,"kaynaÅŁtÄ±rÄ±lmÄ±yorlar":7939,"kaynaÅŁtÄ±rÄ±ldÄ±lar":7940,"katÄ±lmazlar":7941,"katÄ±lmayacaklar":7942,"katÄ±ldÄ±lar":7943,"kÄ±ÅŁkÄ±rtmamÄ±ÅŁlar":7944,"kÄ±ÅŁkÄ±rtmazlar":7945,"kÄ±ÅŁkÄ±rtmÄ±yorlar":7946,"kÄ±ÅŁkÄ±rttÄ±lar":7947,"yapÄ±lmazlar":7948,"yapÄ±lmayacaklar":7949,"yapÄ±ldÄ±lar":7950,"ĠolmazmÄ±ÅŁ":7951,"ĠolmazsÄ±n":7952,"ĠolmazsÄ±nÄ±z":7953,"ĠolmazmÄ±ÅŁsÄ±nÄ±z":7954,"ĠolmazmÄ±ÅŁsÄ±n":7955,"ĠolmazmÄ±ÅŁÄ±z":7956,"ĠolmazmÄ±ÅŁÄ±m":7957,"ĠsayÄ±larÄ±n":7958,"ĠsayÄ±larÄ±":7959,"ĠsayÄ±larÄ±na":7960,"atÄ±lmayacaklar":7961,"atÄ±lmadÄ±lar":7962,"atÄ±ldÄ±lar":7963,"anlatmamÄ±ÅŁlar":7964,"anlatmayacaklar":7965,"anlattÄ±lar":7966,"ÅŁaÅŁÄ±rtmamÄ±ÅŁlar":7967,"ÅŁaÅŁÄ±rtmÄ±yorlar":7968,"ÅŁaÅŁÄ±rtmadÄ±lar":7969,"ĠfÃ¼zelerini":7970,"ĠfÃ¼zelerinde":7971,"ĠfÃ¼zelerinin":7972,"sattÄ±rtmazlar":7973,"sattÄ±rtmÄ±yorlar":7974,"sÃ¼rÃ¼me":7975,"sÃ¼rÃ¼mediler":7976,"sÃ¼rÃ¼dÃ¼ler":7977,"karÄ±ÅŁtÄ±rtmamÄ±ÅŁlar":7978,"karÄ±ÅŁtÄ±rtmayacaklar":7979,"karÄ±ÅŁtÄ±rtmadÄ±lar":7980,"karÄ±ÅŁtÄ±rttÄ±lar":7981,"yÄ±kÄ±yorlar":7982,"ĠyazÄ±lÄ±mlarÄ±n":7983,"ĠyazÄ±lÄ±mlarÄ±nÄ±n":7984,"ĠyazÄ±lÄ±mlarÄ±nÄ±":7985,"ĠyazÄ±lÄ±mlarÄ±na":7986,"bÃ¼rÃ¼memiÅŁler":7987,"bÃ¼rÃ¼mediler":7988,"Ã§alarlar":7989,"Ġgezegeni":7990,"Ġgezegenin":7991,"Ġgezegende":7992,"Ġgezegenler":7993,"Ġgezegenden":7994,"Ġgezegenlerde":7995,"Ġgezegenlerden":7996,"ĠyaparmÄ±ÅŁ":7997,"ĠyaparsÄ±n":7998,"ĠyaparlarmÄ±ÅŁ":7999,"ĠyaparmÄ±ÅŁÄ±z":8000,"Ġolursun":8001,"Ġolurdun":8002,"Ġolursunuz":8003,"ĠolurlarmÄ±ÅŁ":8004,"Ġolurduk":8005,"Ġolurdunuz":8006,"ĠolurmuÅŁsunuz":8007,"ĠolurmuÅŁuz":8008,"inerler":8009,"ĠanahtarlarÄ±":8010,"ĠanahtarlarÄ±nda":8011,"ĠanahtarlarÄ±nÄ±n":8012,"ĠanahtarlarÄ±ndan":8013,"ĠanahtarlarÄ±nÄ±":8014,"ĠanahtarÄ±nda":8015,"dilecekler":8016,"sismoloj":8017,"Ġsonuna":8018,"Ġsonundan":8019,"ĠsÃ¼rÃ¼mÃ¼n":8020,"ĠsÃ¼rÃ¼mleri":8021,"ĠsÃ¼rÃ¼mlerini":8022,"ĠsÃ¼rÃ¼mlerine":8023,"ĠsÃ¼rÃ¼mÃ¼nÃ¼n":8024,"ĠsÃ¼rÃ¼mÃ¼nden":8025,"altÄ±na":8026,"altÄ±nÄ±n":8027,"altÄ±nda":8028,"fahiÅŁeliÄŁ":8029,"Ġdilim":8030,"mikro":8031,"kasideniz":8032,"seÃ§menin":8033,"bÃ¼rÃ¼mÃ¼yorlar":8034,"seyi":8035,"havucu":8036,"haps":8037,"seccaden":8038,"seccadeniz":8039,"Ġolmuyoruz":8040,"Ġolmuyorsun":8041,"Ġolmuyorsunuz":8042,"ĠolmuyorlardÄ±":8043,"ĠolmuyorlarmÄ±ÅŁ":8044,"Ġolmuyorduk":8045,"ĠolmuyormuÅŁsun":8046,"ĠolmuyormuÅŁsunuz":8047,"Ġolmuyordum":8048,"nohu":8049,"ĠyapmÄ±yormuÅŁ":8050,"ĠyapmÄ±yorum":8051,"ĠyapmÄ±yorlardÄ±":8052,"ĠyapmÄ±yorduk":8053,"ĠyapmÄ±yordunuz":8054,"ĠyapmÄ±yormuÅŁuz":8055,"ĠyapmÄ±yordum":8056,"yuvarlÄ±yorlar":8057,"ĠsineÄŁinden":8058,"sunuyorlar":8059,"kÄ±rÄ±lÄ±yorlar":8060,"yaptÄ±rtmÄ±ÅŁlar":8061,"dalacaklar":8062,"bayÄ±lacaklar":8063,"kÄ±yacaklar":8064,"korkuyorlar":8065,"diyoruz":8066,"diyorsun":8067,"diyorsunuz":8068,"diyorlarmÄ±ÅŁ":8069,"diyormuÅŁuz":8070,"anlatÄ±yorlar":8071,"karÄ±ÅŁtÄ±rtacaklar":8072,"atÄ±lacaklar":8073,"uluyorlar":8074,"bayÄ±lÄ±yorlar":8075,"Ġgelecekler":8076,"katÄ±lmÄ±ÅŁlar":8077,"patlÄ±yorlar":8078,"horluyorlar":8079,"kÄ±rÄ±lacaklar":8080,"kÄ±rÄ±lmÄ±ÅŁlar":8081,"verilecekler":8082,"ÅŁaÅŁÄ±rtÄ±yorlar":8083,"ĠkutularÄ±nda":8084,"ĠkutularÄ±ndan":8085,"ĠkutularÄ±nÄ±":8086,"Ġkutusunu":8087,"Ġkutusundan":8088,"Ġkutusuna":8089,"Ġkutusunda":8090,"Ġkutusunun":8091,"canlandÄ±rtÄ±lacaklar":8092,"coÅŁuyorlar":8093,"patlamadÄ±lar":8094,"soluyorlar":8095,"sayarlar":8096,"pusuyorlar":8097,"ĠtamlamalarÄ±":8098,"ĠtamlamalarÄ±nda":8099,"ĠtamlamalarÄ±nÄ±":8100,"ĠtamlamasÄ±nÄ±":8101,"ĠtamlamasÄ±na":8102,"ĠtamlamasÄ±nÄ±n":8103,"ĠtamlamasÄ±ndan":8104,"ĠtamlamasÄ±nda":8105,"yapÄ±lmÄ±ÅŁlar":8106,"kokacaklar":8107,"aÄŁlÄ±yorlar":8108,"kaynaÅŁtÄ±rtÄ±lacaklar":8109,"bayÄ±lmÄ±ÅŁlar":8110,"yaÄŁlÄ±yorlar":8111,"karÄ±ÅŁtÄ±rtÄ±yorlar":8112,"kokuyorlar":8113,"saklamazlar":8114,"yaÄŁlamÄ±ÅŁlar":8115,"kalkacaklar":8116,"anlatacaklar":8117,"kaybolacaklar":8118,"aÄŁlamamÄ±ÅŁlar":8119,"aÄŁlamazlar":8120,"aÄŁlamayacaklar":8121,"aÄŁlamÄ±yorlar":8122,"aÄŁlamadÄ±lar":8123,"kÄ±ÅŁkÄ±rtmÄ±ÅŁlar":8124,"ulumuÅŁlar":8125,"solumuÅŁlar":8126,"tutmuÅŁlar":8127,"kokmuÅŁlar":8128,"oturmuÅŁlar":8129,"yaladÄ±lar":8130,"yuvarlamazlar":8131,"yuvarlamÄ±yorlar":8132,"yuvarlamadÄ±lar":8133,"yuvarladÄ±lar":8134,"horlamayacaklar":8135,"horlamÄ±yorlar":8136,"horlamadÄ±lar":8137,"horladÄ±lar":8138,"unutmuÅŁlar":8139,"ĠdÃ¶rtgene":8140,"ĠdÃ¶rtgenler":8141,"ĠdÃ¶rtgenlerin":8142,"ĠdÃ¶rtgenlerde":8143,"yaptÄ±rtÄ±rlar":8144,"kanÄ±tlamazlar":8145,"kanÄ±tlamayacaklar":8146,"kanÄ±tlamÄ±yorlar":8147,"kanÄ±tladÄ±lar":8148,"yapÄ±lÄ±rlar":8149,"verdirtirler":8150,"yalayacaklar":8151,"kaÅŁÄ±rlar":8152,"yaÄŁlayacaklar":8153,"kapayacaklar":8154,"sÃ¼mÃ¼rÃ¼rler":8155,"severler":8156,"Ã¶ldÃ¼rtÃ¼rler":8157,"kÄ±ÅŁkÄ±rtÄ±rlar":8158,"yÄ±karlar":8159,"kalkarlar":8160,"yuvarlayacaklar":8161,"horlarlar":8162,"unuturlar":8163,"yumarlar":8164,"olurlar":8165,"dÃ¶ndÃ¼rÃ¼rler":8166,"Ã¶ÄŁÃ¼tÃ¼rler":8167,"dÃ¼zeltirler":8168,"kuruturlar":8169,"ĠÃ§ileÄŁini":8170,"ĠÃ§ileÄŁine":8171,"ĠÃ§ileÄŁinden":8172,"sÃ¶verler":8173,"dondururlar":8174,"Ã¶pÃ¼ÅŁÃ¼rler":8175,"solurlar":8176,"kullanÄ±lÄ±rlar":8177,"yalarlar":8178,"tanÄ±yacaklar":8179,"ĠÄ±ÅŁÄ±n":8180,"sÃ¶zdizimin":8181,"ĠyazÄ±lÄ±mÄ±nÄ±n":8182,"ÅŁarkÄ±cÄ±lÄ±ÄŁ":8183,"Ã§algÄ±cÄ±nÄ±n":8184,"Ã§algÄ±cÄ±nÄ±":8185,"Ã§algÄ±cÄ±nda":8186,"delirmezler":8187,"bitirmezler":8188,"tetrafob":8189,"oyunculuÄŁ":8190,"yÃ¼reÄŁ":8191,"ĠoldulardÄ±":8192,"bÃ¶cekbili":8193,"dayanÄ±klÄ±lÄ±ÄŁ":8194,"gÃ¼lÃ¼nÃ§leÅŁtiler":8195,"zorluÄŁ":8196,"ĠyazÄ±lÄ±mÄ±na":8197,"Ġyetmezlik":8198,"ĠsÄ±kÄ±ÅŁtÄ±lar":8199,"otofob":8200,"atÄ±ÅŁtÄ±lar":8201,"referansÄ±nÄ±z":8202,"ĠÃ§ilekleri":8203,"ĠÃ§ileklerinden":8204,"ĠÃ§ileklerini":8205,"ĠkÄ±rlangÄ±c":8206,"ĠkÄ±rlangÄ±Ã§":8207,"taÅŁtÄ±lar":8208,"Ġolduydun":8209,"Ġolduydum":8210,"ĠdurumlarÄ±":8211,"koptular":8212,"ofobinin":8213,"ofobiye":8214,"sÃ¼stÃ¼ler":8215,"Ġdurumunda":8216,"Ġdurumundan":8217,"pustular":8218,"demleyecekler":8219,"elleyecekler":8220,"coÅŁtular":8221,"ĠgÃ¶t":8222,"yaratÄ±ÄŁ":8223,"'d":8224,"aca":8225,"abÄ±":8226,"aÅŁtÄ±nÄ±z":8227,"aÅŁtÄ±n":8228,"aÅŁtÄ±k":8229,"balt":8230,"cayÄ±":8231,"dallarÄ±":8232,"daldÄ±n":8233,"daldÄ±nÄ±z":8234,"efesi":8235,"isin":8236,"isinden":8237,"isinin":8238,"isinde":8239,"isini":8240,"ole":8241,"oka":8242,"odaÄŁÄ±n":8243,"tize":8244,"Ġge":8245,"Ġala":8246,"ĠaldÄ±n":8247,"ÅŁallarÄ±":8248,"ÅŁalÄ±":8249,"yalamadÄ±n":8250,"yalamadÄ±nÄ±z":8251,"mamanÄ±n":8252,"Ä±nlÄ±ÄŁa":8253,"Ä±nlÄ±ÄŁÄ±":8254,"Ã§enin":8255,"Ã§aldÄ±n":8256,"indik":8257,"inmemiÅŁler":8258,"inmediler":8259,"ineri":8260,"indiler":8261,"inmedik":8262,"inmedin":8263,"inmediniz":8264,"anmazlar":8265,"anmadÄ±n":8266,"anÃ¼sÃ¼n":8267,"anÃ¼sÃ¼nÃ¼":8268,"mayalarÄ±nda":8269,"mayalarÄ±ndan":8270,"mayalarÄ±nÄ±":8271,"Ġolma":8272,"ĠolmuÅŁsunuz":8273,"ĠolmadÄ±ydÄ±m":8274,"ĠolmazdÄ±m":8275,"ĠolmadÄ±ydÄ±n":8276,"ĠolmamÄ±ÅŁtÄ±k":8277,"ĠolmadÄ±lardÄ±":8278,"ĠolmamÄ±ÅŁlardÄ±":8279,"ĠolmamÄ±ÅŁsÄ±n":8280,"ĠolmamÄ±ÅŁmÄ±ÅŁÄ±z":8281,"ĠolmuÅŁtuk":8282,"ĠolmuÅŁtunuz":8283,"ĠolmuÅŁtum":8284,"dedin":8285,"dedik":8286,"dediniz":8287,"dememiÅŁler":8288,"demediler":8289,"demedim":8290,"demedik":8291,"demediniz":8292,"kacaÄŁÄ±z":8293,"kasÄ±nÄ±":8294,"kazaÄŁ":8295,"kasÄ±na":8296,"kasÄ±nÄ±n":8297,"kasÄ±ndan":8298,"ateÅŁt":8299,"diyorum":8300,"dileceÄŁiz":8301,"dileceÄŁim":8302,"ecenin":8303,"ÅŁtayÄ±":8304,"yaptÄ±k":8305,"yaptÄ±nÄ±z":8306,"yapmamÄ±ÅŁlar":8307,"yapmadÄ±k":8308,"yapmadÄ±n":8309,"yapmadÄ±nÄ±z":8310,"yaptÄ±lar":8311,"ellerdi":8312,"elliyorlar":8313,"etlerin":8314,"etlerine":8315,"etinin":8316,"etine":8317,"Ã¼nlerin":8318,"Ã¼nleri":8319,"Ã¼nlerinden":8320,"Ã¼nlerini":8321,"Ã¼nlerinde":8322,"Ã¼nlerinin":8323,"dÃ¼rmediler":8324,"dÃ¼rmÃ¼yorlar":8325,"dÃ¼rdÃ¼m":8326,"dÃ¼rdÃ¼k":8327,"Ã¼zmemiÅŁler":8328,"Ã¼zecekler":8329,"Ã¼zmedim":8330,"Ã¼zmedik":8331,"Ã¼zmedin":8332,"Ã¼zdÃ¼n":8333,"Ã¼zmÃ¼ÅŁler":8334,"Ã¼zdÃ¼nÃ¼z":8335,"Ã¼zdÃ¼m":8336,"iÅŁlevi":8337,"aÄŁÄ±n":8338,"aÄŁlarÄ±nÄ±n":8339,"aÄŁlarÄ±nÄ±":8340,"aÄŁlarÄ±na":8341,"aÄŁÄ±nÄ±n":8342,"aÄŁÄ±nÄ±":8343,"aÄŁÄ±ndan":8344,"aÄŁÄ±nda":8345,"aÄŁlamadÄ±n":8346,"aÄŁlamadÄ±nÄ±z":8347,"aÅŁmÄ±yorlar":8348,"aÅŁmadÄ±lar":8349,"aÅŁmadÄ±k":8350,"aÅŁmadÄ±m":8351,"aÅŁmadÄ±nÄ±z":8352,"sunduk":8353,"sundunuz":8354,"sunmadÄ±m":8355,"sunmadÄ±n":8356,"sunmadÄ±nÄ±z":8357,"sununun":8358,"tanÄ±yorlar":8359,"tÃ¼rey":8360,"tÃ¼rerler":8361,"selamÄ±":8362,"oldun":8363,"oldunuz":8364,"olmazlar":8365,"olmadÄ±lar":8366,"olmadÄ±m":8367,"geminin":8368,"Ã¶ptÃ¼k":8369,"Ã¶pmediler":8370,"Ã¶pmedim":8371,"Ã¶pmedin":8372,"Ã¶ptÃ¼ler":8373,"Ã¶ptÃ¼n":8374,"vardÄ±nÄ±z":8375,"varmayacaklar":8376,"varmadÄ±lar":8377,"varacaklar":8378,"varmadÄ±k":8379,"varmadÄ±m":8380,"varmadÄ±n":8381,"varmadÄ±nÄ±z":8382,"vardÄ±lar":8383,"otun":8384,"otlarÄ±":8385,"otlarÄ±ndan":8386,"otlarÄ±nÄ±":8387,"otlarÄ±na":8388,"otuna":8389,"otundan":8390,"kayÄ±":8391,"sattÄ±k":8392,"sattÄ±nÄ±z":8393,"sattÄ±m":8394,"satmadÄ±lar":8395,"satacaklar":8396,"satmadÄ±k":8397,"satmadÄ±m":8398,"satmadÄ±n":8399,"satarlar":8400,"sattÄ±lar":8401,"ĠyapÄ±n":8402,"ĠyapmadÄ±ydÄ±":8403,"ĠyapmazdÄ±":8404,"ĠyapmadÄ±ydÄ±k":8405,"ĠyapmazdÄ±m":8406,"ĠyapmayÄ±z":8407,"ĠyapmayÄ±nÄ±z":8408,"ĠyapmamÄ±ÅŁÄ±z":8409,"ĠyapmayacaktÄ±k":8410,"ĠyapmazmÄ±ÅŁsÄ±nÄ±z":8411,"ĠyapmayacaktÄ±n":8412,"ĠyapmayacakmÄ±ÅŁsÄ±n":8413,"ĠyapmazmÄ±ÅŁÄ±m":8414,"ĠyapmazsÄ±nÄ±z":8415,"ĠyapmamÄ±ÅŁmÄ±ÅŁÄ±m":8416,"ĠyapmamÄ±ÅŁmÄ±ÅŁÄ±z":8417,"ĠyapmazlardÄ±":8418,"ĠyapmazdÄ±n":8419,"ĠyapacaÄŁÄ±z":8420,"ĠyaptÄ±ydÄ±m":8421,"ĠyaptÄ±ydÄ±n":8422,"ĠyaptÄ±ydÄ±k":8423,"ĠyaptÄ±ydÄ±nÄ±z":8424,"canlanmamÄ±ÅŁlar":8425,"canlanmadÄ±lar":8426,"canlanmadÄ±m":8427,"iydi":8428,"eÄŁr":8429,"birliÄŁi":8430,"dildin":8431,"dildik":8432,"dildiniz":8433,"dilmezler":8434,"dilmiÅŁler":8435,"dilmediler":8436,"dilmedim":8437,"dilmediniz":8438,"dilimine":8439,"mandallarÄ±":8440,"asayÄ±":8441,"asmadÄ±k":8442,"asmadÄ±m":8443,"asmadÄ±n":8444,"asmadÄ±nÄ±z":8445,"asasÄ±":8446,"hamÄ±zÄ±":8447,"hacÄ±lÄ±ÄŁ":8448,"kapÄ±nÄ±n":8449,"sayÄ±":8450,"saymadÄ±lar":8451,"saymadÄ±k":8452,"saymadÄ±m":8453,"saymadÄ±nÄ±z":8454,"saydÄ±m":8455,"yÄ±kay":8456,"cese":8457,"geldin":8458,"geldik":8459,"geldiniz":8460,"geldim":8461,"geliyorlar":8462,"gelmedik":8463,"gelmedin":8464,"gelmediniz":8465,"leÅŁi":8466,"leÅŁin":8467,"leÅŁleri":8468,"leÅŁlerinden":8469,"leÅŁlerine":8470,"leÅŁlerinde":8471,"leÅŁinin":8472,"leÅŁini":8473,"leÅŁinde":8474,"leÅŁine":8475,"leÅŁinden":8476,"ĠÃ§ekme":8477,"ĠÃ§ekmiÅŁsiniz":8478,"ĠÃ§ekmiÅŁiz":8479,"ĠÃ§ektiniz":8480,"ĠÃ§ektim":8481,"ĠÃ§ekmedin":8482,"ĠÃ§ekmemiÅŁim":8483,"ĠÃ§ekmemiÅŁmiÅŁsiniz":8484,"ĠÃ§ekmemiÅŁtim":8485,"ĠÃ§ekmemiÅŁtin":8486,"ĠÃ§ekmeyecektim":8487,"ĠÃ§ekmeyecekmiÅŁsin":8488,"ĠÃ§ekmediydi":8489,"ĠÃ§ekmediydik":8490,"ĠÃ§ekmemiÅŁmiÅŁsin":8491,"ĠÃ§ekmeyin":8492,"ĠÃ§ekmemiÅŁsin":8493,"ĠÃ§ekmediydim":8494,"ĠÃ§ekmezsiniz":8495,"ĠÃ§ekmezdin":8496,"ĠÃ§ekmezmiÅŁsin":8497,"ĠÃ§ekmemiÅŁsiniz":8498,"ĠÃ§ekmemiÅŁtiniz":8499,"ĠÃ§ekmeyeceÄŁiz":8500,"ĠÃ§ekmem":8501,"ĠÃ§ekmezmiÅŁsiniz":8502,"ĠÃ§ekmeyecektik":8503,"ĠÃ§ekmezdi":8504,"ĠÃ§ekmezdik":8505,"ĠÃ§ekmezlermiÅŁ":8506,"ĠÃ§ekmeyeceklerdi":8507,"ĠÃ§ekmeyecektiniz":8508,"ĠÃ§ekmedilerdi":8509,"ĠÃ§ekmemiÅŁmiÅŁim":8510,"ĠÃ§ekmeyeceÄŁim":8511,"ĠÃ§ekmemiÅŁiz":8512,"ĠÃ§ekmeyecekti":8513,"ĠÃ§ekmeyecekmiÅŁ":8514,"ĠÃ§ekmeyecekmiÅŁim":8515,"ĠÃ§ekmeyeceklermiÅŁ":8516,"ĠÃ§ekmezdiniz":8517,"ĠÃ§ekmezmiÅŁim":8518,"ĠÃ§ekmeyiniz":8519,"ĠÃ§ekmeyeceksiniz":8520,"ĠÃ§ekmezmiÅŁiz":8521,"ĠÃ§ekeceÄŁim":8522,"ĠÃ§ektiydi":8523,"ĠÃ§ektiydik":8524,"ĠÃ§ektiydiniz":8525,"ĠÃ§ektiydin":8526,"Ã§Ã¶kerdiniz":8527,"Ã§Ã¶kerdim":8528,"Ã§Ã¶kermedik":8529,"Ã§Ã¶kermedin":8530,"Ã§Ã¶kermediniz":8531,"utandÄ±n":8532,"utandÄ±nÄ±z":8533,"utanmadÄ±m":8534,"utandÄ±m":8535,"bÃ¼ktÃ¼k":8536,"bÃ¼kecekler":8537,"bÃ¼kmediler":8538,"bÃ¼kmedik":8539,"bÃ¼ktÃ¼ler":8540,"bÃ¼ktÃ¼n":8541,"bÃ¼ktÃ¼nÃ¼z":8542,"geciktin":8543,"geciktik":8544,"gecikmezler":8545,"gecikecekler":8546,"gecikmedim":8547,"gecikmedik":8548,"kaynaÅŁtÄ±rtÄ±":8549,"piÅŁmiÅŁler":8550,"piÅŁmediler":8551,"piÅŁmedin":8552,"dÃ¼zmediler":8553,"dÃ¼zmedim":8554,"dÃ¼zmedik":8555,"dÃ¼zmedin":8556,"dÃ¼zdÃ¼n":8557,"dÃ¼zmÃ¼yorlar":8558,"dÃ¼zdÃ¼nÃ¼z":8559,"dÃ¼zdÃ¼m":8560,"katÄ±n":8561,"katlarÄ±n":8562,"katlarÄ±":8563,"kattÄ±n":8564,"kattÄ±k":8565,"kattÄ±nÄ±z":8566,"katlarÄ±nÄ±":8567,"katlarÄ±na":8568,"katÄ±nÄ±n":8569,"katmÄ±yorlar":8570,"katÄ±nÄ±":8571,"katÄ±ndan":8572,"katÄ±nda":8573,"katÄ±yorlar":8574,"katmadÄ±k":8575,"katili":8576,"katmadÄ±m":8577,"katmadÄ±n":8578,"kattÄ±lar":8579,"arttÄ±m":8580,"artmadÄ±lar":8581,"artmadÄ±k":8582,"artmadÄ±m":8583,"artmadÄ±n":8584,"artmadÄ±nÄ±z":8585,"yaraÄŁÄ±":8586,"bittin":8587,"bittik":8588,"bittiniz":8589,"bitmiÅŁler":8590,"bitmediler":8591,"bitmedim":8592,"bitmedik":8593,"bitmediniz":8594,"bayÄ±n":8595,"baylarÄ±n":8596,"baylarÄ±":8597,"bayku":8598,"baylarÄ±nda":8599,"baylarÄ±nÄ±n":8600,"baylarÄ±na":8601,"bayÄ±ndan":8602,"bayÄ±na":8603,"avÄ±":8604,"avÄ±n":8605,"avlarÄ±n":8606,"avlarÄ±nda":8607,"avlarÄ±nÄ±":8608,"avlarÄ±na":8609,"avÄ±nÄ±n":8610,"avÄ±ndan":8611,"avÄ±na":8612,"avÄ±nda":8613,"keme":8614,"aÃ§tÄ±n":8615,"aÃ§tÄ±k":8616,"aÃ§tÄ±m":8617,"aÃ§mamÄ±ÅŁlar":8618,"aÃ§mÄ±yorlar":8619,"aÃ§acaklar":8620,"aÃ§madÄ±k":8621,"aÃ§madÄ±m":8622,"aÃ§tÄ±lar":8623,"sÄ±zdÄ±n":8624,"sÄ±zdÄ±nÄ±z":8625,"sÄ±zmamÄ±ÅŁlar":8626,"sÄ±zmadÄ±k":8627,"sÄ±zmadÄ±n":8628,"sÄ±zmadÄ±nÄ±z":8629,"sÄ±zdÄ±k":8630,"sÄ±zdÄ±lar":8631,"sÄ±zarlar":8632,"takÄ±n":8633,"taktÄ±nÄ±z":8634,"taktÄ±m":8635,"takÄ±nÄ±n":8636,"takmadÄ±k":8637,"takmadÄ±m":8638,"takmadÄ±nÄ±z":8639,"canlandÄ±rtÄ±":8640,"canlandÄ±rdÄ±nÄ±z":8641,"canlandÄ±rmÄ±ÅŁlar":8642,"canlandÄ±rmadÄ±k":8643,"canlandÄ±rmadÄ±nÄ±z":8644,"canlandÄ±rdÄ±m":8645,"canlandÄ±rdÄ±k":8646,"aldÄ±rdÄ±n":8647,"aldÄ±rdÄ±nÄ±z":8648,"aldÄ±rmamÄ±ÅŁlar":8649,"aldÄ±rÄ±yorlar":8650,"aldÄ±rmadÄ±k":8651,"aldÄ±rmadÄ±n":8652,"aldÄ±rdÄ±m":8653,"aldÄ±rdÄ±lar":8654,"iÃ§tin":8655,"iÃ§tim":8656,"iÃ§meyecekler":8657,"iÃ§miyorlar":8658,"iÃ§mediniz":8659,"saklamadÄ±n":8660,"saklamadÄ±nÄ±z":8661,"kullarÄ±n":8662,"kullarÄ±":8663,"kullarÄ±nda":8664,"kullarÄ±nÄ±n":8665,"kullarÄ±ndan":8666,"kullarÄ±na":8667,"kulunda":8668,"kuluna":8669,"kulunu":8670,"kulundan":8671,"tanÄ±dÄ±nÄ±z":8672,"tanÄ±madÄ±lar":8673,"tanÄ±madÄ±n":8674,"tanÄ±dÄ±m":8675,"tanÄ±dÄ±k":8676,"tanÄ±dÄ±lar":8677,"seÃ§ileceÄŁ":8678,"Ã¶ldÃ¼rttÃ¼k":8679,"Ã¶ldÃ¼rtecekler":8680,"Ã¶ldÃ¼rtmediler":8681,"Ã¶ldÃ¼rtmedim":8682,"Ã¶ldÃ¼rtmedik":8683,"Ã¶ldÃ¼rtmediniz":8684,"Ã¶ldÃ¼rttÃ¼ler":8685,"Ã¶ldÃ¼rttÃ¼n":8686,"Ã¶ldÃ¼rttÃ¼nÃ¼z":8687,"daÄŁÄ±nÄ±":8688,"yazdÄ±n":8689,"yazdÄ±nÄ±z":8690,"yazmadÄ±k":8691,"yazmadÄ±n":8692,"yaÄŁlamadÄ±nÄ±z":8693,"yaÄŁmuru":8694,"gÃ¶Ã§Ã¼":8695,"gÃ¶Ã§Ã¼n":8696,"gÃ¶Ã§lerin":8697,"gÃ¶Ã§leri":8698,"gÃ¶Ã§lerini":8699,"gÃ¶Ã§lerine":8700,"gÃ¶Ã§lerinde":8701,"gÃ¶Ã§lerinin":8702,"gÃ¶Ã§Ã¼nÃ¼z":8703,"gÃ¶Ã§meyecekler":8704,"gÃ¶Ã§medim":8705,"gÃ¶Ã§medin":8706,"gÃ¶Ã§tÃ¼m":8707,"gÃ¶Ã§mÃ¼ÅŁler":8708,"gÃ¶Ã§mÃ¼yorlar":8709,"gÃ¶Ã§Ã¼ne":8710,"gÃ¶Ã§Ã¼nÃ¼":8711,"gÃ¶Ã§tÃ¼n":8712,"sÃ¼necekler":8713,"sÃ¼nmedim":8714,"sÃ¼nmedik":8715,"sÃ¼nmedin":8716,"sÃ¼ndÃ¼n":8717,"sÃ¼ndÃ¼m":8718,"gerinin":8719,"gerileri":8720,"alanÄ±n":8721,"alanlarÄ±n":8722,"alanlarÄ±nÄ±n":8723,"alanlarÄ±ndan":8724,"alanlarÄ±nÄ±":8725,"alanlarÄ±na":8726,"alanÄ±nda":8727,"coÅŁmadÄ±k":8728,"coÅŁmadÄ±m":8729,"coÅŁmadÄ±n":8730,"coÅŁmadÄ±nÄ±z":8731,"gezdik":8732,"gezdiniz":8733,"gezdim":8734,"gezmiÅŁler":8735,"gezmediler":8736,"gezdiler":8737,"gezmedim":8738,"sÃ¼zmedin":8739,"sÃ¼zmediniz":8740,"sÃ¼zdÃ¼n":8741,"sÃ¼zmÃ¼ÅŁler":8742,"sÃ¼zdÃ¼k":8743,"tacaÄŁÄ±m":8744,"tabaÄŁ":8745,"taÅŁtÄ±nÄ±z":8746,"taÅŁtÄ±m":8747,"Ã¶ÄŁrettin":8748,"Ã¶ÄŁrettik":8749,"Ã¶ÄŁrettiniz":8750,"Ã¶ÄŁretmediler":8751,"Ã¶ÄŁretmedim":8752,"Ã¶ÄŁretmedin":8753,"iÅŁten":8754,"sevdin":8755,"sevdiniz":8756,"sevdim":8757,"sevdiler":8758,"sevmedim":8759,"sevmedik":8760,"derileri":8761,"dÃ¼ÅŁÃ¼nmedin":8762,"dÃ¼ÅŁÃ¼nmediniz":8763,"dÃ¼ÅŁÃ¼ndÃ¼n":8764,"dÃ¼ÅŁÃ¼ndÃ¼nÃ¼z":8765,"dÃ¼ÅŁÃ¼ndÃ¼k":8766,"dÃ¼ÅŁÃ¼ndÃ¼ler":8767,"makyajÄ±n":8768,"makyajlarÄ±n":8769,"makyajlarÄ±":8770,"makyajlarÄ±nda":8771,"makyajlarÄ±nÄ±n":8772,"makyajlarÄ±ndan":8773,"makyajlarÄ±nÄ±":8774,"makyajlarÄ±na":8775,"sikileceÄŁ":8776,"sÃ¼smezler":8777,"sÃ¼smedim":8778,"sÃ¼smedik":8779,"sÃ¼smedin":8780,"saptÄ±n":8781,"saptÄ±k":8782,"saptÄ±nÄ±z":8783,"saptÄ±m":8784,"sapmadÄ±k":8785,"sapmadÄ±nÄ±z":8786,"rakÄ±nÄ±n":8787,"benzeri":8788,"dondurdun":8789,"dondurdunuz":8790,"dondurdum":8791,"dondurmadÄ±lar":8792,"dondurmadÄ±k":8793,"dondurmadÄ±n":8794,"dondurmadÄ±nÄ±z":8795,"dondurdular":8796,"dondurmanÄ±n":8797,"kopmadÄ±k":8798,"kopmadÄ±m":8799,"kopmadÄ±n":8800,"kopmadÄ±nÄ±z":8801,"uyarlar":8802,"uyardÄ±n":8803,"uyardÄ±nÄ±z":8804,"uyarmÄ±ÅŁsÄ±nÄ±z":8805,"uyarmÄ±ÅŁÄ±m":8806,"uyarmadÄ±k":8807,"uyarmadÄ±n":8808,"uyardÄ±k":8809,"uludun":8810,"uluduk":8811,"uludum":8812,"ulumadÄ±k":8813,"ulumadÄ±m":8814,"ulumadÄ±n":8815,"ulumuyorlar":8816,"uyunuz":8817,"uydum":8818,"uymadÄ±lar":8819,"uymadÄ±k":8820,"uymadÄ±m":8821,"uymadÄ±nÄ±z":8822,"deÄŁiÅŁecekler":8823,"deÄŁiÅŁiyorlar":8824,"deÄŁiÅŁmedim":8825,"deÄŁiÅŁmedik":8826,"deÄŁiÅŁmedin":8827,"deÄŁiÅŁmediniz":8828,"deÄŁiÅŁirler":8829,"paylaÅŁtÄ±nÄ±z":8830,"paylaÅŁtÄ±n":8831,"paylaÅŁtÄ±m":8832,"paylaÅŁtÄ±k":8833,"serdin":8834,"serdiniz":8835,"serdim":8836,"sermediler":8837,"seriyorlar":8838,"serdiler":8839,"sermedim":8840,"sermedik":8841,"sermedin":8842,"sermediniz":8843,"sesi":8844,"paylaÅŁmadÄ±lar":8845,"paylaÅŁmadÄ±k":8846,"paylaÅŁmadÄ±m":8847,"paylaÅŁmadÄ±n":8848,"paylaÅŁmadÄ±nÄ±z":8849,"paylaÅŁÄ±rlar":8850,"kurtardÄ±n":8851,"kurtarmadÄ±lar":8852,"kurtarmadÄ±k":8853,"kurtarmadÄ±m":8854,"kurtardÄ±m":8855,"yuvarlamadÄ±n":8856,"bÃ¼rÃ¼y":8857,"Ġverdik":8858,"Ġverdiniz":8859,"Ġvermiyorlar":8860,"Ġverdiler":8861,"Ġvermedim":8862,"Ġvermedin":8863,"gÃ¶tÃ¼rmezler":8864,"gÃ¶tÃ¼rmedim":8865,"gÃ¶tÃ¼rmedik":8866,"gÃ¶tÃ¼rmedin":8867,"gÃ¶tÃ¼rdÃ¼n":8868,"gÃ¶tÃ¼rdÃ¼m":8869,"gÃ¶tÃ¼rdÃ¼ler":8870,"taÅŁmÄ±yorlar":8871,"taÅŁmÄ±ÅŁlar":8872,"taÅŁmadÄ±m":8873,"taÅŁmadÄ±n":8874,"horlamadÄ±n":8875,"horlamadÄ±nÄ±z":8876,"onardÄ±n":8877,"onardÄ±nÄ±z":8878,"onarmadÄ±lar":8879,"onarmadÄ±k":8880,"onarmadÄ±m":8881,"onarmadÄ±nÄ±z":8882,"onardÄ±m":8883,"geberdiniz":8884,"gebermeyecekler":8885,"gebermezler":8886,"gebermedim":8887,"gebermedik":8888,"gebermedin":8889,"gebermediniz":8890,"hastalandÄ±n":8891,"hastalanmÄ±yorlar":8892,"hastalanmadÄ±k":8893,"hastalanmadÄ±m":8894,"hastalanmadÄ±n":8895,"hastalanmadÄ±nÄ±z":8896,"hastalandÄ±m":8897,"hastalandÄ±k":8898,"ilklendirdik":8899,"ilklendirdiniz":8900,"ilklendirdim":8901,"ilklendirmedin":8902,"dadandÄ±nÄ±z":8903,"dadanmamÄ±ÅŁlar":8904,"dadanmayacaklar":8905,"dadanmadÄ±m":8906,"dadanmadÄ±nÄ±z":8907,"dadandÄ±m":8908,"dadandÄ±k":8909,"kanÄ±tlamadÄ±n":8910,"kanÄ±tlamadÄ±nÄ±z":8911,"teptim":8912,"tepmeyecekler":8913,"tepmedik":8914,"teptiler":8915,"oturdun":8916,"oturduk":8917,"oturmamÄ±ÅŁlar":8918,"oturdum":8919,"oturmayacaklar":8920,"oturmadÄ±k":8921,"oturmadÄ±m":8922,"oturdular":8923,"kovdurdun":8924,"kovdurdunuz":8925,"kovdurmadÄ±lar":8926,"kovdurmadÄ±m":8927,"kovdurmadÄ±nÄ±z":8928,"kovdurdular":8929,"yalvardÄ±n":8930,"yalvardÄ±nÄ±z":8931,"yalvarmayacaklar":8932,"yalvarmadÄ±lar":8933,"yalvarmadÄ±nÄ±z":8934,"yalvardÄ±m":8935,"yalvardÄ±k":8936,"yalvardÄ±lar":8937,"gerektin":8938,"gerektik":8939,"gerektim":8940,"gerekmedim":8941,"gerekmedik":8942,"gerekmedin":8943,"dedim":8944,"dediler":8945,"yÄ±ÄŁdÄ±n":8946,"yÄ±ÄŁmamÄ±ÅŁlar":8947,"yÄ±ÄŁmÄ±yorlar":8948,"yÄ±ÄŁmadÄ±k":8949,"yÄ±ÄŁmadÄ±n":8950,"yÄ±ÄŁdÄ±m":8951,"yÄ±ÄŁdÄ±k":8952,"yÄ±ÄŁdÄ±lar":8953,"atÄ±ÅŁtÄ±rdÄ±nÄ±z":8954,"atÄ±ÅŁtÄ±rmamÄ±ÅŁlar":8955,"atÄ±ÅŁtÄ±rÄ±yorlar":8956,"atÄ±ÅŁtÄ±racaklar":8957,"atÄ±ÅŁtÄ±rmadÄ±n":8958,"atÄ±ÅŁtÄ±rdÄ±m":8959,"atÄ±ÅŁtÄ±rdÄ±k":8960,"atÄ±ÅŁtÄ±rdÄ±lar":8961,"deÄŁiÅŁtin":8962,"deÄŁiÅŁtik":8963,"deÄŁiÅŁtim":8964,"deÄŁiÅŁtiler":8965,"yetiÅŁecekler":8966,"yetiÅŁmedim":8967,"yetiÅŁmedin":8968,"Ġdiktik":8969,"Ġdiktiniz":8970,"Ġdiktim":8971,"Ġdikmedik":8972,"Ġdikmedin":8973,"Ġdikmediniz":8974,"bÃ¼ktÃ¼rmediler":8975,"bÃ¼ktÃ¼rmedim":8976,"bÃ¼ktÃ¼rmedik":8977,"bÃ¼ktÃ¼rmediniz":8978,"bÃ¼ktÃ¼rdÃ¼nÃ¼z":8979,"bÃ¼ktÃ¼rdÃ¼m":8980,"bÃ¼ktÃ¼rdÃ¼k":8981,"bÃ¼ktÃ¼rdÃ¼ler":8982,"Ã§almÄ±ÅŁlar":8983,"Ã§alÄ±yorlar":8984,"Ã§almadÄ±nÄ±z":8985,"Ã§aldÄ±m":8986,"Ã§aldÄ±k":8987,"yoksullaÅŁtÄ±rmayacaklar":8988,"yoksullaÅŁtÄ±racaklar":8989,"yoksullaÅŁtÄ±rmadÄ±m":8990,"yoksullaÅŁtÄ±rmadÄ±n":8991,"yoksullaÅŁtÄ±rdÄ±m":8992,"yoksullaÅŁtÄ±rdÄ±k":8993,"yoksullaÅŁtÄ±rdÄ±lar":8994,"Ã¶pÃ¼ÅŁecekler":8995,"Ã¶pÃ¼ÅŁmedik":8996,"Ã¶pÃ¼ÅŁmedin":8997,"Ã¶pÃ¼ÅŁmÃ¼yorlar":8998,"sÄ±vÄ±laÅŁtÄ±rdÄ±n":8999,"sÄ±vÄ±laÅŁtÄ±rmayacaklar":9000,"sÄ±vÄ±laÅŁtÄ±rmadÄ±lar":9001,"sÄ±vÄ±laÅŁtÄ±rmadÄ±k":9002,"sÄ±vÄ±laÅŁtÄ±rmadÄ±n":9003,"sÄ±vÄ±laÅŁtÄ±rmadÄ±nÄ±z":9004,"sÄ±vÄ±laÅŁtÄ±rdÄ±m":9005,"sÄ±vÄ±laÅŁtÄ±rdÄ±k":9006,"Ã¶ldÃ¼rtÃ¼lmemiÅŁler":9007,"sÃ¶ktÃ¼k":9008,"sÃ¶ktÃ¼":9009,"sÃ¶kmediler":9010,"sÃ¶kmedim":9011,"sÃ¶kmedin":9012,"sÃ¶kmÃ¼yorlar":9013,"sÃ¶ktÃ¼ler":9014,"sÃ¶ktÃ¼n":9015,"yumduk":9016,"yumdunuz":9017,"yummadÄ±lar":9018,"yummadÄ±k":9019,"yummadÄ±n":9020,"yummadÄ±nÄ±z":9021,"yummuyorlar":9022,"yumdular":9023,"Ã¶lÃ§Ã¼lmedim":9024,"Ã¶lÃ§Ã¼lmedik":9025,"Ã¶lÃ§Ã¼ldÃ¼n":9026,"Ã¶lÃ§Ã¼ldÃ¼nÃ¼z":9027,"Ã¶lÃ§Ã¼ldÃ¼m":9028,"Ã¶lÃ§Ã¼ldÃ¼k":9029,"Ã¶lÃ§Ã¼ldÃ¼ler":9030,"sÃ¶vecekler":9031,"sÃ¶vmediler":9032,"sÃ¶vmedim":9033,"sÃ¶vmedik":9034,"sÃ¶vmediniz":9035,"sÃ¶vdÃ¼n":9036,"sÃ¶vdÃ¼nÃ¼z":9037,"sÃ¶vdÃ¼m":9038,"sÃ¶vdÃ¼k":9039,"pusmadÄ±lar":9040,"pusmadÄ±k":9041,"pusmadÄ±m":9042,"pusmadÄ±n":9043,"pusmadÄ±nÄ±z":9044,"kaÅŁÄ±dÄ±n":9045,"kaÅŁÄ±madÄ±m":9046,"kaÅŁÄ±madÄ±n":9047,"kaÅŁÄ±dÄ±m":9048,"kaÅŁÄ±dÄ±k":9049,"kaybolduk":9050,"kaybolmazlar":9051,"kayboldum":9052,"kaybolmayacaklar":9053,"kaybolmadÄ±k":9054,"kaybolmadÄ±n":9055,"kayboldular":9056,"yÄ±kadÄ±n":9057,"yÄ±kamadÄ±k":9058,"yÄ±kadÄ±m":9059,"yÄ±kadÄ±k":9060,"yÄ±kadÄ±lar":9061,"samuru":9062,"kÄ±ydÄ±nÄ±z":9063,"kÄ±yÄ±yorlar":9064,"kÄ±ymadÄ±k":9065,"kÄ±ymadÄ±n":9066,"kÄ±ydÄ±k":9067,"kÄ±ydÄ±lar":9068,"soludun":9069,"soluduk":9070,"soludunuz":9071,"solumamÄ±ÅŁlar":9072,"soludum":9073,"solumadÄ±k":9074,"solumadÄ±n":9075,"solumadÄ±nÄ±z":9076,"soludular":9077,"kapadÄ±n":9078,"kapamadÄ±k":9079,"kapamadÄ±m":9080,"kapamadÄ±n":9081,"kapamadÄ±nÄ±z":9082,"kapadÄ±m":9083,"kapadÄ±k":9084,"dalmÄ±yorlar":9085,"dalmadÄ±lar":9086,"dalÄ±yorlar":9087,"dalmadÄ±k":9088,"dalmadÄ±m":9089,"dalmadÄ±n":9090,"dalmadÄ±nÄ±z":9091,"daldÄ±m":9092,"daldÄ±k":9093,"daldÄ±lar":9094,"tutmayacaklar":9095,"tutmadÄ±lar":9096,"tutacaklar":9097,"tutmadÄ±k":9098,"tutmadÄ±m":9099,"tutmadÄ±n":9100,"tutmuyorlar":9101,"tuttunuz":9102,"tuttum":9103,"islerin":9104,"islerinden":9105,"islerini":9106,"islerine":9107,"islerinde":9108,"batÄ±nÄ±n":9109,"Ã§amuru":9110,"sandÄ±n":9111,"sanÄ±yorlar":9112,"sanmadÄ±k":9113,"sanmadÄ±n":9114,"sandÄ±m":9115,"sandÄ±lar":9116,"sanÄ±rlar":9117,"canlanmadÄ±n":9118,"canlanmadÄ±nÄ±z":9119,"canlanmamazlar":9120,"canlanmamayacaklar":9121,"canlanmamadÄ±nÄ±z":9122,"terliÄŁi":9123,"Ã¶ldÃ¼rtÃ¼lmedin":9124,"Ã¶ldÃ¼rtÃ¼lmedik":9125,"Ã¶ldÃ¼rtÃ¼lmemediler":9126,"Ã¶ldÃ¼rtÃ¼lmemedik":9127,"Ã¶ldÃ¼rtÃ¼lmemedin":9128,"ydÄ±lar":9129,"eÄŁittik":9130,"eÄŁittiniz":9131,"eÄŁittim":9132,"eÄŁitmiÅŁler":9133,"eÄŁitmediler":9134,"eÄŁitiyorlar":9135,"eÄŁitmediniz":9136,"eÄŁitirler":9137,"eÄŁitimi":9138,"yapÄ±ÅŁmadÄ±lar":9139,"yapÄ±ÅŁmadÄ±nÄ±z":9140,"daÄŁÄ±ttÄ±n":9141,"daÄŁÄ±ttÄ±k":9142,"daÄŁÄ±tmayacaklar":9143,"daÄŁÄ±tmÄ±ÅŁlar":9144,"daÄŁÄ±tmadÄ±k":9145,"daÄŁÄ±tmadÄ±n":9146,"daÄŁÄ±tmadÄ±nÄ±z":9147,"Ã¶ÄŁÃ¼tmedin":9148,"Ã¶ÄŁÃ¼tmediniz":9149,"Ã¶ÄŁÃ¼ttÃ¼m":9150,"Ã¶ÄŁÃ¼ttÃ¼nÃ¼z":9151,"Ä±sÄ±rdÄ±n":9152,"Ä±sÄ±rdÄ±nÄ±z":9153,"Ä±sÄ±rmamÄ±ÅŁlar":9154,"Ä±sÄ±rmÄ±ÅŁlar":9155,"Ä±sÄ±rmadÄ±k":9156,"Ä±sÄ±rmadÄ±n":9157,"Ä±sÄ±rmadÄ±nÄ±z":9158,"Ä±sÄ±rdÄ±m":9159,"Ä±sÄ±rdÄ±k":9160,"ĠaldÄ±rdÄ±nÄ±z":9161,"ĠaldÄ±rmÄ±yorlar":9162,"ĠaldÄ±rmadÄ±lar":9163,"ĠaldÄ±rmadÄ±k":9164,"ĠaldÄ±rmadÄ±m":9165,"ĠaldÄ±rmadÄ±nÄ±z":9166,"ĠaldÄ±rdÄ±m":9167,"ĠaldÄ±rdÄ±k":9168,"sÃ¼rÃ¼ndÃ¼rmezler":9169,"sÃ¼rÃ¼ndÃ¼rmediler":9170,"sÃ¼rÃ¼ndÃ¼rmedim":9171,"sÃ¼rÃ¼ndÃ¼rmedik":9172,"sÃ¼rÃ¼ndÃ¼rmedin":9173,"sÃ¼rÃ¼ndÃ¼rmediniz":9174,"sÃ¼rÃ¼ndÃ¼rdÃ¼n":9175,"sÃ¼rÃ¼ndÃ¼rmÃ¼yorlar":9176,"sÃ¼rÃ¼ndÃ¼rdÃ¼m":9177,"sÃ¼rÃ¼ndÃ¼rdÃ¼k":9178,"seslendik":9179,"seslendiniz":9180,"seslendim":9181,"seslenmemiÅŁler":9182,"seslenmediler":9183,"seslenmiyorlar":9184,"seslenmedim":9185,"seslenmedik":9186,"seslenmediniz":9187,"saydÄ±rdÄ±n":9188,"saydÄ±rdÄ±nÄ±z":9189,"saydÄ±rmadÄ±k":9190,"saydÄ±rmadÄ±m":9191,"saydÄ±rmadÄ±n":9192,"saydÄ±rmadÄ±nÄ±z":9193,"saydÄ±rdÄ±k":9194,"saydÄ±rdÄ±lar":9195,"kÄ±rdÄ±rdÄ±nÄ±z":9196,"kÄ±rdÄ±rmazlar":9197,"kÄ±rdÄ±rmayacaklar":9198,"kÄ±rdÄ±rmadÄ±k":9199,"kÄ±rdÄ±rmadÄ±n":9200,"kÄ±rdÄ±rdÄ±m":9201,"kÄ±rdÄ±rdÄ±k":9202,"kÄ±rdÄ±rdÄ±lar":9203,"kirlettin":9204,"kirlettik":9205,"kirlettiniz":9206,"kirletmiÅŁler":9207,"kirletmedim":9208,"kirletmedik":9209,"kirletmedin":9210,"kirletmediniz":9211,"kirletirler":9212,"kirlettiler":9213,"kÃ¶pÃ¼recekler":9214,"kÃ¶pÃ¼rmediler":9215,"kÃ¶pÃ¼rmedim":9216,"kÃ¶pÃ¼rmedik":9217,"kÃ¶pÃ¼rmedin":9218,"kÃ¶pÃ¼rmediniz":9219,"kÃ¶pÃ¼rdÃ¼n":9220,"kÃ¶pÃ¼rmÃ¼yorlar":9221,"kÃ¶pÃ¼rdÃ¼k":9222,"evlendin":9223,"evlendim":9224,"evlenmeyecekler":9225,"evlenmediler":9226,"evlenmedim":9227,"evlenmedik":9228,"evlenmediniz":9229,"geciktirdin":9230,"geciktirdik":9231,"geciktirmediler":9232,"geciktirmedim":9233,"geciktirmedin":9234,"geciktirmediniz":9235,"ayÄ±rdÄ±nÄ±z":9236,"ayÄ±rmamÄ±ÅŁlar":9237,"ayÄ±rmadÄ±k":9238,"ayÄ±rmadÄ±n":9239,"ayÄ±rdÄ±m":9240,"ayÄ±rdÄ±k":9241,"tÃ¼kÃ¼rmedim":9242,"tÃ¼kÃ¼rmedik":9243,"tÃ¼kÃ¼rdÃ¼n":9244,"tÃ¼kÃ¼rdÃ¼nÃ¼z":9245,"tÃ¼kÃ¼rdÃ¼m":9246,"saldÄ±rdÄ±n":9247,"saldÄ±rmÄ±yorlar":9248,"saldÄ±rmÄ±ÅŁlar":9249,"saldÄ±rmadÄ±k":9250,"saldÄ±rmadÄ±m":9251,"saldÄ±rmadÄ±n":9252,"saldÄ±rmadÄ±nÄ±z":9253,"saldÄ±rdÄ±k":9254,"Ã¼ÅŁendin":9255,"Ã¼ÅŁendik":9256,"Ã¼ÅŁendiniz":9257,"Ã¼ÅŁendim":9258,"Ã¼ÅŁenmeyecekler":9259,"Ã¼ÅŁenmedim":9260,"Ã¼ÅŁenirler":9261,"boÅŁandÄ±n":9262,"boÅŁanmadÄ±lar":9263,"boÅŁanmadÄ±k":9264,"boÅŁanmadÄ±n":9265,"boÅŁanmadÄ±nÄ±z":9266,"boÅŁandÄ±m":9267,"boÅŁandÄ±k":9268,"aldattÄ±n":9269,"aldattÄ±nÄ±z":9270,"aldatmamÄ±ÅŁlar":9271,"aldatmadÄ±lar":9272,"aldatmadÄ±k":9273,"aldatmadÄ±nÄ±z":9274,"kapattÄ±k":9275,"kapattÄ±nÄ±z":9276,"kapatmazlar":9277,"kapatmayacaklar":9278,"kapatmadÄ±lar":9279,"kapatmadÄ±m":9280,"kapatÄ±rlar":9281,"kapattÄ±lar":9282,"utandÄ±rdÄ±n":9283,"utandÄ±rdÄ±nÄ±z":9284,"utandÄ±rmadÄ±lar":9285,"utandÄ±rÄ±yorlar":9286,"utandÄ±racaklar":9287,"utandÄ±rmadÄ±k":9288,"utandÄ±rmadÄ±n":9289,"utandÄ±rdÄ±m":9290,"utandÄ±rdÄ±k":9291,"utandÄ±rdÄ±lar":9292,"iyileÅŁtirdin":9293,"iyileÅŁtirdiniz":9294,"iyileÅŁtirdiler":9295,"iyileÅŁtirmedim":9296,"iyileÅŁtirmedik":9297,"iyileÅŁtirmedin":9298,"iyileÅŁtirmediniz":9299,"iyileÅŁtirirler":9300,"Ä°ngilizceleÅŁtirdin":9301,"Ä°ngilizceleÅŁtirdik":9302,"Ä°ngilizceleÅŁtirdiniz":9303,"Ä°ngilizceleÅŁtirmediler":9304,"Ä°ngilizceleÅŁtirdiler":9305,"Ä°ngilizceleÅŁtirmedik":9306,"Ä°ngilizceleÅŁtirmediniz":9307,"kaÃ§Ä±rdÄ±nÄ±z":9308,"kaÃ§Ä±rmadÄ±lar":9309,"kaÃ§Ä±rmÄ±ÅŁlar":9310,"kaÃ§Ä±rmadÄ±k":9311,"kaÃ§Ä±rdÄ±m":9312,"kaÃ§Ä±rdÄ±k":9313,"kaÃ§Ä±rdÄ±lar":9314,"TÃ¼rkÃ§eleÅŁtirdik":9315,"TÃ¼rkÃ§eleÅŁtirdiniz":9316,"TÃ¼rkÃ§eleÅŁtirdim":9317,"TÃ¼rkÃ§eleÅŁtirmemiÅŁler":9318,"TÃ¼rkÃ§eleÅŁtirmediler":9319,"TÃ¼rkÃ§eleÅŁtirmedik":9320,"TÃ¼rkÃ§eleÅŁtirmedin":9321,"tÃ¼kendim":9322,"tÃ¼kenecekler":9323,"tÃ¼kenmediler":9324,"tÃ¼kenmiyorlar":9325,"tÃ¼kendiler":9326,"tÃ¼kenmedik":9327,"unutmadÄ±m":9328,"unutmadÄ±n":9329,"unutmadÄ±nÄ±z":9330,"unuttunuz":9331,"unuttun":9332,"ettirdin":9333,"ettirdik":9334,"ettirdiniz":9335,"ettirdim":9336,"ettirmezler":9337,"ettirecekler":9338,"ettirmedim":9339,"ettirmedik":9340,"sÃ¼mÃ¼rmedin":9341,"sÃ¼mÃ¼rmediniz":9342,"sÃ¼mÃ¼rdÃ¼n":9343,"sÃ¼mÃ¼rmÃ¼yorlar":9344,"sÃ¼mÃ¼rdÃ¼nÃ¼z":9345,"sÃ¼mÃ¼rdÃ¼m":9346,"sÃ¼mÃ¼rdÃ¼ler":9347,"dÃ¶ndÃ¼rmezler":9348,"dÃ¶ndÃ¼rmediler":9349,"dÃ¶ndÃ¼rmedim":9350,"dÃ¶ndÃ¼rÃ¼yorlar":9351,"dÃ¶ndÃ¼rmÃ¼ÅŁler":9352,"dÃ¶ndÃ¼rmÃ¼yorlar":9353,"dÃ¶ndÃ¼rdÃ¼nÃ¼z":9354,"uÄŁrattÄ±n":9355,"uÄŁrattÄ±nÄ±z":9356,"uÄŁrattÄ±m":9357,"uÄŁratmamÄ±ÅŁlar":9358,"uÄŁratmÄ±ÅŁlar":9359,"uÄŁratmadÄ±k":9360,"uÄŁratmadÄ±n":9361,"kurutmazlar":9362,"kurutmadÄ±k":9363,"kurutmadÄ±m":9364,"kuruttunuz":9365,"kuruttum":9366,"kuruttun":9367,"eÄŁlendin":9368,"eÄŁlendik":9369,"eÄŁlendiniz":9370,"eÄŁlenmeyecekler":9371,"eÄŁlenecekler":9372,"eÄŁlendiler":9373,"eÄŁlenmedik":9374,"eÄŁlenmedin":9375,"eÄŁlenmediniz":9376,"ĠsÄ±kÄ±ÅŁmadÄ±k":9377,"ĠsÄ±kÄ±ÅŁmadÄ±m":9378,"ĠsÄ±kÄ±ÅŁmadÄ±n":9379,"ĠsÄ±kÄ±ÅŁmadÄ±nÄ±z":9380,"gÃ¼cendin":9381,"gÃ¼cendik":9382,"gÃ¼cendiniz":9383,"gÃ¼cenecekler":9384,"gÃ¼cenmediler":9385,"gÃ¼cendiler":9386,"gÃ¼cenmedik":9387,"gÃ¼cenmedin":9388,"gÃ¼cenmediniz":9389,"gÃ¼lÃ¼nÃ§leÅŁmiyorlar":9390,"gÃ¼lÃ¼nÃ§leÅŁmedim":9391,"gÃ¼lÃ¼nÃ§leÅŁmediniz":9392,"kÃ¶mÃ¼":9393,"Ã¶zrÃ¼":9394,"atÄ±ÅŁmamÄ±ÅŁlar":9395,"atÄ±ÅŁmayacaklar":9396,"atÄ±ÅŁmadÄ±m":9397,"atÄ±ÅŁmadÄ±n":9398,"bitirdin":9399,"bitirdiniz":9400,"bitirdim":9401,"bitirmediler":9402,"bitirmedik":9403,"bitirmediniz":9404,"birleÅŁmediler":9405,"birleÅŁmedim":9406,"birleÅŁmedik":9407,"birleÅŁmediniz":9408,"delirdik":9409,"delirmediler":9410,"deliriyorlar":9411,"delirdiler":9412,"delirmedik":9413,"delirmedin":9414,"delirmediniz":9415,"menin":9416,"deÄŁiÅŁtirdim":9417,"deÄŁiÅŁtirmedim":9418,"deÄŁiÅŁtirmedik":9419,"deÄŁiÅŁtirmedin":9420,"deÄŁiÅŁtirmediniz":9421,"tanÄ±ttÄ±n":9422,"tanÄ±ttÄ±m":9423,"tanÄ±tmayacaklar":9424,"tanÄ±tmÄ±yorlar":9425,"tanÄ±tmadÄ±lar":9426,"tanÄ±tmadÄ±m":9427,"tanÄ±tmadÄ±nÄ±z":9428,"tanÄ±ttÄ±lar":9429,"verdirttin":9430,"verdirttim":9431,"verdirtmezler":9432,"verdirtmedin":9433,"verdirtmediniz":9434,"Ã§Ã¶kerttin":9435,"Ã§Ã¶kerttiniz":9436,"Ã§Ã¶kerttim":9437,"Ã§Ã¶kertmediler":9438,"Ã§Ã¶kertmedim":9439,"yendirttiniz":9440,"yendirttim":9441,"yendirtecekler":9442,"yendirtmedim":9443,"yendirtmedik":9444,"yendirtmedin":9445,"yendirtmediniz":9446,"caminin":9447,"sosunu":9448,"sosundan":9449,"sosuna":9450,"sosunun":9451,"Ã¶lÃ§tÃ¼rttÃ¼k":9452,"Ã¶lÃ§tÃ¼rtecekler":9453,"Ã¶lÃ§tÃ¼rtmediler":9454,"Ã¶lÃ§tÃ¼rtmedik":9455,"Ã¶lÃ§tÃ¼rtmedin":9456,"Ã¶lÃ§tÃ¼rttÃ¼m":9457,"Ã¶lÃ§tÃ¼rtmÃ¼ÅŁler":9458,"Ã¶lÃ§tÃ¼rttÃ¼n":9459,"Ã¶lÃ§tÃ¼rttÃ¼nÃ¼z":9460,"dirildin":9461,"dirildik":9462,"dirildiniz":9463,"dirildim":9464,"dirilmiÅŁler":9465,"dirilmediler":9466,"dirildiler":9467,"dirilmedim":9468,"dirilmedik":9469,"dÃ¼rttÃ¼k":9470,"dÃ¼rtmedim":9471,"dÃ¼rtmediniz":9472,"dÃ¼rttÃ¼m":9473,"dÃ¼rttÃ¼ler":9474,"gidildik":9475,"gidildiniz":9476,"gidildim":9477,"gidilmezler":9478,"gidildiler":9479,"gidilmedim":9480,"gidilmedin":9481,"seÃ§ildiniz":9482,"seÃ§ilmediler":9483,"seÃ§ilmedim":9484,"seÃ§ilmedik":9485,"seÃ§ilmediniz":9486,"canlandÄ±rtÄ±ldÄ±nÄ±z":9487,"canlandÄ±rtÄ±lmazlar":9488,"canlandÄ±rtÄ±lmadÄ±m":9489,"canlandÄ±rtÄ±lmadÄ±n":9490,"canlandÄ±rtÄ±lmadÄ±nÄ±z":9491,"canlandÄ±rtÄ±ldÄ±m":9492,"canlandÄ±rtÄ±ldÄ±k":9493,"dÃ¼zelttin":9494,"dÃ¼zelttiniz":9495,"dÃ¼zelttim":9496,"dÃ¼zeltmezler":9497,"dÃ¼zeltiyorlar":9498,"dÃ¼zeltmediniz":9499,"kaynaÅŁtÄ±rtÄ±ldÄ±n":9500,"kaynaÅŁtÄ±rtÄ±ldÄ±nÄ±z":9501,"kaynaÅŁtÄ±rtÄ±lmadÄ±k":9502,"kaynaÅŁtÄ±rtÄ±ldÄ±m":9503,"kaynaÅŁtÄ±rtÄ±ldÄ±lar":9504,"Ġgeldin":9505,"Ġgeldiniz":9506,"Ġgeldim":9507,"ĠgelmiÅŁler":9508,"Ġgeliyorlar":9509,"Ġgelmedim":9510,"Ġgelmedik":9511,"Ġgelmedin":9512,"Ġgelmediniz":9513,"ĠalmadÄ±lar":9514,"ĠalmÄ±ÅŁlar":9515,"ĠalmadÄ±m":9516,"ĠalmadÄ±n":9517,"ĠalmadÄ±nÄ±z":9518,"ĠalÄ±rlar":9519,"sikildin":9520,"sikildim":9521,"sikilmediler":9522,"sikilmedim":9523,"sikilmedik":9524,"boÅŁalmadÄ±m":9525,"boÅŁalmadÄ±nÄ±z":9526,"boÅŁaldÄ±m":9527,"boÅŁaldÄ±lar":9528,"olacaÄŁÄ±z":9529,"verildin":9530,"verildiniz":9531,"verildim":9532,"verilmemiÅŁler":9533,"verilmezler":9534,"verilmiÅŁler":9535,"verilmediler":9536,"verilmiyorlar":9537,"verildiler":9538,"verilmedim":9539,"verilmedin":9540,"Ã§Ä±ÄŁlarÄ±n":9541,"Ã§Ä±ÄŁlarÄ±":9542,"Ã§Ä±ÄŁlarÄ±nda":9543,"Ã§Ä±ÄŁlarÄ±nÄ±n":9544,"Ã§Ä±ÄŁlarÄ±ndan":9545,"Ã§Ä±ÄŁlarÄ±nÄ±":9546,"Ã§Ä±ÄŁlarÄ±na":9547,"Ã§Ä±ÄŁÄ±ndan":9548,"Ã§Ä±ÄŁÄ±na":9549,"Ã§Ä±ÄŁÄ±nda":9550,"yerleri":9551,"yerlerinden":9552,"yerlerini":9553,"yerlerine":9554,"yerlerinde":9555,"yerlerinin":9556,"yerinde":9557,"yerinden":9558,"fili":9559,"filmi":9560,"filin":9561,"fillerin":9562,"fillerinden":9563,"fillerini":9564,"fillerinde":9565,"filinin":9566,"filini":9567,"filinde":9568,"filine":9569,"filinden":9570,"filmin":9571,"filminden":9572,"filmini":9573,"filminin":9574,"filmine":9575,"sÃ¼rÃ¼mÃ¼":9576,"sÃ¼rÃ¼mleri":9577,"sÃ¼rÃ¼mlerini":9578,"sÃ¼rÃ¼mlerine":9579,"sÃ¼rÃ¼mlerinin":9580,"sÃ¼rÃ¼mÃ¼nÃ¼n":9581,"sÃ¼rÃ¼mÃ¼ne":9582,"sÃ¼rÃ¼mÃ¼nden":9583,"kokun":9584,"kokunuz":9585,"kokmazlar":9586,"kokmadÄ±lar":9587,"kokmadÄ±n":9588,"kokunun":9589,"koktunuz":9590,"koktum":9591,"koktun":9592,"kalktÄ±k":9593,"kalktÄ±m":9594,"kalkmamÄ±ÅŁlar":9595,"kalkmadÄ±lar":9596,"kalkmÄ±ÅŁlar":9597,"kalkmadÄ±m":9598,"kalkmadÄ±n":9599,"korkmamÄ±ÅŁlar":9600,"korkmadÄ±lar":9601,"korkmadÄ±k":9602,"korkmadÄ±nÄ±z":9603,"Ã§algÄ±larÄ±":9604,"Ã§algÄ±larÄ±nÄ±n":9605,"Ã§algÄ±larÄ±ndan":9606,"Ã§algÄ±larÄ±nÄ±":9607,"bardaÄŁÄ±":9608,"elledin":9609,"elledik":9610,"ellediniz":9611,"ellemediler":9612,"ellediler":9613,"ellemedim":9614,"ellemedik":9615,"ellemediniz":9616,"yaÄŁladÄ±n":9617,"yaÄŁladÄ±nÄ±z":9618,"yaÄŁlamadÄ±k":9619,"yaÄŁlamadÄ±m":9620,"yaÄŁladÄ±m":9621,"vadenin":9622,"bayÄ±ldÄ±n":9623,"bayÄ±ldÄ±nÄ±z":9624,"bayÄ±lmayacaklar":9625,"bayÄ±lmadÄ±lar":9626,"bayÄ±lmadÄ±k":9627,"bayÄ±lmadÄ±m":9628,"bayÄ±lmadÄ±n":9629,"bayÄ±lmadÄ±nÄ±z":9630,"bayÄ±ldÄ±k":9631,"bayÄ±ldÄ±lar":9632,"mumyanÄ±n":9633,"demledin":9634,"demlediniz":9635,"demledim":9636,"demlememiÅŁler":9637,"demlemedik":9638,"demlemedin":9639,"demlemediniz":9640,"benzedin":9641,"benzedik":9642,"benzediniz":9643,"benzemedim":9644,"benzemedin":9645,"tÃ¼redik":9646,"tÃ¼rediniz":9647,"tÃ¼redim":9648,"tÃ¼rememiÅŁler":9649,"tÃ¼remediler":9650,"tÃ¼remedim":9651,"tÃ¼remedik":9652,"tÃ¼remedin":9653,"tÃ¼remediniz":9654,"diredin":9655,"diredim":9656,"diremedim":9657,"diremedik":9658,"diremedin":9659,"kÃ¼Ã§Ã¼kler":9660,"kusmanÄ±n":9661,"gÃ¼tmemiÅŁler":9662,"gÃ¼tmediler":9663,"gÃ¼tmedik":9664,"gÃ¼ttÃ¼m":9665,"gÃ¼tmÃ¼ÅŁler":9666,"gÃ¼ttÃ¼n":9667,"gÃ¼ttÃ¼nÃ¼z":9668,"adsÄ±zlar":9669,"beldenin":9670,"efsunu":9671,"efenin":9672,"kuÅŁun":9673,"kuÅŁlarÄ±n":9674,"kuÅŁlarÄ±nda":9675,"kuÅŁlarÄ±nÄ±n":9676,"kuÅŁlarÄ±ndan":9677,"kuÅŁlarÄ±na":9678,"kuÅŁunun":9679,"kuÅŁunda":9680,"kuÅŁuna":9681,"kuÅŁundan":9682,"kÄ±lÄ±":9683,"kÄ±llarÄ±n":9684,"kÄ±llarÄ±":9685,"kÄ±llarÄ±ndan":9686,"kÄ±llarÄ±nÄ±":9687,"kÄ±llarÄ±na":9688,"kÄ±lÄ±nÄ±n":9689,"kÄ±lÄ±ndan":9690,"kÄ±lÄ±na":9691,"akÄ±ÅŁÄ±":9692,"akÄ±ÅŁÄ±n":9693,"akÄ±ÅŁlarÄ±":9694,"akÄ±ÅŁlarÄ±nda":9695,"akÄ±ÅŁlarÄ±nÄ±":9696,"akÄ±ÅŁlarÄ±na":9697,"akÄ±ÅŁÄ±nÄ±n":9698,"akÄ±ÅŁÄ±ndan":9699,"akÄ±ÅŁÄ±na":9700,"akÄ±ÅŁÄ±nda":9701,"tenin":9702,"tenlerin":9703,"tenleri":9704,"tenlerini":9705,"tenlerine":9706,"tenlerinin":9707,"teninin":9708,"teninde":9709,"tenine":9710,"olayÄ±n":9711,"olaylarÄ±":9712,"olaylarÄ±nda":9713,"olaylarÄ±ndan":9714,"olaylarÄ±nÄ±":9715,"olaylarÄ±na":9716,"olayÄ±nÄ±n":9717,"olayÄ±nÄ±":9718,"olayÄ±nda":9719,"pedinin":9720,"sÄ±nÄ±rÄ±":9721,"sÄ±nÄ±rÄ±n":9722,"sÄ±nÄ±rlarÄ±":9723,"sÄ±nÄ±rlarÄ±ndan":9724,"sÄ±nÄ±rlarÄ±nÄ±":9725,"sÄ±nÄ±rlarÄ±na":9726,"sÄ±nÄ±rÄ±nÄ±n":9727,"sÄ±nÄ±rÄ±nÄ±":9728,"sÄ±nÄ±rÄ±na":9729,"sÄ±nÄ±rÄ±nda":9730,"aynanÄ±n":9731,"seÃ§melerinden":9732,"seÃ§melerini":9733,"seÃ§melerinde":9734,"seÃ§melerinin":9735,"blogu":9736,"blogun":9737,"bloglarÄ±":9738,"bloglarÄ±nda":9739,"bloglarÄ±nÄ±n":9740,"bloglarÄ±nÄ±":9741,"bloglarÄ±na":9742,"blogunun":9743,"blogunda":9744,"bloguna":9745,"blogunu":9746,"blogundan":9747,"bakiri":9748,"bakirin":9749,"bakirlerin":9750,"bakirleri":9751,"bakirlerinden":9752,"bakirlerini":9753,"bakirlerine":9754,"bakirinin":9755,"bakirini":9756,"bakirinden":9757,"Ġoluyoruz":9758,"Ġoluyorsun":9759,"Ġoluyordu":9760,"Ġoluyordun":9761,"Ġoluyorsunuz":9762,"ĠoluyorlardÄ±":9763,"ĠoluyormuÅŁsun":9764,"Ġoluyordunuz":9765,"ĠoluyormuÅŁuz":9766,"diyecekler":9767,"otomobili":9768,"otomobilin":9769,"otomobilleri":9770,"otomobillerinden":9771,"otomobillerini":9772,"otomobillerine":9773,"otomobillerinin":9774,"otomobilinde":9775,"otomobilinden":9776,"ĠsayÄ±nÄ±z":9777,"ĠsayÄ±mÄ±z":9778,"ĠsayÄ±nÄ±":9779,"ĠsayÄ±ndan":9780,"ĠsayÄ±na":9781,"ĠsayÄ±nda":9782,"ĠsayÄ±nÄ±zda":9783,"ĠsayÄ±nÄ±zÄ±":9784,"ĠsayÄ±nÄ±za":9785,"ĠsayÄ±nÄ±zdan":9786,"ĠsayÄ±mÄ±zdan":9787,"ĠsayÄ±mÄ±za":9788,"sÃ¶zcÃ¼nÃ¼n":9789,"ĠyazÄ±lÄ±ma":9790,"kavmi":9791,"kavmin":9792,"kavunu":9793,"kavminde":9794,"kavmini":9795,"kardeÅŁt":9796,"ecelerin":9797,"eceleri":9798,"ecelerinden":9799,"ecelerini":9800,"ecelerinin":9801,"dulun":9802,"dullarÄ±n":9803,"dullarÄ±ndan":9804,"dullarÄ±nÄ±":9805,"dulunun":9806,"dulunda":9807,"duluna":9808,"poplarÄ±n":9809,"poplarÄ±":9810,"poplarÄ±nda":9811,"poplarÄ±ndan":9812,"poplarÄ±na":9813,"popunun":9814,"popunda":9815,"popuna":9816,"poponun":9817,"cezvey":9818,"efelerin":9819,"efeleri":9820,"efelerini":9821,"efelerine":9822,"efelerinde":9823,"efelerinin":9824,"hatanÄ±n":9825,"ĠyapmÄ±ÅŁtÄ±":9826,"ĠyapmÄ±ÅŁlardÄ±":9827,"ĠyapmÄ±ÅŁtÄ±n":9828,"ĠyapmÄ±ÅŁtÄ±nÄ±z":9829,"ĠyapmÄ±ÅŁtÄ±m":9830,"ĠyapmÄ±ÅŁmÄ±ÅŁsÄ±nÄ±z":9831,"ĠyapmÄ±ÅŁmÄ±ÅŁÄ±m":9832,"ĠyapÄ±yormuÅŁ":9833,"ĠyapÄ±yoruz":9834,"ĠyapÄ±yorduk":9835,"ĠyapÄ±yormuÅŁsun":9836,"ĠyapÄ±yormuÅŁum":9837,"ĠyapÄ±yordum":9838,"ĠfÃ¼zeniz":9839,"ĠfÃ¼zeye":9840,"ĠfÃ¼zenize":9841,"ĠfÃ¼zeyi":9842,"ĠfÃ¼zende":9843,"ĠfÃ¼zene":9844,"ĠfÃ¼zenizin":9845,"ĠfÃ¼zenizi":9846,"ĠolmuÅŁlardÄ±":9847,"ĠolmuÅŁmuÅŁum":9848,"aynalarÄ±n":9849,"aynalarÄ±":9850,"aynalarÄ±nda":9851,"aynalarÄ±ndan":9852,"aynalarÄ±nÄ±":9853,"ĠyapacaksÄ±n":9854,"ĠyapacaksÄ±nÄ±z":9855,"ĠyapacaklardÄ±":9856,"ĠyapacaklarmÄ±ÅŁ":9857,"ĠyapacaktÄ±n":9858,"ĠyapacaktÄ±k":9859,"ĠyapacaktÄ±nÄ±z":9860,"ĠyapacakmÄ±ÅŁsÄ±n":9861,"ĠyapacakmÄ±ÅŁÄ±z":9862,"mandalÄ±":9863,"mandallarÄ±nda":9864,"mandallarÄ±nÄ±n":9865,"mandallarÄ±nÄ±":9866,"mandallarÄ±na":9867,"mandalÄ±nÄ±":9868,"mandalÄ±ndan":9869,"mandalÄ±na":9870,"mandalÄ±nda":9871,"diskolarÄ±n":9872,"diskolarÄ±":9873,"diskolarÄ±nda":9874,"diskolarÄ±nÄ±n":9875,"diskolarÄ±ndan":9876,"Ã§arÄ±":9877,"Ã§arÄ±n":9878,"Ã§arlarÄ±n":9879,"Ã§arlarÄ±nÄ±n":9880,"Ã§arlarÄ±ndan":9881,"Ã§arlarÄ±nÄ±":9882,"Ã§arÄ±nÄ±":9883,"Ã§arÄ±ndan":9884,"Ã§arÄ±na":9885,"Ã§arÄ±nda":9886,"ĠasimptotlarÄ±nÄ±n":9887,"Ġasimptotunuz":9888,"Ġasimptotlarda":9889,"Ġasimptotumuz":9890,"ĠasimptotlarÄ±mÄ±zÄ±":9891,"ĠasimptotlarÄ±nÄ±zÄ±":9892,"ĠasimptotlarÄ±mÄ±zda":9893,"ĠasimptotlarÄ±mÄ±zÄ±n":9894,"ĠasimptotlarÄ±nÄ±zÄ±n":9895,"ĠasimptotlarÄ±mÄ±zdan":9896,"ĠasimptotlarÄ±nÄ±zda":9897,"Ġasimptotunda":9898,"Ġasimptotunuzun":9899,"Ġasimptotunuzu":9900,"Ġasimptotunuzda":9901,"Ġasimptotumuza":9902,"Ġasimptotumuzun":9903,"Ġasimptotumuzu":9904,"Ġasimptotumuzda":9905,"Ġhalin":9906,"Ġhallerin":9907,"ĠhalÄ±nÄ±n":9908,"kÃ¶pÃ¼klerinden":9909,"kÃ¶pÃ¼klerini":9910,"kÃ¶pÃ¼klerine":9911,"kÃ¶pÃ¼klerinde":9912,"Ã§Ä±ÄŁÄ±rtkanÄ±n":9913,"Ã§Ä±ÄŁÄ±rtkanlarÄ±n":9914,"Ã§Ä±ÄŁÄ±rtkanlarÄ±nda":9915,"Ã§Ä±ÄŁÄ±rtkanlarÄ±ndan":9916,"Ã§Ä±ÄŁÄ±rtkanÄ±nÄ±n":9917,"Ã§Ä±ÄŁÄ±rtkanÄ±na":9918,"mamalarÄ±n":9919,"mamalarÄ±nda":9920,"mamalarÄ±nÄ±n":9921,"mamalarÄ±na":9922,"evcikleri":9923,"evciklerinden":9924,"evciklerini":9925,"evciklerine":9926,"evciklerinde":9927,"evciklerinin":9928,"aleti":9929,"aletin":9930,"aletlerin":9931,"aletleri":9932,"aletlerinden":9933,"aletlerine":9934,"aletinde":9935,"aletine":9936,"Ã§apanÄ±n":9937,"gÃ¼dÃ¼mlerin":9938,"gÃ¼dÃ¼mleri":9939,"gÃ¼dÃ¼mlerinde":9940,"gÃ¼dÃ¼mlerinin":9941,"kÄ±rÄ±ldÄ±n":9942,"kÄ±rÄ±lmadÄ±lar":9943,"kÄ±rÄ±lmadÄ±k":9944,"kÄ±rÄ±lmadÄ±m":9945,"kÄ±rÄ±lmadÄ±n":9946,"kÄ±rÄ±lmadÄ±nÄ±z":9947,"kÄ±rÄ±ldÄ±m":9948,"kÄ±rÄ±ldÄ±k":9949,"kÄ±rÄ±ldÄ±lar":9950,"birliklerin":9951,"birlikleri":9952,"birliklerini":9953,"birliklerine":9954,"birliklerinde":9955,"birliklerinin":9956,"kutunun":9957,"altlarÄ±nda":9958,"altlarÄ±nÄ±n":9959,"altlarÄ±ndan":9960,"kullanÄ±lmÄ±yorlar":9961,"kullanÄ±lmadÄ±lar":9962,"kullanÄ±lmadÄ±m":9963,"kullanÄ±lmadÄ±n":9964,"kullanÄ±lmadÄ±nÄ±z":9965,"kullanÄ±ldÄ±k":9966,"kaynaÅŁtÄ±rÄ±ldÄ±n":9967,"kaynaÅŁtÄ±rÄ±ldÄ±nÄ±z":9968,"kaynaÅŁtÄ±rÄ±lmayacaklar":9969,"kaynaÅŁtÄ±rÄ±lmadÄ±k":9970,"kaynaÅŁtÄ±rÄ±lmadÄ±m":9971,"kaynaÅŁtÄ±rÄ±lmadÄ±n":9972,"kaynaÅŁtÄ±rÄ±lmadÄ±nÄ±z":9973,"katÄ±ldÄ±nÄ±z":9974,"katÄ±lmadÄ±k":9975,"katÄ±lmadÄ±nÄ±z":9976,"katÄ±ldÄ±m":9977,"kÄ±ÅŁkÄ±rttÄ±n":9978,"kÄ±ÅŁkÄ±rttÄ±nÄ±z":9979,"kÄ±ÅŁkÄ±rtmadÄ±k":9980,"kÄ±ÅŁkÄ±rtmadÄ±n":9981,"kÄ±ÅŁkÄ±rtmadÄ±nÄ±z":9982,"yapÄ±lmadÄ±lar":9983,"yapÄ±lmadÄ±k":9984,"yapÄ±lmadÄ±n":9985,"yapÄ±ldÄ±k":9986,"ĠolmazÄ±":9987,"ĠolmazlarÄ±":9988,"ĠolmazlarmÄ±ÅŁ":9989,"ĠolmazdÄ±n":9990,"ĠolmazlarÄ±ndan":9991,"ĠolmazlarÄ±nÄ±":9992,"ĠolmazdÄ±nÄ±z":9993,"ĠolmazÄ±nÄ±n":9994,"ĠolmazÄ±nÄ±":9995,"ĠolmazÄ±ndan":9996,"ĠolmazÄ±na":9997,"ĠolmazÄ±nda":9998,"ĠsayÄ±ya":9999,"ĠsayÄ±da":10000,"ĠsayÄ±dan":10001,"ĠsayÄ±yÄ±":10002,"ĠsayÄ±larÄ±ndan":10003,"ĠsayÄ±larÄ±nÄ±":10004,"ĠsayÄ±lardan":10005,"ĠsayÄ±lara":10006,"ĠsayÄ±larÄ±mÄ±za":10007,"ĠsayÄ±larÄ±mÄ±zÄ±":10008,"ĠsayÄ±larÄ±mÄ±zda":10009,"ĠsayÄ±larÄ±mÄ±zÄ±n":10010,"ĠsayÄ±larÄ±nÄ±za":10011,"ĠsayÄ±larÄ±nÄ±zÄ±n":10012,"ĠsayÄ±larÄ±mÄ±zdan":10013,"ĠsayÄ±larÄ±nÄ±zda":10014,"ĠsayÄ±larÄ±nÄ±zdan":10015,"ĠsayÄ±sÄ±na":10016,"ĠsayÄ±sÄ±nÄ±n":10017,"Ã¶nemlerin":10018,"Ã¶nemleri":10019,"Ã¶nemlerinden":10020,"Ã¶nemlerini":10021,"Ã¶nemlerinin":10022,"atÄ±ldÄ±n":10023,"atÄ±ldÄ±nÄ±z":10024,"atÄ±lmÄ±yorlar":10025,"atÄ±lmadÄ±k":10026,"atÄ±lmadÄ±m":10027,"atÄ±lmadÄ±n":10028,"atÄ±lmadÄ±nÄ±z":10029,"atÄ±ldÄ±m":10030,"anlattÄ±n":10031,"anlattÄ±k":10032,"anlattÄ±nÄ±z":10033,"anlattÄ±m":10034,"anlatmÄ±yorlar":10035,"anlatmadÄ±k":10036,"anlatmadÄ±m":10037,"anlatmadÄ±n":10038,"anlatmadÄ±nÄ±z":10039,"ÅŁaÅŁÄ±rttÄ±k":10040,"ÅŁaÅŁÄ±rttÄ±nÄ±z":10041,"ÅŁaÅŁÄ±rttÄ±m":10042,"ÅŁaÅŁÄ±rtmadÄ±k":10043,"ÅŁaÅŁÄ±rtmadÄ±nÄ±z":10044,"ÅŁaÅŁÄ±rttÄ±lar":10045,"ĠfÃ¼zede":10046,"ĠfÃ¼zeler":10047,"ĠfÃ¼zeleriniz":10048,"ĠfÃ¼zesi":10049,"ĠfÃ¼zeleri":10050,"ĠfÃ¼zelere":10051,"ĠfÃ¼zelerde":10052,"ĠfÃ¼zelerinizden":10053,"ĠfÃ¼zelerinizin":10054,"ĠfÃ¼zelerimizin":10055,"ĠfÃ¼zelerinizde":10056,"ĠfÃ¼zelerinize":10057,"ĠfÃ¼zelerimizi":10058,"ĠfÃ¼zesine":10059,"ĠfÃ¼zemize":10060,"ĠfÃ¼zemizin":10061,"ĠfÃ¼zemizde":10062,"kaslarÄ±":10063,"kaslarÄ±nda":10064,"kaslarÄ±nÄ±n":10065,"kaslarÄ±ndan":10066,"kaslarÄ±na":10067,"atÄ±ÅŁtÄ±nÄ±z":10068,"atÄ±ÅŁtÄ±n":10069,"atÄ±ÅŁtÄ±m":10070,"atÄ±ÅŁtÄ±k":10071,"sattÄ±rttÄ±n":10072,"sattÄ±rttÄ±k":10073,"sattÄ±rttÄ±nÄ±z":10074,"sattÄ±rttÄ±m":10075,"sattÄ±rtmadÄ±lar":10076,"sattÄ±rtmadÄ±k":10077,"sattÄ±rtmadÄ±n":10078,"sattÄ±rtmadÄ±nÄ±z":10079,"kÄ±rÄ±klarÄ±n":10080,"kÄ±rÄ±klarÄ±":10081,"kÄ±rÄ±klarÄ±nÄ±n":10082,"kÄ±rÄ±klarÄ±ndan":10083,"kÄ±rÄ±klarÄ±nÄ±":10084,"kÄ±rÄ±klarÄ±na":10085,"inciri":10086,"incirin":10087,"incirlerin":10088,"incirleri":10089,"incirlerinden":10090,"incirlerinde":10091,"incirlerinin":10092,"incirinin":10093,"incirini":10094,"incirinde":10095,"sÃ¼rÃ¼meyecekler":10096,"sÃ¼rÃ¼mezler":10097,"sÃ¼rÃ¼medim":10098,"sÃ¼rÃ¼medik":10099,"sÃ¼rÃ¼medin":10100,"sÃ¼rÃ¼mediniz":10101,"sÃ¼rÃ¼dÃ¼nÃ¼z":10102,"sÃ¼rÃ¼dÃ¼m":10103,"karÄ±ÅŁtÄ±rttÄ±k":10104,"karÄ±ÅŁtÄ±rttÄ±nÄ±z":10105,"karÄ±ÅŁtÄ±rttÄ±m":10106,"karÄ±ÅŁtÄ±rtmazlar":10107,"derleyicilerin":10108,"derleyicilerinden":10109,"derleyicilerini":10110,"kutularÄ±n":10111,"kutularÄ±":10112,"kutularÄ±nÄ±n":10113,"kutularÄ±ndan":10114,"kutularÄ±nÄ±":10115,"yaptÄ±rttÄ±nÄ±z":10116,"yaptÄ±rttÄ±m":10117,"yaptÄ±rtmamÄ±ÅŁlar":10118,"yaptÄ±rtmayacaklar":10119,"yaptÄ±rtmÄ±yorlar":10120,"yaptÄ±rtmadÄ±lar":10121,"yaptÄ±rtmadÄ±m":10122,"yaptÄ±rtmadÄ±n":10123,"yaptÄ±rtmadÄ±nÄ±z":10124,"yaptÄ±rttÄ±lar":10125,"ĠyazÄ±lÄ±mlar":10126,"ĠyazÄ±lÄ±mda":10127,"ĠyazÄ±lÄ±mdan":10128,"ĠyazÄ±lÄ±mlarÄ±":10129,"ĠyazÄ±lÄ±mlarÄ±mÄ±z":10130,"ĠyazÄ±lÄ±mlarÄ±nÄ±z":10131,"ĠyazÄ±lÄ±mlarÄ±ndan":10132,"ĠyazÄ±lÄ±mlardan":10133,"ĠyazÄ±lÄ±mlarÄ±mÄ±zÄ±":10134,"ĠyazÄ±lÄ±mlarÄ±nÄ±zÄ±":10135,"ĠyazÄ±lÄ±mlarÄ±nÄ±za":10136,"ĠyazÄ±lÄ±mlarÄ±nÄ±zÄ±n":10137,"ĠyazÄ±lÄ±mlarÄ±mÄ±zdan":10138,"ĠyazÄ±lÄ±mlarÄ±nÄ±zdan":10139,"bÃ¼rÃ¼medim":10140,"bÃ¼rÃ¼medik":10141,"bÃ¼rÃ¼medin":10142,"bÃ¼rÃ¼mediniz":10143,"bÃ¼rÃ¼dÃ¼n":10144,"bÃ¼rÃ¼dÃ¼m":10145,"acÄ±n":10146,"acÄ±nÄ±n":10147,"Ġgezegene":10148,"Ġgezegenlerin":10149,"Ġgezegenlerinden":10150,"Ġgezegenlerini":10151,"Ġgezegenlerine":10152,"Ġgezegenlerinde":10153,"Ġgezegenlerinin":10154,"Ġgezegeninin":10155,"Ġgezegenini":10156,"Ġgezegeninde":10157,"Ġgezegeninden":10158,"benzerin":10159,"benzerlerin":10160,"benzerlerinden":10161,"benzerlerini":10162,"benzerlerine":10163,"benzerinin":10164,"benzerini":10165,"benzerinde":10166,"benzerine":10167,"ĠyaparÄ±z":10168,"ĠyaparsÄ±nÄ±z":10169,"ĠyaparlardÄ±":10170,"ĠyapardÄ±n":10171,"ĠyapardÄ±nÄ±z":10172,"ĠyaparmÄ±ÅŁsÄ±nÄ±z":10173,"ĠyaparmÄ±ÅŁsÄ±n":10174,"ĠyaparmÄ±ÅŁÄ±m":10175,"ĠyapardÄ±k":10176,"ĠÃ§ekiyormuÅŁ":10177,"ĠÃ§ekiyoruz":10178,"ĠÃ§ekiyordu":10179,"ĠÃ§ekiyorum":10180,"ĠÃ§ekiyordun":10181,"ĠÃ§ekiyorlarmÄ±ÅŁ":10182,"ĠÃ§ekiyormuÅŁsun":10183,"ĠÃ§ekiyormuÅŁuz":10184,"ĠÃ§ekiyormuÅŁum":10185,"ĠolurmuÅŁ":10186,"Ġoluruz":10187,"Ġolurum":10188,"ĠolurmuÅŁsun":10189,"Ġolurdum":10190,"oÄŁullarÄ±":10191,"oÄŁullarÄ±nda":10192,"oÄŁullarÄ±nÄ±n":10193,"oÄŁullarÄ±ndan":10194,"oÄŁullarÄ±na":10195,"gelecekler":10196,"ĠanahtarlarÄ±n":10197,"ĠanahtarÄ±ndan":10198,"umutsuzlar":10199,"ikizi":10200,"ikizin":10201,"ikizlerin":10202,"ikizleri":10203,"ikizlerinden":10204,"ikizlerine":10205,"ikizlerinin":10206,"ikizini":10207,"ikizinde":10208,"ikizine":10209,"ikizinden":10210,"tÃ¼ts":10211,"tÃ¼tÃ¼nÃ¼n":10212,"ĠÃ§ekeceksiniz":10213,"ĠÃ§ekecekti":10214,"ĠÃ§ekecekmiÅŁsiniz":10215,"ĠÃ§ekecekmiÅŁim":10216,"ĠÃ§ekecektin":10217,"ĠÃ§ekeceklermiÅŁ":10218,"ĠÃ§ekecektik":10219,"ĠÃ§ekecektim":10220,"bahtsÄ±zlar":10221,"abajurlarÄ±n":10222,"abajurlarÄ±nÄ±n":10223,"abajurlarÄ±ndan":10224,"abajurlarÄ±nÄ±":10225,"abajurlarÄ±na":10226,"abajurunda":10227,"abajuruna":10228,"abajurunu":10229,"abajurculuÄŁ":10230,"sunularÄ±na":10231,"yalanÄ±":10232,"yalanlarÄ±":10233,"yalanlarÄ±nda":10234,"yalanlarÄ±nÄ±n":10235,"yalanlarÄ±ndan":10236,"yalanlarÄ±na":10237,"yalanÄ±nÄ±n":10238,"yalanÄ±nÄ±":10239,"yalanÄ±na":10240,"yalanÄ±nda":10241,"koordinatÄ±":10242,"Ġsonun":10243,"ĠsonlarÄ±n":10244,"ĠsonlarÄ±nÄ±n":10245,"ĠsonlarÄ±nÄ±":10246,"ĠsonlarÄ±na":10247,"Ġsonunun":10248,"Ġsonunda":10249,"Ġsonunu":10250,"ĠsÃ¼rÃ¼mlerin":10251,"ĠsÃ¼rÃ¼mlerinden":10252,"ĠsÃ¼rÃ¼mlerinde":10253,"ĠsÃ¼rÃ¼mlerinin":10254,"ĠsÃ¼rÃ¼mÃ¼ne":10255,"ĠsÃ¼rÃ¼mÃ¼nde":10256,"masalÄ±":10257,"masallarÄ±n":10258,"masallarÄ±nda":10259,"masallarÄ±nÄ±n":10260,"masallarÄ±na":10261,"masalÄ±nÄ±n":10262,"masalÄ±nÄ±":10263,"masalÄ±na":10264,"masalÄ±nda":10265,"altÄ±nÄ±":10266,"altÄ±nlarÄ±n":10267,"altÄ±ndan":10268,"altÄ±nlarÄ±":10269,"altÄ±nlarÄ±nda":10270,"altÄ±nlarÄ±nÄ±":10271,"altÄ±nlarÄ±na":10272,"altÄ±nÄ±nÄ±n":10273,"altÄ±nÄ±nÄ±":10274,"altÄ±nÄ±ndan":10275,"altÄ±nÄ±nda":10276,"koordinatlarÄ±":10277,"koordinatlarÄ±nda":10278,"koordinatlarÄ±nÄ±n":10279,"koordinatlarÄ±na":10280,"koordinatÄ±nÄ±n":10281,"koordinatÄ±nÄ±":10282,"koordinatÄ±na":10283,"koordinatÄ±nda":10284,"ĠÃ§ekmiÅŁlerdi":10285,"ĠÃ§ekmiÅŁti":10286,"ĠÃ§ekmiÅŁmiÅŁim":10287,"ĠÃ§ekmiÅŁtik":10288,"ĠÃ§ekmiÅŁtiniz":10289,"ĠÃ§ekmiÅŁtim":10290,"soslarÄ±n":10291,"soslarÄ±":10292,"soslarÄ±nÄ±n":10293,"soslarÄ±nÄ±":10294,"soslarÄ±na":10295,"dÃ¼ÅŁÃ¼nceliler":10296,"coÅŁkusuzlar":10297,"yorgunlar":10298,"yorgunmuÅŁ":10299,"freni":10300,"frenin":10301,"frenlerin":10302,"frenleri":10303,"frenlerinden":10304,"frenlerini":10305,"frenlerine":10306,"frenlerinde":10307,"freninin":10308,"freninde":10309,"frenine":10310,"freninden":10311,"sÃ¼lÃ¼sÃ¼nÃ¼":10312,"yangÄ±nÄ±":10313,"deyimi":10314,"deyimine":10315,"Ã¼renin":10316,"yÄ±ldÄ±zÄ±":10317,"yÄ±ldÄ±zÄ±n":10318,"yÄ±ldÄ±zlarÄ±n":10319,"yÄ±ldÄ±zlarÄ±nda":10320,"yÄ±ldÄ±zlarÄ±ndan":10321,"yÄ±ldÄ±zÄ±nÄ±":10322,"yÄ±ldÄ±zÄ±na":10323,"cenazenin":10324,"kastanyeti":10325,"kastanyetin":10326,"kastanyetlerin":10327,"kastanyetlerinden":10328,"kastanyetlerini":10329,"kastanyetlerine":10330,"kastanyetlerinde":10331,"kastanyetlerinin":10332,"kastanyetinin":10333,"kastanyetini":10334,"kastanyetine":10335,"kastanyetinden":10336,"hÄ±zlÄ±y":10337,"hÄ±zlÄ±lar":10338,"sunucularÄ±ndan":10339,"sunucularÄ±nÄ±":10340,"geÃ§miÅŁin":10341,"geÃ§miÅŁlerin":10342,"geÃ§miÅŁleri":10343,"geÃ§miÅŁlerinden":10344,"geÃ§miÅŁlerini":10345,"geÃ§miÅŁlerine":10346,"geÃ§miÅŁlerinde":10347,"geÃ§miÅŁlerinin":10348,"geÃ§miÅŁinin":10349,"geÃ§miÅŁini":10350,"geÃ§miÅŁine":10351,"coÅŁkulular":10352,"moteli":10353,"motelin":10354,"motelleri":10355,"motellerinden":10356,"motellerini":10357,"motellerine":10358,"motellerinde":10359,"motellerinin":10360,"motelinin":10361,"motelini":10362,"motelinde":10363,"moteline":10364,"huninin":10365,"hunileri":10366,"masalarÄ±n":10367,"masalarÄ±":10368,"masalarÄ±nda":10369,"masalarÄ±nÄ±n":10370,"masalarÄ±ndan":10371,"masalarÄ±na":10372,"Ã¼relerinden":10373,"Ã¼relerini":10374,"Ã¼relerine":10375,"Ã¼relerinde":10376,"Ã¼relerinin":10377,"gideri":10378,"giderlerinden":10379,"giderlerini":10380,"giderlerine":10381,"giderlerinde":10382,"giderinin":10383,"giderini":10384,"giderinde":10385,"giderine":10386,"giderinden":10387,"seksiler":10388,"anasonun":10389,"anasonlarÄ±n":10390,"anasonlarÄ±":10391,"anasonlarÄ±nda":10392,"anasonlarÄ±nÄ±n":10393,"anasonlarÄ±ndan":10394,"anasonlarÄ±nÄ±":10395,"anasonlarÄ±na":10396,"anasonunun":10397,"anasonunda":10398,"anasonuna":10399,"anasonundan":10400,"huzuru":10401,"huzurun":10402,"huzurlarÄ±n":10403,"huzurlarÄ±":10404,"huzurlarÄ±nda":10405,"huzurlarÄ±nÄ±n":10406,"huzurlarÄ±nÄ±":10407,"huzurlarÄ±na":10408,"huzurunun":10409,"huzurunda":10410,"huzuruna":10411,"huzurundan":10412,"malamozu":10413,"malamozun":10414,"malamozlarÄ±n":10415,"malamozlarÄ±":10416,"malamozlarÄ±nÄ±n":10417,"malamozlarÄ±nÄ±":10418,"malamozunun":10419,"malamozunda":10420,"malamozuna":10421,"malamozunu":10422,"Ġdili":10423,"Ġdilleri":10424,"Ġdillerinden":10425,"Ġdillerini":10426,"Ġdillerine":10427,"Ġdillerinde":10428,"Ġdillerinin":10429,"Ġdilini":10430,"Ġdilinde":10431,"Ġdiline":10432,"cevizi":10433,"cevizlerin":10434,"cevizleri":10435,"cevizlerini":10436,"cevizlerine":10437,"cevizlerinin":10438,"cevizine":10439,"cevizinden":10440,"portakalÄ±n":10441,"portakallarÄ±n":10442,"portakallarÄ±nÄ±n":10443,"portakalÄ±nÄ±n":10444,"portakalÄ±nÄ±":10445,"portakalÄ±ndan":10446,"portakalÄ±na":10447,"portakalÄ±nda":10448,"basÄ±":10449,"hurinin":10450,"hurileri":10451,"ĠbaÄŁÄ±":10452,"ĠbaÄŁlarÄ±n":10453,"ĠbaÄŁlarÄ±":10454,"ĠbaÄŁlarÄ±nda":10455,"ĠbaÄŁlarÄ±nÄ±n":10456,"ĠbaÄŁlarÄ±ndan":10457,"ĠbaÄŁlarÄ±nÄ±":10458,"ĠbaÄŁÄ±nÄ±":10459,"ĠbaÄŁÄ±ndan":10460,"ĠbaÄŁÄ±na":10461,"ĠbaÄŁÄ±nda":10462,"Ġdizileri":10463,"Ã§Ä±tÄ±":10464,"Ã§Ä±tÄ±n":10465,"Ã§Ä±tlarÄ±n":10466,"Ã§Ä±tlarÄ±":10467,"Ã§Ä±tlarÄ±nda":10468,"Ã§Ä±tlarÄ±ndan":10469,"Ã§Ä±tlarÄ±nÄ±":10470,"Ã§Ä±tlarÄ±na":10471,"Ã§Ä±tÄ±nÄ±n":10472,"Ã§Ä±tÄ±ndan":10473,"Ã§Ä±tÄ±na":10474,"hamsteri":10475,"patronu":10476,"patronun":10477,"patronlarÄ±n":10478,"patronlarÄ±":10479,"patronlarÄ±nda":10480,"patronlarÄ±nÄ±n":10481,"patronlarÄ±nÄ±":10482,"patronlarÄ±na":10483,"patronunun":10484,"patronuna":10485,"tutulmanÄ±n":10486,"sansarÄ±":10487,"sansarÄ±n":10488,"sansarlarÄ±n":10489,"sansarlarÄ±nda":10490,"sansarlarÄ±nÄ±n":10491,"sansarlarÄ±ndan":10492,"sansarlarÄ±nÄ±":10493,"sansarlarÄ±na":10494,"sansarÄ±nÄ±n":10495,"sansarÄ±nÄ±":10496,"sansarÄ±ndan":10497,"sansarÄ±na":10498,"sansarÄ±nda":10499,"filozofun":10500,"filozoflarÄ±n":10501,"filozoflarÄ±":10502,"filozoflarÄ±nda":10503,"filozoflarÄ±nÄ±n":10504,"filozoflarÄ±nÄ±":10505,"filozofunun":10506,"filozofuna":10507,"filozofunu":10508,"filozofundan":10509,"doktrini":10510,"lezyonun":10511,"lezyonlarÄ±":10512,"lezyonlarÄ±nda":10513,"lezyonlarÄ±nÄ±n":10514,"lezyonlarÄ±ndan":10515,"lezyonlarÄ±nÄ±":10516,"lezyonunda":10517,"lezyonuna":10518,"lezyonunu":10519,"lezyonundan":10520,"saÄŁrÄ±nÄ±n":10521,"parÃ§alanmanÄ±n":10522,"treni":10523,"trenleri":10524,"trenlerinden":10525,"trenlerini":10526,"trenlerinin":10527,"treninin":10528,"trenini":10529,"trenine":10530,"zÄ±rtgeli":10531,"zÄ±rtgelin":10532,"zÄ±rtgellerin":10533,"zÄ±rtgelleri":10534,"zÄ±rtgellerinden":10535,"zÄ±rtgellerini":10536,"zÄ±rtgellerine":10537,"zÄ±rtgellerinde":10538,"zÄ±rtgellerinin":10539,"zÄ±rtgelinin":10540,"zÄ±rtgelini":10541,"zÄ±rtgelinde":10542,"zÄ±rtgelinden":10543,"Ã¼rÃ¼nÃ¼":10544,"Ã¼rÃ¼nlerin":10545,"Ã¼rÃ¼nleri":10546,"Ã¼rÃ¼nlerinden":10547,"Ã¼rÃ¼nlerine":10548,"Ã¼rÃ¼nlerinde":10549,"Ã¼rÃ¼nlerinin":10550,"Ã¼rÃ¼nÃ¼nÃ¼":10551,"Ã¼rÃ¼nÃ¼nde":10552,"ateÅŁi":10553,"ateÅŁlerin":10554,"ateÅŁleri":10555,"ateÅŁlerinden":10556,"ateÅŁlerini":10557,"ateÅŁlerine":10558,"ateÅŁlerinde":10559,"ateÅŁlerinin":10560,"ateÅŁinin":10561,"ateÅŁini":10562,"ateÅŁinde":10563,"ateÅŁine":10564,"kolalarÄ±":10565,"kolalarÄ±nda":10566,"kolalarÄ±nÄ±n":10567,"kolalarÄ±nÄ±":10568,"kolalarÄ±na":10569,"tandÄ±rÄ±":10570,"tandÄ±rlarÄ±n":10571,"tandÄ±rlarÄ±":10572,"tandÄ±rlarÄ±nda":10573,"tandÄ±rlarÄ±nÄ±n":10574,"tandÄ±rlarÄ±ndan":10575,"tandÄ±rlarÄ±nÄ±":10576,"tandÄ±rÄ±nÄ±n":10577,"tandÄ±rÄ±nÄ±":10578,"tandÄ±rÄ±ndan":10579,"cemaati":10580,"cemaatleri":10581,"cemaatlerinden":10582,"cemaatlerini":10583,"cemaatlerine":10584,"cemaatlerinde":10585,"cemaatlerinin":10586,"cemaatini":10587,"cemaatinde":10588,"cemaatine":10589,"cemaatinden":10590,"mÃ¼stahdemi":10591,"motorini":10592,"bandajÄ±":10593,"bandajÄ±n":10594,"bandajlarÄ±":10595,"bandajlarÄ±nda":10596,"bandajlarÄ±nÄ±n":10597,"bandajlarÄ±ndan":10598,"bandajlarÄ±nÄ±":10599,"bandajlarÄ±na":10600,"bandajÄ±nÄ±":10601,"bandajÄ±na":10602,"bandajÄ±nda":10603,"Musevinin":10604,"Musevileri":10605,"vampiri":10606,"vampirin":10607,"vampirlerin":10608,"vampirleri":10609,"vampirlerinden":10610,"vampirlerine":10611,"vampirlerinde":10612,"vampirlerinin":10613,"vampirinde":10614,"ĠsÄ±nÄ±fÄ±":10615,"ĠsÄ±nÄ±flarÄ±n":10616,"ĠsÄ±nÄ±flarÄ±":10617,"ĠsÄ±nÄ±flarÄ±nÄ±n":10618,"ĠsÄ±nÄ±flarÄ±ndan":10619,"ĠsÄ±nÄ±flarÄ±nÄ±":10620,"ĠsÄ±nÄ±flarÄ±na":10621,"ĠsÄ±nÄ±fÄ±nÄ±":10622,"ĠsÄ±nÄ±fÄ±ndan":10623,"ĠsÄ±nÄ±fÄ±na":10624,"izolasyonu":10625,"izolasyonun":10626,"izolasyonlarÄ±n":10627,"izolasyonlarÄ±":10628,"izolasyonlarÄ±nÄ±n":10629,"izolasyonlarÄ±ndan":10630,"izolasyonlarÄ±nÄ±":10631,"izolasyonunun":10632,"izolasyonunda":10633,"izolasyonuna":10634,"izolasyonunu":10635,"ĠhaÃ§Ä±":10636,"alyanÄ±":10637,"alyanlarÄ±n":10638,"alyanlarÄ±":10639,"alyanlarÄ±nÄ±n":10640,"alyanlarÄ±ndan":10641,"alyanlarÄ±nÄ±":10642,"alyanÄ±nÄ±n":10643,"alyanÄ±nÄ±":10644,"alyanÄ±ndan":10645,"alyanÄ±na":10646,"alyanÄ±nda":10647,"kemanÄ±":10648,"kemanlarÄ±n":10649,"kemanlarÄ±":10650,"kemanlarÄ±ndan":10651,"kemanlarÄ±nÄ±":10652,"kemanlarÄ±na":10653,"kemanÄ±nÄ±n":10654,"kemanÄ±nÄ±":10655,"kemanÄ±ndan":10656,"kemanÄ±na":10657,"kemanÄ±nda":10658,"eÅŁofmanÄ±":10659,"eÅŁofmanÄ±n":10660,"eÅŁofmanlarÄ±n":10661,"eÅŁofmanlarÄ±ndan":10662,"eÅŁofmanlarÄ±na":10663,"eÅŁofmanÄ±nÄ±":10664,"eÅŁofmanÄ±ndan":10665,"eÅŁofmanÄ±na":10666,"kÃ¼rkleri":10667,"kÃ¼rklerinden":10668,"kÃ¼rklerini":10669,"kÃ¼rkÃ¼nÃ¼n":10670,"kÃ¼rkenin":10671,"kÃ¼rkÃ¼ne":10672,"ÅŁafaÄŁÄ±":10673,"mÄ±sÄ±rÄ±":10674,"mÄ±sÄ±rÄ±n":10675,"mÄ±sÄ±rlarÄ±n":10676,"mÄ±sÄ±rlarÄ±nda":10677,"mÄ±sÄ±rlarÄ±nÄ±n":10678,"mÄ±sÄ±rlarÄ±nÄ±":10679,"mÄ±sÄ±rlarÄ±na":10680,"mÄ±sÄ±rÄ±nÄ±n":10681,"mÄ±sÄ±rÄ±ndan":10682,"mÄ±sÄ±rÄ±na":10683,"kasidenin":10684,"elmalarÄ±n":10685,"elmalarÄ±":10686,"elmalarÄ±nda":10687,"elmalarÄ±nÄ±":10688,"ongunu":10689,"ongunlarÄ±n":10690,"ongunlarÄ±":10691,"ongunlarÄ±nda":10692,"ongunlarÄ±nÄ±n":10693,"ongunlarÄ±ndan":10694,"ongunlarÄ±na":10695,"ongununda":10696,"ongununa":10697,"ongununu":10698,"ongunundan":10699,"hamÄ±zlarÄ±n":10700,"hamÄ±zlarÄ±":10701,"hamÄ±zlarÄ±nda":10702,"hamÄ±zlarÄ±ndan":10703,"hamÄ±zÄ±nÄ±n":10704,"hamÄ±zÄ±nÄ±":10705,"hamÄ±zÄ±ndan":10706,"hamÄ±zÄ±na":10707,"hamÄ±zÄ±nda":10708,"Ġsorunun":10709,"kÄ±yameti":10710,"gÃ¼rzÃ¼n":10711,"gÃ¼rzleri":10712,"gÃ¼rzlerinden":10713,"gÃ¼rzlerini":10714,"gÃ¼rzlerine":10715,"gÃ¼rzlerinde":10716,"gÃ¼rzÃ¼nÃ¼n":10717,"gÃ¼rzÃ¼ne":10718,"gÃ¼rzÃ¼nÃ¼":10719,"gÃ¼rzÃ¼nde":10720,"gÃ¼rzÃ¼nden":10721,"omletin":10722,"omletlerin":10723,"omletleri":10724,"omletlerini":10725,"omletlerine":10726,"omletlerinde":10727,"omletlerinin":10728,"omletini":10729,"omletinde":10730,"omletine":10731,"omletinden":10732,"ÅŁuuru":10733,"ÅŁuurun":10734,"ÅŁuurlarÄ±nda":10735,"ÅŁuurlarÄ±ndan":10736,"ÅŁuurlarÄ±nÄ±":10737,"ÅŁuurunda":10738,"ÅŁuuruna":10739,"ÅŁuurundan":10740,"girdabÄ±":10741,"vapurun":10742,"vapurlarÄ±n":10743,"vapurlarÄ±nda":10744,"vapurlarÄ±nÄ±n":10745,"vapurlarÄ±ndan":10746,"vapurlarÄ±nÄ±":10747,"vapurlarÄ±na":10748,"vapurunun":10749,"vapurunda":10750,"vapuruna":10751,"vapurundan":10752,"vaziyeti":10753,"vaziyetin":10754,"vaziyetlerin":10755,"vaziyetlerini":10756,"vaziyetlerine":10757,"vaziyetlerinde":10758,"vaziyetlerinin":10759,"vaziyetini":10760,"vaziyetine":10761,"vaziyetinden":10762,"anafazÄ±":10763,"anafazlarÄ±n":10764,"anafazlarÄ±":10765,"anafazlarÄ±ndan":10766,"anafazlarÄ±nÄ±":10767,"anafazlarÄ±na":10768,"anafazÄ±nÄ±":10769,"anafazÄ±ndan":10770,"anafazÄ±na":10771,"anafazÄ±nda":10772,"Ġkedilerinden":10773,"Ġkedilerini":10774,"Ġkedilerine":10775,"Ġkedilerinin":10776,"seÃ§meni":10777,"seÃ§menleri":10778,"seÃ§menlerinde":10779,"seÃ§menlerinin":10780,"seÃ§meninin":10781,"seÃ§menini":10782,"seÃ§meninden":10783,"kefiri":10784,"kefirleri":10785,"kefirlerinden":10786,"kefirlerine":10787,"kefirlerinde":10788,"kefirlerinin":10789,"kefirinin":10790,"kefirini":10791,"kefirinde":10792,"kefirine":10793,"kefirinden":10794,"aÄŁaÃ§kakanÄ±":10795,"aÄŁaÃ§kakanÄ±n":10796,"aÄŁaÃ§kakanlarÄ±n":10797,"aÄŁaÃ§kakanlarÄ±":10798,"aÄŁaÃ§kakanlarÄ±nda":10799,"aÄŁaÃ§kakanlarÄ±nÄ±n":10800,"aÄŁaÃ§kakanlarÄ±ndan":10801,"aÄŁaÃ§kakanlarÄ±nÄ±":10802,"aÄŁaÃ§kakanlarÄ±na":10803,"aÄŁaÃ§kakanÄ±nÄ±n":10804,"aÄŁaÃ§kakanÄ±ndan":10805,"aÄŁaÃ§kakanÄ±na":10806,"aÄŁaÃ§kakanÄ±nda":10807,"Ġintegralleri":10808,"Ġintegrallerinden":10809,"Ġintegrallerini":10810,"Ġintegrallerinde":10811,"Ġintegralinin":10812,"Ġintegralini":10813,"Ġintegralinde":10814,"Ġintegralinden":10815,"burnu":10816,"fakirin":10817,"fakirlerin":10818,"fakirleri":10819,"fakirlerinden":10820,"fakirlerini":10821,"fakirlerine":10822,"fakirlerinde":10823,"fakirlerinin":10824,"fakirini":10825,"fakirinde":10826,"fakirine":10827,"paÅŁanÄ±n":10828,"prensin":10829,"prensinden":10830,"prensi":10831,"prensine":10832,"prensinin":10833,"prensinde":10834,"Ã§avuÅŁu":10835,"anketi":10836,"anketlerin":10837,"anketleri":10838,"anketlerine":10839,"anketlerinde":10840,"anketlerinin":10841,"anketinin":10842,"anketini":10843,"anketinde":10844,"anketine":10845,"anketinden":10846,"kalÄ±bÄ±":10847,"dilberi":10848,"dilberin":10849,"dilberlerin":10850,"dilberleri":10851,"dilberlerini":10852,"dilberlerinin":10853,"dilberinin":10854,"dilberini":10855,"dilberinde":10856,"dilberine":10857,"dilberinden":10858,"kaplanlarÄ±nÄ±n":10859,"kaplanlarÄ±na":10860,"kaplanÄ±nÄ±n":10861,"kaplanÄ±ndan":10862,"nefretin":10863,"nefretlerin":10864,"nefretleri":10865,"nefretlerini":10866,"nefretlerine":10867,"nefretlerinde":10868,"nefretlerinin":10869,"nefretinin":10870,"nefretini":10871,"nefretinde":10872,"nefretinden":10873,"kantini":10874,"kantinin":10875,"kantinleri":10876,"kantinlerinden":10877,"kantinlerini":10878,"kantinlerine":10879,"kantinlerinde":10880,"kantinlerinin":10881,"kantinini":10882,"kantininde":10883,"Ġsaati":10884,"Ġsaatlerin":10885,"Ġsaatleri":10886,"Ġsaatlerine":10887,"Ġsaatlerinde":10888,"Ġsaatlerinin":10889,"Ġsaatinin":10890,"Ġsaatinde":10891,"Ġsaatine":10892,"Ġsaatinden":10893,"sakÄ±zÄ±":10894,"sakÄ±zÄ±n":10895,"sakÄ±zlarÄ±n":10896,"sakÄ±zlarÄ±nda":10897,"sakÄ±zlarÄ±nÄ±n":10898,"sakÄ±zlarÄ±ndan":10899,"sakÄ±zlarÄ±na":10900,"sakÄ±zÄ±nÄ±":10901,"sakÄ±zÄ±ndan":10902,"sakÄ±zÄ±nda":10903,"Ã§adÄ±rÄ±n":10904,"Ã§adÄ±rlarÄ±n":10905,"Ã§adÄ±rlarÄ±":10906,"Ã§adÄ±rlarÄ±nda":10907,"Ã§adÄ±rlarÄ±nÄ±n":10908,"Ã§adÄ±rlarÄ±nÄ±":10909,"Ã§adÄ±rlarÄ±na":10910,"Ã§adÄ±rÄ±nÄ±n":10911,"Ã§adÄ±rÄ±na":10912,"ruju":10913,"rujun":10914,"rujlarÄ±n":10915,"rujlarÄ±":10916,"rujlarÄ±nda":10917,"rujlarÄ±nÄ±n":10918,"rujlarÄ±ndan":10919,"rujunda":10920,"rujuna":10921,"baÅŁrahi":10922,"karakolu":10923,"karakolun":10924,"karakollarÄ±n":10925,"karakollarÄ±":10926,"karakollarÄ±nÄ±n":10927,"karakollarÄ±ndan":10928,"karakollarÄ±nÄ±":10929,"karakolunun":10930,"karakolunda":10931,"karakoluna":10932,"karakolundan":10933,"kÃ¶ygÃ¶Ã§Ã¼renlerin":10934,"kÃ¶ygÃ¶Ã§Ã¼renlerini":10935,"kÃ¶ygÃ¶Ã§Ã¼renlerinde":10936,"kÃ¶ygÃ¶Ã§Ã¼renlerinin":10937,"kÃ¶ygÃ¶Ã§Ã¼reninin":10938,"kÃ¶ygÃ¶Ã§Ã¼renini":10939,"kÃ¶ygÃ¶Ã§Ã¼reninde":10940,"kÃ¶ygÃ¶Ã§Ã¼renine":10941,"dinozorlarÄ±n":10942,"dinozorlarÄ±nda":10943,"dinozorlarÄ±nÄ±n":10944,"dinozorlarÄ±na":10945,"dinozorunda":10946,"dinozoruna":10947,"dinozorundan":10948,"sÃ¼spansuvarÄ±":10949,"sÃ¼spansuvarlarÄ±":10950,"sÃ¼spansuvarlarÄ±nda":10951,"sÃ¼spansuvarlarÄ±nÄ±n":10952,"sÃ¼spansuvarlarÄ±nÄ±":10953,"sÃ¼spansuvarlarÄ±na":10954,"sÃ¼spansuvarÄ±nÄ±n":10955,"sÃ¼spansuvarÄ±nÄ±":10956,"sÃ¼spansuvarÄ±na":10957,"sÃ¼spansuvarÄ±nda":10958,"alameti":10959,"keyi":10960,"dÃ¼ÅŁmanÄ±":10961,"dÃ¼ÅŁmanÄ±n":10962,"dÃ¼ÅŁmanlarÄ±n":10963,"dÃ¼ÅŁmanlarÄ±":10964,"dÃ¼ÅŁmanlarÄ±nda":10965,"dÃ¼ÅŁmanlarÄ±nÄ±n":10966,"dÃ¼ÅŁmanlarÄ±nÄ±":10967,"dÃ¼ÅŁmanÄ±nÄ±n":10968,"dÃ¼ÅŁmanÄ±nÄ±":10969,"dÃ¼ÅŁmanÄ±ndan":10970,"dÃ¼ÅŁmanÄ±nda":10971,"kÃ¶mÃ¼n":10972,"kÃ¶mleri":10973,"kÃ¶mlerine":10974,"kÃ¶mlerinde":10975,"kÃ¶mlerinin":10976,"kÃ¶mÃ¼nÃ¼n":10977,"kÃ¶mÃ¼ne":10978,"kÃ¶mÃ¼nÃ¼":10979,"kÃ¶mÃ¼nde":10980,"pedleri":10981,"pedlerini":10982,"pedlerine":10983,"pedlerinde":10984,"pedlerinin":10985,"ĠhaÃ§Ä±n":10986,"ĠhaÃ§larÄ±nda":10987,"ĠhaÃ§larÄ±na":10988,"ĠhaÃ§Ä±nÄ±n":10989,"ĠhaÃ§Ä±nÄ±":10990,"ĠhaÃ§Ä±ndan":10991,"ĠhaÃ§Ä±na":10992,"ĠhaÃ§Ä±nda":10993,"beyti":10994,"idarenin":10995,"teklifi":10996,"karidesinden":10997,"karidesi":10998,"karidesinde":10999,"karidesini":11000,"ĠÃ§ekermiÅŁ":11001,"ĠÃ§ekerdi":11002,"ĠÃ§ekeriz":11003,"ĠÃ§ekersin":11004,"ĠÃ§ekersiniz":11005,"ĠÃ§ekerdin":11006,"ĠÃ§ekerdiniz":11007,"ĠÃ§ekerlerdi":11008,"ĠÃ§ekermiÅŁsiniz":11009,"ĠÃ§ekermiÅŁim":11010,"ĠÃ§ekermiÅŁiz":11011,"ĠÃ§ekerlermiÅŁ":11012,"ĠÃ§ekerdim":11013,"evreni":11014,"evrenlerin":11015,"evrenlerinden":11016,"evrenlerini":11017,"evrenlerine":11018,"evrenlerinde":11019,"evreninin":11020,"evrenini":11021,"evreninde":11022,"evrenine":11023,"baytarÄ±":11024,"baytarÄ±n":11025,"baytarlarÄ±n":11026,"baytarlarÄ±nÄ±n":11027,"baytarlarÄ±ndan":11028,"baytarÄ±nÄ±n":11029,"baytarÄ±ndan":11030,"baytarÄ±nda":11031,"cihazÄ±":11032,"cihazÄ±n":11033,"cihazlarÄ±n":11034,"cihazlarÄ±nda":11035,"cihazlarÄ±nÄ±n":11036,"cihazlarÄ±nÄ±":11037,"cihazÄ±nÄ±n":11038,"cihazÄ±na":11039,"maydanozu":11040,"maydanozlarÄ±n":11041,"maydanozlarÄ±":11042,"maydanozlarÄ±nda":11043,"maydanozlarÄ±nÄ±n":11044,"maydanozlarÄ±na":11045,"maydanozunun":11046,"maydanozunu":11047,"maydanozundan":11048,"Ġfikri":11049,"efsunlarÄ±n":11050,"efsunlarÄ±":11051,"efsunlarÄ±nda":11052,"efsunlarÄ±nÄ±n":11053,"efsunlarÄ±na":11054,"efsununun":11055,"efsununda":11056,"efsununu":11057,"efsunundan":11058,"kardeÅŁi":11059,"kardeÅŁlerin":11060,"kardeÅŁleri":11061,"kardeÅŁlerinden":11062,"kardeÅŁlerini":11063,"kardeÅŁlerine":11064,"kardeÅŁlerinin":11065,"kardeÅŁinin":11066,"kardeÅŁini":11067,"kardeÅŁinde":11068,"kardeÅŁine":11069,"sinematografÄ±":11070,"sinematograflarÄ±":11071,"sinematograflarÄ±nÄ±n":11072,"sinematograflarÄ±ndan":11073,"sinematografÄ±nÄ±n":11074,"sinematografÄ±ndan":11075,"sinematografÄ±na":11076,"sinematografÄ±nda":11077,"aynasÄ±zÄ±":11078,"aynasÄ±zlarÄ±n":11079,"aynasÄ±zlarÄ±nda":11080,"aynasÄ±zlarÄ±nÄ±n":11081,"aynasÄ±zlarÄ±nÄ±":11082,"aynasÄ±zlarÄ±na":11083,"aynasÄ±zÄ±nÄ±n":11084,"aynasÄ±zÄ±nÄ±":11085,"aynasÄ±zÄ±ndan":11086,"aynasÄ±zÄ±na":11087,"aynasÄ±zÄ±nda":11088,"Ã¼Ã§Ã¼zÃ¼":11089,"Ã¼Ã§Ã¼zlerin":11090,"Ã¼Ã§Ã¼zleri":11091,"Ã¼Ã§Ã¼zlerinden":11092,"Ã¼Ã§Ã¼zlerini":11093,"Ã¼Ã§Ã¼zlerine":11094,"Ã¼Ã§Ã¼zlerinde":11095,"Ã¼Ã§Ã¼zlerinin":11096,"Ã¼Ã§Ã¼zÃ¼nÃ¼":11097,"Ã¼Ã§Ã¼zÃ¼nde":11098,"Ã¼Ã§Ã¼zÃ¼nden":11099,"Ã¼mitliler":11100,"fotoÄŁrafÄ±":11101,"fotoÄŁrafÄ±n":11102,"fotoÄŁraflarÄ±nda":11103,"fotoÄŁraflarÄ±nÄ±n":11104,"fotoÄŁraflarÄ±ndan":11105,"fotoÄŁrafÄ±nÄ±n":11106,"fotoÄŁrafÄ±ndan":11107,"fotoÄŁrafÄ±na":11108,"fotoÄŁrafÄ±nda":11109,"jokeyin":11110,"jokeylerin":11111,"jokeyleri":11112,"jokeylerinden":11113,"jokeylerine":11114,"jokeylerinin":11115,"ÅŁifonyerin":11116,"ÅŁifonyerlerin":11117,"ÅŁifonyerlerinden":11118,"ÅŁifonyerlerine":11119,"ÅŁifonyerlerinin":11120,"ÅŁifonyerinin":11121,"ÅŁifonyerini":11122,"ÅŁifonyerinde":11123,"ÅŁifonyerine":11124,"kozmonotu":11125,"kozmonotlarÄ±n":11126,"kozmonotlarÄ±":11127,"kozmonotlarÄ±nda":11128,"kozmonotlarÄ±ndan":11129,"kozmonotlarÄ±nÄ±":11130,"kozmonotlarÄ±na":11131,"kozmonotunun":11132,"kozmonotunda":11133,"kozmonotuna":11134,"kozmonotunu":11135,"kisti":11136,"kistin":11137,"kistlerin":11138,"kistleri":11139,"kistlerinden":11140,"kistlerini":11141,"kistlerine":11142,"kistlerinde":11143,"kistinin":11144,"kistini":11145,"kistinde":11146,"kistine":11147,"masallarÄ±":11148,"katilin":11149,"katilleri":11150,"katillerinden":11151,"katillerini":11152,"katillerine":11153,"katillerinde":11154,"katillerinin":11155,"katilinin":11156,"katilini":11157,"katilinde":11158,"katiline":11159,"kirmenin":11160,"kirmenlerin":11161,"kirmenleri":11162,"kirmenlerine":11163,"kirmenlerinde":11164,"kirmenlerinin":11165,"kirmeninin":11166,"kirmenini":11167,"kirmeninden":11168,"yaÄŁmurlarÄ±n":11169,"yaÄŁmurlarÄ±nda":11170,"yaÄŁmurlarÄ±nÄ±n":11171,"yaÄŁmurlarÄ±ndan":11172,"yaÄŁmurlarÄ±nÄ±":11173,"yaÄŁmurlarÄ±na":11174,"yaÄŁmuruna":11175,"yaÄŁmurunu":11176,"samurun":11177,"samurlarÄ±":11178,"samurlarÄ±nda":11179,"samurlarÄ±nÄ±n":11180,"samurlarÄ±ndan":11181,"samurlarÄ±nÄ±":11182,"samurunun":11183,"rimelin":11184,"rimellerin":11185,"rimellerinden":11186,"rimellerini":11187,"rimellerine":11188,"rimeline":11189,"rimelinden":11190,"ĠÅŁoku":11191,"ĠÅŁoklarÄ±n":11192,"ĠÅŁoklarÄ±":11193,"ĠÅŁoklarÄ±nÄ±n":11194,"ĠÅŁoklarÄ±na":11195,"ĠÅŁokunun":11196,"ĠÅŁokuna":11197,"ĠÅŁokundan":11198,"Ġiskeleti":11199,"uygulamalarÄ±n":11200,"uygulamalarÄ±":11201,"uygulamalarÄ±nda":11202,"uygulamalarÄ±nÄ±n":11203,"uygulamalarÄ±ndan":11204,"uygulamalarÄ±na":11205,"gizemliler":11206,"Ã§avuÅŁlarÄ±n":11207,"Ã§avuÅŁlarÄ±":11208,"Ã§avuÅŁlarÄ±nÄ±n":11209,"Ã§avuÅŁlarÄ±ndan":11210,"Ã§avuÅŁlarÄ±na":11211,"Ã§avuÅŁunun":11212,"Ã§avuÅŁunda":11213,"Ã§avuÅŁunu":11214,"Ã§avuÅŁundan":11215,"akrobatÄ±":11216,"akrobatÄ±n":11217,"akrobatlarÄ±n":11218,"akrobatlarÄ±":11219,"akrobatlarÄ±nda":11220,"akrobatlarÄ±nÄ±n":11221,"akrobatlarÄ±ndan":11222,"akrobatÄ±nÄ±":11223,"akrobatÄ±ndan":11224,"strÃ¼ktÃ¼rÃ¼":11225,"strÃ¼ktÃ¼rÃ¼n":11226,"strÃ¼ktÃ¼rlerin":11227,"strÃ¼ktÃ¼rleri":11228,"strÃ¼ktÃ¼rlerinden":11229,"strÃ¼ktÃ¼rlerini":11230,"strÃ¼ktÃ¼rlerinde":11231,"strÃ¼ktÃ¼rlerinin":11232,"strÃ¼ktÃ¼rÃ¼ne":11233,"strÃ¼ktÃ¼rÃ¼nÃ¼":11234,"strÃ¼ktÃ¼rÃ¼nden":11235,"istirahatÄ±n":11236,"istirahatlarÄ±n":11237,"istirahatlarÄ±nda":11238,"istirahatlarÄ±nÄ±n":11239,"istirahatlarÄ±nÄ±":11240,"istirahatlarÄ±na":11241,"istirahatÄ±nÄ±n":11242,"istirahatÄ±ndan":11243,"istirahatÄ±na":11244,"evcikkÄ±ranÄ±":11245,"evcikkÄ±ranÄ±n":11246,"evcikkÄ±ranlarÄ±n":11247,"evcikkÄ±ranlarÄ±nda":11248,"evcikkÄ±ranlarÄ±nÄ±n":11249,"evcikkÄ±ranlarÄ±ndan":11250,"evcikkÄ±ranlarÄ±nÄ±":11251,"evcikkÄ±ranÄ±nÄ±n":11252,"evcikkÄ±ranÄ±nÄ±":11253,"evcikkÄ±ranÄ±nda":11254,"irkeyeli":11255,"irkeyelin":11256,"irkeyellerin":11257,"irkeyelleri":11258,"irkeyellerinden":11259,"irkeyellerine":11260,"irkeyellerinin":11261,"irkeyelinin":11262,"irkeyelini":11263,"irkeyelinde":11264,"boksundan":11265,"poleni":11266,"polenlerinden":11267,"polenlerini":11268,"polenlerine":11269,"poleninde":11270,"poleninden":11271,"yutaÄŁÄ±":11272,"Ã§akallarÄ±":11273,"eniÅŁtenin":11274,"sebebi":11275,"mezuniyetlerin":11276,"mezuniyetleri":11277,"mezuniyetlerini":11278,"mezuniyetlerine":11279,"mezuniyetlerinde":11280,"mezuniyetinin":11281,"mezuniyetinden":11282,"karnelerin":11283,"karneleri":11284,"karnelerinden":11285,"karnelerini":11286,"karnelerine":11287,"karnelerinde":11288,"karnelerinin":11289,"sÃ¼rgÃ¼nÃ¼":11290,"sÃ¼rgÃ¼nlerin":11291,"sÃ¼rgÃ¼nleri":11292,"sÃ¼rgÃ¼nlerinden":11293,"sÃ¼rgÃ¼nlerini":11294,"sÃ¼rgÃ¼nlerine":11295,"sÃ¼rgÃ¼nlerinin":11296,"sÃ¼rgÃ¼nÃ¼ne":11297,"sÃ¼rgÃ¼nÃ¼nÃ¼":11298,"sÃ¼rgÃ¼nÃ¼nden":11299,"dikdÃ¶rtgeni":11300,"dikdÃ¶rtgenin":11301,"dikdÃ¶rtgenlerin":11302,"dikdÃ¶rtgenlerinden":11303,"dikdÃ¶rtgenlerini":11304,"dikdÃ¶rtgenlerinde":11305,"dikdÃ¶rtgenlerinin":11306,"dikdÃ¶rtgeninin":11307,"dikdÃ¶rtgenini":11308,"dikdÃ¶rtgeninden":11309,"radarÄ±":11310,"radarlarÄ±n":11311,"radarlarÄ±":11312,"radarlarÄ±nda":11313,"radarlarÄ±nÄ±n":11314,"radarlarÄ±nÄ±":11315,"radarÄ±nÄ±n":11316,"radarÄ±nÄ±":11317,"radarÄ±ndan":11318,"radarÄ±na":11319,"karadulun":11320,"karadullarÄ±n":11321,"karadullarÄ±ndan":11322,"karadullarÄ±nÄ±":11323,"karadullarÄ±na":11324,"karadulunun":11325,"karadulunda":11326,"karaduluna":11327,"karadulunu":11328,"karadulundan":11329,"papirÃ¼sÃ¼nÃ¼":11330,"papirÃ¼sÃ¼ne":11331,"papirÃ¼sÃ¼nÃ¼n":11332,"papyonlarÄ±nÄ±n":11333,"papyonlarÄ±ndan":11334,"papyonlarÄ±nÄ±":11335,"papyonlarÄ±na":11336,"papyonunun":11337,"papyonunda":11338,"papyonuna":11339,"kravatÄ±":11340,"garsonu":11341,"garsonlarÄ±ndan":11342,"garsonlarÄ±na":11343,"garsonunda":11344,"garsonuna":11345,"garsonunu":11346,"ÅŁarkÄ±n":11347,"ÅŁarklarÄ±":11348,"ÅŁarklarÄ±nda":11349,"ÅŁarklarÄ±ndan":11350,"ÅŁarklarÄ±nÄ±":11351,"ÅŁarklarÄ±na":11352,"ÅŁarkÄ±nÄ±n":11353,"ÅŁarkÄ±nÄ±":11354,"ÅŁarkÄ±ndan":11355,"ÅŁarkÄ±na":11356,"ÅŁarkÄ±nda":11357,"cenazelerin":11358,"cenazelerinden":11359,"cenazelerini":11360,"cenazelerine":11361,"cenazelerinde":11362,"cenazelerinin":11363,"haÅŁefelerin":11364,"haÅŁefeleri":11365,"haÅŁefelerini":11366,"haÅŁefelerine":11367,"haÅŁefelerinde":11368,"haÅŁefelerinin":11369,"uÃ§urtmalarÄ±n":11370,"uÃ§urtmalarÄ±":11371,"uÃ§urtmalarÄ±nÄ±n":11372,"uÃ§urtmalarÄ±ndan":11373,"uÃ§urtmalarÄ±nÄ±":11374,"uÃ§urtmalarÄ±na":11375,"Ã§alÄ±ÅŁmalarÄ±n":11376,"Ã§alÄ±ÅŁmalarÄ±":11377,"Ã§alÄ±ÅŁmalarÄ±ndan":11378,"Ã§alÄ±ÅŁmalarÄ±nÄ±":11379,"planeti":11380,"planetin":11381,"planetlerinden":11382,"planetinin":11383,"planetini":11384,"planetinde":11385,"planetine":11386,"planetinden":11387,"marangozu":11388,"marangozlarÄ±":11389,"marangozlarÄ±nÄ±":11390,"marangozlarÄ±na":11391,"marangozunun":11392,"marangozunu":11393,"marangozundan":11394,"albatrosun":11395,"albatrosundan":11396,"albatrosuna":11397,"albatrosunda":11398,"albatrosunun":11399,"ambulansÄ±n":11400,"ambulansÄ±na":11401,"ambulansÄ±ndan":11402,"hissin":11403,"hislerin":11404,"hissinden":11405,"hisleri":11406,"hislerinden":11407,"hislerini":11408,"hislerinde":11409,"hissinin":11410,"hissini":11411,"koyun":11412,"koylarÄ±":11413,"koylarÄ±ndan":11414,"koylarÄ±nÄ±":11415,"koylarÄ±na":11416,"koyunda":11417,"koyuna":11418,"koyunu":11419,"Ã§amurun":11420,"Ã§amurlarÄ±nÄ±n":11421,"Ã§amurlarÄ±ndan":11422,"Ã§amurlarÄ±nÄ±":11423,"Ã§amurlarÄ±na":11424,"Ã§amurunun":11425,"Ã§amuruna":11426,"Ã§amurundan":11427,"Ã§algÄ±cÄ±mÄ±z":11428,"Ã§algÄ±cÄ±larÄ±nda":11429,"Ã§algÄ±cÄ±larÄ±ndan":11430,"Ã§algÄ±cÄ±mÄ±zÄ±":11431,"Ã§algÄ±cÄ±mÄ±zÄ±n":11432,"Ã§algÄ±cÄ±mÄ±zdan":11433,"Ã§algÄ±cÄ±mÄ±za":11434,"Ã§algÄ±cÄ±mÄ±zda":11435,"blogcularÄ±":11436,"blogcularÄ±nda":11437,"blogcularÄ±nÄ±n":11438,"blogcularÄ±ndan":11439,"blogcularÄ±nÄ±":11440,"blogcularÄ±na":11441,"dÃ¼ldÃ¼lÃ¼":11442,"dÃ¼ldÃ¼llerin":11443,"dÃ¼ldÃ¼lleri":11444,"dÃ¼ldÃ¼llerinde":11445,"dÃ¼ldÃ¼llerinin":11446,"dÃ¼ldÃ¼lÃ¼ne":11447,"dÃ¼ldÃ¼lÃ¼nÃ¼":11448,"dÃ¼ldÃ¼lÃ¼nde":11449,"dÃ¼ldÃ¼lÃ¼nden":11450,"hatÄ±rÄ±":11451,"hatÄ±rÄ±n":11452,"hatÄ±rlarÄ±n":11453,"hatÄ±rlarÄ±nda":11454,"hatÄ±rlarÄ±nÄ±n":11455,"hatÄ±rÄ±nÄ±":11456,"hatÄ±rÄ±ndan":11457,"hatÄ±rÄ±na":11458,"hatÄ±rÄ±nda":11459,"yangÄ±nlarÄ±n":11460,"yangÄ±nlarÄ±":11461,"yangÄ±nlarÄ±nda":11462,"yangÄ±nlarÄ±nÄ±n":11463,"yangÄ±nlarÄ±ndan":11464,"yangÄ±nlarÄ±nÄ±":11465,"parÃ§alanmalarÄ±n":11466,"parÃ§alanmalarÄ±":11467,"parÃ§alanmalarÄ±nÄ±n":11468,"parÃ§alanmalarÄ±ndan":11469,"parÃ§alanmalarÄ±nÄ±":11470,"parÃ§alanmalarÄ±na":11471,"teklifleri":11472,"tekliflerinden":11473,"tekliflerine":11474,"tekliflerinin":11475,"teklifinin":11476,"teklifini":11477,"teklifine":11478,"Ġiskeletin":11479,"Ġiskeletlerin":11480,"Ġiskeletleri":11481,"Ġiskeletlerinden":11482,"Ġiskeletlerinin":11483,"Ġiskeletinin":11484,"Ġiskeletini":11485,"Ġiskeletinde":11486,"Ġiskeletine":11487,"valizi":11488,"valizin":11489,"valizlerinden":11490,"valizlerini":11491,"valizlerinde":11492,"valizinin":11493,"valizine":11494,"valizinden":11495,"albÃ¼mÃ¼n":11496,"albÃ¼mleri":11497,"albÃ¼mlerinden":11498,"albÃ¼mlerini":11499,"albÃ¼mlerinin":11500,"albÃ¼mÃ¼ne":11501,"albÃ¼mÃ¼nÃ¼":11502,"albÃ¼mÃ¼nden":11503,"dublÃ¶rÃ¼":11504,"dublÃ¶rlerin":11505,"dublÃ¶rlerinden":11506,"dublÃ¶rlerine":11507,"dublÃ¶rlerinin":11508,"dublÃ¶rÃ¼ne":11509,"dublÃ¶rÃ¼nde":11510,"dublÃ¶rÃ¼nden":11511,"reaktÃ¶rÃ¼n":11512,"reaktÃ¶rleri":11513,"reaktÃ¶rlerini":11514,"reaktÃ¶rlerine":11515,"reaktÃ¶rÃ¼nÃ¼":11516,"reaktÃ¶rÃ¼nde":11517,"reaktÃ¶rÃ¼nden":11518,"iftitahÄ±":11519,"iftitahÄ±n":11520,"iftitahlarÄ±":11521,"iftitahlarÄ±nÄ±n":11522,"iftitahlarÄ±ndan":11523,"iftitahlarÄ±na":11524,"iftitahÄ±nÄ±":11525,"iftitahÄ±ndan":11526,"iftitahÄ±na":11527,"iftitahÄ±nda":11528,"fragmanÄ±":11529,"fragmanlarÄ±nda":11530,"fragmanlarÄ±nÄ±":11531,"fragmanlarÄ±na":11532,"fragmanÄ±ndan":11533,"fragmanÄ±na":11534,"fragmanÄ±nda":11535,"gondollarÄ±n":11536,"gondollarÄ±":11537,"gondollarÄ±nda":11538,"gondollarÄ±ndan":11539,
[...]
